#version: 0.2 - Trained by `huggingface/tokenizers`
Ġ Ð
Ð ¾
Ð °
Ð µ
Ð ¸
Ñ Ĥ
Ñ ģ
Ð ½
Ñ Ģ
Ð »
Ð¾ Ð
Ñ ĥ
Ð° Ð
Ñ ĭ
Ðµ Ð
Ñ ı
Ñ Į
ĠÐ ¿
Ġ Ñģ
Ð¸ Ð
ĠÐ ²
ĠÐ ½
Ñ ĩ
Ð º
Ð ²
ĠÐ ¾
Ñģ ÑĤ
Ð ´
Ñ ħ
ĠÐ ¸
Ð° Ð»
Ðµ Ð½
ĠÐ º
Ð¾Ð ²
Ð ¼
ÑĤ Ð¾
Ðµ ÑĢ
Ñ Ī
³ Ð¾
ĠÐ ±
Ðµ Ð»
Ð° Ð½
ĠÐ ¼
Ð ¿
ĠÐ¿ ÑĢ
Ð¾ Ð»
ĠÐ ´
Ð¸ Ð»
Ñ İ
Ð¾Ð ¼
Ð½ Ñĭ
Ġ ÑĤ
Ðµ ÑĤ
Ð° ÑĤ
Ð½ Ð¾
ĠÐ ·
Ñģ Ñı
ÑĢ Ð°Ð
Ġ Ñĩ
Ñ ī
Ð¸ ÑĤ
ĠÐ½ Ð°
Ð¾Ð ¹
ÐµÐ ¼
Ð ·
Ġ Ñĥ
Ð¾ ÑĢ
Ð¾Ð ´
Ð ±
Ð¾ Ñģ
Ð°Ð º
Ð° ÑĢ
Ñ Ĩ
Ð¾ Ð½
Ð ¶
Ð ³
ĠÐ½ Ðµ
Ð¸ Ð½
Ð°Ð ¼
ÐµÐ ´
ÑĢ Ñĥ
ĠÐ µ
Ð¾ ÑĤ
Ð¸Ð ¼
Ð° Ñģ
Ð¸Ð º
Ð» Ð¸
Ð¸Ð ²
Ðµ Ñģ
ĠÐ± Ñĭ
Ð¸ Ðµ
ĠÐ¾ ÑĤ
Ð¾Ð ³
Ġ Ñ
Ð°Ð ²
Ð½ Ñĥ
Ð¾Ð ±
ĠÐ »
Ð¾Ð ³Ð¾
Ð¾Ð º
ÐµÐ ¹
ĠÐ ³
Ð¸ Ñģ
Ð° Ñı
ÑĤÐ¾ ÑĢ
Ġ ÑĢ
Ð ¹
Ð°Ð ·
Ð¾Ð ¶
Ð¸ Ñı
ĠÑ į
ĠÐ¾ Ð½
Ð ³Ð¾
Ð°ÑĤ ÑĮ
Ð°Ð ´
Ð¸ Ñħ
ĠÑĩ ÑĤÐ¾
ÑģÑĤ Ð²
ĠÐ¿ Ð¾
ÐµÐ ²
ĠÐ¸ Ð·
ĠÐ² Ñĭ
Ð¾Ð ·
Ġ ÑĢÐ°Ð
Ð» Ñı
Â ł
Ð¸Ð ¹
ĠÐ¾ Ð±
ĠÐ ļ
ÐµÐ º
Ð¾ ÑģÑĤ
ÐµÐ ·
Ñģ Ðº
ĠÑģ ÑĤ
ĠÐ±Ñĭ Ð»
ĠÐ Ĵ
ĠÑģ Ð²
Ð¸ ÑĢ
ĠÐ ŀ
ĠÐµ Ð³Ð¾
Ð´ Ð°
Ð¸Ð ´
ĠÐ °
ĠÐ¿ Ð¾Ð´
Ð¸ÑĤ ÑĮ
ĠÐ ¶
Ð¸ Ñĩ
ĠÐ² Ñģ
Ð¸Ð ·
â Ģ
Ð¾Ð» ÑĮ
ĠÐ ¡
ĠÑĢÐ°Ð ·
Ð½Ñĭ Ðµ
ĠÑģ Ð»
ÐµÐ» ÑĮ
ÐµÐ ¿
ĠÐº Ð¾
Ð°Ð» Ð¸
ÐµÐ ³Ð¾
ĠÐº Ð°Ðº
Ð° Ñİ
Ð°Ð ¿
Ð½Ñĭ Ð¼
Ðµ ÑģÑĤ
Ð¸Ñģ ÑĮ
Ġ Ñı
ĠÐ Ł
ĠÐ· Ð°
Ð½Ñĥ Ð»
Ð½ Ð¾Ð¹
Ð» ÑĮ
ÑĢ Ñĭ
Ð°Ð¼ Ð¸
Ð¾Ð ¿
ÐµÐ ±
ĠÐ Ŀ
Ð½Ñĭ Ð¹
Ðµ Ñĩ
ĠÑģ Ðº
ĠÐ ³Ð¾
ÑĤ ÑĮ
Ð½Ñĭ Ñħ
Ðº Ð¾
Ð°Ð ¶
Ġ ÑĤÐ¾
ĠÐ ¢
Ð° Ñħ
Ð½ Ð¾Ð³Ð¾
Ðº Ð¸
Ñ Ħ
ĠÐ¿ ÐµÑĢ
Ġ Ñħ
ĠÐ ĺ
Ð°Ð» ÑĮ
ĠÐ ľ
Ġ ÑĪ
Ð¸ Ð¸
Ñĥ Ð¼
Ð½ Ð°
Ñĥ ÑĤ
Ð» ÐµÐ½
Ñĥ Ð´
Ð½ Ð¸Ðº
Ð°Ð ³
ĠÐ½ Ð¾
ÑģÑĤ ÑĢ
ĠÐ Ĳ
ÐµÐ ¶
ÐµÐ ³
Ñĭ Ðµ
ĠÑį ÑĤÐ¾
Ñī Ðµ
Ð½Ð¾ ÑģÑĤ
ĠÐº ÑĢ
ĠÐºÐ¾ ÑĤÐ¾ÑĢ
Ñ ĳ
ĠÑĤ Ð°Ðº
Ð¸ ÑĨ
ÐµÑģ Ðº
Ð¾Ð³ Ð´Ð°
ĠÑģÐ² Ð¾
Ð» Ð°
ĠÑį ÑĤ
Ðµ Ñħ
Ñĥ Ñİ
ĠÐ¿ Ð¾Ð»
ĠÑģ Ð¿
ÐµÐ½ Ð¸Ñı
Ð¿ ÐµÑĢ
Ñĭ Ð¹
ĠÐ Ķ
ĠÐŀ Ð½
ÑĢ Ð°
Ð°Ð» ÑģÑı
ÐµÐ½ Ð¸Ðµ
Ð°Ð» Ð°
Ð¸Ð ³
Ðµ ÑĪ
Ñĭ Ð¼
Ð¾Ñģ ÑĮ
ĠÐ¾ Ð´
Ñĭ Ñħ
ĠÐ¿ Ð»
Ñĥ Ñĩ
Ñĥ Ñģ
ĠÐ¿ÑĢ Ð¾
Ñĭ Ð²
ĠÐ¿ Ð¾Ñģ
Ð ŀ
Ñģ ÑĮ
Ð°Ð ±
ÑĢÑĥ Ð³
ĠÐ¸ Ñħ
ĠÐ¾ ÑģÑĤ
Ð Ĵ
Ð°Ñģ ÑĮ
Ð Ŀ
ĠÐ ĵ
ĠÑģ Ð¼
ĠÐ±ÑĭÐ» Ð¾
Ñħ Ð¾Ð´
Ð¾ Ñĩ
Ñĥ Ð¶
Ñı ÑĤ
ĠÐ² Ð¾
Ð¸Ð» ÑģÑı
Ð² ÐµÑĢ
Ð¸Ð ±
ĠÐ± ÑĢ
Ð¾Ð± Ñĭ
ĠÑĢ Ð°Ñģ
ÑĢ Ð°Ð½
Ð½ Ðµ
Ġ ÑĢÑĥ
Ð¸Ð» Ð¸
Ðº Ñĥ
âĢ Ķ
Ð Ł
Ð°Ð ¹
Ð°Ð½ ÑĤ
Ð¸ ÑģÑĤ
ĠÐ² Ð·
Ð°Ð· Ð°Ð»
Ðº Ð°
Ð½ Ð¾Ð²
Ð° ÐµÑĤ
Â »
Â «
ĠÐ²Ñģ Ðµ
ĠÐ¿ Ð¾Ðº
Ð° ÑģÑĤ
Ð½ Ñı
ĠÐ ĳ
Ð°Ñİ Ñī
Ð¾Ð¼ Ñĥ
ĠÐ³ Ð»
ĠÐ Ľ
ĠÐ¿ÑĢ ÐµÐ´
ĠÐ ł
ÑĢÐ°Ð ²
ÑĪ Ðµ
Ð ļ
ĠÐ² Ð¾Ð·
Ð¸ÑĤ ÐµÐ»ÑĮ
Ñģ Ð¿
Ð´ Ñĥ
ĠÑĩ ÑĤ
Ð½Ð¾ Ðµ
Ð¾ Ðµ
ĠÐ³Ð¾ Ð»
ĠÑ Ħ
ÐµÐ» Ð¸
Ð¸ÑĢ Ð¾Ð²
Ð¸ ÑĪ
ĠÐ¸ Ð¼
Ð ¡
Ġ ÑĨ
ĠÑĩÑĤ Ð¾Ð±Ñĭ
ÑĢ Ñı
ĠÐ¾Ð½ Ð¸
ÑĢ ÐµÐ¼
ÑĢÐ°Ð ¶
ÐµÐ½ Ð¸
ĠÐ´ Ð²
Ñĥ Ð¿
Ð°Ð» Ð¸ÑģÑĮ
ÑĤ Ð¸
ĠÐ¼ Ð¾Ð³
Ð² ÐµÑĤ
Ñĥ Ð±
ĠÐ¼ Ñĭ
Ñĥ Ð»
Ð ¢
Ġ Â«
ĠÐ¿ Ð¾Ð²
Ñ į
ĠÐ Ń
Ð¸Ñĩ ÐµÑģÐº
ÑĮ Ñİ
ĠÑģ Ð°Ð¼
Ð¸Ð¼ Ð¸
Ñĥ ÑĢ
Ð¸ Ð¾Ð½
ÐµÑĢ Ð¶
Ð½ Ð°Ñı
ĠÑĥ Ð´
ĠÑĥ Ð¶
ĠÐ±Ñĭ Ð»Ð¸
Ð» Ñİ
ĠÐº Ð¾Ð³Ð´Ð°
Ð°ÑĤÑĮ ÑģÑı
ÐµÐ½ ÑĤ
Ð´ ÐµÐ»
ĠÐ ¥
Ð» Ð¾
ĠÑģ Ð¸Ð»
ÑĢ Ð¾Ñģ
Ð´ Ðµ
ĠÐ¾ Ðº
ÑĢÐ°Ð ±
Ñĥ ÑģÑĤ
ĠÑģ ÑĤÐ¾
ĠÐ¶ Ðµ
Ð¸Ð ¶
ĠÐ¿ Ð¾ÑĤ
Ñģ Ð»Ð¸
ĠÑĤ ÑĢ
Ð° ÑĪ
ĠÐĺ Ð¼
Ð½ÑĭÐ¼ Ð¸
ĠÑĤ Ñĭ
Ð½Ñĥ Ñİ
ĠÐ½ Ð°Ð¿
Ð» ÐµÐ´
ĠÐ´ ÑĢÑĥÐ³
Ð ľ
ĠÑģ Ð¾
Ð¾ Ñı
ĠÐ ¯
Ð¸Ð» Ð°
ÑĢ Ð¾Ð²
ĠÐ² Ð¸Ð´
Ð¾Ð» Ð¶
âĢ ¦
ĠÐ´ Ð»Ñı
ĠÐ± ÑĥÐ´
Ñĥ ÑĪ
Ð½ Ð¸
ĠÐ ķ
ĠÐ¾ Ð³
ÑĢ Ð¾Ð¼
ÐµÐ¼ Ñĥ
ÑĢ Ð°ÑĤ
ĠÑģÐ» Ð¾Ð²
ĠÑĩ ÐµÑĢ
Ð¼ Ñĥ
Ð°Ð» Ð¾
ĠÐĺÐ¼ Ð¿ÐµÑĢ
ĠÐ¾ Ñģ
ĠÑģ Ð¾Ð±
ĠÐ¾ Ð¿
ÑĢÐ°Ð ·
Ñĭ ÑĪ
ĠÐ¼ ÐµÐ½
Ð¼ Ð¸
Ð¸Ð» Ð¸ÑģÑĮ
ÑĢ ÐµÐ´
ÑĢÑĥ Ð¶
Ð°Ð² ÑĪ
ĠÐ½ Ð°Ð´
ĠÐº Ð¾Ð½
ĠÐ± Ð¾Ð»ÑĮ
ĠÐµ ÑīÐµ
Ðµ Ðµ
ĠÐ± Ð¾Ð»
Ð¾ ÑĪ
ĠÐ² ÑĢÐµÐ¼
Ð Ķ
ĠÐ» Ñİ
Ñĭ ÑĤ
ĠÐ· Ð½
ĠÐ± ÐµÐ·
ĠÐº Ð¾Ð¼
ÑģÑĤÐ² ÐµÐ½
Ð°Ð½ Ð¸Ñı
ĠÐ Ĺ
Ð° ÑĤÐ¾ÑĢ
ĠÐ² ÐµÑĢ
Ġ Ċ
Ð¾Ð»ÑĮ ÐºÐ¾
Ð³ Ð»Ñı
Ð¾Ð² Ð¾ÑĢ
Ð½Ð¾ÑģÑĤ Ð¸
Ðº Ð¾Ð²
ÐµÐ» Ð¾Ð²
ĠÐ £
Ð°Ð½ Ð´
Ð ĺ
Ð ¯
Ðµ ÑĨ
ÑĢÑĭ Ð²
ÑģÑĤÐ² Ð¾
Ñı Ð»
Ð½ Ð¾Ð¼
ĠÐ½Ð° Ñģ
Ð¸Ð ¿
Ð°Ð½ Ð¸Ðµ
Ð Ĳ
ĠÐ´ Ð¾
ÐµÐ± Ñı
Ð½ÑĥÐ» ÑģÑı
ÐµÑģ ÑĮ
Ð»ÑĮ ÐºÐ¾
Ñĥ Ð½
ÑĢ Ð¸
ĠÑĥÐ¶ Ðµ
ĠÐ± Ð»
ÐµÐ½ ÑĮ
ĠÑĩ ÐµÐ¼
Ð» Ðµ
Ñĥ Ñī
ĠÐ¿ Ð¾Ð½
Ð¸ Ð½Ñĭ
Ð¸Ð· Ð½
Ñı Ð´
Ñĥ Ð²
ÐµÑĢ ÑĤ
ĠÑĤÐ¾ Ð»ÑĮÐºÐ¾
ĠÐ¿ Ð¾Ð¼
ÐµÐ½ Ð½Ð¾
ÐµÐ» Ð°
Ð¸Ð² ÑĪ
ÑģÑĤ Ð°Ð²
ĠÐ· Ð°Ð¼
Ð¾ Ñħ
Ð°Ñİ ÑĤ
ÑĢÐ°Ð ¼
ĠÐ³Ð» Ð°Ð·
ĠÐ¿Ð¾ Ñĩ
ĠÐ¸ Ð½
Ð½Ð¾ÑģÑĤ ÑĮ
ĠÐ¿ Ð¾Ð·
ĠÐ³Ð¾Ð» Ð¾Ð²
ĠÐ¾ÑĤ Ð²ÐµÑĤ
Ð¸Ð½ Ð°
Ð°Ð¶ Ðµ
ĠÐ¾Ð½ Ð°
ĠÐ¼ Ð¾Ð¶
Ñı ÑĤÑĮ
ÑĤ Ð¾Ð²
ĠÐ¼ Ð¾
Ð°Ð½ Ð¾Ð²
ĠÐ±ÑĭÐ» Ð°
ĠÐ· Ð°Ðº
ĠÐ³Ð¾ ÑĢ
Ð° Ñĩ
ĠÐºÐ¾ ÑĢÐ°Ð±
Ñı Ñī
ĠÐ· Ð°Ð¿
ĠÐµ Ðµ
ĠÐ¼ÐµÐ½ Ñı
Ð¸ÑĤÑĮ ÑģÑı
ĠÐ½Ð° Ñĩ
ĠÐ¿ÑĢ Ð¾ÑĤ
Ð ĵ
Ð°Ð¶ Ð´
ĠÑģ ÐµÑĢ
ĠÐ¾ ÑĢ
Ð°Ð½ Ð°
Ð¸ÑĪ ÑĮ
Ðº Ð¾Ð¼
ĠÐ¾ÑĤ Ðº
Ð½ Ð¸Ð¼
ÑģÑĤÐ² Ð¾Ð²
ĠÑĥ Ð±
ĠÐºÑĢ Ð¾Ð²
Ð½Ñĥ ÑĤ
Ð¸ Ñİ
Ðµ Ñī
ĠÑĥ Ð²
ĠÐ¸ Ð»Ð¸
ÑģÑĤÐ² Ð°
ÑĢÑĥ Ð´
ĠÐ½ ÐµÐ³Ð¾
Ðº Ðµ
Ð° ÑĨ
ĠÐ» Ð¸ÑĨ
ĠÐ §
Ð¼ Ð¾ÑĤ
Ð°Ñı ÑģÑĮ
ĠÐµ Ð¼Ñĥ
ÐµÑĤ ÑĮ
ĠÐ¿ÐµÑĢ ÐµÐ´
ĠÑģÐº Ð°Ð·Ð°Ð»
Ð½ Ð°ÑĢ
Ð°Ð» Ð¾ÑģÑĮ
Ð½Ð° Ñĩ
ÐµÐ» Ñı
ÑĤ ÐµÑĢ
Ð°ÑĤ ÐµÐ»ÑĮ
ĠÐº Ð¾Ð»
ÐµÑĪ ÑĮ
ĠÐ¼ ÐµÑģÑĤ
ĠÐ¿ÑĢ Ð¾ÑģÑĤ
ĠÑĤ ÐµÐ¼
ÐµÐ½ Ð°
ÐµÑĤ ÑģÑı
Ñģ Ð»
ĠÐº Ð°Ð¿
ÐµÐ½ Ñĭ
ÐµÐ³ Ð¸Ð¾Ð½
ĠÐ½Ð° ÑĪ
ÑģÑĤ ÑĥÐ¿
ÐµÐ» Ð¾
ĠÐ¿ÑĢ Ð¸Ðº
Ð¸Ð½ Ñĥ
ĠÑħ Ð¾ÑĤ
ÑĤ Ð°
Ð² Ð°ÑĤ
Ġ -
ĠÐ¿ Ð¾Ð¿
ÑĢ Ð¾
ĠÐ½ Ð¸Ñħ
ÐµÐ± Ðµ
ĠÐ¸ ÑģÐ¿
Ð¾Ñģ Ð¿
ĠÐ½ Ð¸Ðº
ĠÐ± Ð¾
ÐµÑģ Ð°Ð½ÑĤ
Ð¾Ð» Ð½
Ð»Ð¸ ÑģÑĮ
ĠÐ´ Ð¾ÑģÑĤ
ĠÐ ¤
Ð ł
Ð¼ Ð¾Ð¶
ÐµÑĢ ÑĮ
ĠÑĩ ÐµÐ»Ð¾Ð²
ĠÐ· Ð´
ĠÐĿ Ð¾
Ðº Ð¾Ð¹
ĠÐ´ Ð°Ð¶Ðµ
ĠÑĥÐ´ Ð°ÑĢ
Ñı Ð²
ĠÐ´ Ð¾Ð»Ð¶
Ð¾ÑģÑĤ Ð¸
ĠÑģ ÑĤÐ¾ÑĢ
Ð¸ Ñī
Ð² Ð°ÑĢ
ĠÐ¼ Ð½Ðµ
ĠÐ¾ Ñĩ
ĠÑĤ Ð¾Ð³Ð¾
ĠÐº Ð¾ÑĢ
ÑĢÐ°Ð ³
ĠÐ¼ ÐµÑĤ
Ð°Ð» Ð°ÑģÑĮ
ĠÐ¿ Ð¾ÑĢ
ÑĢÐ°Ð º
Ð¸Ð» Ð°ÑģÑĮ
Ð» Ð¸Ð½
Ð Ń
ĠÐ¿Ð¾Ñģ Ð»ÐµÐ´
ĠÑģÐ»Ð¾Ð² Ð½Ð¾
ÑĭÐ¼ Ð¸
ĠÐ²Ð· Ð³Ð»Ñı
ĠÐ· Ð²
Ñģ Ð°
Ðŀ Ð½
ĠÐ²ÑĢÐµÐ¼ Ñı
ĠÐŃ ÑĤÐ¾
Ñı Ð·
Ð» Ð°Ð´
ĠÐºÐ¾ÑĤÐ¾ÑĢ ÑĭÐµ
Ð¾Ñģ Ð¼
Ð¾Ð¶ Ðµ
Ñĥ ÑīÐµ
ĠÑĥ Ðº
Ñģ Ðµ
Ð ķ
ĠÑĩ Ð°ÑģÑĤ
ĠÐ² Ð¾Ðº
ĠÐ¿ÑĢ Ð¾Ð´
ĠÐµ ÑģÐ»Ð¸
ĠÐ½ Ð°Ð·
ÐµÐ½ Ð½ÑĭÐµ
Ñı Ð¶
Ð ĳ
ĠÐ· Ð°ÑĤ
ÑĢ Ð¾Ð½
Ñĩ Ð½Ð¾
Ð¸Ð» Ð¾
ĠÐ½ Ð¸
ĠÐ½Ðµ ÑģÐº
Ñĥ Ñħ
Ð Ľ
ĠÐ½ ÐµÐ¿
ÐµÐ¿ ÐµÑĢÑĮ
ÐµÐ½ Ð½ÑĭÐ¹
Ð¸Ð» Ð¾ÑģÑĮ
Ð½ ÐµÐ¹
ĠÐ¿Ð» Ð°Ð½
ĠÐŁ ÑĢ
ÑĨ Ð°
ĠÐ¿Ð¾Ð² ÐµÑĢ
Ð» Ñĭ
Ð°ÑĢ Ñħ
Ð¸ÑĤ Ð°Ð½
ĠÐŀÐ½ Ð¸
ĠÑģÐ» ÐµÐ´
ĠÐ¾Ð´ Ð¸Ð½
ĠÐ²Ñĭ Ñģ
Ð² Ð¾Ð»
ÑĢ ÐµÐ»
Ñĥ Ð»ÑĮ
ĠÐ¿ÑĢÐ¾ÑĤ Ð¸Ð²
ĠÑįÑĤ Ð¾Ð³Ð¾
ĠÐ· Ð°Ð´
ĠÑģ ÐµÐ±Ñı
Ð°ÑĢ ÑĤ
ĠÐ¾ ÑĢÑĥÐ¶
ĠÐ¿ÑĢ Ð°Ð²
ĠÑģ Ð´ÐµÐ»
ĠÑĥÐ² Ð¸Ð´
ÑģÑĤÑĢ Ð¾
ĠÐ° ÑĢ
ĠÐ³Ð¾Ð» Ð¾Ñģ
ĠÐĺÐ¼Ð¿ÐµÑĢ Ð°ÑĤÐ¾ÑĢ
ĠÐ¿ Ð¾Ð³
Ð¾Ð»ÑĮ Ð·
ÐµÑģÐ°Ð½ÑĤ Ð½Ð¸Ðº
ĠÐ±ÑĢ Ð¾Ð½
Ð¾Ð² ÐµÑĢ
ĠÐ»Ñİ Ð´
ÑĢÑĥ ÑĪ
ĠÐ» Ð¸ÑĪÑĮ
Ñĥ ÑģÐº
ÑĢÑĭ ÑĤ
Ð°ÐµÑĤ ÑģÑı
ĠÑģÐ² ÐµÑĤ
ĠÑĥ Ð¼
ĠÐ³ Ð¾Ð²Ð¾ÑĢ
ĠÐ¿ÑĢ Ð¸Ð½
ĠÑĥ Ð¿
Ð» Ð¾Ð²
ĠÐ¿ÑĢ Ð¸Ð¼
Ð» Ð¾Ð½
Ðº Ð²
Ð Ĺ
ÑĢÐ° Ñī
ĠÐ± ÐµÑģ
ĠÑĢÐ°Ñģ Ð¿
Ñİ Ñī
Ð¸ ÐµÐ¼
ÑĢÐ°Ð ´
Ð° ÑĤÐ¾
ĠÐºÐ¾ÑĤÐ¾ÑĢ ÑĭÐ¹
ĠÐ¾ÑģÑĤ Ð°Ð²
ĠÑĤ ÐµÑħ
Ð½Ñĥ ÑĤÑĮ
Ð¾ÑģÑĤ ÑĮ
Ð¾ÑĢ Ð¼
Ñ Ĭ
ĠÐº Ð°Ð¶Ð´
ĠÐ½ Ð°Ð¼
ÑĢÐ¾Ñģ Ð¸Ð»
ĠÐµ Ð´
ÑĢÑĥ Ð¿
Ð»Ð¸ Ñĩ
Ðµ ÑģÑı
ĠÐ½ Ð¸Ð¼
ĠÐ±Ð¾Ð»ÑĮ ÑĪÐµ
Ð §
ĠÑĢÐ°Ð ±
ĠÑĩÐµÑĢ ÐµÐ·
Ð» Ð¸Ð²
Ðº Ð°Ð¼Ð¸
ĠÐ² Ð¾Ð¹
ĠÐ² Ð½
Ð¾Ð½ Ð°
ĠÐ¸ ÑģÐº
Ġ t
ĠÐº ÑĤÐ¾
ĠÐ³ Ð´Ðµ
Âł Âł
Ð° ÐµÐ¼
ÐµÐ½Ð¸ ÐµÐ¼
Ð¸ÑĢÐ¾Ð² Ð°Ð½
ĠÐ¿ÑĢ Ð¾Ð±
Ð» ÐµÐ¼
ÐµÐ½ Ð½ÑĭÑħ
ĠÐĲ ÑĢ
ĠÐ¿ÑĢ Ð¸Ð±
ĠÐ¿ÐµÑĢ Ð²
ĠÐ¿Ð¾Ð´ Ð½Ñı
ĠÐ½ ÐµÐ¼
ĠÐ¼ Ð¸ÑĢ
Ð¾Ð¶ Ð´
ÑĤ Ð°Ðº
ĠÐºÐ¾Ð¼ Ð°Ð½Ð´
Ð½Ñĥ Ð²
ĠÑĢ Ð°Ð½
ÑģÑĤ ÑĮ
ĠÐ² Ð¾Ð»
ĠÐ½ Ð¾Ð³
Ð¾ Ñī
ĠÐ±ÑĥÐ´ ÐµÑĤ
ÐµÐ» ÐµÐ¹
ĠÐ·Ð´ ÐµÑģÑĮ
ÑĢ Ð°Ñģ
ĠÑĩ ÑĥÐ²
ÑĤ Ðµ
ĠÑģÑĤ Ð°ÑĢ
ĠÐ±Ñĭ ÑĤÑĮ
Ð £
Ð½Ð¾Ð² Ð°
Ð¸ÑĤ ÑģÑı
ĠÐ´ ÐµÐ»
Ð»Ñİ Ñĩ
ÐµÑĤ Ñĭ
ÑĥÑİ Ñī
ĠÐ· Ð°Ð²
ĠÐ±Ð¾ ÐµÐ²
Ð¸ÑĤ Ðµ
ĠÐ¿Ð¾Ðº Ð°
Ð² Ð°
Ð³ ÑĢ
ĠÐ²Ð¾ Ð¸Ð½
Ð» Ð¾ÑĤ
Ð¾Ð¼ Ð½
ÑĤ Ñĥ
ĠÑģ ÐµÐº
Ñı Ð¼
Ð¾ÑĢ Ð²
Ð½ Ð¾Ð¼Ñĥ
ĠÐ½ ÐµÐ²
Ð» ÐµÑĤ
Ð¸ ÑĤÐ¾ÑĢ
ĠÐ²Ñĭ Ð¿
ĠÐ¿ÑĢ Ð¸Ð²
ĠÐ· Ð°Ð±
ÑĨ Ñĭ
ĠÐ½ÐµÑģÐº Ð¾Ð»ÑĮÐºÐ¾
ĠÐ½ Ð¸Ñĩ
Ð¸ÑĤÐµÐ»ÑĮ Ð½Ð¾
ÐµÐ½ Ð¸Ð¸
Ñĥ Ð³
ĠÑģ Ð½Ð¾Ð²Ð°
ĠÐ» Ð¸
ÐµÐº Ð¾
ĠÐ² ÑĢÐ°Ð³
Ñħ Ð²Ð°ÑĤ
ĠÑģÑĤÐ¾ÑĢ Ð¾Ð½
Ð½ Ð³
ĠÐ¿ÑĢ Ð¸
ĠÐº Ð°Ð¼
ĠÐ±Ð¾Ð» ÐµÐµ
ĠÑģÑĤ ÑĢ
ÑģÑĤ Ð¾Ñı
Ð¾ Ð½Ñĭ
h e
ĠÐ½ Ð°Ð²
ÐµÑĢ Ð°
ĠÐ¿ Ð¾Ð±
ÐµÐ» Ð¸Ðº
Ñĥ Ðº
ĠÐĿ Ð°
Ð¾ÑĢ Ð´
ĠÐ¼ Ð¾Ð»
ĠÐ² Ð¿ÐµÑĢ
ĠÑįÑĤ Ð¾Ð¼
ĠÑģ ÑĢÐ°Ð¶
Â» .
Ð´Ñĥ Ñħ
ĠÐ²Ð·Ð³Ð»Ñı Ð´
Ñĩ Ð°Ñģ
ĠÐ¿ÑĢ Ð¸Ñģ
ĠÑĩÐµÐ»Ð¾Ð² ÐµÐº
Â» ,
ĠÐķ Ð³Ð¾
ĠÐ¾ÑĤÐ²ÐµÑĤ Ð¸Ð»
ÑĢ ÐµÐ²
Ð½ Ð¸Ñĩ
Ñī Ð¸ÑĤ
ÐµÐ½ Ð¸Ð¹
ĠÐ½ Ð¾Ð²
ĠÑįÑĤÐ¾ ÑĤ
i n
ĠÐ±Ð¾Ð»ÑĮ ÑĪ
ĠÐ±ÑĢ Ð°ÑĤ
ĠÑģ Ð¾Ð·
Ð½Ð¸Ðº Ð°
ĠÐ¿ÑĢÐ¾Ð´ Ð¾Ð»Ð¶
ĠÐ¿ÑĢÐ¾ ÑĪ
ĠÐ ĸ
ĠÐ¸ ÑģÑĤ
Ñİ ÑĤ
ĠÐ³Ð»Ð°Ð· Ð°
ĠÑı ÑĢ
ĠÐ¼ Ð°ÑĪ
Ð¸ ÑĥÐ¼
Ð¼ ÐµÑģÑĤ
ĠÐ´ Ð¾Ð»
ÑĢ Ðµ
ĠÐ¾Ð³ ÑĢÐ¾Ð¼
ĠÐ¶ ÐµÐ»
ĠÐ² Ð½ÑĥÑĤ
ĠÐ»Ñİ Ð±
Ð»Ð¸ ÑĪ
ĠÐº Ð¾ÑģÐ¼
ĠÑĢ ÐµÑĪ
ÐµÐ½ Ð½Ð¾Ð¹
Ñĩ Ð¸ÑĤ
Ñĥ Ð´Ð°
ÐµÑĢ Ð³
ÐµÑĢÑĤ Ð²
ÐµÐ¹ ÑĩÐ°Ñģ
ĠÐ¿Ð¾Ð´ Ð¾Ð±
ĠÐľ Ñĭ
Ð½Ð¾ÑģÑĤ ÑĮÑİ
Ð°ÑĢ Ð¿
ĠÐ¼Ð¾Ð¶ ÐµÑĤ
Ð¼Ð¾Ð¶ Ð½Ð¾
ĠÐ¼ Ð½
ĠÐ¿ÑĢÐ¾ÑģÑĤ Ð¾
Ð¸Ðº Ð¸
ĠÐ¼ ÐµÑĩ
Ð¿ ÑĢ
Ð°Ðº ÑĤ
ĠÐ² Ð¾Ð¿
Ġ a
Ð°ÑĢ Ð°
ĠÐ²Ð¾Ð· Ð´ÑĥÑħ
ĠÑģÐ¼ ÐµÑĢ
ÑĨ Ðµ
ĠÐ²Ñģ Ð¿
ĠÑĤ ÑıÐ¶
ĠÐ» ÑĥÑĩ
ÐŃ ÑĤÐ¾
Ð¸Ðº Ð°
ÐµÑĢ Ð²
Ð¾ÑģÐ¿ ÐµÑħ
Ð»Ð¸ÑĪ ÐºÐ¾Ð¼
ĠÐ½ Ð°Ðº
Ð ¥
ĠÐº Ð¸Ð²
ĠÑģ ÑĥÑīÐµ
ĠÐ½ ÐµÐ±
ĠÐ½ ÐµÐ´
ĠÐ¿ ÑĭÑĤ
Ð½Ð¾ Ñģ
ĠÑĤ ÐµÐ±Ñı
ĠÑĤ ÐµÐ¿ÐµÑĢÑĮ
Ð» ÐµÐº
ÐµÑģÑĤ Ð¸
Ð»ÐµÐ½ Ð¸Ñı
ĠÐ²Ñģ ÐµÑħ
ĠÐ½ ÐµÑĤ
Ð½Ðµ Ðµ
âĢ ĵ
ĠÐ¶ Ð¸Ð²
ÑĢ ÐµÐ½
Ð°Ð ³Ð¾
Ð¾Ð´ Ð°
ĠÑĤ Ð²
Ð½ Ð¸Ðµ
Ð¶ Ðµ
Ð¼ ÐµÐ½
Ð» Ð¾Ð¼
ĠÑĢ ÑıÐ´
ĠÑĢ ÐµÐ·
ĠÐ» ÐµÐ³Ð¸Ð¾Ð½
Ð¸Ð·Ð½ ÐµÑģ
ĠÐ¾ÑĤ Ð²
Ñĭ Ñĩ
Ð¸Ð» ÑĮ
ĠÐ½Ð°Ð¿ ÑĢÐ°Ð²
ĠÐ´Ð² Ð¸Ð³
ĠÐ¿ ÑĥÑģÑĤ
ĠÐ´ Ð¾ÑģÐ¿ÐµÑħ
ÐµÐ¹ ÑģÑĤÐ²
ĠÑĥ Ð·
Ð¸Ñħ ÑģÑı
ĠÐ·Ð°Ð¼ ÐµÑĤ
ÑģÑĤÐ²Ð¾Ð² Ð°Ð»
ĠÐ¿ÑĢ ÐµÐ²
ĠÐ ¨
ĠÐ½ Ð°Ð±
ĠÐ· ÐµÐ¼
ĠÐĺÐ¼Ð¿ÐµÑĢÐ°ÑĤÐ¾ÑĢ Ð°
ĠÐ½ ÑĥÐ¶
ĠÐĴ Ð¾
ĠÑĢÐ°Ñģ Ñģ
ĠÐ½Ð° ÑħÐ¾Ð´
ĠÐ¸ Ñģ
Ð´ Ñĭ
ÑĮ Ñı
ĠÐ´ Ð¾Ð±
ĠÑģÑĤ ÐµÐ½
ĠÐ¿Ð¾Ñģ Ð»Ðµ
ĠÑģÐ²Ð¾ Ð¸Ñħ
ĠÐ²Ð¾Ðº ÑĢÑĥÐ³
ĠÑĥ Ñģ
Ð½ÑĥÐ» Ð°
ĠÐ¼ ÐµÑĢ
ĠÑģ Ð»Ð¸ÑĪÐºÐ¾Ð¼
ÐŁ ÑĢ
ĠÐ¼ ÐµÐ´
Ð» Ð°Ð½
ĠÑģÐ» ÑĥÑĩ
ÐµÐ¼ Ð¾Ð½
ĠÐ¿ÑĢ Ð¾Ð²
ĠÐ¢ Ñĭ
ĠÐ±ÑĢ Ð¾Ñģ
ĠÐ¼ÐµÑĤ Ð°Ð»
ĠÐ¼ Ð°Ñģ
ÑĤ Ð¾Ð¶
ĠÐĿ Ðµ
ĠÑĤÐ¾ ÑĤ
ÑĨ ÐµÐ²
ĠÐ³ ÑĢ
Ð³Ð¾ Ð½
ĠÑģ ÐµÐ±Ðµ
Ð°Ð·Ð°Ð» Ð¾ÑģÑĮ
ĠÐ¿Ð¾Ñĩ ÑĤÐ¸
ĠÐ¿ÑĢ Ð¸ÑĪ
Ð¸Ð½ Ðµ
Ð¼ Ñĭ
ĠÐ· Ð°Ð»
ĠÐ½Ð¸Ñĩ ÐµÐ³Ð¾
ÐºÐ² Ð¸Ð·
Ð½ ÐµÐ²
ĠÑĪ Ð°Ð³
ÑĥÑģ Ð°
Ð¸Ð² Ð°Ñı
Ð¾Ñģ Ð°
ĠÑį Ðº
ĠÐ» ÐµÑĤ
Ð¾Ñģ Ð¾Ð±
ÑĢÐ° ÑĪ
Ð¾ÑĢ Ð°
Ðº Ð°Ñħ
Ð¸ ÑĢÑĥ
ĠÐ´ ÑĥÐ¼
ÑģÑĤÑĢ ÐµÐ»
Ð¾Ð» ÐµÑĤ
Ð½Ð¸Ðº Ð¾Ð²
ĠÐ¿Ð» ÐµÑĩ
ĠÐ¾ Ñī
Ð¾ÑĢ ÑĤ
ĠÐ° ÑĤÐ°Ðº
ĠÐ¸Ð· Ð²
Ð´ ÐµÑĢÐ¶
ĠÐ²Ñĭ Ð±
ĠÑģÐ¿ ÑĢÐ¾ÑģÐ¸Ð»
Ð´ Ð°ÑĤ
ĠÑĤ Ð¾Ð¼
ĠÑģÐº Ð¾ÑĢ
ĠÐ½Ðµ Ñģ
Ð½Ð¸Ñĩ ÑĤÐ¾Ð¶
ÑģÑı Ñĩ
Ð»ÐµÐ½ Ð½Ð¾
ĠÐ¿Ð¾ Ñħ
Ð» Ð°Ñģ
Ð² Ð¾Ð·
ĠÑģÐ» ÑĭÑĪ
Ð¾Ð² Ð°Ð½
ÐµÐ¶ Ð´Ñĥ
ĠÑĢÐ°Ð· Ð²
ĠÐ´ Ð²ÐµÑĢ
Ð¢ Ñĭ
Ð¸Ðµ ÑģÑı
ÑĥÐ´ ÑĮ
ĠÑĢÐ°Ð± Ð¾ÑĤ
ĠÐ¿ Ð°ÑĢ
ĠÐ¼ Ð½Ð¾Ð³Ð¾
ÑĤ ÑĢ
Ñĥ ÑĤÑĮ
ÐµÑĢÐ¶ Ð°Ð½ÑĤ
Ð½ Ð°Ðº
Ð¼ ÐµÑĢ
ĠÐ²Ð¿ÐµÑĢ ÐµÐ´
ĠÑģÐ²Ð¾ ÐµÐ³Ð¾
ĠÐ¿Ð¾Ð½ Ð¸Ð¼
ĠÑı Ð²
ĠÐ¿ÑĢÐ¸Ð¼ Ð°ÑĢÑħ
ĠÐ¾ÑĤ Ð¿
ĠÐ²Ð¸Ð´ ÐµÐ»
ĠÐļ Ð°Ðº
ÐµÐ¿ ÑĤ
ĠÑĥÐ¶ Ð°Ñģ
ĠÐ³Ð» ÑĥÐ±
Ð»ÐµÐ½ Ð¸Ðµ
ĠÑģÐº Ð°Ð·
ĠÐ» ÐµÐ³
Ð¾ÑĢ Ð¾ÑĪ
Ð· Ð°
ĠÑģÐ¸Ð» ÑĮ
ĠÐ¿ Ð°Ð»
ĠÐ² Ð¾Ñģ
ĠÐ²Ñģ ÐµÐ³Ð¾
Ð° ÑĦ
ĠÐ¿Ð¾Ð» ÑĥÑĩ
Ð½ Ð°Ð»
ĠÑĥ Ð½Ð¸ÑĩÑĤÐ¾Ð¶
ĠÑĢÐ°Ð· Ð´
ÐµÐ´ Ð¸Ð½
ĠÑģ ÐµÐ¹ÑĩÐ°Ñģ
Ð°Ð· ÑĭÐ²
ĠÐ² ÑģÑĤÑĢ
ĠÑĤ ÐµÑĢ
Ð²Ð°ÑĢ Ð´
ĠÑĥÐ²Ð¸Ð´ ÐµÐ»
Ð½ Ð¸ÑĨ
ÑĦ Ð¾ÑĢÐ¼
ÐµÐ» ÐµÐ½
ĠÑĤ Ð°Ð¼
ĠÑģ Ð¾Ð»
ĠÐ¿Ð¾Ð´Ð½Ñı Ð»
Ñı Ð¼Ð¸
ĠÐ·Ð½ Ð°Ð»
Ðº Ð¸Ð¹
Ð¸Ð¼ Ð¾
ĠÐŀ Ð½Ð°
ĠÐ¾ Ð¶
ĠÐ¿Ð» Ð¾ÑĤ
ĠÑģÐ²Ð¾ ÐµÐ¹
Ð¾Ðº Ð¾
ÐµÑĢ ÐµÐ´
ĠÐ³Ð¾ ÑĤÐ¾Ð²
Ñĳ Ð½
ĠÐ¿ÑĢÐ¾ Ð¸Ð·Ð½ÐµÑģ
ĠÐ² Ð¼ÐµÑģÑĤ
ĠÑģÐ¼ Ð¾ÑĤ
Ð³ Ð½Ð¾Ð²
Ð´ Ð°Ð»
ĠÐ´ Ð°Ð²
Ð½ ÐµÐ¼
ÐµÐºÐ¾ ÑĤÐ¾ÑĢ
Ð° Ñī
ÑĪ Ð¸Ñħ
ĠÐ¿Ð¾Ð· Ð²Ð¾Ð»
ÐµÑĢ Ñĭ
ĠÐĲ Ð½Ð³
ÑĢ Ð¸Ðº
Ð»Ñĭ Ð±
ĠÑĢÑĥ ÐºÐ¸
ĠÐ·Ð°ÑĤ ÐµÐ¼
ĠÑħÐ¾ÑĤ Ñı
ÐµÐ½ Ð½Ð¾Ð³Ð¾
Ð» Ð°Ð²
Ð² Ñĭ
ÑĤ Ñĭ
Ð¾Ð² Ð¾Ð¹
ĠÑģÐ²Ð¾ Ñİ
ĠÐĴ Ð¾Ð»
ĠÐ½Ð°Ð· Ð°Ð´
ĠÐŀ ÑĢ
ĠÐķ ÑģÐ»Ð¸
ÑĢÐµÐ´ Ð¸
ĠÐ· Ð°Ð³
Ð± Ð¸ÑĤ
ÑĢ ÐµÐ·
ĠÐ¿ÑĢÐµÐ´ ÑģÑĤÐ°Ð²
ÐµÑħ Ð°Ð½
ĠÐ¾ÑģÑĤ Ð°Ð»ÑĮ
Ð¾Ð½ Ñĩ
ĠÐ² Ð¿
ÑĪ Ð¸Ð¹
ĠÐ½Ð¸Ðº Ð¾Ð³Ð´Ð°
ĠÑĥ ÑģÐ¿
Ð¾Ð¼ ÐµÐ½ÑĤ
ÑĢÑĥ Ð·
ĠÐ¾ÑĢÑĥÐ¶ Ð¸Ðµ
ĠÑģ Ð¾ÑģÑĤ
ĠÑĤÐ¾ Ð»
Ð½Ð¸Ðº Ð¸
ÐµÐ½ Ð¾
ĠÑĥ ÑģÐ»
ĠÑģÐµÐº ÑĥÐ½
ĠÑĥ Ð»ÑĭÐ±
ĠÑģÐ² Ð¾Ð¹
ĠÑģÐ¾Ð± Ð¾Ð¹
ĠÐ¼ Ð¾Ð¼ÐµÐ½ÑĤ
ĠÐºÑĢ Ð°Ñģ
ĠÐ´ ÐµÐ¹ÑģÑĤÐ²
ÑĢ ÐµÐ¶
ĠÐ¼ Ð³Ð½Ð¾Ð²
ĠÐ¥ Ð¾ÑĢ
ÑĢ ÐµÑĤ
ĠÑį Ð½
ĠÐ¼Ð¾Ð¶ Ð½Ð¾
Ð°ÑĢ Ð¸
Ð» ÐµÐ¹
ĠÑģ Ð¸ÑģÑĤ
ĠÐµ ÑģÑĤÑĮ
ĠÐºÐ¸Ð² Ð½ÑĥÐ»
Ñı Ð»Ð¸
ĠÐ· Ð°Ð½
ĠÑĤ ÐµÐ»
ÑĢ ÐµÐ±
ÐĿ Ð¾
ÐµÐ½ Ð½ÑĭÐ¼
ĠÑģÐ¿ Ð¾ÑģÐ¾Ð±
ÐµÐ¶ Ð´Ðµ
Ñĭ Ð»
Ð°Ð´ Ð¸
ĠÐ² Ð°ÑĢÐ¿
ĠÐ»Ð¸ÑĨ Ð¾
ĠÐ² Ð´
ĠÑĢÐ°Ñģ Ðº
ĠÐ¿Ð¾ ÑıÐ²
ĠÐºÐ°Ð¿ Ð¸ÑĤÐ°Ð½
ĠÑĥ Ð²ÐµÑĢ
ĠÐ±ÑĢ Ð°ÑĤÑĮ
ĠÐ¿ÑĢÐ¸Ðº Ð°Ð·
ĠÑĢÐ°Ð ´
ĠÐ³Ð¾Ð»Ð¾Ð² Ñĥ
ÑĢÐ°Ð ¹
ĠÑģÐ²Ð¾ Ð¸
ĠÑģÐ¾Ð± ÑģÑĤÐ²ÐµÐ½
ÐµÐ½Ð¸ Ñİ
ĠÐ¾Ð± ÑĢÐ°Ð·
ĠÐŀ ÑĤ
Ñĥ Ð·
ÐĿ Ðµ
ĠÐ¿ÑĢ Ð¾Ð½
Ð¼ Ð°
ĠÑģÐ¼ Ð¾Ð³
ĠÐ¾Ð± ÑĢÐ°ÑĤ
ĠÑģÐ² ÑıÐ·
ĠÐ¿ Ñģ
Ð°ÑĨ Ð¸Ð¸
Ñı Ñģ
ĠÑĢÑĥ ÐºÑĥ
ÑĪ Ð¸Ðµ
ĠÑģÐ¾Ð» Ð´Ð°ÑĤ
ĠÐ»ÑİÐ´ ÐµÐ¹
ĠÐ¼ ÐµÐ¶Ð´Ñĥ
Ð³Ð¾Ð½ ÑĮ
ĠÐ¼ Ð¸Ð½
Ð°ÑĤÐ¾ ÑĩÐ½Ð¾
ĠÐ² Ð½Ð¸Ð¼
ĠÑģÑĤÐ¾ÑĢÐ¾Ð½ Ñĥ
Ð²Ð¾Ð· ÑĮ
Ð¾ÑĢ Ð³
ĠÐ¿Ð¾Ð²ÐµÑĢ Ñħ
. .
Ð¾Ð¼ Ð¸Ð½
Ð¸Ñĩ ÐµÑģ
ĠÐ±Ð¾Ð» ÑĤÐµÑĢ
ĠÐ² ÐµÐ´
ĠÐ²ÑĢÐµÐ¼ ÐµÐ½Ð¸
ĠÐ¿ÑĢÐ¾ Ð¸Ð·
ÑĢ ÐµÐ¿
ĠÐ± Ð¾ÑĢ
Ð°ÑİÑĤ ÑģÑı
ĠÐ¾ Ñħ
ĠÐĲ ÑģÑĤ
ĠÐ¿Ð¾Ñģ Ð¼Ð¾ÑĤ
ÑĢ Ð¾Ð´
ĠÐ· Ð°Ñģ
ÐµÑĤ Ðµ
Ñī Ñĳ
ĠÐ¿ ÑĥÑĤ
ĠÑįÑĤ Ð¾Ð¹
Ðº Ð¸Ñħ
ĠÐŁ Ð¾
Ðľ Ñĭ
ĠÐ¾ÑĤ Ñģ
Ð´ Ð°ÑĢ
ĠÑģÐ² ÐµÑĢ
Ð¾ ÑıÑĤ
ĠÑįÐ½ ÐµÑĢÐ³
ÐµÐ³ Ð´Ð°
Ñį Ð»ÑĮ
ÑĪ ÐµÐ»
Ð§ ÑĤÐ¾
ÑĢÑĥ Ð±
Ð½ Ð¸Ð¹
ĠÐĺÐ¼Ð¿ÐµÑĢ Ð¸ÑĥÐ¼
ĠÑĤÑĭ ÑģÑıÑĩ
ĠÐ¿ÑĢ ÑıÐ¼
Ð¾ÑĤ Ð°
Ð¾Ðº Ð¾Ð¹
Ð°Ð½ Ñĭ
ĠÐºÐ¾ÑĢÐ°Ð± Ð»Ñı
ĠÐĽ ÐµÐ³Ð¸Ð¾Ð½
ÑĥÐ» Ð°Ðº
ĠÐ¾ÑģÑĤ Ð°Ð½Ð¾Ð²
ĠÐ¾ÑĤÐº ÑĢÑĭ
ÑģÐº Ð¸Ñħ
Ð»Ñı Ð»
Ġ s
ĠÐ±Ñĭ ÑģÑĤÑĢÐ¾
ĠÐ· Ð½Ð°Ñĩ
Ðµ Ñı
ĠÐ¿ÑĢ Ð¸Ð·
ĠÑĪ Ð»ÐµÐ¼
Ð°Ð³ Ð½Ð°ÑĢ
Ð¾Ð² Ð°Ð»
ĠÐ¾Ð± ÑĬ
Ð°Ð´ ÑĨ
ĠÐ¿ÑĢÐ¸Ð± Ð»
ĠÐ» Ð°Ð·
ĠÑģÐº Ð²Ð¾Ð·ÑĮ
ĠÐ´ Ð°Ð»ÑĮ
Ð°ÑİÑī Ð¸Ð¹
Ð¾Ð²ÐµÑĢ ÑĪ
e d
ÐºÐ²Ð¸Ð· Ð¸ÑĤÐ¾ÑĢ
ĠÐ½Ð° ÑģÑĤ
ĠÑĢÐ°Ð· ÑĥÐ¼
ĠÐ´ ÐµÑĢÐ¶
ĠÐ¡ ÑĤ
ĠÑģÑĤ Ð°Ð»
Ð¸Ð½ Ð¾Ð¹
ĠÐ¿Ð¾ÑĤ ÐµÑĢ
ĠÑģÐ» ÑĥÐ¶
ĠÐ¿ Ð¾Ð¶
ĠÐ³ ÑĢÐ¾Ð¼
Ð°ÑĢÑĤ ÐµÑģ
Ð¾Ðº Ð°
ĠÑĥ ÑģÑĤ
Ġt he
ĠÐ² Ð°Ñģ
ĠÑģ Ð¾ÑĤ
Ð¸ÑĤ ÐµÐ»Ñı
Ð¸Ð² Ð°ÑĤÑĮ
Ð² Ð¾ÑĢ
ĠÑĤ ÐµÐ±Ðµ
ÑĤÐ¾ ÑĢÑĥ
ĠÐ±ÑĥÐ´ ÑĤÐ¾
ĠÐ½ Ð¸Ð¼Ð¸
ĠÑħ Ð¾Ð»
Ð¾Ð» Ð¾Ð¶
ĠÑĥ Ñĩ
ĠÐ¾ Ð³Ð¾Ð½ÑĮ
ĠÐ¾ÑĤ Ð´ÐµÐ»
ÐµÑĢ Ð¾Ð²
ĠÑģ Ð±
ĠÑģÐ»Ð¾Ð² Ð°
ĠÐ¿ÑĢ Ð¾Ðº
ĠÐ¼Ð¾ Ñī
ĠÐŀ Ð´
ĠÐ²Ð¾Ð· Ð²
ÑĦ Ð¸ÑĨ
Ð¸Ð½ ÑĥÐ»
Ð½Ð°Ðº Ð¾
Ð» ÑĥÑĪ
ÑģÑĤÐ² Ñĥ
ĠÐ¸ÑģÐ¿ Ð¾Ð»ÑĮÐ·
ĠÑįÑĤ Ð¸
Ð¾Ð² Ð°ÑĤÑĮ
ĠÐ´Ð¾Ð»Ð¶ ÐµÐ½
Ð¸Ð²ÑĪ Ð¸ÑģÑĮ
ÑĪ ÐµÐ³Ð¾
Ð½ Ñİ
Ð»Ð° ÑģÑĤ
ÑĢÐ° Ñĩ
ĠÐ¿ÑĢ Ð¸Ð´
ĠÐĴ Ñĭ
ĠÐ¶ Ð¸Ð·Ð½
ĠÑģ Ð¾Ð²
ĠÑģ Ð¾Ð¿
Ð¸ÑĩÐµÑģÐº Ð¸Ðµ
ĠÑĢÑıÐ´ Ð¾Ð¼
ĠÑģÐ¸ÑģÑĤ ÐµÐ¼
ĠÑģÐµÑĢ Ð´
ĠÐ´ ÐµÑģÑı
ĠÐ· Ð°ÑĢ
Ð¼ ÐµÑĤ
ÑģÐº Ð¾Ð¹
ĠÐ³Ð¾Ð»Ð¾Ð² Ð¾Ð¹
ĠÑĢ Ðµ
ĠÐº Ð»Ð¸Ð½
ĠÐ²Ñĭ Ð·
ĠÑĤ ÐµÐ»Ð¾
ĠÐ²Ð½ Ð¸Ð·
ĠÑĩÐµÐ»Ð¾Ð² ÐµÑĩ
âĢ Ļ
ĠÐ¥ Ð°
ĠÐ¼Ð¾Ð³ Ð»Ð¸
ĠÐ´ Ð°Ð»
Ðº ÑĤ
Ð¾ÑģÑĤ ÑĮÑİ
ĠÐ³ ÑĢÑĥÐ´
ĠÐºÐ¾ÑĤÐ¾ÑĢ ÑĭÑħ
ĠÑħ Ð¾ÑĢÐ¾ÑĪ
Ð½Ð°ÑĢ ÑĥÐ¶
ÐĶ Ð°
Ðļ Ð°Ðº
ĠÐ± Ð¾Ð¹
ĠÐ¿ÑĢ Ð¾Ñģ
ÐµÑĩ Ð½Ð¾
Ðº Ð¸Ðµ
ĠÐ´Ð² Ð¸Ð¶
ĠÐ¿Ð¾Ð¿ ÑĭÑĤ
ĠÐļ Ð¾ÑĢ
ĠÐ·Ð° ÑģÑĤÐ°Ð²
Ð¸ÑĩÐµÑģÐº Ð¸Ñħ
ĠÐ½Ð°Ñĩ Ð°Ð»
ÑĭÐ² Ð°Ñı
Ðº Ð°Ð½
ĠÐ±ÐµÑģ Ð¿
ĠÐĴ ÑģÐµ
ĠÑģÐ²Ð¾ Ð¸Ð¼
Ġ "
Ð¼ Ðµ
ĠÐ·Ð° ÑīÐ¸ÑĤ
ÑĥÐ´ Ð¾Ð²
ĠÐ¾ ÑĢÑĥÐ´
ĠÐºÑĢÐ¾Ð² Ð¸
Ð´ ÐµÐ½
ĠÐ¿Ð¾Ð¼ Ð¾Ñī
ĠÐµ ÑīÑĳ
ĠÑĩ Ð°Ñģ
Ð½ÑĥÐ» Ð°ÑģÑĮ
Ð¾Ð· Ð¼Ð¾Ð¶Ð½Ð¾
ĠÐ¾Ð± Ð»
Ð°ÑĤ Ñĥ
Ð¸Ñģ Ñģ
ĠÐĿ ÐµÑģ
Ð°ÑİÑī Ð¸Ðµ
ÑģÑĤÐ² Ðµ
ĠÐ² ÑĤÐ¾ÑĢ
Ð°Ð½ Ð½ÑĭÐµ
Ð´ Ð¸
ĠÐ¾Ñĩ ÐµÐ½ÑĮ
ĠÐ¿Ð¾ ÑģÑĤ
ĠÐ¼ ÐµÑĢÑĤÐ²
Ð½Ñĥ Ð»Ð¸ÑģÑĮ
ĠÑĦ Ð»Ð¾ÑĤ
ÐµÑģÑĤ ÑĮ
ĠÑĤÑıÐ¶ ÐµÐ»
ĠÐ¾Ð¶ Ð¸Ð´
Ð¸Ð² Ð°Ð»
ĠÑĢÐ°Ð ²
ĠÐ¿ Ð°Ð»ÑĮ
Ð½Ñĥ Ð»Ð¸
ÑĢÐ¾Ð² Ð°Ð²
Ð¾ÑĤ Ñĭ
ĠÐ½ ÐµÐ¹
ĠÐ²Ñģ ÐµÐ³Ð´Ð°
ĠÐ´Ð¾ÑģÑĤ Ð°ÑĤÐ¾ÑĩÐ½Ð¾
ÑĨ Ð¸Ð¸
ĠÐĺ Ð·
ÑīÐµ Ðµ
ĠÐ¿ÑĢ ÐµÐ¶Ð´Ðµ
ĠÑĥÑģÐ» ÑĭÑĪ
ÑĪ ÐµÐ¹
Ð¾Ð³ Ð»Ð°Ñģ
ÑĢÑĥÐ¿ Ð¿
Ð¸Ð² Ð°Ð»Ð¸
Ġ ÑĤÐ¾ÑĢ
Ð´ Ð°Ð²
ĠÑĥ ÑĤ
Ð¾ÑĢ Ð¾Ð½
Ð°ÑĤ ÐµÐ»ÐµÐ¹
ĠÐ´ ÑĭÐ¼
ĠÑģ Ð¾Ð²ÐµÑĢÑĪ
ĠÑĪ ÑĤ
Ð°ÑİÑī Ð¸Ñħ
ÑĢÑı Ð´
ÐµÐ· Ð´
ĠÐ²Ð¾Ð¿ ÑĢÐ¾Ñģ
ĠÑģ ÑĢÐµÐ´Ð¸
Ð¾Ð´ ÐµÑģÐ°Ð½ÑĤÐ½Ð¸Ðº
Ð¸Ð½ ÑģÑĤÐ²ÐµÐ½
ĠÐļ Ð¾Ð³Ð´Ð°
Ð¸Ðº Ð¾Ð²
ĠÐĲÑģÑĤ Ð°ÑĢÑĤÐµÑģ
ĠÑĨ ÐµÐ¿
ĠÐ²Ð¼ÐµÑģÑĤ Ðµ
ĠÐ¸Ð· Ð¼ÐµÐ½
ĠÐ¼ Ð°Ð»
ĠÑģÐ¸Ð» Ñĭ
ĠÑĨ ÐµÐ»
ĠÐ¾ÑĤ Ñĩ
ĠÑĤ Ð¾Ð¶Ðµ
e r
Ñĩ Ð¸Ð²
ĠÐµÐ´ Ð²Ð°
ĠÐ²Ð¾Ð¸Ð½ Ð¾Ð²
ĠÐ½Ð°Ð± Ð»Ñİ
ĠÑģ ÐµÑĢÐ¶Ð°Ð½ÑĤ
Ð½Ð¾Ð² ÑĮ
ĠÐ²Ð¾Ð· Ð¼Ð¾Ð¶
ĠÐ¼Ð½ Ð¾Ð³
ĠÐºÐ¾ÑĢÐ°Ð± Ð»ÑĮ
ĠÐºÑĢÐ¾Ð² ÑĮ
Ð¾Ð´ Ñĭ
Ð¾Ð½ ÐµÑĨ
ĠÐ² Ð¾ÑģÐ¿
ÐĿ Ð°
ÐºÐ¾ Ðµ
ĠÐ² Ð°ÑĪ
ĠÐ¼ÐµÑģÑĤ Ð¾
ĠÑģÐ» Ð°Ð±
ĠÑĩÐ°ÑģÑĤ ÑĮ
Ñı Ñħ
ĠÐºÑĢ ÐµÐ¿
Ñĳ ÑĢ
ĠÐ¾Ðº ÑĢÑĥÐ¶
ĠÐ´Ð¾Ð»Ð¶ Ð½Ñĭ
ĠÐ´ ÐµÑģÐ°Ð½ÑĤÐ½Ð¸Ðº
Ġ Ñī
ĠÐ² ÐµÑĤ
ÐµÑĤ Ð°
ĠÐ³ ÐµÐ½
ĠÐµ Ñĳ
Ð½ Ð¸Ñħ
ÑĪ Ð¸ÑģÑĮ
ĠÐ¾Ð´ Ð½Ð¾Ð³Ð¾
ÑģÑĤÐ² Ð¾Ð¼
ĠÐ²Ñģ ÐµÐ¼
Ð´ Ð°Ð½
ĠÐ²Ñĭ ÑģÑĤÑĢÐµÐ»
Ð¾Ð± Ñī
ĠÐł Ð°Ð³Ð½Ð°ÑĢ
ĠÐ° Ð´
ĠÑģ Ð¶
ĠÐºÐ¾ÑĤÐ¾ÑĢ Ð°Ñı
ĠÐ´ ÐµÐ¼Ð¾Ð½
ÐµÐ· Ð°Ð¿
ĠÑĤÐ² Ð¾
Ð¸ ÑĦ
ĠÐ²Ð¾Ðº Ñģ
ĠÐ¿ÑĢ Ð¸Ñĩ
ĠÐ¼ Ð¾Ð¹
ĠÐ± Ð¸ÑĤ
ĠÑĥ Ð³
Ñį ÑĢ
ĠÐ´ ÑĢ
ĠÑģ ÑĩÐ¸ÑĤ
Ñİ Ð´Ð°
ĠÐ² ÐµÐ»Ð¸Ðº
ĠÑĤÐ°Ðº Ð¾Ð¹
Ð¸ÑģÑĤ Ð¾Ð»ÐµÑĤ
Ð° ÐµÑĪÑĮ
Ñı Ð³
ĠÐ²Ð· ÑĢÑĭÐ²
Ð°Ð»ÑĮ Ð½Ð¾
ĠÐ½ ÐµÐºÐ¾ÑĤÐ¾ÑĢ
ĠÐº ÑĢÑĭ
Ðŀ Ð½Ð¸
ÑģÐº Ð¾Ð³Ð¾
ĠÐ±Ð» Ð¸Ð¶
ĠÐ² Ð½Ð¾Ð²ÑĮ
Ñı ÑģÑĮ
Ġ o
ĠÑģÐ¾Ð± Ð¸ÑĢ
Ð°Ð· Ð°Ð»ÑģÑı
ĠÐ¾Ð¿ Ð°Ñģ
ĠÐ½ÐµÐ¿ ÑĢ
ĠÐ´ ÑĥÑĪ
ĠÐ¾Ð¿ ÑĥÑģÑĤ
ĠÐ¿Ð¾Ð½ ÑıÐ»
ĠÐ¶ Ð¸Ð·
in g
ĠÐ²Ñĭ Ð¶
Ðº Ð¸Ð¼
ĠÑģ Ð½
ĠÐ· Ð½Ð°
Ð² Ð°Ð»
ĠÐ¶ ÐµÑģÑĤ
Ñĳ Ð¼
ĠÑĥ ÑģÑĤÑĢ
Ð»ÑĮ ÑĤ
ÑĮ ÑĪÐµ
Ð» Ð¾Ð¶
ĠÑģÑĤ ÑĢÐ°Ð½
ĠÐ¿ Ð°Ð´
ÐµÐ» ÐµÐ·
ĠÐ¿Ð¾Ñĩ ÑĥÐ²
ĠÐ¿Ð¾Ð³ Ð¸Ð±
ĠÐ·Ð°Ð¼ÐµÑĤ Ð¸Ð»
Ð¾ÑĢ Ð¾Ð¶
ĠÐ¡ Ð»Ð¾Ð²
ĠÐ¿ÑĢÑıÐ¼ Ð¾
ÐĿ ÐµÑĤ
ĠÐĺ Ð½
ĠÑĪ Ð¸ÑĢ
ÑĤÐ¾ Ñĩ
Ð³Ð»Ñı Ð´
ĠÐ² ÑģÐº
ĠÑĩ ÐµÐ³Ð¾
ĠÐ¾Ñģ Ð½Ð¾Ð²
ĠÐ½ Ð¾Ñģ
r e
ĠÐ¾ ÑģÐº
Ð¸ÑĩÐµÑģÐº Ð¾Ð³Ð¾
ĠÑģÑĤÐ¾ Ð»ÑĮ
Ð² Ð¸Ð½
ĠÐ¿Ð¾Ð´ Ð½Ð¸Ð¼
Ñĳ Ð»
ĠÑĨ ÐµÐ½ÑĤ
ĠÐ³Ð» Ð°Ð²
Ð¸ÑĩÐµÑģ ÐºÐ¸
ĠÐ§ ÑĤÐ¾
ĠÑħÐ¾ÑĤ ÐµÐ»
ĠÐº Ð¾Ð¶
Ð¸Ð± Ð¾
Ð»Ð¸Ñĩ ÐµÑģÐº
ĠÐ» Ð¸Ð½
ĠÑĤÐ¾ Ñĩ
ĠÑģÑĤÐ¾ÑĢ Ð¾Ð½Ñĭ
ĠÐ¿ ÑıÑĤ
ĠÐ³Ð¾ÑĢ Ð¾Ð´
ĠÐ´ ÐµÑĢ
ĠÐºÐ¾ÑĤÐ¾ÑĢ Ð¾Ð¹
Ð³ Ð°Ð½
ĠÐ¢ Ð°Ðº
Ð¸ÑĤ Ñĥ
ĠÐ¸Ñģ Ñĩ
ĠÑģ Ð¾Ð¼Ð½
Ð¾Ð» Ð¾ÑĤ
Ñģ ÐµÐ½
ĠÐ²Ð· Ð´
ĠÑĤ Ðµ
ĠÐ¿ÑĢÐµÐ´ Ð¿
ĠÐ´ÑĢÑĥÐ³ Ð¾Ð¹
ĠÐ¾ÑĤ ÑģÑĤÑĥÐ¿
Ð¼ Ð¸Ð½
Ð¸ÑĩÐµÑģÐº Ð¸Ð¹
Ð± Ñĭ
ĠÐĶ Ð¶
ÑĥÐ± Ñĭ
ĠÐ¢ ÐµÑĢ
ĠÑĤ ÐµÐ»Ð°
ÑĤÐ¾ÑĢÑĥ Ñİ
Ð¸Ð» Ð»
ĠÐľ Ð°ÑĢ
ÑıÐ» ÑģÑı
ĠÐ¾ÑĤÐ¿ ÑĢÐ°Ð²
ĠÑĤ ÑĢÐ°Ð½
ĠÑģ Ð½Ð°ÑĢ
ĠÐ²Ñģ Ñĳ
ÑģÐº Ð¸Ðµ
Ð¾ÑĢ Ðµ
Ð¸ ÐµÐ¹
Ð¸ ÑģÑĤÑĢ
Ñį ÑĤ
ĠÐ½Ðµ Ð¾Ð±
Ð¸Ð½ Ð¾Ð²
Ð² Ð°Ð½
Ñĩ Ð°ÑĤ
ĠÐ± Ð¾Ð³
ĠÑĢÐ°Ð· ÑĢÑĥÑĪ
ĠÐ½Ð¸Ðº Ð°Ðº
Ð¾ÑĢ ÑĥÐ¶
ÑĢ ÐµÑĨ
ĠÑģÑĤÐ¾ Ð»
ĠÑģÐµÑĢ Ð²
ÑĢÐ°Ð¼ Ð¸
ĠÑĢÐ°Ð· Ð±
Ġ w
ĠÑĤ ÑĥÑĤ
ÐĴ Ñĭ
ÑĢ Ð¸Ð¿
ĠÐ¾ Ð·
ĠÐ³ ÑĢÐ°Ð½
i s
ĠÑģÑĤ Ð°Ð½
ĠÐĵ Ð²Ð°ÑĢÐ´
ĠÐ³ ÑĢÑĥÐ¿Ð¿
ĠÑįÑĤ Ð¸Ñħ
ĠÐ¿ÑĢÐµÐ² ÑĢÐ°ÑĤ
ĠÐ¡ Ðº
ĠÐŁ Ð¾Ñģ
ĠÑģÐ²Ð¾ Ðµ
ĠÐ¶Ð¸Ð· Ð½Ð¸
Ð¾Ð· Ð½
ĠÐºÐ¾ÑĤÐ¾ÑĢ Ð¾Ð³Ð¾
Ð¼ Ð°ÑĤ
Ðŀ ÑĤ
ĠÐ» ÐµÐ¶
Ñı Ð½
ĠÑģ ÑĥÐ´
ÑĥÐ»ÑĮ ÑĤ
ĠÐ´ ÑĢÐµÐ²
Ð¸ Ð°Ð½
Ð¾ÑĢ Ð¾Ð³
Ð» ÐµÑĩ
ĠÐ¸Ð¼ Ð¿ÐµÑĢ
ĠÐºÐ¾ÑĤÐ¾ÑĢ Ð¾Ðµ
Ð°ÑĤÐµÐ»ÑĮ Ð½Ð¾
ĠÑĥÐ´ Ð¸Ð²
ÐµÐ» Ð¸Ñĩ
ĠÑħÐ¾Ð» Ð¾Ð´
ĠÐ·Ð½ Ð°Ðº
ĠÐĽ Ñİ
Ð°ÑĤ Ñĭ
Ðº Ð½ÑĥÐ»
ÐµÐ½ Ð½Ð¾Ðµ
ĠÐ¸ÑģÑĩ ÐµÐ·
ĠÐ²ÑĭÑģ Ð¾Ðº
ĠÐ¿ÑĢÐ¸Ð±Ð» Ð¸Ð¶
Ð» Ð°Ð³
Ð°Ð½ Ð¾
ĠÐ½Ð¾Ð³ Ð¸
ĠÐº Ð¾Ð³
ĠÐ¿Ð» Ð°Ð¼
ĠÑĤÐ°Ðº Ð¶Ðµ
ĠÐ¾Ñģ Ð²
ÐµÐº ÑĤ
ĠÑĨ Ð²ÐµÑĤ
ĠÐ± Ð¾Ñı
Ð¾Ð² Ð¾Ð³Ð¾
Ð¼Ð¾ÑĤ ÑĢÑı
ĠÐ¸Ð½ ÐºÐ²Ð¸Ð·Ð¸ÑĤÐ¾ÑĢ
ĠÐ¾Ñĩ ÐµÑĢÐµÐ´
ĠÑĤ Ð°Ð½
ĠÐ¾ ÑĦÐ¸ÑĨ
Ð°ÑİÑī ÐµÐ¹
Ð¾Ñħ Ð¾ÑĤ
ĠÐ´Ð² Ð°
ĠÐ½ Ð°Ð¹
âĢ Ŀ
ÑģÑĤÐ² Ð¸Ðµ
ĠÐ¢ ÐµÐ¼
ĠÑģ Ñĭ
ĠÐ¿ÑĢÐ¾ Ñĩ
Ð¾Ð± ÑĢÐ°Ð¶
n d
Ð°ÑĤ ÐµÐ»Ð¸
Ð¾Ð»ÑĮ ÑĪ
ĠÐ¿ÑĢ ÐµÐº
ÑģÐº Ð°Ð·Ð°Ð»
Ð»Ñı ÑĤ
ĠÐ±Ð» Ð°Ð³
ĠÐ¿Ð¾ÑģÐ¼Ð¾ÑĤ ÑĢÐµÐ»
ĠÐ½ ÐµÐ·
Ð¾Ð² ÑĭÐµ
ĠÐ´ Ð»Ð¸Ð½
Ð°ÑĢ Ð¸Ð¹
Ð¸ÑĢÐ¾Ð² Ð°Ð»
ĠÐºÐ¾ ÑĤÐ¾ÑĢÑĥÑİ
ĠÐ´ÑĢÑĥÐ³ Ð¸Ñħ
ĠÐ¢ Ð°Ð»
ĠÐ¾ÑĤ Ð±
ĠÐºÐ¾ÑĢ Ð¸Ð´
Ð¾Ð² Ð¾Ð»ÑĮ
ĠÐ½ÑĥÐ¶ Ð½Ð¾
ĠÐ¼ Ð°Ð³
ĠÑįÑĤ Ð¸Ð¼
ĠÐ¿Ð¾Ð± ÐµÐ´
ĠÐ¿Ð¾Ñħ Ð¾Ð¶
Ð² Ð¸Ð³
ĠÐ¾Ð± Ð½Ð°ÑĢÑĥÐ¶
ĠÐŀ Ð±
Ð¾Ð´ Ð°ÑĢ
ĠÑĥÐ²ÐµÑĢ ÐµÐ½
ĠÐ½Ðµ Ñĩ
ĠÐ·Ð½ Ð°Ñİ
Ð°Ñģ Ñģ
ĠÑĤÐµÑħ Ð½
Ð¾Ð· Ð²
ĠÐ¾Ñī ÑĥÑī
ĠÐ¼ÐµÐ´ Ð»ÐµÐ½Ð½Ð¾
ĠÑħ Ð¾Ñĩ
ÑĥÑĢ Ð¼
ĠÐ¿ÐµÑĢ ÐµÐ²
ĠÑĢÐ°Ð· Ð¼
Ð¾Ð² Ð°Ð»Ð¸
Ð¸ÑĢÐ¾Ð² Ð°ÑĤÑĮ
ĠÑĥ Ð³ÑĢ
ÑģÐº Ð¸Ð¹
ĠÐº Ð°Ð·Ð°Ð»Ð¾ÑģÑĮ
ÑĢ Ð°ÑĤÑĮ
Ð½ÑĥÑĤÑĮ ÑģÑı
Ġ h
ĠÐ¸Ð· Ð±
ĠÐ½Ð¾ Ñĩ
ĠÑģÑĤÑĢ Ð°Ñħ
ÑģÑĤÐ¾Ñı Ð½
ĠÐ¾ Ð½Ð¾
Ð»ÑĮ Ð´Ð°ÑĢ
ĠÐ£ Ð»ÑĮÑĤ
ĠÐ¿ÑĢ Ð¾ÑĢ
ĠÐ¿Ð¾Ð´ ÑĥÐ¼
ĠÐļ Ð¾ÑģÐ¼
Ð¸Ð¼ ÑģÑı
ĠÐ¸Ð¼ Ñı
Ñĳ ÑĤ
ĠÐ¿ÑĢ Ð¾Ð¿
Ġ c
ĠÐł Ð°Ð·
Ð»Ñı Ð´
ĠÐ¸Ð·Ð² ÐµÑģÑĤ
ĠÐ½Ðµ Ðµ
ÐµÐ½ Ð½Ð°Ñı
ÐµÐ½ Ð½ÑĭÐ¼Ð¸
Ð´ Ð°ÑĤÑĮ
ĠÐ»ÑİÐ´ Ð¸
ĠÑģÐ´ÐµÐ» Ð°ÑĤÑĮ
ĠÐ¸ Ð´
ĠÐ¼Ð¸Ð½ ÑĥÑĤ
ĠÐ¿Ð¾ÑĤ Ð¾Ð¼
Ð¾Ð¹ Ð´
ĠÐ´ Ð¾Ðº
ĠÑģÐ¼ ÐµÑĢÑĤ
ĠÑĤ ÑĢÑĥÐ´
ĠÑģÑĤ ÐµÐ½Ñĭ
ĠÐĸ ÐµÐ»ÐµÐ·
ĠÐ¼ ÐµÑħÐ°Ð½
Ð°ÑĢ Ð´
ĠÑĢÐ°Ð· Ð²ÐµÑĢ
ĠÐĲ Ð´
ĠÐļ ÑĢÐ¾Ð²Ð°Ð²
ÑĤÐ¾ Ð»
Ð ¤
Ð°Ð½ Ð¸Ð¸
ĠÐ²Ð½ÑĥÑĤ ÑĢÐ¸
ÑĭÐ² Ð°Ð»
ĠÐ» Ð¸Ñĩ
ĠÑģÐ¾ Ð¾Ð±Ñī
ĠÑģÐ¼Ð¾ÑĤ ÑĢ
Ð½ ÐµÐ³Ð¾
ĠÐ³ ÑĢÑı
Ð°ÑİÑī ÐµÐ³Ð¾
ĠÐ¾Ñģ Ð¾Ð±
Ð¾ÑĤ Ð¸Ð²
ĠÑģÑĤ Ð°Ð»Ð¸
Ð² Ð¾Ð´
Ð´ ÐµÐ½Ð°
Ð°ÑĢ ÑĢÐ¾
ĠÐ´Ð¾Ð» Ð³
ĠÐ¼ÐµÑĤÐ°Ð» Ð»Ð¸ÑĩÐµÑģÐº
ĠÐ¾Ð´ Ð½Ð¾Ð¹
Ð½ Ð¸Ð±
Ð¸ÑĤ Ð°Ð½Ð°
Ð» Ð¸Ðº
ĠÐº ÑĢÐ°Ð¹
Ð°ÑĤ Ð°
ÐµÑģ Ñģ
ĠÑģÐ´ÐµÐ» Ð°Ð»
ĠÐ§ ÐµÑĢ
ĠÐ¿ÑĢ Ð¸Ð·Ð½
Ð»Ñı ÑĤÑĮ
ĠÐ»Ð¸ÑĨ Ð°
ÐµÐ½ Ñī
ĠÐ¿ÑĢÐ¾ Ð¸Ñģ
Ð¾Ð² Ð°ÑĢ
ĠÑĥÑģ Ð¸Ð»
Ð»ÐµÐ½ Ð½ÑĭÐµ
ĠÐ¶Ð¸Ð·Ð½ ÑĮ
ĠÐº Ð¾ÑģÑĤ
ĠÑģÐ¾ÑģÑĤ Ð¾Ñı
Ð¸ÑĨ Ð¸Ð¸
ĠÐº Ð»
ĠÑĩÐ°ÑģÑĤ Ð¸
ĠÐºÐ¾Ð¼ Ð½
ĠÑĢ Ð°ÑģÑĤ
Ð¸ÑĤ ÐµÐ»ÐµÐ¹
Ð¾Ð² ÑĭÑħ
ÑĮ Ðµ
Ð¸Ð³ Ñĥ
ĠÐ²Ð¾Ð· Ð¼Ð¾Ð¶Ð½Ð¾
ĠÐ±Ð» Ð¸Ð·
ĠÐ¼ÐµÑĢ Ðµ
ĠÐ¼Ð¾Ð³ Ñĥ
Ð¸Ðº Ðµ
ĠÑģ ÑħÐ²Ð°ÑĤ
Ð½Ð¸Ð± ÑĥÐ´ÑĮ
ĠÑĤÐ¾ Ð½
Ð¾Ð¶ ÐµÑĤ
i t
ĠÐº ÑĥÐ´Ð°
Ð¾Ð» Ð½Ñı
ĠÐµÐ´ Ð¸Ð½ÑģÑĤÐ²ÐµÐ½
Ð¾Ð¼ ÐµÑĤ
ĠÑĩ ÑĥÐ´Ð¾Ð²
ĠÐ¼Ð³Ð½Ð¾Ð² ÐµÐ½Ð¸Ðµ
ĠÐ ¦
ĠÐ² Ð°Ð¼
ĠÑģÐ¼ÐµÑĢ ÑĤÐ¸
Ð¸ Ð¾
ĠÑĩÐµÐ»Ð¾Ð²ÐµÐº Ð°
ĠÐ¿ÐµÑĢ ÐµÐº
ĠÐ¿ÑĢ Ðµ
ÐµÐº Ð°
Ð¾Ð± Ð¾Ð´
ĠÑĤ Ð¾Ð¼Ñĥ
ĠÐ½ ÐµÐ½
ĠÐ½ÐµÐ¾Ð± ÑħÐ¾Ð´
ĠÐ¥Ð° Ð¾ÑģÐ°
Ð°Ð½ Ð½ÑĭÐ¹
ĠÐºÐ°Ð¶Ð´ ÑĭÐ¹
ĠÑģ Ð¾Ð³Ð»Ð°Ñģ
ĠÐ¿ÑĢÐ¾ ÑħÐ¾Ð´
Ð· Ñĭ
ÑĢ Ð¸Ñĩ
ĠÐ»ÑĥÑĩ ÑĪÐµ
ÑĭÐ² Ð°Ð»Ð¸
ÐµÑĢ Ñĥ
ĠÑģÑĤÐ¾ ÑıÐ»
Ñĥ ÐµÑĤ
Ð°Ð½ Ð¸Ð¹
ĠÐ¡Ð»Ð¾Ð² Ð¾
Ð¸ÑĩÐµÑģÐº Ð¾Ð¹
ĠÑģ ÑĥÐ¼
ĠÐ¿Ð»Ð°Ð½ ÐµÑĤÑĭ
ĠÐ²Ð¾Ð¹ Ð½Ñĭ
ĠÐ½ ÐµÐ¼Ñĥ
ĠÑħÐ¾ÑĢÐ¾ÑĪ Ð¾
ĠÑģÐ¼ÐµÑĢ ÑĤÑĮ
Ð´ Ð¾
ĠÐ² ÐµÑģÑĮ
ĠÐ¿ ÑĥÑĤÑĮ
ĠÑģÐº Ð»Ð¾Ð½
ĠÐĺÐ¼Ð¿ÐµÑĢÐ¸ÑĥÐ¼ Ð°
Ð¸Ð¹ ÑģÑı
ĠÐºÐ°Ðº Ð¾Ð¹
ĠÐ¼ Ð¾Ð½
Ð°Ð½ Ð½ÑĭÑħ
ĠÑģÐ°Ð¼ Ð¾Ð³Ð¾
ĠÐ² Ðº
ĠÐµ Ð¹
ĠÐ¿ÑĢ Ð¸Ñħ
ĠÑĤ Ð¾Ð³Ð´Ð°
ÑĢ ÑĮ
Ð¾Ñģ Ñģ
ĠÐŁ Ð¾Ð´
ĠÐ´ÑĢÑĥÐ³ Ð¸Ðµ
ĠÑģÐ½Ð°ÑĢ ÑıÐ´
ĠÐĹ Ð°
ĠÐľ Ð°Ð³
Ð» Ð¾ÑģÑĮ
ĠÐ²Ñĭ ÑĢ
ĠÐĿÐµÑģ ÑĥÑī
ĠÐº ÑĥÐ»Ð°Ðº
ĠÐ¿Ð¾Ð» Ð¾Ð¶
ĠÐĵ ÑĢ
ĠÑĩÐµÑĢ ÐµÐ¿
Ñģ ÐµÐ¼
Ð°ÑĤ ÐµÐ»Ñı
Ð¼ ÐµÐ½ÑĤ
ĠÑĤ Ð²Ð°ÑĢ
ĠÐ² Ð°Ð¶
Ð°Ð»ÑĮ Ð½ÑĭÐµ
ĠÐ¿Ð¾ÑĤ Ð¾Ð¼Ñĥ
ĠÐ¿ÑĥÑĤ Ð¸
a t
ĠÑģÐºÐ°Ð· Ð°ÑĤÑĮ
ĠÐĺ Ñħ
Ġ Ñİ
Ñĭ Ð¿
ĠÑģÐ°Ð¼ Ð¾Ð¼
Ġ b
ĠÐ¿Ð¾ÑĩÑĥÐ² ÑģÑĤÐ²Ð¾Ð²Ð°Ð»
Ð°Ñĩ Ð¸Ð²
ÐµÑģ Ð¿
o n
ĠÐ¿ Ð°
ĠÐ¿Ð¾Ð´ Ð´ÐµÑĢÐ¶
ĠÑį Ð»ÑĮÐ´Ð°ÑĢ
Ð°Ð²ÑĪ Ð¸Ñħ
ĠÐ´ÐµÑģÑı ÑĤ
ÑĢ Ð³
ÑģÑĤÑĢ ÐµÐ±
ĠÐ» Ð¸ÑĪ
ĠÑįÑĤ Ñĥ
ĠÐ² ÑģÑĤ
ĠÑħ Ð²Ð°ÑĤ
ĠÐ¼ Ð¸Ð»
ĠÑĤÑĢ Ð¸
Ð¸Ð³ Ð°Ð½ÑĤ
ĠÐºÐ¾ÑĢ Ð¿
ĠÐ¿Ð°Ð» ÑĥÐ±
ĠÐ½ Ð°Ð½
Ð°Ð¶ ÐµÑĤÑģÑı
Ġ f
Ð°Ð´ÑĨ Ð°ÑĤÑĮ
e n
Ð°ÑĤ ÐµÑĢ
ĠÐ² Ð¾Ð´
ĠÐ¿Ð¾Ð» Ð½Ð¾ÑģÑĤÑĮÑİ
ĠÑĤÑĢ ÐµÐ±
Ð¸ÑĤ Ð°
Ðŀ Ð½Ð°
ÐµÐ·Ð°Ð¿ Ð½Ð¾
ÑĨ ÐµÐ¿
ĠÐ° Ð¿
ĠÑģ Ð¾Ñģ
ĠÐ° Ð²
Ð¸Ñı ÑĤ
ĠÐ² Ð¾ÑĤ
âĢ ľ
ĠÐ¼ Ð¾ÑģÑĤ
ĠÐ· ÐµÐ»ÐµÐ½
ÐµÐ» Ñİ
ĠÐ± ÐµÐ»
ĠÐ¼ÐµÑģÑĤ Ðµ
Ð°Ð·Ð°Ð» Ð¸ÑģÑĮ
ĠÐ²ÑĢÐ°Ð³ Ð°
ĠÑħ Ð¾Ð´
ĠÐ¿ Ñĭ
Ð°ÑĢ Ð½
ĠÐ¿Ð»Ð°Ð½ ÐµÑĤ
Ð°ÑĤ ÐµÐ¼
ĠÑĥÐ¿ ÑĢÐ°Ð²
ĠÐ¼Ð°Ñģ Ñģ
ĠÐ½Ð°Ðº Ð¾Ð½ÐµÑĨ
ÐµÑĩ Ð°ÑĤ
ĠÑģ Ð¸Ð´
ĠÐ¿ÑĢ Ð¸Ð³
ĠÐ¼Ñĭ Ñģ
ĠÐ½ ÐµÐº
ÐµÐ» Ð»
ĠÐ¢ ÐµÐ¿ÐµÑĢÑĮ
ĠÑģÐ» Ð¾Ð¶
Ð¼ Ð°Ð½
ĠÐ²Ð½ÑĥÑĤ ÑĢÐµÐ½
ĠÑĢ Ð¾Ð´
ĠÐ´ Ð¾Ð¼
ĠÐ¸ÑģÐ¿ ÑĭÑĤ
ĠÐ¿ÑĢÐ¸Ñģ ÑĥÑĤ
ĠÐ¸Ð¼ Ðµ
ÑģÑĤ ÑĢÑĥ
Ġ ÑīÐ¸ÑĤ
ÑĢÐµÐ¶ Ð´
Â Ń
Ð°Ð»ÑĮ Ð½Ð¾Ð¹
ÑıÑĤ ÑģÑı
ĠÐ¼Ð°ÑĪ Ð¸Ð½Ñĭ
ĠÐ¸Ð¼ ÐµÐ½Ð½Ð¾
ĠÑģ Ñĩ
Ð¸Ð² Ð°ÐµÑĤ
Ð² Ð¾
Ð¾ÑĤ Ð²ÐµÑĤ
ĠÑĤ Ð¾Ð¿
ĠÐ²Ñĭ ÑħÐ¾Ð´
ĠÐ± Ð°ÑĪ
ĠÑĢÐ°Ð· Ð³
ĠÑĢ Ñĭ
Ðµ ÑģÑĤÐ²ÐµÐ½
ĠÑģ ÑĢÐ°Ð·
ÑĨ Ð¾Ð²
Ñĩ Ð¸Ñģ
ÂłÂł ÂłÂł
ÑģÑĤÐ¾Ñı Ñī
ĠÐ´Ð°Ð»ÑĮ ÑĪÐµ
Ð°ÑĨ Ð¸Ñı
ĠÐ¶ÐµÐ» ÐµÐ·
ĠÐ¿Ð¾Ñĩ ÐµÐ¼Ñĥ
ÐµÐ½ Ð½ÑĥÑİ
Ð°Ð¿ Ð¸ÑĤÐ°Ð½
ĠÐ ®
Ð°Ð» Ñĥ
ĠÐ½ÐµÐ¼ Ð½Ð¾Ð³Ð¾
ĠÐ³ Ð½ÐµÐ²
ĠÐ» Ð¾ÑĢÐ´
Ñĭ Ñģ
ĠÑģ Ð¾Ð»Ð½
Ð¸Ð¼ Ð°Ð½
ĠÐ¿Ð¾ÑĤ Ð¾Ðº
ĠÐļ Ð¾
ĠÐ±ÑĥÐ´ ÑĥÑĤ
ÑĤÐµÑĢ ÐµÑģ
ĠÐ² ÑĢÐ°Ð¶
ĠÑĢÑĥ Ðº
ĠÐ±ÐµÐ· ÑĥÐ¼
ĠÐ¼ Ð½Ð¾Ð¹
Ð¸ÑĤ ÐµÐ»Ð¸
ÑĤ Ð¾Ð¼
ĠÑģÐ¸Ð» Ñĥ
ÑĢ Ð°Ð»
ĠÐĴ ÐµÐ»Ð¸Ðº
ĠÐ¾Ñī ÑĥÑĤ
ĠÐ²ÑģÑĤÑĢ ÐµÑĩ
ĠÐ¾Ð± ÑĢÐ°Ñī
ĠÐ´ ÑĥÑħ
ĠÐ¾Ð³ Ð½Ñı
ĠÐ¾Ð± Ð»Ð¾Ð¼
Ðļ Ð¾Ð³Ð´Ð°
ĠÑĤÐµÐ¼ Ð½Ð¾
ĠÐ¼Ð°ÑĪ Ð¸Ð½
ĠÑĤ ÑĮ
ĠÐ½Ð°ÑģÑĤ Ð¾Ð»ÑĮÐºÐ¾
ĠÑĤ ÑĢÑĥÐ¿
ÑĤÐ¾ÑĢ Ð°
Ð¾ ÐµÐ´Ð¸Ð½
ÑĪÐµ Ðµ
ĠÐ´ Ð¾ÑĢÐ¾Ð³
Ð± Ð°
ĠÑĥÐ± Ð¸Ð¹
ĠÑģÐ»ÑĥÑĩ Ð°
Ð² Ð¸Ð¶
ĠÐ¿ÑĢÐ¾ÑģÑĤ ÑĢÐ°Ð½
Ñĩ Ðµ
ĠÑĩÑĥÐ² ÑģÑĤÐ²Ð¾Ð²Ð°Ð»
ĠÐ¿ÑĢÐ¸Ð¼Ð°ÑĢÑħ Ð°
ÑģÑĤÐ² Ð¸Ñı
o u
ÑĢ Ð¾ÑģÑĤ
ĠÐ¸Ð½ ÑĦÐ¾ÑĢÐ¼
ĠÐ¾ÑģÑĤ Ð°Ð½
ĠÐ´ ÐµÐ²
ĠÐ½Ð°Ð¿ ÑĢÑı
ĠÐ²ÑģÑĤÑĢ ÐµÑĤ
ĠÐ¾Ð´ Ð½Ð¾
ĠÑĨ ÐµÐ»ÑĮ
ĠÐºÑĢ Ð¾Ð¼
ĠÐ¿ Ð¸ÑģÑĤÐ¾Ð»ÐµÑĤ
ĠÑģÑĤ Ð°Ð½Ð¾Ð²
ĠÐļ Ð°Ð»
Ñı Ð»Ð°
ĠÐ¶ ÐµÐ½Ñī
Ð ¨
ÑĤÐ¾ Ð½
ĠÐ² ÑģÑı
ĠÑģÑĤ ÐµÐº
ĠÐ¼Ñĭ ÑģÐ»Ð¸
ĠÐ¿ Ð°Ð½
ĠÑģÐ¿ Ð°Ñģ
ĠÐ²Ð¾ Ð¸Ð½Ñĭ
ĠÐ¾Ð¿ ÑĢÐµÐ´
ÑįÑĤ Ð¾Ð¼Ñĥ
ĠÐº Ð°Ð±
ĠÐ³ ÑĥÐ±
ĠÑģÐ¾Ð· Ð½
ĠÑĩÐµÐ»Ð¾Ð²ÐµÑĩ ÐµÑģÐº
ĠÐºÑĢ Ð¸Ðº
ÑıÑģ Ð½
ĠÐ¿ÑĢ Ð¾Ð³
ĠÑĪÑĤ ÑĥÑĢÐ¼
ĠÐ¾Ð± ÑĭÑĩ
ĠÐ¾ÑĤÐº ÑĢÑĭÑĤ
Ð½ÑĥÐ² ÑĪÐ¸ÑģÑĮ
Ð¾Ð» Ð¾Ð³
ĠÐĶ Ð°Ð¶Ðµ
Ð°Ð¹ Ðº
Ñĩ Ð¸Ð½
ĠÐ¾Ð± ÑĢÑĥÑĪ
Ð¾Ð± ÑĢÐ°Ð·
ĠÐ±Ð» Ð°Ð³Ð¾
ÑĢ Ð°ÑĤÑĮÑģÑı
ĠÐº Ð¾Ð³Ð¾
ĠÐ´ÐµÑĢ ÐµÐ²
ĠÐ·Ð° Ñī
ĠÐºÐ¾ÑģÐ¼ Ð¾Ð´ÐµÑģÐ°Ð½ÑĤÐ½Ð¸Ðº
ĠÐ· ÑĢ
ĠÑĥÑģÑĤ Ð°Ð½Ð¾Ð²
Ð°Ð» Ð°ÐºÑĤ
ĠÐ·ÐµÐ¼ Ð»Ñİ
ĠÑģ Ð¾Ð´
ĠÑĩÑĥÐ´Ð¾Ð² Ð¸Ñī
ÑĢ Ð¸Ñģ
ĠÐ± ÐµÐ¶
ĠÐ·Ð° Ñħ
ĠÐ·Ð°Ðº Ð¾Ð½Ñĩ
Ð°Ð¹ ÑĤÐµ
Ñĩ Ð¸Ðº
ĠÐ³ Ð¸Ð³Ð°Ð½ÑĤ
Ñħ ÑĢÐ°Ð½
Ð¾ÑĤ ÐµÐº
ÑĥÑİ ÑĤ
ĠÐ² ÑħÐ¾Ð´
ĠÐļ Ð°ÑĢ
ĠÑģ Ð¸Ð¼
ĠÐ³ÑĢÑı Ð·
ĠÐ¿ÑĢÐ¾Ð¸Ñģ ÑħÐ¾Ð´
ĠÐ·Ð° ÑģÑĤ
ĠÐºÐ¾Ð» Ð¾Ð½
ĠÑģ Ð¸Ð³
ĠÐ¿Ð¾Ð²ÐµÑĢ Ð½ÑĥÐ»ÑģÑı
ÑĨ Ð¸Ñı
ÑĥÐ¶ Ð´
Ð² Ðµ
ĠÑģÑĤ ÑĢÐµÐ¼
Ð¾ÑĢ Ð¾ÑĤ
ĠÑģÐµÑĢÐ² Ð¸ÑĤÐ¾ÑĢ
ĠÑģ ÑİÐ´Ð°
ĠÐ²ÐµÑĢ Ñħ
ÑĭÐ² Ð°ÑĤÑĮ
ĠÐ¿Ð¾Ð² ÐµÐ»
ĠÐ²Ñĭ Ð´
ĠÐ½ÐµÑģÐº Ð¾Ð»ÑĮ
ĠÐ½Ð°Ð² ÐµÑĢ
o r
Ð¸Ñģ Ðº
Ð² ÐµÐ½
Ð²ÐµÑĢ Ñħ
ĠÐ¾Ð³ Ð½ÐµÐ¼
ÑĤ Ñı
Ð»Ñı Ñı
Ð°Ð½ Ñģ
ĠÐ¿Ð¾ ÑħÐ¾Ð´
Ð¸Ð± Ð»Ð¸
Ð°ÑģÑĤ ÑĮ
ĠÑĢ ÐµÐ²
ĠÑĢÐ°Ð´ Ð¸
ĠÐ¼ Ð¸Ð³
Ð ĸ
ĠÑĦ Ð¾ÑĢÐ¼
ĠÐ¼Ð¾Ð³ ÑĥÑĤ
Ð¾Ð½ Ðµ
ĠÐ¿Ð¾Ð²ÐµÑĢÑħ Ð½Ð¾ÑģÑĤÐ¸
ĠÑģ ÐµÐ¼
ĠÐĲ Ð»
ĠÑĢÑĥ ÐºÐ¾Ð¹
Ðµ ÑģÑĤÐ²Ð°
ĠÐºÑĢÐ¾Ð² ÑĮÑİ
ĠÐºÐ¾ÑĢÐ°Ð± Ð»ÐµÐ¹
ÑĤ ÐµÐ½
ÑĢ Ð¾Ð³
Ð¾ÑĢ Ð½
ĠÐ½ Ð°Ð³
Ð¾Ð· Ð³
ĠÐ¾ÑĤ Ð»Ð¸Ñĩ
ÑĪ Ð»Ð¸
ĠÐ²Ñģ ÐµÐ¹
Ñģ ÐµÑĢ
ĠÑģÑĤ Ð°Ð»Ð¾
Ðĺ Ð¼
Ð°Ñİ ÑģÑĮ
) :
ĠÐ¿Ð¾Ðº Ð°Ñĩ
Ð¾ÑĤ Ñı
Ðº Ð¾Ð³Ð¾
ĠÐ´Ð² ÑĥÑħ
ĠÐ´ Ð°
ÐºÑĤ Ð¸Ð²
ĠÐ¾Ð±ÑĢÐ°Ð· Ð¾Ð¼
ĠÐ´ ÐµÑĤ
ĠÐ¼Ð½ Ð¾Ð¶Ðµ
ĠÐ´ ÐµÐ»Ð¾
e s
ĠÑĤÐ¾ ÑĩÐ½Ð¾
ÑģÑĤÐ²Ð¾Ð² Ð°ÑĤÑĮ
ĠÑĤÐ°Ðº Ð¸Ð¼
ĠÐ±Ð¾Ð» Ð¸
ĠÐ´ ÐµÐ½ÑĮ
Ð¾Ð¶ Ð¸Ð´
ÑģÐº Ð°Ð·
ĠÐ¾ÑĤÑĩ Ð°Ñı
ĠÐ½Ð°Ñĩ Ð°Ð»Ð¸
Ñĥ ÐºÐ¸
ĠÑĥ ÑĢÐ¾Ð²
ĠÑģÐ²ÐµÑĤ Ð°
ĠÑĥÐ´ ÐµÑĢÐ¶
ĠÐ¾ Ð¿ÐµÑĢ
ĠÐ¿Ð¾Ñģ Ð»
I I
Ðķ ÑģÐ»Ð¸
ĠÐļ ÑĢ
ĠÐ·Ð°Ð¿ Ð°Ñħ
ĠÐ½ Ð¾Ð¶
ĠÐº Ð°ÑĢÑĤ
Ð¾Ð¿ Ð°Ñģ
ĠÐ¿ÑĢÐ¸Ñħ Ð¾Ð´
ĠÑģÐµÑĢÐ´ ÑĨÐµ
ÑĨ Ð°Ð¼Ð¸
ĠÐ´Ð²ÐµÑĢ Ð¸
a r
ĠÑĦ Ð¸Ð³Ñĥ
ĠÐ· Ð»
Ð»ÐµÐ½ Ð½ÑĭÑħ
ĠÐ¾ÑĤ Ð²ÐµÑĢ
ĠÐ³Ð¾Ð²Ð¾ÑĢ Ð¸Ð»
Ð¢ Ð°Ðº
ĠÑĤÐ°Ðº Ð¾Ðµ
ĠÐ¿Ñģ Ð¸Ñħ
ĠÑģÐ²Ð¾ Ð¸Ð¼Ð¸
Ð¾Ð» Ð°Ð³
ĠÑģÐ»ÑĥÑĩÐ° Ðµ
Ð½Ð¾ ÑĪ
ÑĨ ÐµÐ½
Ðº Ð°Ñı
Ð¾ÑĤ Ñĥ
ĠÐ¾Ð´ Ð½Ð°ÐºÐ¾
ĠÐ½Ð° ÑģÑĤÑĥÐ¿
ĠÑĪ Ð¸Ð¿
ĠÐº Ð°ÑĢ
ĠÐºÐ¾Ð¼ Ð¿
ĠÐ¿Ð¾Ð» Ñĥ
ÑĢ Ð¾ÑĤÐ¸Ð²
ĠÐ°ÑĢ Ð¼
ĠÐ¿ÑĢ Ð¸ÑģÑĤ
ĠÐ¥Ð¾ÑĢ ÑĥÑģ
ĠÑĤ Ð¸Ñħ
ÑĪ Ð¸Ð±
ĠÑĥÐ¼ ÐµÑĢ
ĠÐ¿ÑĢÐ¾ÑĤÐ¸Ð² Ð½Ð¸ÐºÐ°
ĠÐº Ð¾Ð¿
ĠÐŁ Ð¾Ð²
ĠÐ¿Ð¾Ð´ Ð¾ÑĪ
ĠÐ½ Ð¸Ð·
ĠÐ¿Ð¾Ð¼ ÐµÑī
ĠÐ¼ Ð°Ð½
ĠÐ»Ð°Ð· ÐµÑĢ
ĠÐº Ð°Ð½
ĠÐ¼ Ð¸Ð¼Ð¾
ĠÐ²ÐµÐ´ ÑĮ
ĠÐ±ÑĢÐ°ÑĤÑĮ ÐµÐ²
ĠÐ¾ÑĢÑĥÐ¶ Ð¸Ñı
ĠÑĢÑĥ ÐºÐ°Ñħ
ÐµÑĢ Ðµ
ĠÐ¾Ðº Ð°Ð·Ð°Ð»ÑģÑı
Ð¾ ÐµÐ²
ĠÐŁ ÐµÑĢÐ²
ĠÑģÐ»ÑĭÑĪ Ð°Ð»
ĠÑĤÑĢÐ°Ð½ ÑģÐ¿
Ð°ÑĢ Ð¸Ðº
ĠÐ¼Ð¸ÑĢ Ð°
Ð°Ð½ Ð³
Ð°Ð½ Ð¸ÐµÐ¼
ĠÐ²Ð¾Ð·Ð´ÑĥÑħ Ðµ
ÑĢÑı Ñģ
ĠÐ¼ÐµÐ½ ÐµÐµ
ĠÑģÐ¾ ÑħÑĢÐ°Ð½
Ð½ ÐµÑĤ
ĠÐ¼ÐµÑģÑĤ Ð°
ĠÐ¾Ð± ÐµÑĢ
.. .
Ðº Ð°Ð¼
ÑĢÑĭ Ð»
ĠÐ¾Ð±ÑĢÐ°ÑĤ Ð½Ð¾
Ð°ÑĨ Ð¸Ð¾Ð½
Ġo f
Ð¾Ð¹ ÑĤÐ¸
Ð» ÐµÐ¶
Ð»Ð° Ñĩ
Ð½ Ð¾Ð³
ĠÑĤÐ¾Ð» Ð¿
ĠÐľ Ð°Ð»
ĠÐ¾Ñģ Ð»
ĠÑģÑĢÐ°Ð· Ñĥ
Ð¾ÑĢ Ñĭ
ĠÐ± Ð¾Ðº
Ð°Ð²ÑĪ Ð¸Ðµ
Ð¸ÑĢ Ð°
Ðº Ð¸Ð¼Ð¸
ĠÐĲÐ½Ð³ ÐµÐ»
ÑĦ Ð°
ÑĢÐ° ÑģÑĤ
ĠÐł Ð°ÑĦ
ÑĪ Ð¸Ð¼
ĠÐ½Ð° ÑģÐº
ĠÐ¿Ð¾Ð² ÑĤÐ¾ÑĢ
ĠÐ¾ÑģÑĤ Ð°Ð»Ð¾ÑģÑĮ
ĠÐ½ÐµÐ½ Ð°Ð²
ĠÐ½ Ð¸Ð¶
Ð³Ð»Ñı Ð´ÐµÐ»
ĠÐ¼Ð°Ð» ÐµÐ½ÑĮ
Ð°ÑİÑī Ð¸Ð¼
ĠÑģÑĤ ÑĢÐµÐ»
Ñģ Ñİ
ĠÐ²ÑĭÑĢ Ð²
Ð» Ð°Ð·
ĠÐ²Ð¾ Ð¸Ð½Ð°
ĠÐ¿Ð¾Ð· Ð°Ð´Ð¸
ÐµÐ» ÐµÐ¼
ĠÐºÐ¾ÑĤÐ¾ÑĢ ÑĭÐ¼
ĠÑģ ÑįÑĢ
ĠÑĩ ÐµÑĤÑĭ
ĠÐ· Ð¾Ð»Ð¾ÑĤ
ĠÐ¼ ÑĥÐ¶
ĠÐ¿Ð¾Ðº ÑĢÑĭÑĤ
ĠÐ±Ð¾ÐµÐ² Ð¾Ð¹
ÑĢ Ð¾Ðº
ĠÐºÐ¾Ð½ ÑĨÐµ
ÐµÐº Ñģ
ĠÐ½Ð°Ñĩ Ð¸Ð½
ĠÐ· Ð²ÐµÑĢ
ĠÐ½ Ð°Ð¼Ð¸
ĠÐ½Ð¸Ðº ÑĤÐ¾
ĠÑĨ ÐµÐ»Ð¸
ĠÐ±Ð»Ð°Ð³ Ð¾Ð´Ð°ÑĢ
ĠÐ¾Ð± Ð»Ð°Ð´
Ð¾Ð½ ÐµÑĩÐ½Ð¾
ĠÐ± ÐµÐ³
ĠÐ´Ð¾Ð» Ð³Ð¾
Ð°Ð½ Ð½Ð¾
ĠÑĤ Ð°
Ð°ÑĨ Ð¸Ñİ
Ð°Ðº Ñģ
Ð¾Ñĩ ÑĮ
ĠÑįÑĤ Ð°
ĠÐ¾Ð´ Ð½Ð¸Ð¼
ĠÑģÐ»ÐµÐ´ ÑĥÑİÑī
ĠÑģÐ¸ÑģÑĤÐµÐ¼ Ñĭ
ÑĢÐ°Ð¶ ÐµÐ½Ð¸Ðµ
ĠÐ²Ñģ Ñİ
Ð½Ð¸Ðº Ð¾Ð¼
ĠÑģÐ¿ Ð¾ÐºÐ¾Ð¹
ÐµÐ· Ð²
ĠÐ° Ð±
Ð°Ð² Ð¸Ð»
ĠÐ¸Ð· Ð¾Ð±ÑĢÐ°Ð¶
ĠÑĢÐ°Ð· Ð¾ÑĢÐ²
ĠÑĩ Ð¸ÑģÑĤ
ĠÐĲ Ð½
ĠÐ± ÑĥÑĢ
ĠÑĥÑģÐ»ÑĭÑĪ Ð°Ð»
ĠÑģÐµÐºÑĥÐ½ Ð´Ñĥ
Ð°Ð»ÑĮ Ð½ÑĭÐ¹
ĠÐ·Ð°Ñī Ð¸Ñī
ĠÐ²Ð¾Ñģ ÑģÑĤ
ĠÐ¼Ð¾Ð³ Ð»Ð°
ĠÐ²Ð½Ð¸Ð¼ Ð°Ð½Ð¸Ðµ
ĠÐ¾ÑĢ Ð³Ð°Ð½
ĠÐ± Ð°ÑĢ
ĠÑĥÐ· Ð½
Ð¸Ðº Ñģ
ĠÐ¿Ð¾Ð´ÑĥÐ¼ Ð°Ð»
Ð± Ñĥ
Ð³ÑĢ Ð¸Ð¼
Ð½ Ð¸Ñı
ĠÐ¼Ð¾Ð» Ñĩ
ÑĢÑĭ Ð·
ĠÐ¿Ð»Ð¾ÑĤ Ð¸
ĠÑĥ Ñħ
ÑĨ Ñĥ
ĠÐºÑĢÐ¾Ð² Ð°Ð²
ĠÐ¿ÑĭÑĤ Ð°ÑıÑģÑĮ
Ð°Ðº Ð°
ĠÐĴ Ð°ÑĢ
Ðµ ÑģÑĤÐ²Ð¾
ÑĤ Ð²ÐµÑĢ
ĠÐºÑĢÐ¾Ð¼ Ðµ
ĠÐ¡ ÐµÑĢ
Ð¸ÑĤÐµÐ»ÑĮ Ð½ÑĭÐ¹
ĠÐ³Ð»Ð°Ð· Ð°Ð¼Ð¸
ÐĴ ÑģÐµ
ĠÐĴ ÐµÑĢ
ĠÐºÐ¾Ð½ ÑĤÑĢ
a s
ĠÑģÐ¾Ð² ÑģÐµÐ¼
ÑİÑĤ ÑģÑı
ĠÐ²ÑĢÐ°Ð³ Ð¾Ð²
ĠÐ²Ð¾ Ð¾ÑĢÑĥÐ¶
ĠÑĥÐ»ÑĭÐ± Ð½ÑĥÐ»ÑģÑı
ĠÐ³ Ð¸Ð±
ĠÐ¶ ÐµÑĢÑĤÐ²
ĠÐ²Ð·Ð³Ð»ÑıÐ´ Ð¾Ð¼
ĠÐ´ÑĢÑĥÐ³ Ð°
ĠÑĢÐ°Ð½ ÑĮÑĪÐµ
ĠÐ¾Ð´ Ð½Ð°
ĠÐ¿ Ð»Ð°ÑģÑĤ
ÐŁ Ð¾Ñģ
Ð³Ð¾ ÑĤÐ¾Ð²
ÑĨ Ð°ÑĢ
ĠÑģÐµÐºÑĥÐ½ Ð´
ÑĢÑĭ Ð³
ĠÐ¿ÑĢ Ð°ÐºÑĤ
ĠÐ¸ÑģÑĤ Ð¾ÑĢ
ĠÐ¿ÐµÑĢ ÐµÐ¿
Ñĥ Ð»Ñı
ĠÐ³Ð¾ ÑĢÑı
ĠÑĢÑĥ Ñħ
Ð¸Ñı Ð¼Ð¸
ĠÐ¿Ð¾ ÑģÑĤÑĥÐ¿
ÐµÐ³Ð¾ ÑģÑı
ĠÐ° Ð»
ĠÐº ÑĥÑĢ
Ð» Ñĥ
ĠÐ±ÐµÐ· Ð¾Ð¿Ð°Ñģ
ĠÐ¿Ð¾ÑģÐ»ÐµÐ´ Ð½Ð¸Ð¹
ĠÐ´ Ð¸Ñģ
ÑĥÐ»ÑĮ Ñģ
Ð»ÐµÐ½ Ð½ÑĭÐ¹
ĠÐ²Ð¾Ð·Ð² ÑĢÐ°Ñī
ĠÐ½Ð°Ð¿ Ð¾Ð¼Ð¸Ð½
Ð¼ Ð¾
ĠÐ» ÐµÐ²
ĠÐ»ÐµÐ³Ð¸Ð¾Ð½ Ð°
ÑĨ Ð¸Ð¹
Ð¼ Ð¾Ñģ
ĠÐľ ÐµÑħÐ°Ð½
Ġ (
ĠÑģÐ¿ ÑĥÑģÑĤ
ĠÐ´Ð°Ð² Ð½Ð¾
ĠÐ² Ð²ÐµÑĢÑħ
ĠÐ³Ð»Ð°Ð· Ð°Ñħ
ĠÐº ÑģÐµÐ½
ĠÑĩ ÑĥÐ¶
Ðµ Ñİ
ÑĢ ÐµÑģ
ĠÐ¿ÑĢÐ¸Ðº Ð°Ð·Ð°Ð»
ĠÐ²Ð¾Ð· Ð½Ð¸Ðº
ĠÑģÐº ÑĢÑĭÐ²
Ð¸Ð¼ Ð°ÑĢÑħ
ĠÐ² Ð¸Ð·
ĠÐº Ð°Ñĩ
Ġ d
ÐµÐ² ÐµÑĢ
Ð°Ð´ÑĨ Ð°ÑĤ
ĠÐ³ Ð²Ð°ÑĢÐ´
ĠÑĢÑĥ ÐºÐµ
ĠÐºÐ¾ÑĢÐ°Ð± Ð»Ð¸
Ð¾Ð´ Ð½Ñı
Ð¾ÑĢ Ð°ÑĩÐ¸Ð²
ĠÑĥÐ¼ Ð¸ÑĢ
ĠÐ¼Ð¾ Ð¸
ĠÐ¼ Ð¾ÑĢ
Ð¾Ñħ Ð½ÑĥÐ»
ÑĢÐ°Ð ¿
ĠÐ¿Ð¾ ÑģÑĤÐ¾ÑıÐ½
ĠÐ³ ÑĢÑĥÐ·
Ðŀ Ð´
ĠÑĥÐ³ÑĢ Ð¾Ð·
ĠÐºÐ¾Ð½ ÑĤ
ĠÐ¥Ð¾ÑĢ ÑĥÑģÐ°
ĠÐ·Ð² ÐµÐ·Ð´
ĠÐ²ÑĢÐ°Ð¶ ÐµÑģÐº
ĠÐ½ÐµÐ¾Ð±ÑħÐ¾Ð´ Ð¸Ð¼
ĠÐ²Ñĭ Ðº
ĠÐ½Ð°Ñĩ Ð°Ð»Ð°
ĠÑģÑĤ ÑĢÑĥ
ÑĢÐ°Ðº Ñģ
ĠÑģÐ¸Ð¼ Ð²Ð¾Ð»
ĠÐ¾ÑĤÐºÑĢÑĭ Ð»
Ðĺ Ð·
ĠÐ½Ðµ Ð¸Ð·
ĠÐ·Ð° ÑħÐ²Ð°ÑĤ
Ð¾Ð½ ÑĤ
Ð¸ ÑĥÑģ
Ġa nd
ÑĢÑĥ ÑĤ
ĠÐ±Ð¾ÐµÐ² ÑĭÑħ
ĠÑıÐ² Ð»Ñı
ĠÑĩ Ð¸Ñģ
ĠÑį ÑĦ
ĠÐ¿Ð¾Ñģ Ðº
ĠÐ¿Ð» Ð°ÑĤ
ÑĤÑĮ ÑģÑı
ĠÐ´ Ð¾Ð¿
ĠÑįÑĤ Ð¾Ð¼Ñĥ
ĠÑģÐµÑĢ ÐµÐ±
ĠÐ²ÑģÐ¿ ÑĭÑĪ
ÐŁ Ð¾
Ð¾Ñģ Ñĭ
ĠÑĢÐµÐ· ÐºÐ¾
ĠÑģÐ¼Ð¾ÑĤ ÑĢÐµÐ»
ĠÐĿ Ð¸Ðº
ĠÐ´ÑĢ Ð¾Ð¶
ĠÐ´ÐµÐ» Ðµ
ĠÐ¾ÑģÑĤÐ°Ð»ÑĮ Ð½ÑĭÐµ
ĠÐ³Ð¾Ð»Ð¾Ð² Ñĭ
ĠÐ³Ð¾ÑĢ Ð¾Ð´Ð°
ĠÐ²Ð°ÑĢÐ¿ Ð°
ĠÐ½Ð°Ð´ Ð¾
ĠÐ¼ ÐµÐ»
ÑĥÐ» Ð³ÑĢÐ¸Ð¼
Ð¿ Ð¾Ð´
ĠÐ¾ÑĤ Ð´
ĠÑģÐ» Ð¾Ð¼
ĠÐ¿Ð» Ð¾Ñī
ĠÐĵÐ²Ð°ÑĢÐ´ Ð¸Ð¸
ĠÑĩÐ°Ñģ Ð¾Ð²
Ð¾ÑĢ Ð¾Ð²
Ð»ÐµÐ½ Ñĭ
ĠÐ² Ð¾Ð½
Ð¸ÑĤÐµÐ»ÑĮ Ð½ÑĭÐµ
ĠÐĽÐµÐ³Ð¸Ð¾Ð½ Ð°
Ðµ ÑĦ
Ð¼ ÐµÑĪ
ĠÐ¾ÑģÑĤ Ð¾ÑĢÐ¾Ð¶
ĠÐ´Ð²ÐµÑĢ ÑĮ
ĠÐ¿ÑĢ Ð¾Ð²ÐµÑĢ
ĠÐ¸ Ð³
ĠÐ½Ð° ÑģÑĤÐ¾ÑıÑī
ĠÐ¿ÑĢ Ð¾Ð¼
ÑĢÐ°Ð± Ð¾ÑĤ
ĠÐº ÑĢÑĥÐ³
ĠÐ¼Ð¾Ð³ Ð»Ð¾
ĠÐ±ÑĢÐ°ÑĤ Ð°
ĠÐºÐ°Ð¿ Ð¸ÑĤÐ°Ð½Ð°
ÐĲ ÑĢ
ĠÐĴ Ð¾ÑĢ
ÑĢ ÐµÐ¹
ĠÐ´Ð¾ÑģÑĤ Ð¸Ð³
ĠÐ½ÐµÑģÐºÐ¾Ð»ÑĮ ÐºÐ¸Ñħ
Ð° Ñį
Ð¸ÑĨ Ñĭ
ĠÐ»Ð¸ÑĨ Ðµ
ĠÐ½Ð°Ð¹ ÑĤÐ¸
ĠÑģ ÑĥÐ´ÑĮ
ĠÐŁ Ð¾Ð»
ĠÐ³ÑĢÑĥÐ´ Ð¸
ĠÐ±Ñĭ ÑģÑĤÑĢ
ÐµÑģ Ð°
ĠÑĤÑĢ ÐµÐ²
ĠÐ´Ð°Ð» ÐµÐºÐ¾
ĠÑĥÐ´ Ð°Ð»Ð¾ÑģÑĮ
ĠÐ¾ÑĢÑĥÐ´ Ð¸Ð¹
ĠÐ½Ð°Ð±Ð»Ñİ Ð´
ĠÐĵ Ð¾ÑĢ
ĠÐ²Ð¾Ð¹ ÑģÐº
ĠÐ¾ ÑĪÐ¸Ð±
ÐµÐ½ ÐµÐ¼
ĠÐ¿ÐµÑĢ ÐµÑħ
ĠÐ¿Ð¾Ð» Ðµ
ĠÐ´Ð¾Ð»Ð¶ Ð½Ð¾
ĠÐ¿ÑĢÐ¾Ð½ Ð·
ĠÐ² ÐµÐ»Ð¸Ñĩ
ĠÐ¾Ð¿ÑĢÐµÐ´ ÐµÐ»
ĠÑįÐ½ÐµÑĢÐ³ Ð¸Ð¸
ĠÐľÐµÑħÐ°Ð½ Ð¸Ðº
Ñı Ñı
ĠÐ· ÑĥÐ±
ĠÐ¾ÑĢ ÐºÐ¾Ð²
Ð³Ð¾ Ð»
ĠÐ¿ÑĢÐµÐ´ ÑĥÐ¿
ĠÑĪÐ¸ÑĢ Ð¾Ðº
ĠÐ¿Ð¾Ð´ ÑħÐ¾Ð´
ĠÐ·Ð°Ð² ÐµÑĢ
Ð¸Ðº Ñĥ
ÑĢÐ¸ ÑįÐ»ÑĮ
ĠÐ¿ÑĢÐ¸Ñģ Ð¾ÐµÐ´Ð¸Ð½
ĠÑĢ Ð¾ÑĤ
ÑĥÐ½ Ð½
ĠÐ¿ÐµÑĢÐ² ÑĭÐ¹
ĠÐĴ Ð¾Ð·Ð¼Ð¾Ð¶Ð½Ð¾
ÑĢ ÐµÑĤÑĮ
ĠÐ¿Ð¾ÑĢ ÑıÐ´
ĠÐ¿Ð»Ð¾ÑĤ ÑĮ
Ñĥ Ñı
ĠÐ¶ Ð´
ĠÑģÐ¸Ð»ÑĮ Ð½Ð¾
Ð¾ ÑĤÐ¾Ñĩ
ĠÐļ Ñħ
ĠÐºÐ¾Ð½ ÐµÑĩ
ÑĢ Ð¸Ð²
Ð¾Ð»ÑĮ ÐºÑĥ
ĠÑģ Ð¾Ðº
ĠÐ¾Ñħ ÑĢÐ°Ð½
Ð½ Ð¾Ðº
ĠÐļ Ð°Ð¶Ð´
ĠÐ±ÑĢÐ¾Ð½ Ñİ
ÑģÑı ÑĤ
Ð» Ð¸Ð±Ð¾
Ð°Ð» Ñĭ
ÐµÐ² Ð¸Ð´
ÐµÑĢ Ð°Ð¼
ĠÐº ÑĥÑģÐº
ĠÐ¾ÑĢ Ð±Ð¸ÑĤ
Ð½ ÐµÑģ
ĠÑı Ð·Ñĭ
Ð¸ÑĢÐ¾Ð² Ð°Ð»Ð¸
ÑĨ ÐµÐ»
ĠÐĲ Ð»ÑĮ
ĠÐ¸ÑģÐº ÑĥÑģ
ĠÐ½ÐµÐ± Ð¾Ð»ÑĮÑĪ
ĠÑĤ Ð°Ð¹
ÑıÑĤÑĮ ÑģÑı
ĠÐ°ÑĢ Ñħ
Ð´ ÐµÑģÑĮ
Ġ m
Ð¸Ð ³Ð¾
ĠÐºÐ¾ÑĢ Ð¾ÑĤ
ĠÑıÐ² Ð½Ð¾
ĠÑı Ñģ
ĠÐºÐ¾ÑĢÐ¿ ÑĥÑģ
ĠÑģÐ¾Ð²ÐµÑĢÑĪ ÐµÐ½Ð½Ð¾
Ð¡ ÑĤ
ĠÐĹ Ð°ÑĤÐµÐ¼
ĠÐ²Ð½ ÐµÐ·Ð°Ð¿Ð½Ð¾
ĠÐ¿ÑĢÐ¾ ÑĨ
Ð¸ÑĢ Ð°Ð½
ĠÐĲÐ´ ÐµÐ¿ÑĤ
Ð¾ÑĤ Ð¾Ð¼
ĠÐ¿ÐµÑĢ ÐµÐ¼
ÐµÐ¹ ÑģÑı
ĠÑĩ ÐµÑĤ
Ñı Ð»Ð¸ÑģÑĮ
Ð°Ð²ÑĪ Ð¸Ð¹
ĠÑģÐ¿ ÑĥÑģÐº
ĠÑĥÐº ÑĢÐ°ÑĪ
Ð°ÑģÑĤ Ð¸
ĠÐ´Ð² Ð¾ÑĢ
ĠÑģÐ¾Ð¿ ÑĢÐ¾Ð²
Ð»Ð¸Ð² Ð¾
ĠÐ³Ð¾ ÑģÐ¿
ĠÐ²ÐµÑĤ ÐµÑĢ
ĠÐ²Ð¸Ð´ ÐµÑĤÑĮ
ĠÐ¿Ñģ Ð°Ð¹Ðº
ĠÐĽ Ð¾Ðº
ĠÐ½ÐµÐ¿ Ð¾Ð´
ĠÐ¼ Ð¾Ð·Ð³
ĠÑħ ÑĢÐ°Ð½
ĠÑĤ ÐµÐ½Ð¸
Ð¸Ð» Ð¾Ð¼ÐµÑĤ
ĠÐ·Ð°Ðº Ð»ÑİÑĩ
Ðł Ð°Ð·
Ñį Ð¹
ÑĮ Ð¸
ĠÐ¿Ð¾Ð½ ÑıÑĤÑĮ
Ġ p
ĠÑįÐº Ð¸Ð¿
Ð¾Ð» Ñĩ
Ð¾ÑĪ Ð»Ð¾
ĠÐ·Ð°Ð´ ÑĥÐ¼
ĠÐ¿ Ð¸Ð»
ĠÐ¿ÑĢÐ¾Ð½ Ð¸Ðº
ĠÐ¼ÐµÑĤ ÑĢÐ¾Ð²
ĠÐ¿Ð¾Ð´Ð¾Ð± Ð½Ð¾
ĠÑģÐ¸Ð» Ð¾Ð¹
ĠÐ½ Ð°Ð»
ĠÑģÐºÐ°Ð· Ð°Ð»Ð°
ĠÐ±ÐµÑģ Ñģ
ĠÑĢÐ°Ð² Ð½Ð¾
ÑĥÑİ ÑģÑı
ĠÑĥ Ð´Ð°
Ð¾Ð» Ð¾Ð²
Ð¸Ð² Ð°Ð»Ð¸ÑģÑĮ
ĠÑĥ Ð»Ð¸
ĠÑģÐ¿ Ð¸Ð½Ð¾Ð¹
ĠÑģÐ¸Ð³ Ð½Ð°Ð»
Ð¸ Ð½Ð¾
Ð»Ñı ÑİÑī
Ġ âĢľ
Ð¸ÑĤÐµÐ»ÑĮ Ð½ÑĭÐ¼
ĠÐ¿ÑĢÐ¸ÑĪ Ð»Ð¾ÑģÑĮ
ĠÐĳ ÐµÐ»
ĠÐ½Ð°Ð¿ Ð¾Ð»Ð½
ĠÐ¶Ð¸Ð² Ð¾ÑĤ
ÑĭÐ² Ð°ÐµÑĤ
ĠÐ½Ð°ÑģÐº Ð¾Ð»ÑĮÐºÐ¾
ĠÑģ Ð´ÐµÑĢÐ¶
ÐµÑĩ ÑĮ
ĠÑģÐ¾Ð· Ð´
ĠÐ² ÐµÑī
Ð¼ Ð±
Ð¼ Ð°ÑĢ
ĠÐ½Ð°ÑĪ Ð¸
ĠÐ¿ ÑĥÑĪ
ĠÐ» ÐµÐ´
ĠÐ±ÑĢÐ°ÑĤÑĮ Ñı
ĠÑģÑĢÐ°Ð¶ Ð°ÑĤÑĮÑģÑı
ĠÑĥÐ¿ Ð°Ð»
ÑĢÐ¸Ñĩ Ð°Ð»
Ñĭ ÑĢ
Ðķ Ð³Ð¾
Ð°Ð²ÑĪ Ð¸ÑģÑĮ
ĠÑħÐ¾ÑĤ ÑĮ
ĠÐ¿ÐµÑĢ ÐµÑģ
Ð¸Ð¶ Ñĥ
ĠÐ¼ÐµÑĢ ÑĨ
ĠÑģÐ²ÐµÑĢ Ñħ
ĠÐ¼ Ð°ÑĢ
ĠÑħ ÑĢÐ°Ð¼
ĠÑģÐ²Ð¾ ÐµÐ¼
ÐµÐ½ Ð´
ĠÑĥÐ²Ð¸Ð´ ÐµÑĤÑĮ
ĠÐ¼ Ð°ÑģÑĤ
Ð»Ñı Ð»Ð¸
Ð°Ð»ÑĮ Ð½ÑĭÑħ
ĠÐ¿Ð¾Ðº Ð°Ð·
ĠÐ¾ÑĤÐº ÑĢÑĭÐ²
ĠÐ·Ð°Ð³ Ð¾Ð²Ð¾ÑĢ
ĠÐ¼ Ð°ÑĤÐµÑĢ
ĠÑĤ ÑĥÐ´Ð°
ĠÐ¿ÑĢÐ¾Ð´Ð¾Ð»Ð¶ Ð°Ð»
ĠÑĤÐ°Ðº ÑĤ
ĠÐ¾Ð± Ñī
ĠÐ¾ÑģÐº Ð¾Ð»
ĠÐ¿ÑĢ Ñĭ
Ð¾Ð½ ÐµÑĩ
ĠÐ¾Ð´ Ð½Ñĥ
ĠÐ±Ð¾ÑĢ ÑĤÑĥ
Ð» Ð¾Ð¿
Ð¾Ð±Ñĭ ÑĤ
Ð°Ð·Ð°Ð» Ð°ÑģÑĮ
Ð¸ÑĩÐµÑģÐº Ð¸Ð¼
ĠÐ²Ð½Ð¸Ð¼ Ð°Ð½Ð¸Ñı
ĠÐ¡ Ð¼ÐµÑĢ
ĠÐľ Ð½Ðµ
ĠÐºÑĢÐ°Ð¹ Ð½ÐµÐ¹
ĠÐ¿ÐµÑĢ ÐµÑģÑĤ
ĠÐ½ÐµÑģ Ð¼Ð¾ÑĤÑĢÑı
ĠÐ¿Ð¾ ÑįÑĤÐ¾Ð¼Ñĥ
ĠÐ±ÑĢÐ¾Ð½ Ð¸
ĠÐ¿ Ð»Ð°
ÑĢ Ð°Ñħ
ĠÑĢÐ°Ð· Ð¼ÐµÑĢ
ĠÐ¼Ð¾Ð¶ ÐµÐ¼
ÑĨ ÐµÐ¼
Ð¾Ð± Ð¾Ð¹
ĠÐ¡ Ð²
Ð°Ñģ Ðº
ĠÑģÐ¿ ÑĢÐ°Ð²
ÑĢÑĥ Ñģ
ĠÑģ Ð¸Ñı
ĠÐ²Ð·Ð³Ð»Ñı Ð½ÑĥÐ»
Ð¾ÑıÑĤ Ð½Ð¾
ĠÐ¾Ñħ Ð¾ÑĤ
ĠÐ¿Ð¾ ÑĪ
ĠÐ° ÐºÑĤÐ¸Ð²
ÐµÐ½ Ñģ
Ð¸Ð· Ð¼
ĠÑĢÐ°Ð· Ð»Ð¸Ñĩ
ĠÐ¿Ð¾ÑĤ ÑĢÐµÐ±
ĠÐ¿ÑĢÐ¾ÑĤ Ñı
ĠÐ³ÑĢ Ð¾ÑħÐ¾ÑĤ
Ð· Ñı
Ð°Ðº Ð¾Ð²
ĠÐ·Ð°Ð½ Ð¸Ð¼
Ð°Ð´ Ð»ÐµÐ¶
ĠÐ³Ð»ÑĥÐ± Ð¾Ðº
ĠÐ±ÑĢÐ¾Ð½ Ð¸ÑĢÐ¾Ð²Ð°Ð½
ĠÐºÐ»Ð¸Ð½ Ð¾Ðº
Ð½Ð¾ÑģÑĤ ÐµÐ¹
a n
ĠÐļ ÑĥÐ»Ð°Ðº
Ð¾Ð» Ð¸ÑĤ
ĠÐ±Ð¾Ð» ÑĤ
Ð´ Ð¾Ð½
ÑĥÐ½ Ðº
ĠÐ±Ð¾ Ñİ
ĠÐ¿Ð¾Ð¼ Ð¾Ð³
ÑģÐ» Ð¾Ð²
ĠÐ¿ÑĢ Ð¸Ð»
ĠÐ·Ð² ÑĥÐº
ĠÑĥÐº ÑĢÐµÐ¿
Ð½ Ð¸Ð¸
ĠÑĤ ÑĥÐ½Ð½
ÑĨ Ð¸Ñİ
ĠÐ¿Ð¾ ÑĤÐ¾Ð»
ÑĢ Ð¾Ð±
Ð½Ñĥ Ñģ
ĠÐ¿Ð¾Ð´Ð½ÑıÐ» ÑģÑı
Ð¾Ðº Ñģ
ĠÐ²Ñĭ Ð³Ð»ÑıÐ´ÐµÐ»
Ð¸ÑĤÐµÐ»ÑĮ Ð½Ð¾Ð¹
ĠÐ¼ ÑĢÐ°Ñĩ
ĠÑģÐ¾ÑģÑĤ Ð°Ð²
Ð¼ Ð°Ñħ
ĠÐ± Ñĥ
Ð¸Ñģ Ð°
ĠÑģÑĤ ÑĥÐ¿
ĠÐ¿ÑĢÐ¸Ð½ Ð°Ð´Ð»ÐµÐ¶
ĠÐ¿Ð¾ÐºÐ°Ñĩ Ð°Ð»
ĠÐ²Ñĭ ÑģÑĤÑĥÐ¿
Ð´Ñĥ Ñī
ĠÐ¿ÑĭÑĤ Ð°Ð»ÑģÑı
ÑĢÐ¾Ñģ Ð¸Ð»Ð°
ĠÐ¾ÑīÑĥÑĤ Ð¸Ð»
ĠÐ¸ Ð´Ðµ
Ð¸ ÑīÐµ
ÐµÑĢ Ð¾
ĠÐŀ ÑģÑĤ
Ð°ÑİÑī Ð¸Ð¼Ð¸
ĠÐ±Ð»Ð¸Ð¶ Ðµ
ĠÐ¼ÐµÑĤÐ°Ð» Ð»Ð°
Ð¼Ð¸Ð½ Ð°ÑĤÐ¾ÑĢ
Ð² ÐµÐ´
ÐµÐ¼ ÑģÑı
ĠÐĲÐ´ÐµÐ¿ÑĤ ÑĥÑģ
ĠÐ» Ð°Ð´
Ð´ Ð¾Ð²
ĠÐ¿ ÑĭÐ»
ĠÑħ Ð°
ĠÐº Ð°Ð¶ÐµÑĤÑģÑı
ĠÐ¼ Ð°Ð»Ð¾
ĠÑĢÐµ Ð°Ð»ÑĮ
Ð¾Ð¼ Ð°Ð½Ð´
Ð¾ÑĢ Ð¾Ð¼
ĠÐ¿Ð¾Ð´ ÑĤÐ²ÐµÑĢ
ĠÐºÐ¾Ð³ ÑĤ
ĠÐ¿Ð¾ÑģÐº Ð¾Ð»ÑĮÐºÑĥ
Ð¸Ð½ ÑģÑĤÐ²Ð¾
Ð°ÑĤÐ¾ ÑĢÑĥ
ĠÐ´Ð¾ÑģÐ¿ÐµÑħ Ð¸
ĠÐ±ÑĢÐ¾Ñģ Ð¸Ð»
ĠÐ¿ÑĢÐ¾Ðº Ð»ÑıÑĤ
Ð¾Ñĩ ÐµÐ¼Ñĥ
ĠÐļ Ð¾Ð»
ĠÑĪ ÑĥÐ¼
ĠÐ¿Ð¾Ð´ Ð¾Ð·
ĠÐ²Ðº Ð»ÑİÑĩ
ÐµÐ¹ Ð½
ĠÑģ Ð¸Ð½
ĠÑģÐ²ÐµÑĢ Ðº
ĠÐ³ Ð»ÑıÐ´
ĠÐ¿Ð¾Ð²ÐµÑĢÑħ Ð½Ð¾ÑģÑĤÑĮ
ĠÑĢÑĥ ÐºÐ°Ð¼Ð¸
ÑĨ Ð¸Ð¿
Ð½Ñı Ñı
ĠÐ·Ð°ÑĢ ÑıÐ´
ĠÐ¢ Ð°ÑĢ
ĠÐ» ÐµÐ·Ð²
ĠÑģÑĤÐ¾ Ð¸ÑĤ
Ðº ÑĥÑİ
ÑĤÐ¾ Ðµ
ĠÑģÐ» Ð°Ð²
Ð½Ð¸ÑĨ Ñĭ
ĠÐ¿ÑĢ Ð¸ÑĨ
ĠÐ¤ ÑĥÐ»Ð³ÑĢÐ¸Ð¼
ĠÑĥÑģÐ¿ ÐµÐ»
ĠÐ¿Ð¾Ð´ ÑĩÐ¸Ð½
Ð» ÑĥÐ¶
ĠÑĩ ÑĥÑĤÑĮ
ĠÐ¿Ð¾Ð¿ Ð°Ð´
ĠÐĽ Ð¾ÑĢÐ³
ÑĪ Ð°Ñı
Ð½ÑĥÐ» Ð¾
ÑĥÑĩ Ð°Ð»
ĠÑĤ Ð¾Ð²Ð°ÑĢ
ĠÑĥ ÑħÐ¾Ð´
Ð°Ñħ Ð°ÑĢÐ¸
ĠÐ¿Ð¾Ð» Ð°Ð³
ĠÐ»Ð¸ÑĨ Ð¾Ð¼
ĠÐ¿Ð¾Ð» ÐºÐ¾Ð²
ĠÐ¿ÐµÑĢ ÐµÐ±
ĠÐ¸Ð¼ Ð¿
ĠÐ¿Ð» Ð°Ð·
ĠÐ´ ÑĭÑħ
ĠÑĤÐ°Ðº Ð¾Ð³Ð¾
ĠÐ¾ÑĤ ÑĢÑıÐ´
ÑĢÐµÐ¼ ÐµÐ½Ð½Ð¾
Ġ in
Ð»ÐµÐ½ Ð¸Ð¸
ĠÐ²ÑģÐ¿ ÑĭÑħ
ĠÐ¿ÑĢÐµÐº ÑĢÐ°Ñģ
Ð½ ÐµÐ¼Ñĥ
Ð¾Ðº Ð¾Ð¶
Ð»Ð¾ Ñī
ĠÐŀÐ´ Ð½Ð°ÐºÐ¾
Ð¾Ð± ÑīÐµ
ĠÑģ Ð¾Ñĩ
ĠÐ¼Ð½Ð¾Ð³ Ð¸Ðµ
ĠÐ² Ð¸Ñģ
ĠÐ²Ð· Ð¾ÑĢÐ²
ĠÐ·Ð°Ð¼ ÐµÑĢ
ÑģÑĤÐ² ÑĥÑİÑī
ÐµÐ½Ð¸Ñı Ð¼Ð¸
ĠÑģÐ°Ð¼ Ð¾Ð¹
ĠÑĢÐµÑĪ Ð¸Ð»
ĠÐ³Ð²Ð°ÑĢÐ´ ÐµÐ¹
ĠÐ¿ÑĢÐ¾Ð² Ð¾Ð´
Ð¾Ð½ Ð¾Ð¼
Ð¾Ð· Ñı
ĠÐ¾Ð± ÑıÐ·
Ð¾Ð±Ñĭ Ñĩ
ĠÐĳ Ð¾Ð³
Ð¸Ñı Ñħ
ÐĴ Ð¾
ĠÑĨÐ²ÐµÑĤ Ð°
Ð¡ Ðº
ĠÐ±Ð»Ð¸Ð¶ Ð°Ð¹
ÐºÑĥ Ð´Ð°
ĠÐ¼Ð¾ ÐµÐ¹
ĠÑĢÐ°Ð· ÑĢÑĭÐ²
ĠÐ½ Ð°ÑĤ
ĠÐ²Ð¾Ð·Ð² ÑĭÑĪ
a l
Ð°ÑİÑī Ð¸ÑħÑģÑı
ĠÐ· Ð°Ð¶
ĠÐ±Ñĭ Ð²
Ð°Ð½ Ð½Ð¾Ð¹
ĠÐ¿ ÑıÑĤÑĮ
ĠÐ´ Ð¾Ð²ÐµÑĢ
ĠÑģÐ°Ð¼ ÑĭÑħ
ĠÑģÐµÑĢ ÑĮ
ĠÑįÐº ÑĢÐ°Ð½
ĠÐ´ Ð¾Ð¶Ð´
ĠÑĤ ÑĢÑĥÐ±
Ð°Ð¶ Ð¸
ĠÐºÐ¾Ð» ÐµÐ½Ð¸
ĠÐ¿ÐµÑĢ ÐµÐ³
ĠÐ¸Ð¼ ÐµÐ»
ĠÐ½Ð°ÑĪ Ð¸Ñħ
ĠÑĢÑĥ Ð±
ĠÑģÐ°Ð¼ Ð¾Ðµ
ĠÑģÐºÐ¾ÑĢ ÐµÐµ
ĠÐ±Ð¸ÑĤ Ð²Ñĭ
ĠÐ¿Ð¾Ð´ Ðº
ĠÐ²Ð½ÑĥÑĤ ÑĢÑĮ
ĠÑģÐ² ÑıÑī
ĠÐ¿Ð¾Ð¿ÑĭÑĤ Ð°Ð»ÑģÑı
Ð¾Ð¼ Ð±
Ð¸ÑĤ Ñĭ
Ġt o
Ñģ Ð¾Ð»
ĠÐº Ð¾ÑģÑĤÐ¸
ĠÐ± ÐµÑģÐº
ĠÑģÐ² Ð¾Ð±Ð¾Ð´
ĠÐ¾Ð± Ñĭ
ÐµÑĢ Ð¾Ð¼
ÐµÐ´ Ð»ÐµÐ½Ð½Ð¾
ĠÐ½ÐµÑĩ ÑĤÐ¾
ĠÐ½Ðµ Ð¾Ð¶Ð¸Ð´
ĠÐ¾Ð³ Ð»Ñı
ĠÐ½Ð°Ð¿ Ð°Ð´
ĠÐ² ÐµÑģ
ĠÐº Ð½
ĠÑģÑĤÐ¾Ð» Ðº
ĠÐ° ÑĤ
ĠÐ¿ÑĢ Ð¸Ð¿
ĠÐ²Ñĭ ÑģÑĤÑĢ
ĠÑĢÐ°ÑģÐ¿ Ð¾Ð»Ð¾Ð¶
ĠÐ²Ð½ ÐµÑĪ
ĠÐ¿Ð»ÐµÑĩ Ð°Ð¼Ð¸
Ð½Ñİ Ñİ
ĠÑģÐ² ÑıÑĤ
Ð¸Ð½ÑĥÐ» ÑģÑı
ĠÐ´ÐµÐ¹ÑģÑĤÐ² Ð¸ÑĤÐµÐ»ÑĮÐ½Ð¾
Ð¾Ð½ Ñĥ
Ð»ÐµÐ´ Ð¾Ð²
ĠÑĥÑĩ Ð°ÑģÑĤ
ĠÑĥÐ± Ð¸ÑĤÑĮ
Ð°ÑĤ Ðµ
ĠÐ¼Ð¾ ÐµÐ³Ð¾
ĠÐº Ð¸Ð»Ð¾Ð¼ÐµÑĤ
ĠÐ·Ð½ Ð°ÑĤÑĮ
ĠÐ¿ÑĢÐ°ÐºÑĤ Ð¸ÑĩÐµÑģÐºÐ¸
ÐµÑĩ ÐµÐ½Ð¸Ðµ
ĠÐ´ÑĥÐ¼ Ð°Ð»
Ð°Ñģ Ð°
ĠÐ¼ ÑĥÑĤ
ÐµÐ» Ð»Ð°Ð½
ÐµÐ»ÑĮ Ð·Ñı
Ð½Ð¸Ðº Ñĥ
ĠÐº ÑĢÑĥÐ¿
ĠÑģÑĤ ÑĢÐ¾
ĠÐ¿Ð¾Ð² ÑĢÐµÐ¶Ð´
ĠÐºÐ¾Ð» Ð¸Ñĩ
ĠÐ´ÐµÐ» Ð°ÑĤÑĮ
ÐĺÐ¼ Ð¿ÐµÑĢ
Ð¾ ÑĦ
ĠÐ¾Ð± Ð¾ÑĢ
Ñĳ Ñģ
ĠÐ²Ñĭ Ð³Ð»ÑıÐ´
ĠÐ¶ Ð°Ð»
ĠÐŁ Ð¾Ð¶
ĠÐ¿ÑĢÐ¾ ÑıÐ²
ĠÑģÑĤÐ¾ ÑıÐ»Ð¸
ĠÑĪÐ»ÐµÐ¼ Ð°
ĠÑĤ ÐµÐº
ĠÐ´ÑĥÐ¼ Ð°Ñİ
Ð¸Ð¼ Ð°Ñı
ĠÐ¼Ð¾Ð» Ð¾Ð´
ĠÐ²Ñģ ÐµÐ¼Ñĥ
ĠÐ£Ð»ÑĮÑĤ ÑĢÐ°Ð¼
ĠÐ¿Ð¾Ð¶ Ð°Ð»
Ð°Ð»ÑĮ Ð½Ð¾Ð³Ð¾
ĠÑĪ Ð°Ð½Ñģ
ĠÐ²ÑģÐ¿ Ð¾Ð¼Ð½
ĠÑģÑĥÑīÐµ ÑģÑĤÐ²Ð¾
ĠÐ·Ð½Ð°Ðº Ð¾Ð¼
Ðº Ñģ
Ð²ÐµÑĢ Ð³
Ð¢ Ð¾Ð³Ð´Ð°
ĠÑģÐ²ÑıÐ· Ð¸
ĠÑĤ Ð¾Ð¹
ĠÐ¿Ð¾Ð½Ð¸Ð¼ Ð°Ð»
ĠÑģÐ¸Ð»ÑĮ Ð½ÐµÐµ
ĠÐ½ÐµÐ½Ð°Ð² Ð¸ÑģÑĤ
ĠÐºÐ°Ð¶Ð´ Ð¾Ð³Ð¾
Ñģ Ð²
ĠÐ² ÐµÑĩ
Ð¾Ñģ ÑħÐ¾Ð´
ĠÑĤÐ°Ðº Ð¸Ñħ
ĠÑĥÐº ÑĢÑĭÑĤ
Ġ l
ĠÑĪ ÐµÐ»
ĠÑģÐ²Ð¾ ÐµÐ¼Ñĥ
ĠÐ½ÐµÐ² ÐµÑĢ
ĠÐ² ÑĢÐµÐ·
ÐµÐºÐ¾ÑĤÐ¾ÑĢ ÑĭÐµ
Ð°Ð´ Ñĭ
ĠÐ¡ Ð¿
ĠÐ¿Ð¾ÑģÐ»ÐµÐ´ Ð½Ð¸Ðµ
ĠÐĶ Ð°
Ð¶ Ð°Ð»
ÑıÑī Ð¸Ð¹
ĠÐłÐ°ÑĦ ÐµÐ½
ĠÐ¡ Ñĭ
ĠÐ¾ÑĢÑĥÐ´ Ð¸Ñı
ĠÑģÐ¾Ð¿ ÑĢÐ¾ÑĤÐ¸Ð²
ĠÐº Ð°ÑĤ
ĠÐ»ÐµÐ³ ÐºÐ¾
ĠÑĥÑģÑĤÑĢ Ð¾Ð¹
ĠÐ´Ð² Ðµ
ĠÑģÐ°Ð¼ Ð¾
ĠÑĤÐ¾Ð²Ð°ÑĢ Ð¸Ñī
Ð° ÑĥÑĤ
ÑĢ Ð¸Ð½
Ð¾Ð»ÑĮÐ· Ð¾Ð²
ĠÐ¿ÑĢ ÐµÑģ
ÐµÐ»Ð¾Ð² ÐµÑĩ
ĠÐ½ÐµÐºÐ¾ÑĤÐ¾ÑĢ ÑĭÐµ
Ñĩ ÐµÑĤ
ĠÐĵ Ð°ÑĢÑĢÐ¾
ĠÑĥÐ´Ð°ÑĢ Ð°
ĠÐ½Ð°Ð¼ ÐµÑĢ
ĠÐ³ ÑĢÑĥÐ±
ĠÑĢÐ°Ð º
ĠÑģÑĤ Ð°Ð»Ð°
ĠÐ½Ð°Ð´ ÐµÐ¶
ĠÐºÐ°Ðº Ð¾Ðµ
Ð¸ Ð¸Ð»
ÐµÐ½ ÑĨ
Ð½ Ð´
ĠÐ¶ Ð¸Ð´
ÐµÐº Ð¸
ĠÐ¢ Ð°Ð¼
ÑĪ Ð¸ÑĢ
ĠÐ´ Ñĥ
ĠÐŁÐ¾Ð² ÐµÐ»
Ð² Ð¸Ð´
Ð³ Ð°
ĠÐ¿ Ð¾Ð¹
ĠÐ·Ð° ÑĪ
ĠÐ¿Ð¾Ð´ Ð±
ĠÑģÐ¾Ð¼Ð½ ÐµÐ²
ĠÐ¾Ðº Ð°Ð·Ð°Ð»Ð¸ÑģÑĮ
Ð°Ð´ Ð¾Ñĩ
ĠÐ½Ð°Ð´ Ðµ
ĠÐ½Ð°ÑĪ ÐµÐ³Ð¾
ĠÐ¿Ð¾Ð´ ÑĢÐ°Ð·
ĠÑģ Ð³
ĠÐ´ Ð¾Ð³
ĠÐ¾ ÑģÑĤÑĢ
Ð°ÐµÑĤ Ðµ
ÑĢÐµÐ´ Ð¾ÑĤÐ¾Ñĩ
ĠÐ½ÐµÐ´ Ð¾ÑģÑĤ
ĠÐºÑĢ ÐµÐ¹
ĠÑį Ñħ
ĠÑĥÐ´Ð°ÑĢ Ð¸Ð»
ÑģÑĤÑĢ Ð¾Ð¿
ÑģÑĤÐ²Ð¾Ð² Ð°Ð»Ð¸
Ð² Ñĥ
ĠÐ¾ÑģÑĤÐ°Ð»ÑĮ Ð½ÑĭÑħ
ĠÐ¿ÑĢÐµÐ´ Ð°ÑĤÐµÐ»ÑĮ
Ð°Ð²ÑĪ Ð¸ÑħÑģÑı
ĠÐ¿ÑĢÐµÐ´ ÐµÐ»
ĠÑģÑĤÐµÐ½ Ðµ
ĠÐ¼ Ð¾Ð´
ĠÐŁ ÑĢÐ¸
Ð¾Ð» ÐµÐµ
ÑĥÐ¼ Ð°Ð½
ĠÐ¸Ð½ ÑĤÐµÑĢÐµÑģ
ÑĢÐµÐ¼ Ñı
ĠÐĲÐ½Ð³ ÐµÐ»Ð¾Ð²
Ð¾Ð² ÑĭÐ¹
ÑĨ Ð¸Ð¾Ð½
Ð»ÑĮ Ñı
Ð¾ÑĢ Ñĥ
ĠÐľ ÐµÑĢ
ĠÐºÑĢ Ð¸Ñĩ
ĠÑĤÑĢÐ°Ð½ÑģÐ¿ Ð¾ÑĢÑĤ
Ð°Ðº Ñĥ
ĠÑģÐº Ð¾Ð»ÑĮÐ·
ĠÐ½Ð°Ð¿ÑĢÑı Ð¶
ĠÑĢÑĥ ÐºÐ°
ĠÐŀÑĢ Ð´ÐµÐ½Ð°
ĠÑĨÐµÐ½ÑĤ ÑĢÐµ
ĠÐ¢ÐµÑĢ ÑĢÑĭ
ĠÐ¾Ðº Ð°Ð·
ÑĢ Ð°Ð»ÑģÑı
ÐµÐº ÑĤÐ¾ÑĢ
Ð°ÑĤ Ð°ÑĢ
Ð»ÑıÐ» ÑģÑı
ĠÐ¼ÑĭÑģ Ð»ÑĮ
Ð¸ÑĢÐ°Ð½ Ð¸Ð´
ĠÐ¿Ð¾Ðº ÑĢÑĭÐ²
Ð¶ Ð´
ÑĢÐ°Ð² Ð½
ĠÐ¾ÑģÑĤÐ°Ð½Ð¾Ð² Ð¸Ð»ÑģÑı
ĠÐ¿ Ð°Ð¼
ĠÐ¾Ð³ Ð½
Ð°ÑİÑī Ð°Ñı
ÐµÑĢ Ð½Ð¾
ĠÐ± Ð¸Ð±Ð»Ð¸
ĠÐĿ Ð¾Ñĩ
ĠÑĢ ÐµÐ´
ĠÐ¾Ð± Ð»Ð°Ñĩ
ĠÑĢÐ°Ð· Ð´ÐµÐ»
ĠÐºÐ°Ðº Ð¸Ð¼
ĠÑĤÐ°Ðº Ð¸Ðµ
ĠÐ½ÐµÐ± Ð¾
ĠÐ¿ ÐµÑī
ĠÐ·Ð° Ñĩ
ĠÑįÐºÐ¸Ð¿ Ð°Ð¶
ĠÐ»ÑİÐ± Ð¾Ð¹
ĠÐ³Ð¾Ð»Ð¾Ð² Ðµ
ĠÑĤ ÐµÐ¿
Ð» Ð¾Ðº
ÑĢÐ° ÑĦ
ÑĢ Ð¾ÑĪ
ĠÐ³Ð»ÑĥÐ± Ð¾ÐºÐ¾
ĠÐ¾ÑĤÐ´ÐµÐ» ÐµÐ½Ð¸Ñı
ĠÑĢÐ°ÑģÐ¿ ÑĢÐ¾ÑģÑĤ
ÑĥÑĤ ÑģÑı
ĠÐ½Ð¾Ð² ÑĭÐµ
Ð» ÑĥÑĩ
Ð² ÐµÑģÑĤ
Ðĵ ÑĢÐ¾Ð¼
ĠÐ¾Ð± Ð¾ÑĢÐ¾Ð½
ĠÐ¿ÐµÑĢ ÑĩÐ°ÑĤ
ĠÑĥ ÑĪ
ĠÐºÐ¾ÑĤÐ¾ÑĢ Ð¾Ð¼
ĠÐ¿Ð»ÐµÑĩ Ð¾
ĠÐ¡Ð¼ÐµÑĢ ÑĤÐ¸
Ð°Ð½ Ð½ÑĭÐ¼
Ð°ÑĢ Ðº
ĠÐ¡ Ð¾Ð»
ĠÑĢÐ°Ð·Ð´ Ð°Ð»ÑģÑı
ĠÐ» ÐµÑģÑĤ
ÑıÑĤ ÐµÐ¶
Ð¸ÑģÑģ Ð°ÑĢ
ĠÐ´ Ð¸Ðº
ĠÐ» Ð¾Ð²
ĠÐ° Ð½Ð³
ĠÐ² Ð»Ð°Ð´
ĠÑģ Ð¸ÑĤÑĥ
ĠÐ³Ð¾ÑĢ Ð´
ÑģÑĤ Ð°
ĠÐ¾ÑĤ ÑĢÐ°Ð¶
ĠÐ´Ð²Ð¸Ð¶ ÐµÐ½Ð¸Ðµ
Ñģ Ñģ
ĠÑģÐ»Ð¾Ð² Ð¾
ĠÐ¿Ð¾Ð· Ð¸ÑĨÐ¸Ð¸
r o
ÑĢ ÐµÑĪ
Ð½Ð¾Ð² ÑĢÐµÐ¼ÐµÐ½Ð½Ð¾
ĠÐ¿Ð¾ Ð¸Ñģ
ĠÐĴ Ð¾Ð¹
ĠÐ¼ÐµÐ½ ÑĮÑĪÐµ
ĠÐ·Ð½Ð° ÐµÑĤ
ĠÑģÑĤ ÑĢÐ°ÑĪ
ĠÐ¾ÑĤÑĩÐ°Ñı Ð½
ĠÐ¿Ð»Ð¾Ñī Ð°Ð´
Ġ g
ĠÑģÑĥÑīÐµ ÑģÑĤÐ²Ð°
ĠÐ¿ÑĢÐ¸Ð· ÐµÐ¼
ÐµÐ½Ð¸Ñı Ñħ
ĠÐ´ ÐµÐ¼
ÐŁ Ð¾Ð´
ĠÐ³Ð» ÑĥÐ¿
ĠÐĽ Ð¾ÑĢ
ĠÐ²ÑĤÐ¾ÑĢ Ð¾Ð¹
ÑĦ ÐµÐºÑĤ
Ð¾Ð¶ ÑĢÐµÑĨ
ĠÑĥÐ± ÐµÐ¶
ĠÑģÐ¾ÑĤ Ð½Ð¸
ĠÐµ ÑĢÐµÑĤ
Ðµ ÑģÑĤÐ²Ðµ
Ð¸Ð½ Ð°Ð¼Ð¸
ĠÐ²Ð¾ Ð¾Ð±ÑīÐµ
Ð¾Ð² ÑĭÐ¼
ĠÐŁ ÑĢÐµÐ´
ÐµÐ½ Ð½Ð¾Ð¼
ĠÑħÐ¾Ñĩ Ñĥ
Ð°Ð½ Ð¸Ñİ
ĠÐº ÑĥÐ·
ĠÐ²Ð¾Ð·Ð¼Ð¾Ð¶ Ð½Ð¾ÑģÑĤÑĮ
Ð»Ñı ÐµÑĤ
ĠÐŁ ÐµÑĢ
ĠÐ²ÑĭÐ¿ Ð¾Ð»Ð½
ĠÐ³ÐµÐ½ ÐµÑĢ
ĠÐ±Ð» Ð¾Ðº
ĠÐºÑĥÑģÐº Ð¸
Ñĭ Ð»Ð¸
ĠÐ´ÑĢÑĥÐ³ Ð¸Ð¼
ĠÑıÑĢ Ð¾ÑģÑĤ
ÑģÐº Ð¸Ð¼
ÑĢÐ°Ð± Ð¾
ĠÐ¿Ð¾Ð± ÐµÐ¶
ĠÐ¶ÐµÑģÑĤ Ð¾Ðº
ĠÑĢ Ð¾ÑĤÑĭ
ĠÐ± Ð°Ð»
ĠÐ³Ð»ÑıÐ´ Ñı
ĠÑĢ Ð¸Ñģ
ĠÑĤ Ñı
ĠÐĴ Ñģ
Ð¸Ð²ÑĪ Ð¸Ñħ
ĠÐ±ÑĢÐ¾Ð½ Ðµ
Ð°ÑĤÐ¾ÑĢ Ð°
Ð¼Ð¾Ñģ ÑĦ
ĠÐºÐ¾Ð½ ÐµÑĩÐ½Ð¾
ĠÐ¿Ð»Ð°Ð½ ÐµÑĤÐµ
ĠÐ¸ÑģÑĤ Ð¾Ñĩ
ĠÐ¿Ð¾Ñħ Ð¾Ð¶Ðµ
Ð°ÑĢ Ð¸Ð¾Ð½
ĠÐºÐ°Ðº Ð¸Ðµ
ĠÐļ Ñģ
Ð» Ð»
ÐµÑĢÑĤ Ñĥ
Ñĥ Ð»Ð¸
ĠÐ¸Ñģ ÑħÐ¾Ð´
e l
ÐµÐ³ Ð¾Ð´Ð½Ñı
ĠÐ¿ÑĢÐµÐ² Ð¾ÑģÑħÐ¾Ð´
ĠÐ¾ÑģÐ² ÐµÑī
Ð¾Ð²Ð¾Ð»ÑĮ Ð½Ð¾
ĠÑĤ Ð¸ÑĪ
ĠÑģ Ð¾Ð±ÑĭÑĤ
ĠÐ³ÑĢÑĥÐ´ ÑĮ
ĠÐ²ÑĭÑģ Ð°Ð´
ĠÐ·Ð°Ð» Ð¿
Ð°ÑĢ Ð¸Ñı
ĠÑģÐ¼ Ð¾Ð¶
ĠÐ¿ÑĢÐ¸Ð±Ð» Ð¸Ð·
ÑĤÐ° Ñī
ĠÐ¿ÑĢÐ¾Ð± Ð»ÐµÐ¼
ĠÑĦ Ð¾ÑĢ
Ð¾ÑĢ Ð¾Ð´
Ð° ÑĢÐ°Ð±
Ð½Ð°Ñĩ Ð°Ð»Ð°
ĠÐ¼Ð½Ð¾Ð¶Ðµ ÑģÑĤÐ²Ð¾
Ð°Ð» Ð»
ĠÑģÐ°Ð¼ ÑĭÐ¼
ĠÐ³Ð¾Ð²Ð¾ÑĢ Ð¸ÑĤÑĮ
ĠÐ½Ð° ÑĢÑĥÑĪ
ĠÐ¼Ð¸Ð» Ð»Ð¸
ÑıÑī Ð¸Ðµ
ĠÐ±Ð»Ð¸Ð· ÐºÐ¾
ÐµÑĢÑĤÑĥ ÑĢÐ°Ð±Ð¾
Ñģ Ñĥ
ĠÐ»Ð°Ð´ Ð¾Ð½
ĠÑĤ Ñī
Ð°Ð²ÑĪ Ð¸ÐµÑģÑı
ĠÐ± Ð»ÐµÐ´
ÑĢ Ð¸Ð¼
ĠÐ¿ÑĢ Ð¸Ð¶
ĠÐ¿Ð°Ð»ÑĮ ÑĨÑĭ
ĠÐ» Ð¾Ð¶
" .
Ð½Ð¸Ðº Ð°Ð¼Ð¸
ĠÐ¿ÑĢÐ¸Ð´ ÐµÑĤÑģÑı
Ð°Ð» Ð°Ð¼
ĠÐ¼ ÐµÑģÑı
ĠÐ³ Ð°Ð»Ð°ÐºÑĤ
ĠÐ¿ÑĢÐ¸ÑĪ ÐµÐ»
ĠÐ¾ÑĤ ÑĢÑı
ĠÐ¾Ð± ÑģÑĤ
Ð¾Ð· Ð´
ĠÐºÐ¾Ð¼Ð°Ð½Ð´ Ð¸ÑĢ
ĠÐ²Ð´ Ð¾Ð»ÑĮ
ÐµÐ¼ ÑĮ
ĠÐ¾ÑĤ Ð´Ð°Ð»
Ð¸ÑĩÐµÑģ ÐºÐ¾Ðµ
Ð¾Ð·Ð½ Ð°Ð²
ĠÑĤ Ð¾Ð±Ð¾Ð¹
ĠÐ°Ð¿ Ð¾ÑĤÐµÐº
ĠÐ¿Ð¾Ð» Ñı
ĠÑģ Ð¸Ñħ
ĠÑģÐº Ð¾Ð»ÑĮÐºÐ¾
ÑĢÐµÐ´ Ð½Ð¾
ĠÐ¿ Ð°ÑĤ
Ð¾ÑģÑĤ Ð¾
ĠÐ½Ð°Ð½ ÐµÑģ
ĠÐ²Ð¸Ð´ Ðµ
ĠÑĤÐ¸Ñħ Ð¾
ĠÐ²Ð½Ð¸Ð· Ñĥ
ĠÑĥÑģÑĤÑĢ ÐµÐ¼
ĠÐĿ ÐµÑĤ
ÐĹ Ð°
ÐµÑĢ Ð½Ð°
ĠÑĥÐ² Ð°Ð¶
Ð¼ Ð¾Ð»
ĠÑģÐ»ÑĥÑĩ Ð°Ð¹
ĠÑģÑĤ Ð°ÑĤÑĮ
ĠÐķ Ð¼Ñĥ
ĠÐŀÐ´ Ð¸Ð½
ÑĥÐ» Ñĭ
ĠÑģÐ»ÐµÐ´ Ð¾Ð²
ĠÐ¿Ð»Ð°Ð¼ ÐµÐ½Ð¸
Ñı ÑİÑī
ĠÐ¾ÑĢÑĥÐ¶ Ð¸ÐµÐ¼
ĠÑĩÑĥÐ² ÑģÑĤÐ²
ĠÐ·ÐµÐ¼ Ð»Ðµ
ĠÐĺÐ¼Ð¿ÐµÑĢ Ð°ÑĤÐ¾ÑĢÑĥ
ĠÑĤÑĭÑģÑıÑĩ Ð¸
ĠÐ²ÑĭÐ· Ð²
Ð¸ ÑĤÐ¾
ĠÐ¾Ð´ Ð½Ð¾Ð²ÑĢÐµÐ¼ÐµÐ½Ð½Ð¾
Ð¸ÑĤÐµÐ»ÑĮ Ð½ÑĭÑħ
Ð¸ÑĢÑĥ ÑİÑī
ĠÐ² Ð¾Ð²
Ñĭ ÑģÐ»
Ð¸Ð² Ð°ÑıÑģÑĮ
ÑĢ Ð¸ÑĤ
ĠÐ·Ð² Ñĥ
ĠÐ´ÑĢÑĥÐ³ Ð¾Ð³Ð¾
ÑıÑī Ð¸Ñħ
ĠÐ¾Ñĩ ÐµÐ²Ð¸Ð´
ĠÐ¸Ð·Ð²ÐµÑģÑĤ Ð½Ð¾
ĠÐ¿ ÐµÑģ
ĠÐ²Ð¸Ð´ Ñĥ
ĠÐ±Ð» ÐµÑģÑĤ
ĠÐ¿Ñĭ Ð»ÑĮ
Ð°Ð» Ðµ
ĠÑģÐ¾ ÐµÐ´Ð¸Ð½
ÑģÑĤ Ð¸Ð½
ĠÐ´ Ð½Ñı
Ġt h
Ð°Ð½Ð³ Ð²Ð¸Ð½
ÑģÐ¿ ÑĢÐ¾ÑģÐ¸Ð»
ĠÐ¥ Ð¾ÑĤÑı
Ð°Ð² Ð»Ð¸Ð²
ĠÑģÐµÑĢÑĮ ÐµÐ·
ÑĥÑģÑĤ Ð¸Ð»
ĠÐ¾Ð± Ðµ
ĠÐ²Ð¿ÐµÑĢÐµÐ´ Ð¸
ÑĢ ÐµÑĩ
ĠÐºÑģÐµÐ½ Ð¾Ñģ
Ð°Ñı Ð²
ÑģÑĤÐ²Ñĥ ÐµÑĤ
ĠÐĽÐ¾Ðº ÐµÐ½
Ðµ Ð¸
Ð½ Ð¸Ð»
ĠÐ± Ð°Ð·
ĠÑħ Ð¾Ð·Ñı
ĠÐ¿ÑĢÐµÐ´ Ð¾ÑģÑĤ
ĠÐŁÐ¾Ñģ Ð»Ðµ
ĠÐ¼Ð¾Ð» Ð¸ÑĤ
ĠÐ²Ð¼ÐµÑģÑĤ Ð¾
Ð½ Ð°Ð¶
ĠÐ´ ÐµÐ»Ð°
ĠÐŁÑĢ Ð¸Ð¼Ð°ÑĢÑħ
Ð¸Ð½ Ð´
ĠÐ¿Ð¾ ÑĢÐ°Ð¶
ĠÐł ÑĥÑģ
Ð¸Ð² Ð°Ð»ÑģÑı
ĠÐ³Ð¾Ð»Ð¾Ñģ Ðµ
ĠÐ¢ Ð¾Ð»ÑĮÐºÐ¾
Ð°Ð²ÑĪ ÐµÐ³Ð¾
ÐµÐ¿ÑĤ Ð°Ð»
Ð¿ ÑĢÐ¾
Ð¾Ð» Ð½Ðµ
ĠÐľ ÐµÐ´
ĠÐ¼Ð°ÑģÑģ Ð¸Ð²
ĠÑģÑĤ ÑĢÐ°Ð¶
Ð°Ð»ÑĮ Ð½ÑĭÐ¼
ÑĥÑģ Ð¿
ĠÐ¼Ñĭ ÑĪ
ĠÐ³Ð¾Ð²Ð¾ÑĢ Ð¸ÑĤ
ĠÐº ÐµÑĢÐ°Ð¼
ĠÐ¿Ð¾Ð´ÑĢÐ°Ð· Ð´ÐµÐ»
ĠÐ¿ÑĢÐµÐ´ Ð»Ð¾Ð¶
ĠÐ½Ð¾Ð³ Ð°Ð¼Ð¸
ĠÐ¸ÑģÐº Ð»ÑİÑĩ
ĠÑģÐ» ÑĥÐ³
ĠÐ³Ð¾ÑģÐ¿ Ð¾Ð´
ĠÐ° Ðº
ÑĢÐ¾Ð½ Ð°
ÑĢÐµÐ´Ð½Ð¾ ÑĥÑĤ
ĠÐ¼ ÑĥÑĩ
ĠÐ¿Ð¾Ð· Ð¸ÑĨ
ĠÐ²Ñĭ ÑĪÐµÐ»
Ð¾Ð» Ð¾
Ñİ Ñĩ
ĠÐ± ÐµÐ´
ĠÐĳ ÐµÐ·
ĠÐ°ÑĤÐ°Ðº Ð¸
ĠÑĤÐ¾Ð» ÑģÑĤ
ĠÐºÐ¾ ÑĪ
Ð½Ð¾Ð³ Ð¸Ðµ
ĠÐ¿Ð¾Ðº Ð»Ð¾Ð½
ĠÐ·Ð°Ð´ Ð°Ñĩ
ĠÐ¿ÑĢÐ¸Ñĩ Ð¸Ð½
ĠÐ¿Ð»Ð°ÑĤ ÑĦÐ¾ÑĢÐ¼
ĠÐ¼ ÐµÐ»ÑĮ
ĠÐ¿Ð¾Ð» Ð¾Ð²
ĠÐ² Ð¾ÑģÑĤ
Ñİ Ð·
ĠÑĥ ÑģÑĤÐ°Ð²
ÐµÐº Ñĥ
ĠÐŃ Ðº
ĠÐ¼Ð½Ð¾Ð³ Ð¸Ñħ
ĠÐ® ÑĢÐ³
Ġ 1
ÑĥÐ¼ Ð°
ĠÐ¿Ð¾Ð¼Ð¾Ñī Ð¸
ĠÐ¼Ð°ÑĤÐµÑĢ Ð¸
ĠÑĩ ÐµÑģÑĤÑĮ
ĠÑĪ Ð°ÑĤ
ĠÐ±Ð¾ÐµÐ² ÑĭÐµ
Ð¾ÑıÑĤ ÐµÐ»ÑĮ
ĠÐ¾Ð· Ð½Ð°Ñĩ
ÑĢ Ð°Ð»Ð¸ÑģÑĮ
Ð°ÑĢ Ð¾Ð²
ĠÑĥÐ½Ð¸ÑĩÑĤÐ¾Ð¶ Ð¸ÑĤÑĮ
ĠÑĤ Ð¸ÑĢÐ°Ð½Ð¸Ð´
Ð² ÑĭÐµ
ĠÐ¿ÑĢ Ð¾Ð»
ĠÐ² Ð»Ð°ÑģÑĤ
ÑĨ ÐµÐ½ÑĤ
ĠÐŀ Ð³
Ð¼ ÑĥÑĢ
ĠÐ²Ñĭ ÑĪÐµ
ĠÐĴÐ¾ÑĢ Ð¾Ð½Ð°
ĠÐ½ ÐµÐ»ÑĮÐ·Ñı
ĠÑĢÐ°Ð· Ð±Ð¸ÑĤ
ĠÐĿ Ð°Ð´
Ð°Ñİ ÑīÐµÐµ
Ð°ÑĢÐ¿ ÐµÐ´
ĠÐ¿Ð»Ð°Ð¼ Ñı
ĠÐ¼ Ð¸ÑĢÐ¾Ð²
ÑıÑī ÐµÐ³Ð¾
ĠÑĦÐ»Ð¾ÑĤ Ð°
ÑģÐº Ð°Ñı
Ð°ÑĤ Ð¾Ð²
ĠÐ¿ÑĢÐµÐ² ÑĢÐ°Ñī
ÑĪ Ð¸Ð¼Ð¸
ĠÐ± ÐµÑĢ
ĠÐ·Ð½Ð°Ñĩ Ð¸ÑĤ
ÑĢ ÐµÑģÑĤ
Ð´Ð° ÑİÑī
ĠÐ²Ð´ ÑĢÑĥÐ³
ĠÐ´ Ð½ÐµÐ¹
ĠÑģÐº ÑĢÑĭ
ÐµÐ½ Ð¾Ñģ
ĠÐ¼Ð¾ Ð¸Ñħ
ÐµÐº Ðµ
ĠÐ¿ÑĢÐ¾Ð¸Ð· Ð¾ÑĪÐ»Ð¾
ĠÑģÐ¾Ð¿ÑĢÐ¾Ð² Ð¾Ð¶Ð´
Ð¸ÑģÑĤ Ð¾Ð²
ĠÐ² Ð¸Ð¶Ñĥ
ĠÐ£Ð»ÑĮÑĤÑĢÐ°Ð¼ Ð°ÑĢ
ĠÐ´ÑĭÐ¼ Ð°
ĠÐ·Ð°Ð²ÐµÑĢ ÑĪ
ĠÑģÐ¼ Ð¾Ð¶ÐµÑĤ
ÑĭÑĩ Ð°Ð»
ĠÐ·ÐµÐ¼ Ð»Ð¸
ĠÑĦ Ð¸Ð·
ĠÐ² ÑģÑĤÑĥÐ¿
ĠÑĤ Ñĥ
ĠÐ´Ð¾ÑģÑĤ Ð°Ð²
ĠÐĿ ÐµÐºÐ¾ÑĤÐ¾ÑĢÑĭÐµ
Ð°ÑİÑī Ð¸ÐµÑģÑı
ĠÐ¿Ð¾Ð· Ð´
Ð°ÑĤ Ð¸Ð²
ĠÐ²Ð¾ÑģÐ¿ Ð¾Ð¼Ð¸Ð½
ĠÐ´ÑĢÑĥÐ³ Ð¾Ð¼
ĠÐ½Ð° Ñħ
ĠÐ¢ Ð¾ÑĢ
ĠÐ°ÑĤ Ð¼Ð¾ÑģÑĦ
Ð¾Ð½ Ð¾Ð²
ĠÐ¿ÑĢÐ¾ÑģÑĤÑĢÐ°Ð½ ÑģÑĤÐ²Ð¾
ÑĤ ÐµÑģÑĮ
Ð°Ñİ ÑīÐµ
ĠÐ´ÑĥÑĪ Ð¸
Ð¾Ð» Ð·
Ð»ÐµÐ½ Ð¸ÐµÐ¼
ĠÐ²Ð¿ ÐµÑĩÐ°ÑĤ
ÑĢÐ°Ð· Ð´Ð¾
ĠÐ¾Ð± ÐµÑģÐ¿
ĠÑģ ÑĢÐ°Ð²Ð½
ĠÐ· Ð»Ð¾Ð²
ĠÐ°ÑĢ ÑĤ
ĠÐ¿Ð°ÑĢ Ñĥ
Ð»ÐµÐ½ Ð½ÑĭÐ¼
Ð» Ð¸Ð·
ĠÑĢ ÐµÐ±
Ð¸Ñĩ Ð½Ð¾
ĠÑģÐ¼ÐµÑĢÑĤ ÐµÐ»ÑĮ
Ðĺ Ð½
ÑĥÐ½ Ð´
Ð¾ Ð¸
ĠÐľ Ð¸ÑĢÐ¾Ð²
ĠÐºÑĢ ÐµÑģÑĤ
Ġh is
ĠÑĤ Ð²ÐµÑĢ
ĠÐ½Ð°Ðº Ð»Ð¾Ð½
ĠÑĨÐµÐ½ÑĤ ÑĢ
ÐµÐ³ ÐºÐ°
ÑĢÐ°Ð¶ Ð´Ð°Ð½
ĠÐ¿ÑĢÐ¸ÑĨ ÐµÐ»
ĠÑģÐ°Ð¼ ÑĭÐ¹
ĠÐ¾ÑĢÐ³Ð°Ð½ Ð¸Ð·
Ð°Ð¶Ð´ Ñĭ
ĠÐ¾ÑĤÐ² ÐµÑĩ
Ð°Ð½ Ð½Ð¾Ð³Ð¾
Ð°Ð² Ð½Ð¾
Ð¸Ð»Ð» ÐµÑĢ
Ð» ÐµÐ²
ĠÑĪ ÐµÑģÑĤ
Ñĭ Ðº
ĠÐ¾ ÑĨÐµÐ½
ĠÐ¿Ð¾Ð´ Ð³Ð¾ÑĤÐ¾Ð²
Ðŀ Ð±
ĠÑģÐ¸Ð» Ð°
ĠÐ¼ ÑıÐ³
ĠÐĹ Ð´ÐµÑģÑĮ
ĠÐ¼Ð°ÑģÑĤ ÐµÑĢ
Ð¹ ÑĤÐ¸
ĠÑĢ Ð¸ÑĤÑĥ
ĠÐ¸Ð· ÑĥÑĩ
ĠÑĩÐ°ÑģÑĤ Ð¾
ĠÐºÐ°Ð¼ Ð½Ñı
ĠÐ¿ÑĢÐµÐ´Ð¿ Ð¾Ð»Ð¾Ð¶
ĠÐ¾Ð±ÐµÑĢ Ð½ÑĥÐ»ÑģÑı
ĠÑģÑĤ Ð²Ð¾Ð»
ĠÐ·Ð½Ð° ÐµÑĪÑĮ
ĠÐº ÑĢÑĥÐ¶
ĠÐ´ Ðµ
Ð¾Ð» Ð°
Ð¾ÑĤÐ²ÐµÑĤ Ð¸Ð»
ĠÐĶ Ð»Ñı
ĠÐ¾Ð±Ñĭ ÑĩÐ½Ð¾
ĠÐ¾Ð± Ð¾
Ð¸ÑĨ Ð°
ĠÐĳ Ð¾ÑĢ
ĠÐ¿Ð¾ÑģÐ»ÐµÐ´ Ð¾Ð²
ĠÐ¿ÑĢÐ¸Ð½ ÐµÑģ
ĠÐ¾ÑģÑĤ Ð°ÑĤ
ĠÐ¼Ð°Ð³ Ð¸ÑģÑĤÑĢ
Ð¾ÑĢ Ð±
ĠÑģ Ð½Ñı
ĠÑģ ÑĢÐµÐ´
ĠÐŀÑĢ Ð´ÐµÐ½
ĠÐ¿Ð¾Ð³ ÑĢÑĥÐ·
ĠÐ²Ñĭ Ð½Ñĥ
ĠÑĤÑĢ ÐµÑģÐº
ĠÐ¾ÑĤ Ð½Ð¾Ñģ
ĠÑĪ ÑĢÐ°Ð¼
Ð½ ÐµÐ»
ÐµÐ² ÐµÐ»
ĠÐ¾ ÑĤÐ¾ÑĢ
ÑĥÐ» ÐºÐ°Ð½
ĠÐ¾ÑĢ Ð´ÐµÐ½Ð°
ĠÐ·Ð² ÐµÐ·
ÐĿ Ñĥ
ĠÑĨ ÐµÐ½
ĠÐ· ÑĥÐ±Ñĭ
ĠÐ¿Ð¾ÑĤ Ñı
Ðľ Ð½Ðµ
Ð¸ÑĩÐµÑģÐº Ð°Ñı
ĠÐ¾Ð¿ ÑĭÑĤ
ĠÐĲÑĢ Ð¸Ð¼Ð°Ð½
Ð°Ð´ Ð°
ĠÐļ Ð¸ÑĢ
ĠÐļÐ°Ð¶Ð´ ÑĭÐ¹
ÑģÐ¾Ð» ÑİÑĤ
ĠÑĢÐ°ÑģÐº Ð°Ð»
Ð° ÑĥÐ½
ĠÐ´ ÐµÑģÐ°Ð½ÑĤ
ĠÐ½ÐµÐ² Ð¾Ð·Ð¼Ð¾Ð¶Ð½Ð¾
ĠÐ¶ ÑĢÐµÑĨ
ĠÐ¼ ÐµÑĪ
ĠÑģÑĤÐ¾ÑĢÐ¾Ð½ Ðµ
ĠÐ¤ ÐµÐ½
Ð´Ñĥ ÑĪ
ĠÑĥÐº Ð°Ð·Ð°Ð»
ÑıÑĤ Ð¸
ĠÑģÑĤÐµÐ½ Ñĥ
ĠÐº ÑĥÐ»ÑĮÑĤ
ĠÑģÐ» ÐµÐ³ÐºÐ°
Ð¸ÑĩÐµÑģÐº Ð¸Ð¼Ð¸
ĠÐ¾Ðº Ð¾Ð½Ñĩ
ĠÑĢÐµÐ· ÑĥÐ»ÑĮÑĤ
Ð» Ð°ÑĤ
ĠÐ² Ð¸Ð½
ĠÐ¸ÑģÑĤ Ð¸Ð½
ĠÐľÐ°ÑĢ Ð´Ñĥ
ĠÐ²ÑģÑĤ Ð°Ð»
ĠÐºÑĢ Ð°Ñİ
ĠÑĤ ÐµÐ½
ÑĥÑī Ð¸Ð¹
ĠÐº ÑĥÐ¿
Ð¼ ÐµÑħ
ĠÑĤÐµÑħÐ½ Ð¾Ð¶ÑĢÐµÑĨ
ĠÐ¿ ÑĤ
ĠÐ½Ð°Ð· Ð²
ÐµÑĢ ÑĭÐ²
ĠÐ·Ð°Ð¼ ÐµÑĩ
ĠÑıÑĢ Ð¾ÑģÑĤÐ¸
Ð¾Ñħ Ð¾Ð¶Ðµ
ĠÑĢÐ°Ð½ ÐµÐ½
ÑĢÑĥ Ñĩ
Ð»ÐµÐ½ Ð½Ð¾Ð¹
ĠÐºÑĢ ÐµÑģ
ĠÑģÐ» ÑĥÑĪ
ĠÐ³ÑĢ Ð¾Ð·
ĠÐ¼Ð¾Ð³ ÑĥÑĩ
ĠÐ° ÑģÑĤÑĢÐ¾Ð¿
ĠÐ¾ÑģÐ» ÐµÐ¿
ÑģÑĤÐ²Ð¾Ð² Ð°Ð»Ð°
Ð½ÑĥÑĤ ÑĢÐ¸
ĠÐ°ÑĤÐ°Ðº Ñĥ
ĠÐ¾Ð± Ð½Ð°Ð¶
ĠÑĢÐ°Ð·Ð²ÐµÑĢ Ð½ÑĥÐ»ÑģÑı
Ðµ Ð¾Ð½
ĠÐ¾ÑģÑĤÐ°Ð² Ð°Ð»Ð¾ÑģÑĮ
ĠÐ½Ð¸ÐºÐ°Ðº Ð¸Ñħ
ĠÑĤÑĢ ÐµÑħ
ĠÐĸÐµÐ»ÐµÐ· Ð½ÑĭÑħ
ÑĢÑĥ ÑģÑĤ
ĠÐ´ÐµÑģÐ°Ð½ÑĤÐ½Ð¸Ðº Ð¾Ð²
ĠÐ³Ð¾ ÑĢÐ°Ð·Ð´Ð¾
a c
ĠÐ²Ñĭ ÑĤ
ĠÑģÐ¾Ð· Ð´Ð°Ð½
ĠÐĴÐµÐ»Ð¸Ðº Ð¾Ð³Ð¾
ĠÑģ Ð¾Ð¶
ĠÐ¡ Ð¸Ð³
Ð¾Ð» Ð¾Ñģ
Ð¸Ð´ ÐµÑĤ
ĠÐ¨ ÑĤ
Ġ e
ÑĤÐ¾ Ð½Ð¾Ñģ
ĠÐ¿Ð¾Ð½Ð¸Ð¼ Ð°Ñİ
ĠÐ²Ñĭ ÑĪ
ĠÐĺÐ½ ÐºÐ²Ð¸Ð·
Ð°Ð² Ð°Ð»
ĠÐ¾ÑĩÐµÑĢÐµÐ´ ÑĮ
Ðº Ð°Ð´
ĠÑģÐº ÑĢÑĭÑĤ
ĠÑĢÐµ Ð°Ðº
ĠÐºÐ¾Ð¼ Ð°Ð½
ĠÑĤÑıÐ¶ ÐµÐ»Ð¾
Ð» Ð°Ð¶
ĠÑĥÐ± ÐµÐ´
ÐµÐ» ÐµÑĤ
Ð¹ Ð´
ĠÐŀ Ð½Ð¾
ĠÐ²Ð¾ÑģÑģÑĤ Ð°Ð½Ð¾Ð²
Ð°Ð½ Ð½Ð¾Ðµ
ĠÐ¼ÑĥÐ¶ Ñĩ
ĠÐ¼Ð¾Ð¶ ÐµÑĪÑĮ
Ð¸Ð² Ð¾
ÑģÑĤÐ² Ð¸Ð¸
ĠÑĥÐº Ð°Ð·ÑĭÐ²
ĠÐĲÑĢ Ð¼
ĠÐ¾Ð³ÑĢÐ¾Ð¼ Ð½ÑĭÐµ
ĠÐ±ÑĢÐ¾Ñģ Ð¸Ð»ÑģÑı
Ð¾Ñĩ ÐµÐ¼
ĠÐ·ÐµÐ»ÐµÐ½ Ð¾ÐºÐ¾Ð¶
i m
Ð¿ Ð¸ÑģÑĤÐ¾Ð»ÐµÑĤ
Ð¾ÑĢ Ð¼Ð¾ÑĤ
ĠÐ·Ð½ Ð°Ð¼
ĠÑģÐºÐ¾ÑĢ Ð¾
ĠÑģÐº Ð»Ð°Ð´
ĠÐ¸Ð½ ÑģÑĤÑĢÑĥ
ĠÑģÑĥÑīÐµ ÑģÑĤÐ²
ĠÐĴÐ¾Ð» Ñĩ
ĠÐ´ ÐµÐ¹
Ð»Ñİ Ð´
ĠÑĤÑĢÐµÐ± Ð¾Ð²
ÑĥÐ¶ Ðµ
Ð² Ð°Ñĩ
Ð¸Ð½ Ð°Ñħ
ĠÑįÑĦ ÑĦÐµÐºÑĤ
Ð»ÐµÑĤ ÐµÐ»
Ñĩ ÐµÑĢ
Ð¸Ð² Ð°ÑĤÑĮÑģÑı
ĠÑĥÐ· Ð½Ð°Ð»
ĠÑĢÐ°Ð· Ð³Ð»ÑıÐ´
Ð¸Ð´ ÑĨ
Ð»Ð°Ð² Ð°
ĠÐ¾Ð± Ð°
ĠÐº Ð°Ñģ
ĠÐ¿Ð¾ÑģÑĤÐ¾ÑıÐ½ Ð½Ð¾
ĠÐ²Ð¿ Ð¾Ð»Ð½Ðµ
ĠÐ±Ð»Ð°Ð³Ð¾Ð´Ð°ÑĢ Ñı
ÑĢ Ð¾Ð¶
ĠÐ¿Ð¾Ðº Ð¸Ð½Ñĥ
ĠÑĩÐµÑĤÑĭ ÑĢÐµ
ĠÐ¿ÐµÑĢ ÐµÐ¶
ĠÐº Ð¾Ð»ÑĮ
ĠÑįÐ½ÐµÑĢÐ³ ÐµÑĤ
ĠÐ¿Ð»Ð°Ð½ÐµÑĤ Ñĥ
ĠÐ¶Ð¸Ð´ Ðº
ĠÐ¿Ð» Ð¾Ñħ
ĠÐŃ ÑĤÐ¸
ĠÐ±ÑĭÑģÑĤÑĢ ÐµÐµ
ĠÑģÐµÑĢÐ¶Ð°Ð½ÑĤ Ð°
ĠÐĺ ÑģÐ¿
ĠÑģÑĤÐ°Ð½ ÐµÑĤ
ĠÐ½ÐµÐ¼ ÐµÐ´Ð»ÐµÐ½Ð½Ð¾
ĠÑıÑĢ Ð¾ÑģÑĤÑĮ
ĠÐ¿ ÐµÐ¿
Ð´Ðµ ÑģÑıÑĤ
ĠÐºÐ¾ÑĤÐ¾ÑĢ ÑĭÐ¼Ð¸
ĠÐ¾Ð±ÑĬ ÑıÑģÐ½
i l
u s
ÐµÐ¶ Ð½ÐµÐ¼Ñĥ
ĠÑĤÑĢÑĥÐ´ Ð¾Ð¼
ĠÐ½Ð°ÑĪ ÐµÐ¹
ĠÑĩÑĤ Ð¾Ð±
ĠÑĢÐ°ÑģÐ¿ÑĢÐ¾ÑģÑĤ ÑĢÐ°Ð½
ĠÐ¢ Ð¾
ĠÐĴ Ð°Ð»
ĠÐĴ Ð¾ÑĤ
ĠÐł Ð¾ÑģÑģ
ĠÐ£Ð»ÑĮÑĤ ÑĢÐ°Ð´
ĠÐļ Ð°Ð¹
ÑĥÑĩ Ð¸
ĠÐ¢Ð°Ð» Ð¾Ñģ
Ð°Ð¼ ÐµÐ½ÑĤ
Ð¸Ð² Ð°ÑİÑĤ
ĠÐ¿ÑĥÑģÑĤ Ñĭ
ĠÐ¡ Ð°Ð¼
ĠÑģÑĤÑĢ ÐµÐ»Ñı
a d
ĠÐ·Ð°Ð¿ Ð¾Ð»Ð½
ÑĢ ÑıÑĤ
ĠÐ½Ð°Ð· ÑĭÐ²
ĠÐĲÐ» Ð°ÑĢÐ¸Ðº
ÑĪ ÑĤ
ĠÐ²ÐµÑĢ ÑĪ
ĠÐ¾ÑģÑĤÐ¾ÑĢÐ¾Ð¶ Ð½Ð¾
ĠÐº Ð¾Ñģ
Ð¾Ð¶ Ð¸Ð»
ĠÐĿÐ¾Ñĩ Ð¸
Ñī Ð°
ĠÐ³ ÐµÑĢ
ÑģÐº Ð°Ð·ÑĭÐ²
ĠÑĢÐ°Ð·Ð² ÐµÐ´
ĠÑģ Ð°Ð¼Ð¸
Ð°Ð» Ð¸Ð·
ĠÐ³ ÑĢÐ°Ð¶Ð´Ð°Ð½
ĠÐ¾Ð´ Ð½Ð¾Ð¼
i c
ÑģÑĤ ÑĢÑĭ
ĠÑģÐ² Ð¸Ð´ÐµÑĤ
ĠÐ¼ÐµÑĩ Ð°
ĠÐ¼ ÑıÑĤÐµÐ¶
ĠÐ´ÐµÐ¹ÑģÑĤÐ² Ð¸Ñı
ĠÐºÐ°Ñĩ ÐµÑģÑĤÐ²Ðµ
ĠÐ½ ÑĢÐ°Ð²
ĠÐ¿Ð¾ ÑģÑĤÐ°Ð²
ĠÑģÐ¾ÑģÑĤÐ¾Ñı Ð½Ð¸Ð¸
Ð¸Ð³Ð¾ ÑĤÐ¾Ð²
ĠÑģÑĤÑĢÐ°Ñħ Ð°
ĠÐŁ ÐµÑĢÑĤÑĥÑĢÐ°Ð±Ð¾
Ð¿ÐµÑĢ ÐµÐ´
ĠÐ¿ Ð»ÐµÐ½
Ð± Ðµ
Ð¸ÑĢ Ð°Ñı
ĠÐ²Ð· ÑıÐ»
ĠÑģÐ²ÑıÐ· ÑĮ
ĠÐ¼Ð¾Ð¼ÐµÐ½ÑĤ Ð°
ĠÐ¿Ð¾Ð¼Ð¾Ñī ÑĮ
ĠÐ½ ÐµÑĢÐ²
Ð³ Ð»Ð°Ð²
ĠÐ±ÐµÑģÐº Ð¾Ð½ÐµÑĩ
ĠÑĢÐ°Ñģ ÑģÑĤÐ¾ÑıÐ½
Ð¡ Ð¿
ĠÐ´ÐµÑģÑı ÑĤÑĮ
ĠÑģÐ¼ ÐµÐ½
ĠÐºÐ¾Ð½ÑĤÑĢ Ð¾Ð»
ĠÑĪ Ð°Ñħ
Ð»Ñı Ð½
ÐµÐº Ð¾Ð¼
ĠÐ³ÑĢÐ¾Ð¼ Ð°Ð´
ĠÐ¿Ð¾Ð½ ÑıÑĤ
ĠÐ»Ð¸ÑĨ Ñĥ
ĠÑģ ÑĦ
Ð» ÑĥÐ±
Ð¸Ð²ÑĪ Ð¸Ðµ
ĠÐ¾Ð¶Ð¸Ð´ Ð°Ð»
ĠÐ½ÐµÐ¿ÑĢ Ð¸ÑıÑĤ
ĠÑģÐ¾Ð³Ð»Ð°Ñģ Ð¸Ð»ÑģÑı
ÐµÑĢ Ð¿
ĠÐ½Ð°ÑħÐ¾Ð´ Ð¸Ð»ÑģÑı
ĠÑį Ð»ÐµÐº
Ð½Ð°Ñĩ Ðµ
Ð¿ÑĢ ÐµÐ¶Ð½ÐµÐ¼Ñĥ
ĠÑĢ Ð²Ð°Ð½
Ð» Ð°ÑģÑĮ
ĠÐ´ Ñİ
ĠÐ¿Ð¾Ñģ Ð¿
ĠÐĳ Ñĭ
ĠÑĢÐ°Ð½ Ñĭ
Ġ *
Ð¾ÑĤ Ðµ
ĠÐ¿Ð¾Ð´Ð¾ÑĪ ÐµÐ»
Ð¸Ð²ÑĪ Ð¸ÑħÑģÑı
ĠÐ¾ÑģÑĤ Ð°Ð»ÑģÑı
ĠÐ¾Ð±Ð» ÐµÐ³
ĠÐĺÐ¼Ð¿ÐµÑĢ ÑģÐºÐ¾Ð¹
ĠÐ¼Ð½Ð¾Ð³Ð¾ ÑĩÐ¸Ñģ
ĠÐ Ļ
Ð°ÑİÑī ÑĥÑİ
ĠÐ² Ð¾ÑĢÐ¾ÑĤ
ĠÐ½ ÐµÑĢ
ĠÐ¾ÑĤ Ð¼ÐµÑĤ
Ð¼ Ð¸ÑĢ
Ð¾Ð» Ð³Ð¾
ÑĢÐ¾Ð´ Ðµ
ĠÐ½Ð°Ð¹ Ð´
ĠÐ¾Ð± Ð¸ÑĤ
ĠÑĢÑĥ ÐºÐ¾
Ġ he
ĠÑģÑĤÑĢ ÐµÐ»ÑĮ
ĠÐ²Ð¾Ð·Ð´ÑĥÑħ Ð°
ĠÐ¶ Ð°ÑĢ
Ð² Ð¾Ðµ
ÑĪ ÑĥÑİ
ĠÐ¿ÐµÑĢÐ² ÑĭÐ¼
ĠÑģÐ¾Ñģ ÑĢÐµÐ´Ð¾ÑĤÐ¾Ñĩ
ĠÐºÑĢÑĭ ÑĪ
Ð½ Ð¸ÑĤ
ÐµÑģÐº Ð¾Ð»ÑĮÐºÐ¾
ÐµÐ½ ÐµÑĢ
ĠÐ³ ÑĥÑģÑĤ
ĠÐļÑĢÐ¾Ð²Ð°Ð² ÑĭÑħ
ĠÐŁÐ¾Ð¶ Ð¸ÑĢ
ÑĮ Ð¼Ð¸
ĠÐºÑĢ Ð°Ñı
ĠÐĽ Ð¾ÑĢÐ´
Ð¿ÑĢ Ð¾ÑĩÐµÐ¼
ĠÐĿÐµÑģÑĥÑī Ð¸Ñħ
Ð½ Ð°Ð¼Ð¸
ĠÐ±ÑĥÐ´ ÐµÐ¼
ĠÐ¿Ð¾Ð¹ Ð¼
ĠÐ²Ð¾Ð·Ð¼Ð¾Ð¶ Ð½Ð¾ÑģÑĤÐ¸
Ñı ÐµÑĤ
ĠÐĿ Ð¸
ÑĢÐ°Ð½ Ð¸Ñĩ
ÑĥÑİÑī Ð¸Ð¹
ĠÐ¾ ÑħÐ²Ð°ÑĤ
" ,
ĠÐ½Ð°Ð±Ð»Ñİ Ð´Ð°Ð»
ĠÐļÐ¾ ÑĢÐ°ÐºÑģ
ĠÐ¾ÑģÑĤ Ð°Ð»Ð¸ÑģÑĮ
ĠÐºÑĢÐµÐ¿ Ð¾ÑģÑĤÐ¸
Ð³ Ð¸
Ð²Ñĭ ÑĢ
Ð¸Ð»ÑĮ Ð½Ð¾
Ð» ÐµÑģÑĤ
ĠÐĲ Ð±
ĠÑģÐ¿ ÑĢÐ¾ÑģÐ¸Ð»Ð°
ĠÐ¸Ñģ Ñģ
ĠÐ¿ÑĢÐµÐ´Ð¿ Ð¾Ñĩ
ĠÐ² ÐµÐ»
ĠÐļ Ð¾Ð½
ĠÑģÐ¿ ÐµÑĨ
ĠÐº Ð»ÐµÑĤ
ĠÑħ ÑĥÐ´
ĠÐĳ ÑĢÐ¾Ð½
ĠÑģÐ°Ð¼ ÑĭÐµ
ĠÐºÐ¾Ð½ ÑĨÐ¾Ð²
ĠÐ¸Ð½ ÑĦ
ĠÐ·Ð´ Ð°Ð½Ð¸Ñı
Ð»Ñı Ð»Ð¸ÑģÑĮ
Ð¢ ÐµÐ¿ÐµÑĢÑĮ
ĠÑģÐ¼ÐµÑĢ ÑĤÐ¾Ð½Ð¾Ñģ
Ð ¦
ĠÐ¸ ÑģÑĤÑĢÐµÐ±
ĠÐ¿Ð¾Ðº Ð°Ð·ÑĭÐ²
ĠÐ´Ð¾Ð»Ð¶ Ð½Ð°
ĠÑĩÑĥÐ² ÑģÑĤÐ²Ð¾
ĠÐ°ÑĢÑĤ Ð¸Ð»Ð»ÐµÑĢ
Ð°ÑĤ Ð¸
ĠÐ²ÑģÐº Ð¾ÑĢÐµ
ĠÐ°Ð² ÑĤÐ¾Ð¼
ĠÑģ ÐµÑģÑĤ
ÑĤÐ¾ÑĢ Ð¼
ĠÐ¾ÑĤÐ²ÐµÑĤ Ð¸Ð»Ð°
Ñĥ ÐµÐ¼
ĠÑĢÐ°Ñģ ÑģÐµ
Ð»ÐµÐ½ Ð¸Ð¹
ĠÐ³Ð¾Ð²Ð¾ÑĢ Ñı
ĠÐºÐ¾Ð¼Ð¿ Ð»ÐµÐº
ÑĤ Ð°ÑĢ
Ð¾ÑĢ ÑıÐ´
ĠÑĪ Ð»Ð¸
Ñİ ÑĪ
ÐµÐ´ Ð»
Ð»ÐµÐ½ Ð½Ð¾Ð³Ð¾
Ð¼Ð°ÑĤ ÑĢ
Ðļ Ð¾Ð½ÐµÑĩÐ½Ð¾
ĠÐ·Ð½ Ð°Ð»Ð¸
Ñĭ ÑģÐº
ĠÑģ Ð´
Ð¾Ð»ÑĮ ÑĪÐµ
Ð½Ñı ÐºÐ°
ĠÑĤÐµÑĢ Ð¿
ĠÐ¡ Ð°Ð½Ð³Ð²Ð¸Ð½
ĠÐ´Ð² ÑĥÐ¼
ĠÐ¿ÑĢÐ¾ÑĪ ÐµÐ»
Ð°Ð½ Ðµ
Ð°ÐµÐ¼ ÑģÑı
Ð¼Ð¾Ð» Ð²
ĠÐ´ Ð°ÑĢ
Ð½Ð¸ÑĨ Ð°
ĠÐ· Ð°Ð»Ð°
ÐµÐ¶ Ð°ÑĤÑĮ
ĠÐ¾Ðº Ð°Ð·Ð°Ð»Ð¾ÑģÑĮ
ĠÑĩ ÑĳÑĢ
ĠÐĴÐ¾Ð» ÐºÐ¾Ð²
ÑģÑİ Ð´Ñĥ
ĠÐľÐµÑħÐ°Ð½Ð¸Ðº ÑĥÑģ
ĠÐ¿Ð¾ ÑĢÐ°Ð·
ĠÐ°Ð± ÑģÐ¾Ð»ÑİÑĤ
ÑĤ Ð°Ð»
Ð¿ÑĢÐ¾ Ð¸Ð·Ð½ÐµÑģ
ĠÐºÐ¾ Ðµ
ĠÐ² ÑĢÐ°Ñī
ÑĥÑĪ ÐºÐ°
ĠÑĢÐ°Ð·Ð´ ÑĢÐ°Ð¶
ĠÐ¸ÑģÐ¿Ð¾Ð»ÑĮÐ· Ð¾Ð²Ð°ÑĤÑĮ
ĠÐ¸Ð´ ÑĤÐ¸
ĠÐ¼ Ð¾Ð»Ð½
ĠÑĤ ÐµÐ½ÑĮ
ĠÑĤÑĢ ÐµÑī
Ð¸Ð²ÑĪ Ð¸Ð¹
ĠÐ´Ð¾ÑģÐ¿ÐµÑħ Ð¾Ð²
ÑģÑĤ Ð¸
ĠÑģÑĥÑīÐµ ÑģÑĤÐ²Ð¾Ð²
ĠÐ¿Ð¾ ÑģÑĤÑĢÐ¾
ĠÐļ ÑĢÐ¾Ð²
ĠÐ¿ÑĢ Ð¸ÑĤ
ĠÐ²Ñĭ ÑĤÐ°Ñī
Ð¸ÑĤÐµÐ»ÑĮ Ð½Ð¾Ð³Ð¾
ĠÐĺ Ñģ
Ġ I
ĠÐ· Ð°ÑıÐ²
ĠÐĶ ÑĥÑĪ
ÑģÑĤÐ²ÐµÐ½ Ð½Ð¾
ĠÑģÐ»ÐµÐ´ ÑĥÐµÑĤ
ĠÐ¿ ÐµÑĩ
Ð¾Ð³ Ð¸
ĠÐ±ÑĥÐ´ Ñĥ
ĠÐ½Ð° ÑĢÑĥÐ¶
ĠÐļ ÑĤÐ¾
Ð¾ÑĢ Ð½Ð°
ĠÐº Ð°Ð·
ĠÐºÐ¾Ð» Ð´Ñĥ
ĠÑĩ Ð»ÐµÐ½
Ð¾ÑĢÐ¾ÑĪ Ð¾
ĠÑģÐ¿ Ð¸Ð½Ñĥ
ĠÐ³Ð¾Ð»Ð¾Ð² Ð°
ĠÐ¿Ñĭ Ð»Ð¸
ĠÐ´ Ñĭ
ĠÐ·Ð°Ð´ ÐµÑĢÐ¶
ĠÑģ Ð¾ÑĢÐ²
Ð¸ÑĩÐµÑģÐº ÑĥÑİ
ĠÐ·Ð°Ðº ÑĢÐ¸ÑĩÐ°Ð»
ĠÑģÑĤÐ°ÑĢ Ð°ÑıÑģÑĮ
ĠÐ¸Ð½ÐºÐ²Ð¸Ð·Ð¸ÑĤÐ¾ÑĢ Ð°
ĠÑĩÐµÑĤ Ð²ÐµÑĢ
Ð°Ðº Ð¾Ð½ÐµÑĨ
ĠÐ¿ÑĢÐ¾Ð¸ÑģÑħÐ¾Ð´ Ð¸ÑĤ
ĠÐ¼ Ð¸ÑģÑģ
ĠÑĪ ÐµÑģÑĤÑĮ
ĠÑħ Ð¸Ñī
Ñı Ð»Ð¾
Ð¸Ð¼ Ð¾Ð¹
ÐĴ Ð¾ÑĤ
Ð¸Ð¼ ÑĭÐ¹
Ð°Ð´ Ð¾Ð±
ĠÑĢÑıÐ´ Ñĭ
ĠÐ²Ñĭ ÑĢÐ°Ð¶
ĠÑģÑĤ ÑĢÐ°Ð´
Ð³ Ð¾Ð²
ĠÑģÐ»ÑĥÑĩ Ð¸Ð»Ð¾ÑģÑĮ
ÐµÑĪ Ðµ
ĠÐ¡ Ð°ÑĢÐ¿ÐµÐ´
ĠÐ¸ÑģÐ¿ Ð¾Ð»Ð½
ĠÐ¾ÑĤÐ² ÑĢÐ°ÑĤ
ĠÐ´ÑĭÑħ Ð°Ð½Ð¸Ðµ
ĠÑĥ ÑģÐº
ĠÐ¡ ÐµÐ¹ÑĩÐ°Ñģ
ĠÐĶ ÑĢÑĥÐ³
ĠÐ¼ÐµÑĩ Ð¾Ð¼
ĠÑĢÐ°Ð·Ð³ Ð¾Ð²Ð¾ÑĢ
ĠÑģÐ¾Ð´ ÑĢÐ¾Ð³
Ð¾Ð» Ð¾Ñĩ
ÑĤÐµÐ½ Ð°Ð½ÑĤ
ĠÐĿ Ð°Ð¼
ĠÐ³ÑĢÑĥÐ¿Ð¿ Ñĭ
ĠÑĢ ÑĭÑĩ
ĠÐ» Ð¾ÑĢ
Ð³Ð¾ ÑĢ
ĠÐŁ Ð¾ÐºÐ°
Ñĳ Ð´
ĠÐºÐ°Ð¶Ð´ Ð¾Ð¹
ĠÐ´Ð²Ð¸Ð³ Ð°ÑĤÐµÐ»ÐµÐ¹
ĠÑĥÐ´Ð°ÑĢ Ð¾Ð¼
ĠÐ¿ÑĢÐ¾Ð´Ð¾Ð»Ð¶ Ð¸Ð»
Ð¾Ð± ÑĢ
ĠÐ²Ñĭ Ð´ÐµÑĢÐ¶
ÑģÑĤÑĢ ÐµÑĩ
ĠÐ³ÐµÐ½ ÐµÑĤ
ĠÐ±ÐµÐ·Ð¾Ð¿Ð°Ñģ Ð½Ð¾ÑģÑĤÐ¸
ĠÐĿ ÐµÐ¼
ĠÐľ Ð¾ÑĢ
Ð¼ ÐµÑĢÑĤ
ĠÑģÐ¿ÑĥÑģÑĤ Ñı
ĠÑĤÐ²Ð°ÑĢ Ð¸
ĠÐ¸ Ð³ÑĢ
ĠÐ³Ð¾Ð»Ð¾Ñģ Ð°
ĠÐ³ ÑĢÐ°Ð²
ĠÐ¤ ÐµÑĢ
ĠÐŃÑĤÐ¾ ÑĤ
ĠÑĢÐ°Ð± Ð¾Ñĩ
ĠÐ¿ÑĢÐ¸Ð² ÐµÑĤ
ĠÐ¿Ð¾Ð´ Ð°Ð²
ĠÐ¿Ð¾Ð»ÑĥÑĩ Ð¸Ð»
ĠÐ¿ÑĢÐ¸ÐºÐ°Ð· Ñĭ
Ð» Ð°Ð¼
ĠÐ² ÑĢÐ¾Ð´Ðµ
Ð¾Ð´ Ñĥ
Ð°Ð¼ ÐµÑĤ
ĠÐĺ Ð»Ð¸
Ðļ Ð°Ð¿Ð¸ÑĤÐ°Ð½
ĠÐķ ÑīÐµ
ÑĥÑīÐµ ÑģÑĤÐ²Ð¾
ĠÐ»Ð¸Ð½ Ð¸Ð¸
Ð¾Ð¹Ð´ ÐµÑĤ
Ð°Ð»Ð°Ð¼ Ð°Ð½Ð´
Ð»ÐµÐ½ Ð¸Ñİ
ĠÐºÑĢ Ð°ÑĤ
ĠÑĤÑĢ ÐµÐ½
ĠÑģÐ¾ Ð¾ÑĤÐ²ÐµÑĤ
Ñĥ ÐµÑĤÑģÑı
Ð¸Ð¼ ÐµÑĤ
ĠÑģÐ¼ ÐµÑĪ
ĠÑį Ð¼Ð¾
ĠÐ£ ÑĢÐ¸ÑįÐ»ÑĮ
ĠÐ¿ÑĢÐ¸ÑĪ Ð»Ð¸
ĠÐ¼Ð³Ð½Ð¾Ð² ÐµÐ½Ð½Ð¾
ĠÑħÐ¾ÑĤÐµÐ» Ð¾ÑģÑĮ
ÐµÐ¹ Ð»
Ð· ÐµÐ¼
ĠÐ·Ð°Ñģ Ð»ÑĥÐ¶
ĠÐ¼Ð¸ÑĢ Ðµ
Ð»Ð°Ð³ Ð¾Ð´Ð°ÑĢ
ĠÐ´ ÑĢÐµÐ´Ð½Ð¾ÑĥÑĤ
ĠÑģÐ» ÑĥÑħ
Ð» Ð°Ð½ÑĤ
ĠÐ²Ð¸Ð´ ÐµÐ»Ð¸
ĠÐķ Ðµ
ÂłÂł Âł
Ð¸Ð¼ ÑĭÐ¼
ĠÐ± Ð¾Ð¼Ð±
ĠÐĹ Ð°ÑħÐ°ÑĢÐ¸
ĠÑĤ ÐµÑĩÐµÐ½Ð¸Ðµ
ĠÐ¼ Ð°Ð»ÑĮ
Ð¿ ÑĥÑĢ
ĠÐ¾ÑĤ ÐºÑĥÐ´Ð°
ĠÐ¿ÑĢÐ¸ÑħÐ¾Ð´ Ð¸Ð»Ð¾ÑģÑĮ
ĠÐŀ Ð¼
ĠÐ²Ð¾Ð· Ð»Ðµ
ĠÐ´Ð¾ÑģÐ¿ÐµÑħ Ð°Ñħ
ĠÐ¾ÑĤÑģ ÑĥÑĤ
ĠÐ´ Ð¾Ð²
ĠÐ´ Ð¾Ð½
Ñĩ Ð°ÑģÑĤ
Ð¾ÑģÑĤ Ð¾Ñı
Ð¸Ð» Ð¸Ð·
ÑģÐº Ð¾Ñĩ
ĠÑģÐµÐºÑĥÐ½ Ð´Ñĭ
ĠÐ´Ð¸Ñģ Ð¿
ĠÑģÐ¾Ð´ ÐµÑĢÐ¶
ĠÐ½Ð°ÑħÐ¾Ð´ Ð¸ÑĤÑģÑı
ĠÑĢÑĥÑħ Ð½ÑĥÐ»
Ð¾Ð² Ð°
ĠÐ¾ÑĤ Ð¾Ð·Ð²
Ðĵ Ð°ÑĢÑĢÐ¾
ĠÐ³Ð¾Ð»Ð¾Ñģ Ð¾Ð¼
ĠÐ±Ð°ÑĪ Ð½Ð¸
ĠÐ¾Ð±Ð»Ð¾Ð¼ ÐºÐ¾Ð²
ĠÐ± Ð¸
ĠÐľ Ð°Ðº
Ð½Ð°ÑĢÑĥÐ¶ Ð¸
ĠÑĥÑħ Ð¼Ñĭ
ĠÐ¾ÑģÐ¾Ð± ÐµÐ½Ð½Ð¾
ĠÑĥÐ·Ð½ Ð°ÑĤÑĮ
ÑĢ Ð¸ÑģÑĤ
ĠÐ² Ð¾ÑĢ
ĠÐ½Ð° Ð¸Ð±
Ð°Ð· Ð½Ð°Ñĩ
ĠÐĲ Ð¿
ĠÐ±Ð¾Ð»ÑĮÑĪ Ð¾Ð¹
ĠÐĵ Ð°ÑĢ
ĠÐ¿ÑĢÐ¸Ð½ ÑıÐ»
ĠÐ¼Ð°ÑĢ ÑĪ
ÑĪ Ð¸ÑħÑģÑı
ĠÐ´ Ð¾Ð²Ð¾Ð»ÑĮÐ½Ð¾
ĠÐļ Ð°Ð¿Ð¸ÑĤÐ°Ð½
ĠÑģ ÐµÐ³Ð¾Ð´Ð½Ñı
ÑĢÐ°ÑĤ ÐµÐ³
ĠÐĸ Ð¸Ð»Ð»
ĠÐļ ÑĢÐ°Ñģ
ĠÑģÐ¾Ð»Ð´Ð°ÑĤ Ñĭ
Ñģ Ñĭ
ĠÐµÐ´ Ð¸Ð½
ĠÑģÐ¾Ðº ÑĢÑĥÑĪ
ĠÐ¡Ñĭ Ð½Ð¾Ð²
ĠÐ¼ Ð¾Ðµ
ĠÑĢ Ð²
ĠÑģÐ¶ Ð¸Ð¼
ĠÑĦ Ð°ÐºÑĤ
ĠÐ¿ÑĢÐ¾ÑĪ ÐµÐ¿ÑĤÐ°Ð»
ĠÐ¾ÑĤÐ´ÐµÐ» ÐµÐ½Ð¸Ðµ
ĠÐº ÐµÐ¼
l e
ĠÐļ Ð¾Ð³
ĠÐºÐ¾Ð³ ÑĤÐ¸
Ð¸Ðº Ð¾Ð¼
ĠÐĴ Ð·
ÐµÐ¿ ÐµÐ½Ð½Ð¾
ÑĢ Ð¾Ð·
ĠÐķ Ð´
ĠÐĲÑĢ Ð³
Ð½Ð°Ñĩ Ð¸ÑĤ
ĠÑĥÐº Ð°Ð·
ÑĢÑı Ð¼
ĠÐ¿ÑĢÐ¸Ð½ Ð¸Ð¼
ĠÐºÑĢ Ð¾ÑĪ
ĠÐ¿Ð¾Ð¼ Ð¾ÑĩÑĮ
Ð½ÑĥÐ» Ð¾ÑģÑĮ
ĠÐ¿Ð¾Ñģ Ð°Ð´Ð¾Ñĩ
ĠÐ¿ÑĢÐµÐ´ Ð½
ĠÐ¼ ÑĥÑģÐº
Ð¶ Ð°Ð²
Ð¾Ðº ÑĢÑĥÐ³
ĠÐ²Ð¾Ð½ Ð·
ĠÐ½ÐµÐ¿Ð¾Ð´ Ð²Ð¸Ð¶
ĠÐ¸ÑģÐº Ð°Ð¶
ĠÐ¾Ð± Ñģ
ĠÐ²ÐµÑĢ Ð½ÑĥÐ»ÑģÑı
ĠÑıÑģ Ð½Ð¾
ĠÑĤ ÑĥÐ¼Ð°Ð½
ĠÐ¾ÑģÑĤ ÑĢÑĭ
Ð¾Ñħ ÑĢÐ°Ð½
ĠÐ¿Ð¾Ð´ Ð½
ĠÐºÐ¾ÑĤÐ¾ÑĢ Ð¾Ð¼Ñĥ
ĠÐ²Ð·Ð´ Ð¾ÑħÐ½ÑĥÐ»
ĠÑĥ Ð³Ð¾Ð»
ÑĥÑī Ð¸Ðµ
ĠÐ½Ð°ÑĪ ÐµÐ»
ĠÐ®ÑĢÐ³ ÐµÐ½
ĠÐ½ Ð°Ð¶
Ðļ ÑĤÐ¾
ĠÑģÐ²ÐµÑĤ Ð¾Ð¼
ĠÑģÐ½Ð°ÑĢÑıÐ´ Ð¾Ð²
ÐµÐ´ ÑĮ
Ð°Ð»ÑĮ Ð´
ĠÐºÐ°Ð¿ ÐµÐ»Ð»Ð°Ð½
ÑĢ Ð¾Ð¹
ÐµÐ½ Ð½Ð¾Ð¼Ñĥ
ĠÐ¾Ð±ÑıÐ· Ð°Ð½
Ðº Ð¾ÑĢ
ÑĭÐ² Ð°ÑıÑģÑĮ
ĠÐºÐ¾Ð½ ÑĨÐ°
ĠÐĽ ÐµÐ³
Ð¸ÑĢÐ¾Ð²Ð°Ð½ Ð½ÑĭÐµ
Ð¾ÑĢÐ¼Ð¾ÑĤ Ð°Ð»
ĠÑĩ Ð¸ÑĤ
ĠÐ³ Ð¾Ð´Ñĭ
ÑĥÐ· Ñĭ
ĠÐĽÐ¾ÑĢÐ³ Ð°ÑĢ
Ð°Ð² Ð°
ÐµÐ¹ ÑĤÐµÐ½Ð°Ð½ÑĤ
ĠÐ½Ð°Ð¿ Ð»ÐµÑĩ
ĠÑģÑĢÐ°Ð¶ Ð°Ð»Ð¸ÑģÑĮ
Ð½Ð¸ÑĨ Ðµ
ĠÐļ Ð°
ĠÐ½Ð°Ð² Ð¸Ð³
ĠÑĢ Ð¾Ñģ
ĠÐ¾Ñģ Ð¼Ð¾ÑĤ
ĠÐĴÐ¾ Ð¸ÑĤÐµÐ»Ñı
ĠÐ³Ð¾ÑĤÐ¾Ð² Ñĭ
ĠÐ¿Ð¾Ð½ Ð°Ð´Ð¾Ð±
ĠÐ²Ð· Ð¼Ð°Ñħ
ĠÐ¿ ÑĥÐ»ÑĮÑģ
ÐºÐ¾Ð² Ð¾Ð´
ĠÑģÐ¾Ð±Ð¸ÑĢ Ð°Ð»ÑģÑı
ĠÑĤ ÐºÐ°Ð½
ĠÐĿÐµÑģ Ð¼Ð¾ÑĤÑĢÑı
ĠÐ¿ÑĢÐ¸ÑģÑĥÑĤ ÑģÑĤÐ²Ð¸Ðµ
Ð°Ðº Ð¸
Ð¾Ð´ Ð¾Ð»
ĠÑģÐ» ÐµÐ·
ĠÑĪ Ð¿
ĠÐ¾Ð³ÑĢÐ¾Ð¼ Ð½ÑĭÐ¹
ĠÐ¡ Ð¸Ð»
ĠÑĢÐ°Ð±Ð¾ÑĤ Ñĥ
ĠÑĥÐ¿ÑĢÐ°Ð² Ð»ÐµÐ½Ð¸Ñı
Ñı ÑģÐ°
ĠÐ¾Ðº ÑĥÑĤ
ĠÐ²Ñĭ Ð³
Ð°Ð»ÑĮ Ð½ÑĥÑİ
ĠÑģÐ¼ ÑĭÑģ
Ð°Ð»ÑĮ Ð½Ð¾Ðµ
ĠÐł Ñĭ
Ð» ÑĭÐ¹
Ð°Ð´ Ð´Ð¾Ð½
ĠÐ° ÑĥÐ³
ĠÐ±Ð¾Ð» ÐµÐ·
ĠÐ° Ð½
ĠÑģÐµÑĢÐ´ ÑĨÐ°
Ð¾Ð» ÐµÐ¿
ÐĴ Ð¾Ð·Ð¼Ð¾Ð¶Ð½Ð¾
ĠÐ» Ð°Ð±
ĠÐºÐ¾ÑĪ Ð¼Ð°ÑĢ
ĠÐº ÑĥÑģ
ÑĢÐ¾Ñģ Ð¸ÑĤÑĮ
ĠÑĩ ÑĥÐ´
Ð± Ð¾
ĠÐ¸Ð¼Ðµ ÐµÑĤ
ÐµÐ² Ð°
ĠÑıÐ²Ð»Ñı ÐµÑĤÑģÑı
ĠÐ¿ÑĢÑĭ Ð³
ÐµÐ½ Ñı
ĠÐĲ ÑĤ
Ð» Ð°Ð¶Ð´
Ð¾Ñĩ Ð½Ð¾
ĠÑĥÐ³ Ð¾Ð´
ÑĤÐ¾ÑĢ Ñĭ
ĠÑĤÑĢ Ð¸Ð´ÑĨ
ĠÑĥÐ² ÐµÐ»Ð¸Ñĩ
Ð°Ð»Ñĥ Ð¹
Ð½ Ð°Ð´ÑĨÐ°ÑĤÑĮ
ÑĥÑī Ð¸Ñħ
ĠÐ½Ð°Ð· Ð½Ð°Ñĩ
ĠÐ¼Ð¾Ð½ ÑģÑĤÑĢ
ĠÐ² Ð¾Ð´Ñĭ
Ð¾Ð² ÑĥÑİ
Ð¾ÑĢ Ð¾Ðº
ĠÑģÐ²ÐµÑĤ Ðµ
Ð¼Ðµ ÑıÐ»ÑģÑı
ĠÑģÐ¾Ð¼Ð½ ÐµÐ½Ð¸Ñı
ĠÐ¾Ð±Ð»ÐµÐ³ Ñĩ
ĠÐĵ Ð°Ð»Ð°ÐºÑĤ
ĠÐ¿Ð¾ÑıÐ² Ð¸Ð»ÑģÑı
ĠÐ¿ÑĢÐ¾Ñĩ ÑĮ
ĠÐ» Ð¸Ð±Ð¾
ĠÐ¶Ð¸Ð² ÑĭÑħ
ĠÐ³Ð¾ÑĢÑı Ñī
Ð± ÐµÑĢ
ĠÐ´Ð¾ÑģÑĤ Ð¾Ð¹
ĠÐ·Ð°Ð½ ÑıÑĤ
o m
ĠÑģÑĤ Ð°ÑĤ
ĠÐŁ ÑĥÑģÑĤ
ĠÐ²Ð¾Ñģ Ñħ
ÐŁ ÐµÑĢÐ²
ĠÐ´Ð²Ð¸Ð³ Ð°ÑĤÐµÐ»Ð¸
ĠÐ²ÑĭÑģÑĤÑĢÐµÐ» Ð¸Ð»
Ð¾Ð² Ð°Ð»ÑģÑı
ĠÑģÑĤ ÑĢÐ°ÑĤÐµÐ³
ĠÐ¸Ð¼ ÐµÐ½Ð¸
ĠÐ´Ð¾ÑģÐ¿ÐµÑħ Ð°
ĠÐ¼ Ð¾Ñı
ÑĢÐ°Ðº ÑĤÐµÑĢ
ĠÐ·Ð² ÑĥÑĩ
Ð¾Ð² Ð°Ð½Ð¸Ðµ
Ð¾ÑĤ Ð¸Ð½
Ð¸Ð² Ð°Ð»Ð°
ĠÑģ Ð¾Ð³
ĠÐ³ ÑĥÐ±Ñĭ
ĠÐ¿Ð¾Ð´ Ð¿
Ð¸ÑĤÐµÐ»ÑĮ Ð½Ð¾Ðµ
Ð¼ Ð¾Ð½
Ñı Ð´Ð°
ĠÐºÐ¾Ð½ ÐµÑĨ
Ð»Ð°Ð· Ð°
ĠÐ¾ÑģÐ» Ð°Ð±
Ð¾Ð¿ Ð¾Ð»Ð¾Ð¶
Ð¾Ð¶Ð´ ÐµÐ½Ð¸Ñı
ĠÐ¿Ð¾Ð²ÐµÐ» Ð¸ÑĤÐµÐ»ÑĮ
ĠÐ½ ÐµÐ¶
Ð¾Ð² Ð°Ñı
Ð¾Ð¿ ÑĭÑĤ
ĠÐºÑĢ Ð¸ÐºÐ¸
ĠÐ± Ð¾ÑĢÑĤ
ĠÐŀ Ñģ
ÑĪ ÐµÐ¼Ñĥ
ÐĿ ÐµÑģ
ĠÐ¸Ð½ ÑģÑĤÐ¸Ð½
ĠÑĢÐ°ÑģÐ¿ Ð¾Ð»Ð°Ð³
Ð¸ÑĢ Ð¸Ð½
ÑĥÑĪ ÐºÐ¸
ĠÐºÑģÐµÐ½Ð¾Ñģ Ð¾Ð²
ĠÐ¸ Ð½Ð°ÑĩÐµ
ÐĶ Ð¶
Ð»Ð¾ Ñħ
Ð¸Ð¿ ÐµÐ»
ĠÐ·Ð°Ð³Ð¾Ð²Ð¾ÑĢ Ð¸Ð»
ĠÐ¿ÑĢ Ð¾Ð·Ð²
ĠÐ¼ÐµÑĢ Ð·
ĠÐ¿ÑĢÐµÐ´Ð½ Ð°Ð·Ð½Ð°Ñĩ
ĠÐ¿ÑĢ Ð¸ÑĢ
ÑĨ Ð°Ð¼
ĠÐ²Ð¾Ð» Ð¾ÑģÑĭ
ĠÐ´ Ð°ÑĤÑĮ
Ð¸Ð¼ Ð¾ÑģÑĤÐ¸
Ð°Ñı ÑģÑı
ĠÐ¾ÑĤÐº Ð»ÑİÑĩ
ĠÐ±ÑĢÐ¾Ð½ Ñı
ĠÑĥÑģ Ð¼ÐµÑħ
ĠÑģÐ² Ð¾Ð´
Ð¸Ð¾Ð½ Ð°
ĠÐ²ÐµÑĢ Ð½ÑĥÑĤÑĮÑģÑı
T he
ĠÐ¾Ð±Ð½Ð°ÑĢÑĥÐ¶ Ð¸Ð»
Ð² Ð¾ÑģÑĤ
ĠÑģÐ¾ ÑİÐ·
ĠÐ¾ÑĤ Ð¼
ĠÐ´Ð°Ð» ÐµÐº
ĠÐ°ÑĢÐ¼ Ð¸Ð¸
ĠÐ² Ð°Ð»
ĠÐ¾Ð³ Ð½ÐµÐ²
ĠÐ¾ÑĤÑģ ÑİÐ´Ð°
ĠÐ½Ð¾Ñĩ ÑĮ
Ð» ÐµÑģÐº
ĠÐ¿ Ð¸Ðº
ĠÑģ ÑĥÑħ
ĠÐ¶ ÑĥÑĤ
ĠÐ·Ð» Ð¾Ð±
ĠÑı ÑģÑĤÑĢÐµÐ±
ĠÑģÐ¿ ÑĢÑıÑĤ
ĠÐ¿Ð¾Ðº Ð°Ð·Ð°Ð»Ð¾ÑģÑĮ
ĠÐ¿Ð¾Ð·Ð²Ð¾Ð» Ð¸Ð»
ÑĢ ÐµÑģÐº
ÑĩÐ¸Ð² Ð¾
ĠÐ½Ð°ÑĢÑĥÐ¶ Ñĥ
ĠÐĴ Ð¼ÐµÑģÑĤ
ĠÑģÐ» ÐµÐ¿
ĠÑĢÑĭ ÑĨÐ°ÑĢ
Ð°Ð»ÑĮ Ð½Ð°Ñı
ĠÐ½ÐµÐ² Ð¸Ð´
ĠÐ¸Ð·Ð± Ð°Ð²
Ð¸ÑĤ ÐµÐ»ÐµÐ¼
ĠÑģÑĢÐ°Ð¶ ÐµÐ½Ð¸Ñı
Ð°Ð½ Ñĥ
ÐµÐ¹ Ð´
ĠÐ³Ð» Ð¾ÑĤ
ĠÑĩÐµÑĢÐµÐ¿ Ð°
ĠÐ¿Ð¾Ð¼ ÐµÑħ
ÐĽ Ñİ
ĠÑĪÐ°Ð³ Ð½ÑĥÐ»
l y
ÑĢ Ð°Ð»Ð¸
ĠÐº Ð¸Ñģ
ĠÑĩÑĥÐ² ÑģÑĤÐ²Ñĥ
Ġ it
Ð°Ð½ Ð¾Ð¼
ĠÐ³Ð» Ð°Ð´
ĠÑĥÐ´ Ð¾Ð²Ð¾Ð»ÑĮ
ĠÐ²Ð¾ÐºÑģ Ñĥ
ĠÑģÐ¾Ð·Ð½ Ð°Ð½Ð¸Ðµ
ĠÑĤÑĢ ÐµÑĤÑĮ
ĠÐ·Ð² ÑĥÐºÐ¸
ĠÐ²Ð¾Ð» Ð½Ð°
ĠÐ²Ð¿ÐµÑĢ Ð²ÑĭÐµ
ĠÐ±ÐµÐ· Ð´
ĠÐĶ ÐµÑģÐ°Ð½ÑĤÐ½Ð¸Ðº
ÑĤÐ¾ÑĢ Ð¾Ð²
ĠÐ¼Ð°ÑĪ Ð¸Ð½Ð°
Ð¸Ð¼Ð¸ ÑģÑı
ĠÐ²ÐµÑģÑĮ Ð¼Ð°
ĠÐ¾ÑĤ ÑĪ
ĠÑĪ ÐµÐ¿
ĠÐ¿ÑĥÑĤ ÐµÑĪÐµ
ĠÐ±Ð»Ð°Ð³Ð¾ ÑģÐ»Ð¾Ð²
ĠÑģÐ¼ ÐµÑħ
Ð°ÑİÑīÐ¸Ð¹ ÑģÑı
ĠÐ»Ð¸Ñĩ Ð½Ð¾
ĠÐ¼ÑĥÑĤ Ð°Ð½ÑĤ
ĠÐ¼ ÑĢÐ°Ðº
ĠÑģÐ¾Ð± ÑĢÐ°Ð½
ÑĥÐ¼ Ð°Ñİ
ĠÐ¿ÑĢÐµÐ´ÑģÑĤÐ°Ð² Ð»Ñı
Ñĩ Ð°
ĠÐ´ Ð¶
ĠÑĨ Ð°ÑĢ
Ð² ÐµÐ»
ÐµÑĤ Ð¾Ð¼
ĠÐĿ Ð°Ð²
ĠÐĳ Ð°ÑĢ
Ð°Ð²ÑĪ Ð¸Ð¹ÑģÑı
ĠÑĤÐ²Ð°ÑĢ ÑĮ
ĠÑģ Ñħ
ĠÐºÐ°Ð¿ ÑİÑĪ
ĠÐ½ÐµÐ¾Ð±ÑħÐ¾Ð´ Ð¸Ð¼Ð¾
ĠÐ¿ÑĢÐ¸Ð·ÐµÐ¼ Ð»
ĠÐ³ Ð°Ð·
Ð°ÑĤÐ¾ÑĢ Ñĭ
ĠÐĴÐ¾ Ð¸Ð½Ñĭ
ĠÐ¾ÑģÑĤÐ°Ð½Ð¾Ð² Ð¸ÑĤÑĮ
ÐµÑĤ Ð¸
ĠÐ¾Ð´ Ð½Ð¾Ð¼Ñĥ
ĠÐ¿Ð¾Ð² ÐµÐ´
Ð°Ð³Ð¾ Ñģ
ĠÐ´Ð²Ð¸Ð¶ ÐµÐ½Ð¸Ñı
Ð»Ð¸Ðº Ð½ÑĥÐ»
e t
ĠÐ²Ð¾Ð¹ Ð½Ð°
ĠÑģÐµÑĢÐµÐ± ÑĢÑı
Ñĩ Ð¸ÐºÐ¾Ð²
ĠÑĨ ÐµÑĢ
ĠÐ½Ð°Ð²ÐµÑĢ Ñħ
ÑģÑĤÑĢÐµÑĩ Ñĥ
ĠÐ¿ÑĢ Ð¸Ð³Ð¾ÑĤÐ¾Ð²
ÑĢÐ¾Ð¼ Ðµ
ĠÐ·Ð°ÑģÑĤÐ°Ð² Ð¸Ð»
ĠÑģÐ½Ð°ÑĢÑıÐ´ Ñĭ
ĠÐ¼ÐµÑĤÐ°Ð» Ð»
ĠÐ½ÐµÐ¸Ð· Ð²ÐµÑģÑĤ
Ð «
ĠÐ° Ð¼
ĠÐºÐ¾ÑĢÐ¸Ð´ Ð¾ÑĢ
Ð¸Ð¼ ÑĭÐµ
ĠÑį ÑģÐº
ĠÐ´Ð² Ð°Ð´ÑĨÐ°ÑĤÑĮ
Ð» ÐµÐ·
ĠÑģÐ¾Ð± ÑĢÐ°ÑĤÑĮ
ĠÑĤÐ² Ð¾Ð¹
ĠÐ¾ÑĤ Ð½Ð¾ÑĪ
ĠÑĢÐ°Ð·Ð² Ð°Ð»
Ð¸Ð½Ñĥ Ð»Ð¸ÑģÑĮ
ÐĿ Ð¸Ðº
Ð½Ñı Ð¼Ð¸
Ñĥ ÐºÐ°
ĠÑı Ñī
Ð°Ð½ Ð½ÑĭÐ¼Ð¸
ĠÐ¿ÑĢÐµÐº ÑĢÐ°ÑĤ
ĠÑģÐº Ð¸ÑĤ
Ðº ÑĢÐ°Ñģ
ĠÑĩ ÐµÐ»Ñİ
ĠÐ» ÑĮ
ĠÐĴ Ð¾Ð·
ĠÐ´Ð¾Ð± Ð°Ð²Ð¸Ð»
ĠÐ²Ð¾ÑģÐ¿ Ð¾Ð»ÑĮÐ·Ð¾Ð²
Ð¾Ñģ Ðº
ĠÑģÐ¿ ÑĢÐ°ÑĪ
ĠÐ¾Ð¿ ÑıÑĤÑĮ
ĠÐ¢Ñĭ ÑģÑıÑĩ
ĠÑĢÐ°Ð·ÑĥÐ¼ Ð°
Ð´ Ð°Ð»ÑģÑı
ĠÐºÐ°Ð¿ Ñģ
ĠÑģÐ¾Ð±ÑģÑĤÐ²ÐµÐ½ Ð½Ð¾Ð¹
ĠÑģÐ¼Ð¾Ð³ Ð»Ð¸
ĠÐ¼ Ð°Ñħ
ĠÐ¼Ð¾ Ñİ
ĠÐºÐ¾ÑģÐ¼ Ð¾Ñģ
ĠÐ¿Ð¾Ð·Ð´ Ð½Ð¾
ĠÐ½Ð°Ñħ Ð¼ÑĥÑĢ
Ð¾Ð¼Ð½ ÐµÐ½Ð½Ð¾
Ð² Ð¾Ð¹
ĠÐ¶ Ð¸Ð»
ĠÐ·Ð°Ð¿ Ð°Ð´
ĠÐ¿ÑĢÐ¾Ð´Ð¾Ð»Ð¶ Ð°Ð»Ð¸
ÑĥÑī ÐµÐ³Ð¾
ĠÐ¼Ð¾Ñī ÑĮ
ĠÐ¿Ð°Ð»ÑĥÐ± Ðµ
ĠÐ²ÑĭÑģÑĤÑĢ ÐµÐ»Ð¾Ð²
Ð¸Ð´ Ð°
ĠÑĢÐ°Ð·Ð¼ ÑĭÑĪ
ĠÑģÑĤ Ð°ÑĤÑĥ
Ð°Ð± Ñĭ
ÐµÐ½ÑĤ Ð¾Ð²
Ð¸Ð²ÑĪ Ð¸ÐµÑģÑı
ĠÐ¿ÑĢ Ð¾Ð¶
ĠÑĤ ÑĥÑģÐº
ĠÐ¾Ðº Ð¾Ð»Ð¾
ĠÐº Ð¾Ð¼Ñĥ
Ð°ÑĪ Ð¸
ĠÐ¾Ð¿ Ð¸Ñģ
ĠÐºÐ°Ð¶Ð´ ÑĭÐ¼
Ð°ÐµÐ¼ ÑĭÐ¹
i on
Ð¸ÑĤ Ð°Ð´
ĠÐ´ÐµÐ¼ Ð¾Ð½Ð°
ÐºÐ¸ Ð¾
ĠÑĩÑĥÐ² ÑģÑĤÐ²Ð°
ĠÐ½ÐµÐ± ÐµÑģ
ĠÑĢÐ°Ñģ ÑģÐºÐ°Ð·
ĠÐ¿ÑĢÐ°Ð² Ð´Ð°
ĠÐ»ÐµÐ´ Ñı
Ð½Ð¾ ÑĢ
Ð¾Ð» ÐµÐ·
ĠÑĩÐ°ÑģÑĤ ÑĮÑİ
ĠÐ¾Ð±Ð»Ð¾Ð¼ ÐºÐ¸
ĠÐ´Ð²ÑĥÐ¼ Ñı
Ð»Ð¸ ÑģÑĤ
ÐµÐ½ÑĤ Ñĭ
ĠÐ³Ð¾ÑĢÑı Ñĩ
ĠÐ¢ Ð°Ð½
ÑĢÐ°ÑĤ Ð°
en t
ĠÑģÐ² ÐµÐ¶
ĠÐ¶ Ð´Ð°ÑĤÑĮ
ĠÐ·Ð°Ð² Ð¸Ñģ
Ð»ÐµÑĤ Ð²Ð¾ÑĢ
ĠÑģÐ¿ÐµÑĨ Ð¸
Ð½ Ð°Ð´ÑĨÐ°ÑĤ
ĠÐ± Ð°ÑĤÐ°ÑĢ
ĠÐ´ ÑĭÑĪ
ÑģÐº ÑĥÑİ
ĠÐ·Ð°Ð¿ Ð¸Ñģ
ĠÐ´Ð²Ð¸Ð³ Ð°ÑĤÑĮÑģÑı
ĠÐ²Ð¾Ñģ Ðº
ĠÐ½Ð°Ð²ÐµÑĢ Ð½ÑıÐºÐ°
ĠÑĦÐ¸Ð³Ñĥ ÑĢÐ°
ĠÑĢÐ°Ð ¹
ĠÑĥÐ± Ð¸Ð»
Ð· Ð²
ĠÑģÐº Ð°Ð¶
ĠÐºÐ¾ÑģÑĤ ÐµÐ¹
Ð» ÐµÐ¿
ĠÐ» ÐµÑģ
ĠÐ¸ÑģÑĤÐ¾ÑĢ Ð¸Ð¸
Ġ n
ĠÐĶ Ð¾Ð¼
ĠÐĳ Ð¾Ð»ÑĮÑĪ
ĠÐ±Ð¾Ð»ÑĤÐµÑĢ Ð°
Ð¾Ð½ ÑģÑİ
ĠÑĤÐµÑĢ Ð¼Ð¸Ð½Ð°ÑĤÐ¾ÑĢ
Ð»ÑıÑĤÑĮ ÑģÑı
ÑģÐº Ð¾Ð¼
ĠÐ¡ Ð¾
ĠÐ¾Ðº Ð°Ð·Ð°Ð»Ð°ÑģÑĮ
ĠÐ¾Ñĩ ÐµÑĢÑĤ
u r
Ð» Ð»Ñİ
ĠÐļ Ð°Ð´
ĠÐ¾Ð±Ð» Ð°Ðº
ĠÐ¿ÑĢÐ¾ÑĤÑı Ð½ÑĥÐ»
ÑĦ Ð¾ÑĢ
ÐµÑĤ Ñĥ
ĠÐºÐ°Ð¼ ÐµÐ½ÑĮ
ĠÐºÐ¾Ð¶ Ñĥ
ĠÐºÐ¾Ð¼Ð½ Ð°ÑĤÑĥ
ĠÐ¾Ð± ÐµÐ·
ÐµÐ¿ ÑĢÐ¸Ð¿
ĠÑĥÐ± Ð¸ÑĤ
ĠÐ¾ÑĤÑģ ÐµÐº
ĠÐºÑĢÐ¸Ðº Ð½ÑĥÐ»
ĠÐ¸Ð· ÑĥÐ¼
ĠÐ» Ð°Ð¿
ĠÐ´Ð¾Ð± ÑĢÐ°ÑĤÑĮÑģÑı
ĠÑĥ Ð»Ð¾Ð²
ĠÐ¿ÑĢÐµÐ´ Ð°ÑĤÐµÐ»ÐµÐ¹
ĠÐ¿ÑĭÑĤ Ð°Ð»Ð¸ÑģÑĮ
ĠÐºÐ¾Ð¼Ð½ Ð°ÑĤÑĭ
ÑĪ ÐµÐ¼
ĠÐŁ ÐµÑĢÐµÐ´
ĠÐ³Ð¾Ð²Ð¾ÑĢ Ð¸Ð»Ð¸
Ð¸Ð½ Ð°Ð¼
ĠÐł Ð°Ñģ
ĠÐ¿ÐµÑĢÐ² Ð¾Ð¹
ĠÐĴÐ¾Ð» Ðº
ÑĢÐ°Ð ³Ð¾
Ð°Ð½ Ð½Ð°Ñı
ĠÐ¶ÐµÐ½Ñī Ð¸Ð½Ð°
ĠÐ´ Ð¾Ð±ÑĭÑĩ
ĠÐ¿ÑĢÐ¸Ð² Ð»ÐµÐº
Ġ X
ĠÐľÐ°ÑĢÐ´Ñĥ Ðº
ÐµÑĢ Ð´
Ñį Ð½
Ð¸Ð²ÑĪ Ð¸Ð¹ÑģÑı
ÐµÐ¿ÑĢÐ¸Ð¿ Ð°Ñģ
ĠÐĴ Ð°
ĠÐ½Ð°Ð¸Ð± Ð¾Ð»ÐµÐµ
ĠÐ» Ð¾Ð³
ĠÑģÐ¿Ð¾ÐºÐ¾Ð¹ Ð½Ð¾
ĠÑħÐ° ÑĢÐ°ÐºÑĤÐµÑĢ
ĠÐ¿Ð¾ÑģÐ¿ ÐµÑĪ
ĠÐºÐ¾Ð¼ Ð¸ÑģÑģÐ°ÑĢ
Ðĳ ÑĢÐ°ÑĤ
ÑĢÐ¸Ðº Ð½ÑĥÐ»
ĠÐĲÐ»ÑĮ ÑĦÐ°
ĠÐº Ð»Ñĭ
ĠÐº Ð°Ð·Ð°Ð»ÑģÑı
Ð¾Ð´ Ð¾Ð±
Ð°Ñħ Ð°
Ð»ÐµÐ½ Ð½Ð¾Ðµ
ĠÐ¿ÐµÑĢ ÐµÑĢ
ĠÐ¾ÑģÑĤÐ°Ð² Ð¸Ð²
ĠÐ·Ð°Ðº ÑĢÑĭÐ²
ÑıÐ¶ ÐµÐ½Ð¸Ð¸
ĠÐº Ð¾Ð´
Ð»Ñı ÑıÑģÑĮ
ĠÐ¾Ð´ Ð¸Ð½Ð¾
ĠÐ¾ÑĢ ÐºÐ¸
ĠÐ¿ÐµÑĢÐ² Ð¾Ð³Ð¾
ĠÐ¾ÑĦÐ¸ÑĨ ÐµÑĢ
ÑĭÐ² Ð°Ð»Ð¸ÑģÑĮ
ĠÐ² ÑģÑĤÐ°Ð²
ĠÐľ Ð¸ÑĢ
ÑĭÐ² Ð°Ð»Ð°
ĠÐ½Ð°ÑħÐ¾Ð´ Ð¸Ð»Ð¸ÑģÑĮ
ĠÐ¾Ð±ÐµÑģÐ¿ ÐµÑĩ
ĠÑĢÐ°Ð ¼
ĠÐ²Ñĭ ÑĤÑı
ĠÐ²Ñĭ ÑĢÐ°Ð¶ÐµÐ½Ð¸Ðµ
Ð¾Ð¿ ÑĢ
ĠÐ¿ÑĢ ÐµÑĢÐ²
ĠÑģÐµÑĢÐ²Ð¸ÑĤÐ¾ÑĢ Ð¾Ð²
Ñĥ Ð¹
ĠÑĤ Ð¸Ð¿
ĠÐ¿ÐµÑĢÐµÑģ ÐµÐº
ÐµÑģÐ°Ð½ÑĤ Ð°
ĠÐ²Ð¿ÐµÑĢ ÑĳÐ´
ĠÑįÑħ Ð¾Ð¼
ÑĤ Ð¾Ð³Ð¾
ĠÐ´ÐµÑĢÐ¶ Ð°Ð»
ĠÑī ÐµÐ»
ĠÐ³Ð¾ÑģÐ¿Ð¾Ð´ Ð¸Ð½
Ñĥ Ð»Ð°
ÐµÑģÑĤ ÐµÑģÑĤÐ²ÐµÐ½
Ð¿ ÐµÐ´
ĠÐ¸Ð¼ Ð¸
ÑĥÑģÑĤ Ð¾Ð´
ĠÐ³Ð¾ÑĢ Ð»Ð¾
ĠÑģÐ»ÐµÐ´ Ñĭ
ĠÑĤÑĢÐµÐ½ Ð¸ÑĢÐ¾Ð²
ĠÑĩÐµÐ»Ð¾Ð²ÐµÑĩ ÐµÑģÑĤÐ²Ð°
Ð¸Ð´ Ñĭ
Ð¸Ñĩ ÐµÐ³Ð¾
Ð»ÐµÐ½ Ð½ÑĭÐ¼Ð¸
ĠÐ²ÑģÐµÐ¼ Ð¸
ĠÐ´Ð¾Ð³ Ð°Ð´
ĠÐ»Ð¾ÑĢ Ð´Ð°
ÑĢ ÐµÑī
ĠÐ¿ÑĢÐ¾ÑĪ Ð»
Ð½ ÐµÐ·Ð°Ð¿Ð½Ð¾
Ñĥ ÑĢÐ°
Ð± Ð¾Ð¹
ĠÐ¿Ð¾Ð¼Ð¾Ñī ÑĮÑİ
ĠÑģÑĤÑĢÐµÐ» ÑıÑĤÑĮ
ĠÑģÐ¸Ð» Ð¾Ð²Ð¾Ð¹
ĠÑģÑĩ Ð°ÑģÑĤ
ĠÑĪÐ°ÑĤ ÑĤ
ÐµÐ½ÑĨ Ð¾
ĠÐ³Ð¾ÑĢ Ð¸Ð·
ĠÐ² Ð¾Ð»Ð½
ĠÐ¡ Ð°Ð±
ĠÐ½Ð°Ð² ÑģÑĤÑĢÐµÑĩÑĥ
ĠÐ½Ð° ÑģÑĤÑĢÐ¾
ĠÐ¾ÑĤ ÑĢÑĭÐ²
ĠÐ¿ÑĢÐ¾ Ð¸Ð·Ð½
ĠÐ´ÐµÑģÐ°Ð½ÑĤÐ½Ð¸Ðº Ð¸
ĠÐľ Ð¾ÑĢÑĤ
ĠÐ¾ÑĢ Ð´ÐµÐ½
ĠÐľÐ°Ð³ Ð¸ÑģÑĤÑĢ
ĠÐ¢ Ð¾ÑĤ
ÑģÑĤÑĢÑĥ Ðº
ĠÐ²Ð¾Ð¹ÑģÐº Ð°
ĠÐºÐ¾Ð»Ð¸Ñĩ ÐµÑģÑĤÐ²Ð¾
ÐµÑĢ Ð¸
Ð°ÑĤÐ¾ Ñĩ
ÑĤ Ð¾Ð±Ñĭ
Ð°ÑĤ Ð¾Ð¼
ĠÐºÐ¾ÑĢÐ¿ ÑĥÑģÐ°
Ðł Ð°Ð³Ð½Ð°ÑĢ
ĠÐ´Ð°Ð»ÑĮ Ð½ÐµÐ¹
ĠÐ²Ð·Ð´ ÑĢÐ¾Ð³
ĠÐ¼Ð¾Ð³ ÑĥÑīÐµ
ĠÐ¿Ð¾ÑģÑĤ ÐµÐ¿ÐµÐ½Ð½Ð¾
ĠÐ·ÑĢ ÐµÐ½Ð¸Ñı
ĠÑĤÑĢÐµÐ² Ð¾Ð¶
ĠÐ¿Ð¾Ð´ Ð²ÐµÑĢÐ³
ĠÐ¿Ð»Ð° Ñī
ĠÐ¿Ð¾Ð» Ð½Ð¾Ð¹
ĠÐ¿ÑĢÐ¾ Ð¸Ð³
ĠÐ¾Ð±ÑĬ ÑıÐ²
Ð½Ð¸Ðº Ðµ
ĠÐ²ÑĢÐµÐ¼ ÐµÐ½Ð°
ĠÐ½Ð°Ð³ ÑĢÑĥÐ´
Ð¾Ðº Ð¾Ð»
ĠÑģÐ´ÐµÐ» Ð°Ð»Ð¸
Ð¸ÑĢÑĥ Ñı
ĠÐ²Ð´ Ð¾Ñħ
ĠÐĵÑĢ Ð¸Ð¼
ĠÐ¾Ð³ Ð»ÑĥÑĪ
ĠÐ¾Ð±ÑģÑĤ Ð¾ÑıÑĤÐµÐ»ÑĮ
ĠÐ²Ð¸Ð½ ÑĤÐ¾Ð²
ĠÐ´ÐµÐ¹ÑģÑĤÐ² Ð¸Ð¹
Ġ re
Ñİ ÑĢ
ĠÐ¾Ð± ÐµÑī
ĠÑħ ÑĥÐ¶Ðµ
ÐŁ Ð¾ÑĩÐµÐ¼Ñĥ
Ñĩ Ð¸ÐºÐ¸
ĠÐºÑĢÐµÐ¹ Ñģ
ÐµÑĢ Ðº
ĠÐ¿ÑĢ Ð¾ÑĢÐ²
ĠÐ±Ð¾ ÐµÐ¿ÑĢÐ¸Ð¿Ð°Ñģ
ĠÐ²Ð¾Ð» Ð¾Ñģ
ĠÐ§ÐµÑĢ ÐµÐ·
ĠÐ² Ð°Ð¼Ð¸
Ðº Ð¾ÑģÑĤÑĮÑİ
ĠÑģÑĤ Ð¾Ð¹
ĠÑģÐ¿ ÑĥÑĤ
ÑĥÐ¶ ÐµÐ»Ð¸
Ð°ÑİÑīÐµÐ¹ ÑģÑı
ĠÐ³ÑĥÐ± ÐµÑĢÐ½Ð°
Ð¸ÑĤ Ð¸
ĠÐ° ÑĥÑģÐ¿
ÑĪÐµ ÐµÑģÑı
ĠÐ· Ð¾Ð²
ĠÐ´Ð²Ð¸Ð³ Ð°Ð»Ð¸ÑģÑĮ
ĠÐ½ ÐµÐ³
Ð¾Ð» Ñı
Ð»ÐµÐ½ Ð°
ĠÐ½Ð¾Ð² ÑĭÐ¹
ĠÐĶ Ð¾ÑĢÐ½
ĠÐ½ÐµÐ¾Ð¶Ð¸Ð´ Ð°Ð½Ð½Ð¾
ĠÐ²ÑĢÐµÐ¼ ÐµÐ½ÐµÐ¼
ĠÐ¡ÑĤ Ð°ÑĢ
ĠÐ¿Ð¾ÑĤÐµÑĢ ÑıÐ»
ĠÑģ ÐµÐ²ÐµÑĢ
ÑĥÑīÐµ Ðµ
ĠÐ±Ð»Ð°Ð³Ð¾ ÑĢÐ¾Ð´
Ñģ Ð¾Ð½
Ð¸ÑĤ ÐµÑģÑĮ
ĠÐĿÐ¸Ðº ÑĤÐ¾
Ð¾ Ð¸ÑĤ
ĠÐ¿ÑĢ ÐµÐ·
ĠÑĩ ÐµÑģÑĤ
ÑĨ Ð¾Ð¼
ĠÐ´Ð² Ð¾Ðµ
ĠÐº ÑĢÑĥÑĤ
ÑĢÑĥ Ð³Ð¾
ĠÐ²Ð¾Ð· Ð´
Ð°Ð½Ð´ Ð°ÑĢÑĤ
Ð¸Ð» Ñı
ĠÑĢ ÐµÐº
ĠÐ±Ð¾Ð»ÑĮÑĪ Ð¸Ð½ÑģÑĤÐ²Ð¾
ĠÑģÑĤÐµÐ½ Ð°Ñħ
ĠÐ¿Ð¾ÑıÐ² Ð¸Ð»Ð¸ÑģÑĮ
Ñĩ ÑĤÐ¾
ĠÐ³ ÑĥÐ»
ĠÐ¿Ð¾Ð» ÐµÑĤ
Ð¾Ð» Ð¸
Ðĵ Ð»Ð°Ð²Ð°
Ð°ÑĤÐ¾ÑĢ Ð¾Ð²
ĠÐ¿ ÐµÑħ
ĠÐ¿ÑĢÐµÐ´ ÑģÑĤ
Ð»Ð°Ð½ ÑĪ
ĠÑħÐ¾Ñĩ ÐµÑĪÑĮ
ĠÐ¿ÑĢ Ð¸ÑıÑĤ
Ð¸Ð½ ÑĤÐµÑĢÐµÑģ
Ð°ÑİÑīÐµÐ³Ð¾ ÑģÑı
ĠÐ¿Ð¾Ð¸Ñģ ÐºÐ°Ñħ
ĠÐºÐ°Ðº Ð¾Ð³Ð¾
ĠÑģÑĤÐ¾ Ð»ÑĮÐºÐ¾
ÑıÑī Ð¸Ð¼
ĠÐ¸Ð· Ð³
ĠÐľ Ð°Ð½
ĠÐ£ ÑĢ
ÑıÐ· Ð³
ĠÐ¿ÑĢÐ¸Ð· ÑĢÐ°Ðº
ĠÐºÐ¾Ð¼Ð°Ð½Ð´ Ñĭ
ĠÑĢ Ð¾ÑģÑĤ
ÑĢÑĥÐ³Ð¾ Ðµ
Ð¿ Ð°ÑĢ
Ð¾Ð· Ð½Ð°Ð»
ĠÑģÐ² Ð¸Ñģ
Ð¸ÑĥÐ¼ Ð°
ĠÐºÐ°Ð¶Ð´ Ð¾Ð¼
u n
ÐµÐ½Ð¸Ñı Ð¼
ĠÐĲÐ½Ð³ÐµÐ» Ñĭ
ĠÐ±Ñĭ ÑģÑĤÑĢÑĭ
Ð± ÐµÐ¶
ĠÐ¾ÑĤÐ²ÐµÑĤ Ð¸ÑĤÑĮ
ĠÐ¿Ð°Ð»ÑĥÐ± Ñĥ
Ð§ ÐµÑĢ
ĠÐ¾ÑĤÑĩ ÐµÑĤ
ĠÑĥÐ¼ÐµÑĢ ÐµÑĤÑĮ
Ð ¬
Ð¸ÑĤ Ð°Ð½Ð¾Ð²
Ñĳ Ð·
ĠÐ¿ÑĢÐ¸Ð½ ÑıÑĤÑĮ
ĠÐ¿ÐµÑĢÐ² ÑĭÐµ
ĠÑĦÐ¸Ð³Ñĥ ÑĢÑĭ
Ñı ÑīÐµÐµ
Ð¾Ð» Ðº
ĠÐ²ÐµÐ»Ð¸Ðº Ð¾Ð»ÐµÐ¿
ĠÐºÐ¾Ð¶ Ð°
ÐµÐ² Ð¾Ð¹
Ð°Ð²ÑĪ ÐµÐ¹
ĠÐ½Ð¸ÐºÐ°Ðº Ð¾Ð³Ð¾
ĠÐ¾ÑģÐ² Ð¾Ð±Ð¾Ð´
ĠÐŁ Ð¾ÑĤ
ĠÐ¿Ð¾Ð´ Ð·ÐµÐ¼
ĠÑĥÐ³ÑĢ Ð¾Ð¶
Ðº ÑĥÑģ
ĠÐ¸ Ð»Ð»Ñİ
ĠÐľÐ°Ð³ Ð½ÑĥÑģ
Ð¾Ð² ÐµÐ´
ĠÑĢÑĥ ÐºÐ¾Ð²Ð¾Ð´
ĠÐĲÑĢ Ñħ
ÑĮÑı Ð¼Ð¸
ĠÑģ ÑĥÑĢ
Ð¾Ð² Ð°Ð½Ð¸Ñı
ĠÐ½Ð°ÑĪ Ð»Ð¸
ÑĳÑĢ ÑĤ
Ð¼ Ð¾Ð¹
ĠÑħ Ð»Ñĭ
ĠÐ¾ÑģÑĤÐ°Ð² Ð¸Ð»
ĠÐ½Ð°Ð¼ Ð½Ð¾Ð³Ð¾
Ð°ÐºÑģ Ð¸Ð¼
Ð¸Ð» ÐµÑĤ
ĠÑĥ ÑĨÐµÐ»
ĠÐĴ ÑĤÐ¾ÑĢ
ĠÑĪ Ð°ÑĢ
ĠÑĥÐ´ Ð°Ð»
Ð¸ÑĢÐ¾Ð²Ð°Ð½ Ð½ÑĭÐ¹
Ð» Ð¸Ð¶
ĠÐ¼ÐµÐ½ ÑĮ
ĠÐ¿Ð¾Ð·Ð²Ð¾Ð» Ð¸ÑĤÑĮ
ĠÐĶ ÐµÐ²
ĠÐ±Ð¾ÐµÐ² Ð¾Ð³Ð¾
i d
ÐŁ Ð¾ÐºÐ°
ĠÐ¾Ðº Ðµ
ĠÑĢÐ°Ð±Ð¾ÑĤ Ñĭ
ĠÐ¿Ð¾Ð´Ð¾Ð· ÑĢÐµÐ²
ĠÐ½Ð°Ñģ Ð»Ð°Ð¶Ð´
ĠÐ½Ð¸Ð¶ Ðµ
Ð»Ð° ÑģÑĤÑĮ
ĠÑĥÑģÐ» Ð¾Ð²
ĠÐ¿Ð¾ÑĢÑıÐ´ ÐºÐµ
ÑĤ Ð¸Ðº
ĠÑĥ ÑģÑĤÑĢÐ¾
Ð°Ð¼ Ð¿
ÑģÐº Ð¸Ð¼Ð¸
Ð°Ð¹ Ð½
ĠÐĺÐ¼Ð¿ÐµÑĢ ÑģÐºÐ¸Ñħ
Ð°ÑĢÐ´ Ð¸ÑĢÐ¾Ð²
ĠÐ±Ñĥ ÐºÐ²
ĠÐ¾Ð³ÑĢÐ¾Ð¼ Ð½Ð¾Ð¹
ĠÑģÐ¾Ð»Ð½ ÑĨÐ°
ĠÐĳ ÑĢÐ°Ð½
ĠÐ±Ð¾Ð»ÑĮÑĪ ÑĥÑİ
Ð¼Ñĭ Ñģ
o w
ĠÐ¿ Ð¸ÑĤ
ĠÐ· Ð°Ð·
ĠÑĥÐ¿ Ð¾ÑĢ
ĠÑįÐº ÑģÐ¿
ĠÐ³ Ð¾Ð´
ĠÐ´ÑĥÑĪ Ñĥ
Ð¾Ð² Ñĭ
ĠÑĪ ÐµÑİ
ĠÑĩ ÑĮÐ¸
ĠÐ²Ñĭ ÑĢÐµÐ·
Ñį Ð»
ĠÐ¿Ð¾ÑĤÐµÑĢ Ð¸
ĠÑĤÐ²Ð¾ Ð¸
ĠÐ¿Ð¾Ð´ÑĤÐ²ÐµÑĢ Ð´
Ð°ÑĥÐ½ ÑĤ
ĠÑģ Ð½Ð°ÑĢÑĥÐ¶Ð¸
ĠÐºÐ°Ðº ÑĥÑİ
ÑĥÑģÑĤ Ð¸ÑĤÑĮ
ÐµÐ½ÑĤ Ð°
ĠÐ½Ð°Ñģ ÐµÐ»
ĠÐ»ÑİÐ± Ð¾Ð³Ð¾
ĠÐ´Ð¾Ð¼ Ð°
ÑĮ ÑĤÐµ
ÑıÑī ÐµÐ¹
ĠÐ»ÐµÐ³Ð¸Ð¾Ð½ ÐµÑĢÐ¾Ð²
II I
ĠÐ¸Ð½ÑģÑĤÑĢÑĥ Ð¼ÐµÐ½ÑĤ
ĠÑįÑĦÑĦÐµÐºÑĤ Ð¸Ð²
Ñĩ Ð¸
ĠÐ³ ÑĥÐ´
ĠÑĢÐ°Ñģ ÑĪÐ¸ÑĢ
ĠÑģÐµÐº ÑĢÐµÑĤ
ĠÐ´ ÑĢÑĥÐ³Ð¾Ðµ
Ð¾Ð¶Ð´ ÐµÐ½Ð¸Ðµ
ĠÐºÐ¾Ð½ ÑĤÐ°Ðº
ĠÐ²ÑĭÐ¿ Ð¾Ð»Ð½Ñı
ĠÐ² ÐµÑģÑĤÐ¸
ĠÐ²Ð¸Ð´ Ð½ÐµÐ»
ĠÐ¾ÑĤÐ²ÐµÑĢ Ð½ÑĥÐ»ÑģÑı
ĠÐºÐ½ Ð¸Ð³
Ð¸Ð» Ð¸Ð¸
ĠÐ¿ÑĢÐµÐ´ÑģÑĤÐ°Ð² Ð¸ÑĤÑĮ
ÑĮ ÐµÐ²
ĠÐ½Ðµ ÑĥÐº
Ð¸Ð² Ð°ÐµÑĤÑģÑı
ĠÑıÑĢ ÐºÐ¾
Ð°ÐµÑĪÑĮ ÑģÑı
Ð¼ ÐµÐ»
g h
Ð´Ð° ÐµÑĤ
ĠÐºÐ¾ÑģÐ¼ Ð¸ÑĩÐµÑģÐºÐ¸Ñħ
ĠÐ¿Ð¾Ð¼ÐµÑī ÐµÐ½Ð¸Ðµ
Ð Ļ
Ñı Ñĩ
ĠÑĤÐ² Ð¾ÑĢ
ĠÐ¾ÑģÑĤÐ°ÑĤ ÐºÐ¸
ĠÐº ÑĥÐ»ÑĮ
ĠÐ¿ÑĢ ÐµÑģÑĤ
Ð¸ÑĤÐµÐ»ÑĮ Ð½Ð°Ñı
Ð¾Ðº ÑĢÐ°Ð´
ĠÐļ Ð¾Ð½ÐµÑĩÐ½Ð¾
ĠÐ° ÑģÑĤ
ĠÑı Ð´
ĠÐºÐ¾Ð¶ Ð¸
Ð¸Ð½ ÑĥÐ²
ĠÐ¿ÑĥÑģÑĤ ÑĮ
ĠÐ¾Ð±ÑĬ ÐµÐ´Ð¸Ð½
ĠÐ²Ð·Ð´ Ð¾Ñħ
ĠÐŃ ÑĢÐµÐ±
ĠÑģÐ°Ð¼ Ð°
ĠÐµÐ´Ð¸Ð½ÑģÑĤÐ²ÐµÐ½ Ð½ÑĭÐ¹
ĠÐ´Ð¾Ð½ ÐµÑģ
ĠÑĥ ÑĢÐ¾Ð´
Ð¸Ð¼ Ð¾Ðµ
ĠÑĦ Ð»Ð°Ð³
Ð¸ÑĢ ÐµÐ¿
Ð°Ð¹ ÑģÑı
ÑĥÑİÑī Ð¸Ðµ
ĠÑģÐ¼Ð¾ÑĤÑĢ ÐµÑĤÑĮ
ĠÐºÐ¸Ð»Ð¾Ð¼ÐµÑĤ ÑĢÐ¾Ð²
ĠÐ¾ÑĤÐ¾ÑĢ Ð²
Ðļ Ð¾ÑĢ
Ð½Ð°Ðº Ð¾Ð¼
ĠÑīÐ¸ÑĤ Ñĭ
ĠÑģÐ¼Ð¾Ð¶ ÐµÐ¼
Ð°Ð» Ð¾Ð¼
ĠÐ´ Ð½Ð¸
ĠÐ´ Ð°Ð½Ð½ÑĭÑħ
ÑĨ Ð°Ñħ
ĠÐ¢ Ð¾Ð³Ð´Ð°
ĠÑħ ÑĢÐ¸Ð¿
ĠÐĳ ÑĢÐ°ÑĤ
ÑıÐ» Ð°ÑģÑĮ
ĠÑģÐ¸ÑģÑĤ ÐµÐ¼Ñĥ
ĠÑģÑħÐ²Ð°ÑĤ Ð¸Ð»
Ð¸Ð¼ Ð°Ð½Ð°
ĠÐºÑĢ Ð¸ÑģÑĤ
ĠÐļ Ð¾Ð¼
ĠÑģÑĤÐ¾ ÑıÐ²
ĠÐ²Ð¾Ð¹ Ð½Ñĥ
ĠÑĢÐ°Ð² Ð½
ĠÐ¿ÑĢÐµÑģ Ð»ÐµÐ´
ĠÐ¾Ð± ÑģÑĤÑĢÐµÐ»
ĠÐºÐ°Ðº Ð°Ñı
ĠÐ²Ð· ÑıÑĤÑĮ
ĠÑģÐ¸Ð» Ð°Ð¼Ð¸
i r
ĠÐ»ÐµÐ¶ Ð°Ð»
ĠÑĢ ÐµÐ³
ÑģÐº Ð¸
ĠÐ¡ Ð°ÑĢ
ĠÑĤÐ°Ðº Ð¾Ð¼
ĠÐ¾Ð³ ÑĢÐ°Ð½Ð¸Ñĩ
ĠÐ¾ÑģÑĤÐ°Ð² Ð°Ð»ÑģÑı
ĠÑĢÐ°ÑģÑģ ÐµÐº
ĠÐ½Ð°Ð¿ÑĢÐ°Ð² Ð¸Ð»ÑģÑı
ÑģÑĤÑĢ Ð¾Ð¹
ĠÐ²ÐµÑĢ Ð¾ÑıÑĤÐ½Ð¾
ÑĬ ÐµÐ¼
Ð°Ð½ Ð¸
ĠÐľ Ð¾Ð¶ÐµÑĤ
Ð»ÐµÑĩ ÑĮ
ĠÐ¸Ð·Ð¾Ð±ÑĢÐ°Ð¶ ÐµÐ½Ð¸Ðµ
ĠÐº Ð»ÑıÑĤ
ĠÑĢ Ð¾Ðº
ĠÐ¿ÑĢÐ¾Ð± Ð¾ÑĢÐ¼Ð¾ÑĤÐ°Ð»
ĠÐ¾ÑĩÐµÑĢÑĤ Ð°Ð½Ð¸Ñı
ĠÑĤ ÐµÑģ
ĠÐ±ÐµÐ· Ð¼Ð¾Ð»Ð²
ĠÐ¼Ð¾ Ð¸Ð¼
ĠÐ±ÐµÑģÐ¿ Ð¾ÐºÐ¾Ð¹
ĠÑģ ÑĥÐ±
ÑģÐº Ð¾Ðµ
ĠÐ¿Ð» Ð°Ð²
ĠÐ¿Ð¾Ñĩ ÑĤ
ĠÑģÐ¸Ð´ ÐµÐ»
ĠÐ·Ð½ Ð°Ð»Ð°
ĠÐ½Ð° ÑĥÑĩ
ĠÐ¥ Ð¾Ð½ÑģÑİ
ĠÑģÐ¾Ð² ÐµÑĤ
ĠÐĺÐ½ÐºÐ²Ð¸Ð· Ð¸ÑĨÐ¸Ð¸
ĠÑģÐ²Ð¸Ð´ÐµÑĤ ÐµÐ»ÑĮ
ÐĿ Ð°Ð´
ĠÑĢÐ°ÑģÐ¿ Ð°Ñħ
Ð°ÐºÑĤ Ð¸Ð²
ĠÐºÐ¾ÑģÐ¼Ð¾Ð´ÐµÑģÐ°Ð½ÑĤÐ½Ð¸Ðº Ð¾Ð²
ĠÐļ Ð°Ð·Ð°Ð»Ð¾ÑģÑĮ
ÐµÐ³ Ð°
Ġ âĢĶ
ĠÐ» ÑıÐ·Ð³
Ð°Ð³ ÐµÑĢ
ĠÐ¾Ð´ ÐµÑĢÐ¶
ÑĥÐ± Ð¸Ð¾
Ñį Ð»Ñı
ĠÐ¾Ð¿ ÑĥÑģÐº
ĠÑģÑĢÐ°Ð¶ Ð°Ð»ÑģÑı
ĠÐ²ÑĤÐ¾ÑĢ Ð¶
ĠÐ½Ðµ ÑĥÐ´Ð°
Ð¾Ð»ÑĮ Ð½Ð¾
ĠÐ²Ð¾ ÑĪÐµÐ»
ĠÐºÐ¾Ð» ÐµÐ½
ÑĤÐ°Ðº Ð¸
ÑĩÐ¸ÑĤ ÑĭÐ²Ð°Ñı
ĠÐ¤ Ð¾ÑĢ
ĠÐ¿Ð°Ð»ÑĮ ÑĨÐ°Ð¼Ð¸
ĠÑĥÐ¶Ð°Ñģ Ð°
ĠÑĥÑĤ Ð²ÐµÑĢ
ĠÐ¸Ð½ÑĦÐ¾ÑĢÐ¼ Ð°ÑĨÐ¸Ð¸
ÐŁÐ¾Ñģ Ð»Ðµ
ĠÐŁ Ð¾ÑĩÐµÐ¼Ñĥ
ĠÑģÐ¼ ÑĭÑģÐ»
ĠÐ·Ð°Ðº ÑĢÑĭÑĤ
ĠÑĤÐ²ÐµÑĢ Ð´
ĠÐ´ÐµÐ¼Ð¾Ð½ Ð¾Ð²
Ġw as
ĠÑģÐ¾Ð¾Ð±Ñī ÐµÐ½Ð¸Ðµ
ĠÑĤÐµÑħÐ½ Ð¾Ð»Ð¾Ð³
ĠÑĢÐ°Ð· Ð¾Ð±
ĠÐŃ ÑĤÐ°
Ð¾Ð» Ð¾Ð´
Ð¢ Ð°Ð»
ĠÐ¿ÐµÑĢÐµÑħ Ð¾Ð´
ĠÐº Ð°Ð·Ð°Ð»Ð¸ÑģÑĮ
ĠÑĩ ÐµÐ¼Ñĥ
Ð¥ Ð¾ÑĢÐ¾ÑĪÐ¾
ĠÑĤÐ¾ÑĢ Ð¿ÐµÐ´
ĠÐ¿Ð¾Ð» Ð½Ð¾Ð¼
ĠÐ¿Ð¾Ð¿ Ð°Ð»
ĠÐ·Ð²ÐµÐ· Ð´Ñĭ
ÑĭÐ² Ð°ÑİÑĤ
ĠÐ¥ ÑĢÐ°Ð¼
ĠÐ´Ð¾ÑģÑĤ ÑĥÐ¿
ĠÐ¿ Ð°ÑĢÐ°
Ð¿ ÑĢÐµÐ´
ĠÑĦ Ð¾Ð½
ĠÐ¿Ð¾ÑĤ ÑĢÐµÑģÐº
Ð¼Ð¾ÑĤ ÑĢ
ĠÐ½ÐµÐºÐ¾ÑĤÐ¾ÑĢ Ð¾Ðµ
ĠÐ¿Ð°Ð¼ ÑıÑĤÐ¸
ĠÑģÐ¿ ÐµÑĪ
ĠÐ½Ð°Ð¿ÑĢÑı Ð³
ĠÐ³ Ð½
ĠÑĢ Ð°
ĠÐĴÐ¾ Ð¸Ð½
ĠÑģÐºÐ¾ÑĢ Ð¾ÑģÑĤÑĮÑİ
ÐŀÐ´ Ð¸Ð½
ĠÐļ Ð»Ð¸Ð½
ĠÐ½ÐµÐ´ Ð°Ð²Ð½Ð¾
v er
Ð»Ð¸ ÑĩÐ½Ð¾
ĠÐ²Ñĭ ÑĪÐ»Ð¸
Ð¸ÑĨ Ñĥ
ÐŁ Ð¾Ð»
ĠÐ¾ÑīÑĥÑī Ð°Ð»
ÑĥÑĢ Ð¸
ĠÐ·Ð°Ðº ÑĢÑĭÐ»
ĠÐ¿ÑĢÐ¾ÑĤÐ¸Ð² Ð¾ÑģÑĤÐ¾Ñı
Ð°ÐµÐ¼ ÑĭÐµ
Ð¾Ñģ Ð½Ð¾Ð²
ĠÐ¾Ð± ÑĥÑĩ
ĠÐ¡ ÐµÐº
ĠÑģÐ¿ Ð¸Ð½Ðµ
ĠÐ´Ð¾Ð± Ð°Ð²
ĠÐ¡Ðº Ð¾ÑĢ
ĠÐ²ÑģÐ¿Ð¾Ð¼Ð½ Ð¸Ð»
Ñħ Ð°
ĠÐ¼Ð¸ÑĢ Ñĭ
ĠÐ¿ÑĢÐ¾Ð¸Ð· Ð²Ð¾Ð´
ÑĪ Ð¸ÐµÑģÑı
Ð°Ð½ Ð½ÑĥÑİ
ĠÐ³Ð¾ ÑĢÑĭ
ĠÐ½ÐµÐºÐ¾ÑĤÐ¾ÑĢ ÑĭÑħ
ĠÐ¿ÑĢÐµÐ´ÑĥÐ¿ ÑĢÐµÐ´
ĠÐ¾ÑĤÑĩÐ°ÑıÐ½ Ð½Ð¾
ĠÑĢÐ°ÑģÑģÑĤÐ¾ÑıÐ½ Ð¸Ð¸
ĠÐ¾Ð¿ÑĥÑģÑĤ Ð¸Ð»
ĠÐ¿ÑĢÐµÐ´ÑĥÐ¿ ÑĢÐµÐ¶Ð´
ĠÐ´ ÑĢÐ°Ð³Ð¾
ÑıÐ· Ð²
ĠÐ»ÑİÐ´ ÑĮÐ¼Ð¸
ÑĥÑİÑī Ð¸Ñħ
ĠÑģÐº ÑĢÐµÐ¶
ĠÐ´Ñİ Ð¶
ĠÑģ ÑĥÑī
Ð°Ð» Ð¾Ð²
ĠÐĳ ÐµÑĢ
ĠÐ²Ð¾Ð· Ð³Ð»Ð°Ð²
ĠÐ²Ð¸Ð´ ÐµÐ»Ð°
ĠÐ³ÑĢÑĥÐ· Ð¾Ð²
ĠÑį Ð¿
Ð¸Ð³ ÑĥÑĢ
ĠÑģÐ¾Ð± ÑĢÐ°Ð²
ĠÑĢÐ°Ð·Ð´ Ð°Ð²
ĠÐ½Ð°Ð´Ðµ ÑıÐ»ÑģÑı
ĠÐ· Ð½Ð°Ñı
ĠÐ²Ð½ ÐµÐ·Ð°Ð¿
ĠÐĹ ÐµÐ¼
ĠÑģ Ð°Ð¿
ĠÐ¡ Ð¸Ð½
ĠÐ¿Ð¾ÑģÐ»ÐµÐ´ Ð½ÐµÐ³Ð¾
Ð¸ÑĢÐ¾Ð²Ð°Ð½ Ð½ÑĭÑħ
ĠÐ²Ð½Ð¸Ð¼ Ð°ÑĤÐµÐ»ÑĮÐ½Ð¾
Ñĭ ÑĤÑĮ
ĠÑĥ ÑģÑĤÑĥÐ¿
ĠÐ¿Ð¾Ðº ÑĢÑĭ
ĠÐ²Ð¾Ð¹ Ð½Ðµ
ĠÐ¿ÑĢÐ¸Ð± ÑĭÑĤ
Ð¶ Ð¸
ĠÐļ Ð°ÑģÑĤ
Ð¸ÑĩÐµÑģÐº Ð¾Ð¼
Ðķ ÑīÐµ
ĠÐ±ÐµÑģÐ¿ Ð¾ÐºÐ¾
ĠÐ¢ÐµÐ¼ Ð½ÑĭÑħ
Ð°Ð´ Ñĥ
ÑĢÐ¸ ÑĤÐ¾ÑĢ
ĠÐ³ÑĢÑĥÐ¿Ð¿ Ð°
ĠÐ´Ð¾ÑĢÐ¾Ð³ Ñĥ
ĠÐ¿ÑĢ Ð¾Ð»ÐµÑĤ
ĠÐ¿ÑĢÐ¾Ð½ ÐµÑģ
ĠÐ¡ Ð°Ð»Ð°Ð¼Ð°Ð½Ð´
ĠÑĢÐ°ÑģÐ¿ Ð¾ÑĢ
ĠÑĦÐ¾ÑĢ Ð¼Ñĥ
ĠÐ» ÐµÐ¹ÑĤÐµÐ½Ð°Ð½ÑĤ
ĠÐ¶ Ð´Ð°Ð»
ĠÐŁÑĢ Ð¸Ð·
ĠÑĩÐµÑĤÑĭ ÑĢ
ĠÐ± ÑĢÑĭÐ·
ĠÑģÑĤÑĢ Ð¾Ð¹
ĠÐ¾ÑģÐº Ð¾ÑĢÐ±
ĠÐ±Ð¾Ð¼Ð± Ð°ÑĢÐ´Ð¸ÑĢÐ¾Ð²
ĠÑģ ÐµÐ½Ñģ
ĠÐ²ÑĭÐ· Ð¾Ð²
Ð¾ÑĢ ÑĤÐ°
ĠÐ²Ñĭ Ð´Ð°Ð²
Ð»Ð° ÑĪ
ĠÐ¾Ð´ ÐµÐ¶
ĠÐ¿ÑĢÐ¾ÑĨ ÐµÑģÑģ
ĠÐ¾ÑĤÐ¾Ð·Ð² Ð°Ð»ÑģÑı
ĠÐ² Ð¼ÐµÑĪ
ĠÐ¸Ð· Ð¾
Ð¸ÑĨ Ð¾
ĠÐŁÐµÑĢÐ² ÑĭÐ¹
ĠÐºÐµÑĢÐ°Ð¼ Ð¸ÑĤ
ĠÐ±Ð¾Ð»ÐµÐ· Ð½
Ð¸ Ð¾Ð½Ñĭ
ĠÐ´ Ð°Ð½Ð½ÑĭÐµ
ĠÐ¿Ð¾ÑĤ ÑĢÑıÑģ
ĠÑģÐºÐ¾ÑĢ Ð¾ÑģÑĤÑĮ
ĠÐºÑĥÑĢ Ñģ
ĠÐ½ÐµÐ²ÐµÑĢ Ð¾ÑıÑĤ
Ð½Ð¾ ÑģÑı
ĠÐ²Ð¸Ð´ Ð½Ð¾
ĠÐ± Ð¾Ð¶Ðµ
ĠÑĥÐ´ Ð¾Ð²
ĠÑĩÐµÐ»Ð¾Ð²ÐµÐº Ð¾Ð¼
ĠÐ¾Ð¿ÑĥÑģÑĤ Ð¾ÑĪ
r a
ĠÐ³ Ð°Ð»
ĠÐ²Ñģ Ð»ÐµÐ´
ĠÐ¿Ð¾Ðº Ð¾ÑĢ
ĠÑĥÐ´Ð¾Ð² Ð»ÐµÑĤÐ²Ð¾ÑĢ
ĠÑĥÐ´Ð°ÑĢ Ñĭ
ĠÐ¾Ð±Ð¾ÑĢ Ð¾Ð½Ñĭ
ĠÐ¾ÑĤ ÑĨÐ°
ĠÐĶ Ð°Ð²
ĠÐĴÐ¾Ð» ÐºÐ¸
s t
ĠÑĩÐµÑĢ ÑĤ
ĠÐ¿Ð¾Ð»ÑĥÑĩ Ð¸ÑĤÑĮ
ĠÑĥÑģÑĤ Ð°Ð»
ĠÐļÑĢ ÐµÑģÑĤ
ĠÐļÑħ Ð°ÑĢÐ½
ĠÐ¿ÑĢÐµÐ´Ð¾ÑģÑĤ Ð°Ð²
ĠÐĿ ÐµÑģÐºÐ¾Ð»ÑĮÐºÐ¾
ĠÑĢÐ°Ð± Ð¾Ð²
ĠÐ¿ÑĢÑĭ Ð¶
ĠÑħ ÑĢÑĥÑģÑĤ
Ð½Ð¸Ðº Ð°Ð¼
ĠÐ´ÐµÑģÐ°Ð½ÑĤÐ½Ð¸Ðº Ð°
ÐĺÐ¼Ð¿ÐµÑĢ Ð°ÑĤÐ¾ÑĢ
ĠÐ± Ð°Ð³
Ð¸Ñħ Ð¾
ĠÑģÑĤ ÐµÐ¿
ĠÐŀ Ñĩ
ĠÐ²Ñĭ Ð´ÐµÐ»
ĠÑĤÑıÐ¶ ÑĳÐ»
ĠÐ¾ÑĤÐ² ÑĢÐ°Ñī
ĠÐ´Ð¾Ðº Ð°Ð·
ĠÐºÐ¾Ð¼Ð½ Ð°ÑĤÐµ
ÑĢ ÐµÐ³
ĠÐ» Ð¾Ñı
ĠÑģÑĤ Ð°
ĠÐ¢ ÑĢÐ¾Ð½
ĠÑĪÐ¸ÑĢ Ð¾ÐºÐ¾
0 0
ĠÑĩ ÐµÐ»
ĠÐ¿ Ð¾Ð»ÑĮÐ·
ĠÐĵ Ð´Ðµ
Ð°Ð²ÑĪ Ð¸Ð¼
ĠÐ¼ Ð¾ÑĢÐ³
Ð¸Ð² Ð°ÑİÑīÐ¸Ðµ
Ð½Ð¾ÑģÑĤ ÑıÐ¼Ð¸
ĠÐ´ÐµÐ¼Ð¾Ð½ ÑģÑĤÑĢ
ĠÐ²Ð· ÑĢÐµÐ²
ĠÐ·Ð°Ð¼ ÐµÐ½
ĠÐ² Ð»Ð¸
ĠÑĤÐµÐ» ÐµÐ¿
ĠÐ§ ÐµÐ²
ĠÐºÑĢÑĭ Ð»ÑĮ
ĠÐ½Ð¾Ñĩ Ð¸
ÐŁ ÑĢÐ¸
ĠÑģÐ¾Ð· Ð´Ð°Ð²
ĠÐ¿ÑĢÐ¾Ð² ÐµÐ»
ĠÑĪÐ°Ð³ Ð¾Ð²
Ð¾Ð²Ð°Ð½ Ð¸ÐµÐ¼
ĠÐĺÐ½ ÐºÐ²Ð¸Ð·Ð¸ÑĤÐ¾ÑĢ
ĠÐ½Ð° ÑĢ
ĠÐĶ Ð¾
ĠÐŁÐ¾Ñģ Ð»ÐµÐ´
Ð¸Ð¼ Ð¾ÑģÑĤÑĮ
ĠÑģÐ¾ Ð¾ÑĢÑĥÐ¶
ĠÐ¿ÑĢÐ¾Ð¸Ð· Ð½Ð¾Ñģ
ĠÑģÑĭ Ð½Ð¾Ð²
Ñħ Ð¾ÑĤ
ÐµÐ½ Ð½Ð¾ÑģÑĤÑĮ
Ð³Ð¾ Ð»ÑĮ
ĠÐ¿ÑĢÐ¸Ðº ÑĢÑĭÐ²
ĠÐ³Ð½ÐµÐ² Ð°
ĠÐ¾Ðº ÑĢÐ¾Ð²Ð°Ð²
ĠÑĤÐµÐ¼Ð½Ð¾ ÑĤÐµ
ĠÐĴÐ¾Ð¹ Ð½Ñĭ
Ð± Ð¸ÑĤÐµ
ÑĨ Ð¸
ÑĥÑģ ÑĮ
ĠÐ¿ÑĢÐµ Ð¾Ð´Ð¾Ð»
ĠÐĴ ÐµÐ½ÑĤ
ĠÐ¿Ð°Ð»ÑĮ ÑĨÐµÐ²
ÑĢÐ°Ð· Ð¸Ð»
ĠÐºÑĢÐ¾ÑĪ ÐµÑĩ
ĠÐ±ÐµÑģÐ¿ Ð¾Ð»ÐµÐ·
ĠÐ¾ÑĤ Ð´Ð°Ð²
ĠÐ¿Ð¾Ð²ÑĤÐ¾ÑĢ Ð¸Ð»
Ñİ ÑģÑĮ
ĠÑĥÑģÐ¼ÐµÑħ Ð½ÑĥÐ»ÑģÑı
Ð¸ÑĨ Ð¸Ñı
ĠÐ¿ÑĥÑģÑĤ Ð¾ÑĤ
ĠÐ½ÐµÑģ ÑĩÐ°ÑģÑĤ
ĠÐ¿Ð¾Ð³Ð¸Ð± Ð»Ð¸
ĠÐºÐ¾Ð½ÑĤÑĢ Ð¾Ð»ÑĮ
ĠÐ¿Ð¾Ð´Ð¾Ð· ÑĢ
ĠÐ°Ð²ÑĤÐ¾Ð¼ Ð°ÑĤ
Ð¾Ð» Ð¾Ð¼
ĠÑĢ Ð¾Ð»ÑĮ
ĠÐ²Ñĭ Ð²Ð¾Ð´
ĠÐ° Ð³
ĠÐ» Ð¾Ðº
ÑĥÑĪ ÐºÑĥ
ĠÐ¾ÑĤÐ´ ÐµÐ»ÑĮ
ĠÐ¼ ÑĢÐ°Ð¼
ĠÐ¿Ð¾Ð· Ð¶Ðµ
ĠÐ¾ÑĢ Ð±Ð¸ÑĤÐµ
ÐĹ Ð½Ð°ÑĩÐ¸ÑĤ
ÑĳÐ½ Ð½ÑĭÐ¹
ĠÑĤÐ¾Ñĩ ÐºÐ¸
ĠÐļÑĥÐ»Ð°Ðº Ð¾Ð²
ĠÐ¿ÑĢÐµÐºÑĢÐ°Ñģ Ð½Ð¾
ĠÐ³ Ð°ÑĢ
ĠÑģÑĤ Ð°Ð²
ĠÐ¿Ð°Ð» ÑĥÐ±Ñĭ
ÑĳÐ½ Ð½ÑĭÐµ
ĠÐ¿ÐµÑĢÐµÑħ Ð²Ð°ÑĤ
ÑĢÑĥ Ð½
Ð¾Ð¿ Ð¸Ñģ
ĠÐ¿ÐµÑĢ ÐµÑĪ
ÑĢÐ°ÑĤ Ð½Ð¾
ĠÐºÐ°Ð¼ Ð¿
ĠÐ´ÑĥÐ¼ Ð°ÑĤÑĮ
ĠÐļ Ð°Ð¼
ÑĥÐ´ ÑĢ
ÐĹ Ð°ÑĤÐµÐ¼
ĠÑĤÐµÑĢ ÑĢÐ¸ÑĤÐ¾ÑĢ
ĠÑģÐ¼Ð¾Ð³ ÑĥÑĤ
ĠÐ´Ð¾Ðº Ð»Ð°Ð´
Ð¸Ñī Ð°
ĠÐ¿Ð¸Ð» Ð¾ÑĤ
Ð°ÑĤ Ð¸Ð»ÑģÑı
ĠÑģÑĤ Ð¸Ñħ
ĠÑģÐº Ð¾Ð¿
ĠÐ½Ð°Ð¿ÑĢÐ°Ð² Ð»ÐµÐ½Ð¸Ð¸
ĠÐ±Ð¾Ð»ÑĤÐµÑĢ Ð¾Ð²
ĠÑģÐ¾Ð»Ð½ ÑĨÐµ
Ð°ÑĢ Ñĭ
ÐŁ Ðŀ
ĠÐ£ Ð¶
ĠÐ±Ð¾Ð»ÑĮÑĪ ÐµÐ¹
Ð¢Ð°Ð» Ð¾Ñģ
ĠÐ¾ÑĤ ÑĢÐµÐ·
Ð¾Ð³ Ð¾Ð²
ĠÑĢÐ°Ñģ ÑģÐºÐ°Ð·ÑĭÐ²
Ðĵ Ð´Ðµ
ĠÐ´Ð¶ ÑĥÐ½
ĠÐ¿Ð¾Ð´ Ñģ
ĠÐŁ Ð°Ð´
ĠÐ¿ÐµÑĢ ÐµÐ»
ĠÐ¿ÑĢÐ¾ Ñħ
ĠÐĶÑĥÑĪ Ð¸
ÐŁ ÑĢÐµÐ´
ĠÐ²ÑĭÑģ Ð¾ÐºÐ¾
it h
ÐµÐ² ÑĪÐ¸Ðµ
ÐºÐ² Ð¸Ð»
Ð½ Ð¸Ð¼Ð¸
Ð» ÑģÑı
ĠÑĤ Ð¸ÑĤÐ°Ð½
ĠÑħ Ð¸ÑĤ
Ðļ Ð¾
ĠÐ½Ð°Ñĩ Ð°Ð»Ð¾
ĠÐ¿ÑĢÐ¾ÑĪ Ð»Ð¸
ĠÑĢÐµÑĪ ÐµÐ½Ð¸Ðµ
ĠÐ¿ÑĢÐµÐ²ÑĢÐ°ÑĤ Ð¸Ð»ÑģÑı
ĠÐ¼Ð°Ð½ ÐµÐ²
ĠÑģÐ¿ Ð°ÑģÑĤÐ¸
ĠÐĶ Ð²Ð¾ÑĢ
ĠÑģÐ¾Ð¶ Ð°Ð»
ĠÑĢÐ°Ð·Ð³Ð»ÑıÐ´ ÐµÑĤÑĮ
Ñĥ Ð²ÐµÑĢ
ĠÐ½Ð¾Ð² ÑĭÑħ
ĠÐ¼ÐµÑħÐ°Ð½ Ð¸Ð·Ð¼
ĠÑģÐ¼Ð¾ÑĤÑĢ ÐµÐ»Ð¸
Ð¼ Ð°Ð½Ð°
Ð¸ÑĢÐ¾Ð² Ð°Ð»Ð°
Ð¢ ÐµÐ¼
Ð°ÑĨ Ð¸ÐµÐ¹
ĠÑģÐº Ð°ÑĥÑĤ
ÐĴ Ð°ÑĢ
ÐŁ Ð¾Ð²
ĠÑĨÐµÐ»ÑĮ Ñİ
ÐµÐ¹ Ð²ÐµÐ½
ĠÑĢÐ°Ð· ÑĢÐµÑĪ
ĠÐĲ Ð²
ĠÐ¿Ð¾Ð³ Ð»Ð¾ÑĤ
ĠÐ·Ð°Ð» Ðµ
ĠÑģÑĤÑĢÐµÐ¼ Ð¸ÑĤÐµÐ»ÑĮÐ½Ð¾
ĠÐ´ ÑĥÐ³
ĠÑĥ Ð»ÑĮÑı
Ð¸Ð¼ Ð°
ĠÑħ Ð»Ð¾Ð¿
ĠÐ£Ð»ÑĮÑĤÑĢÐ°Ð´ ÐµÑģÐ°Ð½ÑĤÐ½Ð¸Ðº
ÑĤ ÑĢÐ¸
Ñİ Ð¼
ĠÐ²Ð¾Ð» Ð½Ñĭ
ĠÐ¾Ð³ÑĢÐ¾Ð¼ Ð½ÑĭÑħ
Ð°Ð½Ð¸Ñı Ð¼Ð¸
ĠÑĤÑĭÑģÑıÑĩ ÐµÐ»ÐµÑĤ
ĠÐĽÐ¾ÑĢ ÐµÐ½ÑĨÐ¾
ÑĪ Ð¸Ð²
Ð¸Ñģ Ð¿
ĠÐ§ ÐµÐ»Ð¾Ð²ÐµÑĩ
u t
ÐµÐ» Ðµ
Ð¾Ð½ ÑıÑĤ
ĠÑģÐ»ÐµÐ´Ð¾Ð² Ð°Ð»Ð¾
Ð¸Ð± ÐµÑĢ
ĠÐ¡Ð°ÑĢÐ¿ÐµÐ´ Ð¾Ð½
ĠÐĹ Ð²
ĠÐ¾ÑĤÐºÑĢÑĭ ÑĤÑĮ
ĠÐ¸Ð´ ÐµÑĤ
ĠÑĤÑĮ Ð¼Ñĥ
Ð¾Ð²Ð¾ÑĢ Ð¸ÑĤÑĮ
ĠÐ´ ÑĢÑĥÐ·
ĠÐ¾Ð±ÑĢÐ°ÑĤ Ð¸Ð»ÑģÑı
ĠÐ¿Ð¾Ð»ÐºÐ¾Ð² Ð½Ð¸Ðº
ĠÑĤ ÑĳÐ¼
ĠÐ²Ð¾Ñģ ÐµÐ¼ÑĮ
ĠÑģÑĥÐ¼ ÐµÐ»
ĠÐ¿ÑĢ ÐµÐ¿
ĠÐ½Ð°Ð¿ Ð¾Ð¼Ð½
ĠÐ½Ð°Ð¿ Ð¾Ð»Ð½Ñı
ĠÐ²Ð¾Ð¿ Ð»Ð¾Ñī
Ðº Ð¾Ð½
Ð¸ÑĢ Ð°Ð»Ð¸
Ð¸Ð· Ñĥ
ĠÐ¾Ñģ Ð¾Ð·Ð½Ð°Ð»
ĠÐĴÐ¾ Ð¸Ð½Ð¾Ð²
ÑģÑĤ Ð°Ð½
ĠÐ¿ÑĢÐ¸Ð· ÑĢÐ°Ñĩ
ÐµÐ½ Ð½Ð¾ÑģÑĤÐ¸
ĠÐĶ ÑĢÐ°Ðº
Ð¸ÑĢÑĥ ÑĢÐ³
ĠÑģÐ²ÐµÑĢÑħ Ñĥ
ÐµÑħ Ð½
ÐºÐ¾Ð² Ð½Ð¸Ðº
ĠÐ¿ÑĢÐµÐ´Ð¿ Ð¾Ð»Ð°Ð³
ĠÐ´ ÑĢÐ°Ðº
Ð¾Ð´ Ð¾Ð»Ð¶
ÐŁ Ð¾ÑĤ
Ð¸ÑĤÐµÐ»ÑĮ Ð½ÑĥÑİ
ĠÑįÐ»ÐµÐº ÑĤÑĢ
ĠÑĢ Ð¾Ð²
ĠÐ¾ÑīÑĥÑī ÐµÐ½Ð¸Ðµ
ĠÐ¿ ÐµÑģÐº
ĠÐ¾ÑĤ ÐµÑĨ
ÑĭÐ² Ð°Ð»Ð¾
ĠÐ²ÑĢÐµÐ¼ ÐµÐ½
ĠÐ´ÐµÐ» Ð°ÐµÑĤ
ĠÐºÐ¾Ð½ÐµÑĩ Ð½Ð¾ÑģÑĤÐ¸
ĠÐŁ Ð¾ÑĤÐ¾Ð¼
Ð¾Ñĩ ÐºÐ¸
ĠÑĢ ÐµÐ¼
ĠÐĴ ÑĢÐ°Ð³
Ð¸ÑģÑĤ Ñĭ
ÑĢÐ°Ð± Ð»ÑĮ
ĠÑĩÐµÑĢ Ð½ÑĭÐµ
ĠÐĴÐ°ÑĢ Ñģ
ĠÐ¿Ð¾Ð´Ðº ÑĢÐµÐ¿
ĠÑĢÐ°Ðº ÐµÑĤ
Ñĩ Ð°Ð»
ĠÐ» Ð¸Ð´
ĠÑģÐ² Ð¸ÑĢÐµÐ¿
ĠÐ¸Ð½ÑĦÐ¾ÑĢÐ¼ Ð°ÑĨÐ¸Ñİ
ĠÐ²ÐµÐ»Ð¸Ñĩ Ð°Ð¹
ĠÐ¾ ÑĤÐ¾
ĠÐ»ÑİÐ± Ð¾Ð¼
ĠÐ¿ÑĢÐ¾Ð´ Ð²Ð¸Ð³
ĠÐ»Ð°Ð± Ð¸ÑĢÐ¸Ð½
? Â»
ÑģÑĤÐ² Ð¸ÐµÐ¼
ĠÐ¿Ð¾Ð»Ð¾Ð¶ ÐµÐ½Ð¸Ðµ
ĠÐ²Ð»Ð°ÑģÑĤ Ð¸
Ð°Ð» Ð¸Ð»ÑģÑı
ĠÐ¼ Ð°Ð½ÑĤ
ĠÐ¾ÐºÐ°Ð· Ð°ÑĤÑĮÑģÑı
ĠÑĢ Ð¶Ð°Ð²
ĠÑĦ Ð°Ðº
Ð°ÑĪ Ð°
ĠÐ¿Ð¾Ð´Ð½Ñı Ð²
ĠÐ´Ð²Ð¸Ð³ Ð°Ð»ÑģÑı
ĠÐ¸Ð¼Ð¿ Ð»Ð°Ð½ÑĤ
ĠÐ¾ÑĤÐ¼ ÐµÑĩ
ĠÐ¿ÑĢÐ¸Ð² ÑĭÐº
ĠÐ¿ÑĢÐ¸ÑģÑĤ ÑĥÐ¿
ĠÐłÑĭ ÑĨÐ°ÑĢ
ĠÐ½Ð° ÑĪÐµ
Ð¶ Ð¸Ð³
ĠÐ¾Ð´ ÐµÑı
ĠÐ¾Ðº Ð°Ð·ÑĭÐ²
ĠÐ¿ÑĢÐ¾ÑĤÐ¸Ð² Ð¾Ð¿Ð¾Ð»Ð¾Ð¶
ĠÐ²Ð°Ð¶ Ð½Ð¾
ÐµÐ¶ Ð°Ð»
ĠÑĦ ÑĢÐ¾Ð½
ĠÑĢÐµÑĪ ÐµÑĤ
ĠÐ¾ÑĦÐ¸ÑĨ ÐµÑĢÐ¾Ð²
ĠÐ¿ÑĢÐµÑģÑĤ ÑĥÐ¿
Ð½Ð¸ÑĨ Ñĥ
ĠÐ¾Ñģ Ð¾Ð·Ð½
ĠÐ¾Ð¿ ÑĢÐ°Ð²
ĠÑĢÐ°Ð·Ð² Ðµ
Ġs t
ĠÐ¾ÑģÑĤÐ°Ð½ Ð°Ð²Ð»Ð¸Ð²
ĠÑĥÑĢÐ¾Ð² Ð½Ñı
ĠÐ¾ÑĩÐµÐ²Ð¸Ð´ Ð½Ð¾
ĠÐ± ÑĥÐ½Ðº
ĠÑĢÐ°Ñģ ÑģÐ»
ĠÐ»ÑĥÑĩ Ð¸
ĠÐºÐ» ÑĥÐ±
Ð½ ÐµÑĤÑģÑı
ÑĨ Ð²ÐµÑĤ
Ð¾ÑĤ ÑĮ
ĠÐĴ Ð¾ÐºÑĢÑĥÐ³
ĠÑģÑĤÐ¾ ÑıÐ»Ð°
ĠÑģÐ»ÐµÐ´ Ð¾Ð¼
ĠÐ¿Ð¾Ð´Ð¾Ð± Ð½ÑĭÐµ
ĠÑģÐ¾ÑĤ ÐµÐ½
ĠÐ±ÐµÑģÐ¿ Ð¾ÑĢÑıÐ´
ĠÐ¸ÑģÐºÑĥÑģ ÑģÑĤÐ²ÐµÐ½
Ñī Ð¸Ðº
ĠÐ¡ ÐµÑģÑĤ
ĠÐ¶ÐµÐ» Ð°Ð½Ð¸Ðµ
ĠÐ±ÐµÐ¶ Ð°ÑĤÑĮ
Ġ 2
ĠÐ¾Ð± Ð¼Ð°Ð½
ĠÑĢÐ°Ñģ Ñĩ
ĠÑģÑĤÐ¾ Ð¸Ð»Ð¾
ĠÐ¼Ð°Ð» ÐµÐ¹
Ð°Ð»ÑĥÐ¹ ÑģÑĤÐ°
ĠÐº Ð»ÑİÑĩ
ĠÐ½ÐµÐ² Ð¾Ð·
ĠÐ¿Ð¾ÑģÐ¼Ð¾ÑĤ ÑĢ
ĠÐ²Ð¾Ð¿ÑĢÐ¾Ñģ Ñĭ
Ñĩ Ð¸ÐºÐ°
ÑģÑĤ ÐµÑģÑĤÐ²ÐµÐ½
ĠÑĥ Ñī
ĠÑĥÑģÐ¿ Ð¾ÐºÐ¾
ÑĢÑĭÐ³ Ð½ÑĥÐ»
Ð¼Ð¸Ð½ Ð¸ÑģÑĤÑĢ
ĠÐ· Ð¼Ðµ
Ð°Ð»ÑĮ Ð½Ð¾Ð¼
ÐĴ ÐµÑĢ
ÑĥÐ» Ð¾Ð²
ĠÐ¼Ð¾ ÐµÐ¼Ñĥ
ĠÐ¼Ð°ÑĪ Ð¸Ð½Ñĥ
ĠÐ¿ÑĢÐ¾Ð² ÐµÐ´
ĠÐ¿ÑĢÐµÐ´ÑģÑĤÐ°Ð² Ð»ÑıÐ»
ĠÐĸÐµÐ»ÐµÐ· Ð½ÑĭÐµ
ĠÑģÐµÐ¼ ÑĮ
ĠÑĤÑī Ð°ÑĤÐµÐ»ÑĮÐ½Ð¾
ĠÐ± ÑĥÐ¼
ĠÑģÐ¸Ð» Ð°Ñħ
ĠÐ¾ÑĤÐºÑĢÑĭ Ð»Ð¸
ĠÐĴ ÑĥÐ»ÐºÐ°Ð½
ÑĢÑı Ñħ
ĠÐłÐ°Ð³Ð½Ð°ÑĢ Ð°
ĠÑĤÑĮ Ð¼Ðµ
Ð² ÐµÑģÑĤÐ¸
ĠÑĤ ÑĥÑĢ
ĠÐ¿Ð¾Ð» Ð¾Ñģ
ÑĨÐµÐ¿ Ñģ
ĠÐ²ÐµÑĢ Ð¾ÑıÑĤ
ĠÐ¸ÑģÐ¿ ÑĥÐ³
ĠÑħÐ¾Ñĩ ÐµÑĤ
Ġb e
Ð¾Ð³ Ð°
ÑĥÐ¼ Ðµ
ĠÑĢÐ°ÑģÑģ ÑĩÐ¸ÑĤ
ĠÐļÐ¾ÑģÐ¼ Ð¸ÑĩÐµÑģÐºÐ¾Ð³Ð¾
ĠÐĳÐ¾Ð³ Ð°
Ð¸Ð² Ð°ÑİÑīÐ¸Ñħ
Ð¡ ÐµÑĢÐ¶Ð°Ð½ÑĤ
ĠÑĦÐ¾ÑĢÐ¼ Ðµ
ĠÐ² Ð¸Ñħ
ĠÐ¢ Ðµ
ĠÐ¼ÐµÑĤ ÑĢÐ°Ñħ
ĠÐ¿ÑĢÐ¸Ð² ÐµÐ´
Ðŀ ÑģÑĤ
ÐĶ Ð°Ð¶Ðµ
ĠÐ¿ÑĢ ÐµÐ¶
ĠÐºÑĢÐµÐ¿ Ð¾ÑģÑĤÑĮ
ĠÑĩÐ°Ñģ Ð°
ĠÐ¿ÑĢÐµ Ð¸Ð¼
Ð ®
Ð¾Ð² ÑĭÐ¼Ð¸
ĠÐ¼ ÑıÑģ
ĠÐ¿Ð»Ð°Ð· Ð¼
Ñĥ ÑĦ
ĠÐ¡ Ð¾Ð²
ĠÐ» Ñĥ
ĠÐ¾ÑĤÐ²ÐµÑĤ Ð°
ĠÐ¿ÐµÑĢÐµÐ¼ ÐµÑī
ÑĢ ÐµÐº
ĠÑģ Ð½Ð°ÑĩÐ°Ð»Ð°
ĠÐ² Ð»Ð°Ð¶
ĠÐŁ Ð¾ÑħÐ¾Ð¶Ðµ
ĠÐ·Ð°Ðº ÑĢÐµÐ¿
Ð» ÐµÐ³
Ð¸Ð¼ Ð¾Ð³Ð¾
ĠÐ¿Ð»ÐµÑĩ Ð¸
ĠÐ¿ÑĥÑĪ ÐºÐ¸
ĠÑįÐºÐ¸Ð¿Ð°Ð¶ Ð°
Ð¸ Ð°ÑĢÑħ
ĠÑĥ Ð¹ÑĤÐ¸
Ð¾Ð· Ð½Ð°Ñĩ
ĠÐļ ÑĢÐ¾Ð¼Ðµ
ĠÑģÑĤ Ð°Ð±
ĠÑĨ Ð¸ÑĤÐ°Ð´
ĠÐ¿Ð¾Ð·Ð¸ÑĨ Ð¸Ñİ
ĠÐº ÑĥÑĩ
Ð¾Ð³ Ñĥ
ÑĭÐ² Ð°Ð»ÑģÑı
ĠÐ²ÐµÑĤ ÑĢÐ°
ĠÐ¿Ð¾ÑħÐ¾Ð´ Ð°
ĠÐ² ÑĨÐµÐ¿
ĠÐ¿ÑĢ Ð¾Ð¹ÑĤÐ¸
ĠÐ²ÐµÑī Ð¸
ĠÐº Ð¸Ð½
Ð· Ð¾ÑĢ
Ð¸Ðº ÑĥÑģ
ÐµÐ² ÑĪÐ¸Ñħ
ĠÐ³Ð» ÑĥÑħ
ĠÑħ Ð²Ð¾ÑģÑĤ
ÑĪÐµÐ» Ð¾Ð¼
ĠÐ¼ÐµÑĢÑĤÐ² ÐµÑĨ
Ð°Ð»ÑĮ Ð½ÑĭÐ¼Ð¸
Ð¸Ð²ÑĪ ÐµÐ³Ð¾
ÑĪÑĤ Ð°Ð±
ĠÐ¾Ñĩ Ð¸ÑģÑĤ
ĠÐ¾Ð³ÑĢÐ¾Ð¼ Ð½Ð¾Ð³Ð¾
ĠÐ´ÑĥÐ¼ Ð°ÐµÑĪÑĮ
ĠÐ¿ÑĢÐ¾Ð¸Ð·Ð½ÐµÑģ Ð»Ð°
ĠÑĤÑıÐ¶ÐµÐ» ÑĭÐµ
Ð°ÑĤÐµÐ»Ñı Ð¼Ð¸
ĠÐĲÐ»ÑĮ ÑĦ
Ð¾ÑĤ Ð¾Ð¹
ĠÐ¾ÑĢÑĥÐ¶ ÐµÐ¹
ĠÐ±Ð¾Ð³ Ð¾Ð²
ĠÐ± ÑĥÑĪ
Ð°Ð³ Ð¸
ĠÑĢÐ°Ð·Ð¼ Ð°Ñħ
ĠÐ¿Ð»Ð¾Ñħ Ð¾
ĠÐ¸ Ð±Ð¾
ĠÐ¿Ð¾Ñģ Ð¾Ñħ
ĠÐ±Ð¾Ð»ÑĮÑĪ Ð¸Ð¼
ĠÐ»ÐµÐ·Ð² Ð¸Ðµ
ĠÑģ Ð¸ÑĢ
Ð² Ð°Ð¹
ĠÑģÐ¶ Ð°Ð»
ĠÐµÐ´Ð¸Ð½ÑģÑĤÐ²ÐµÐ½ Ð½ÑĭÐ¼
ĠÐ³Ð²Ð°ÑĢÐ´ÐµÐ¹ ÑĨÐµÐ²
Ð¶Ð°Ð» Ð¾ÑģÑĤ
Ð°ÑĤ ÑĭÐ¹
ĠÐ¾ÑĢ Ð³
ĠÐ±Ð¾Ð»ÑĮÑĪ Ð°Ñı
ĠÐ½Ð°ÑħÐ¼ÑĥÑĢ Ð¸Ð»ÑģÑı
ĠÐľ Ð½Ð¾Ð³Ð¸Ðµ
ĠÐ°Ð¿ Ð¿Ð°ÑĢ
ĠÑĩÑĥÐ²ÑģÑĤÐ²Ñĥ Ñı
ĠÐ³ ÑĢÐ°Ð´
Ð°Ñī Ð¸Ðµ
ĠÐ²ÑĭÑģÑĤÑĢÐµÐ» Ñĭ
ĠÑģÐ½Ñı Ð»
Ġ +
ĠÑĤ ÑĢÑĥ
ĠÐ¿Ð¾Ð´Ð½Ñı ÑĤÑĮÑģÑı
ĠÐºÐ¸Ð² Ð½ÑĥÐ»Ð°
ĠÐ¿Ð¾ÑıÐ² Ð¸Ð»Ð°ÑģÑĮ
ĠÑģÑĭ Ð½
ĠÐ½ÐµÐ±Ð¾Ð»ÑĮÑĪ Ð¾Ð¹
Ð¾Ð»Ñĩ Ð°Ð»
ĠÐ¿ÑĢÐ¾Ð¸Ð·Ð½ ÑĳÑģ
Ð¸Ð¼ ÑĭÑħ
ĠÑģÐº ÑĢÐ¸Ð¿
ĠÑĥÑģÐ¿ ÐµÑħ
ĠÐ¢ Ð¸ÑĢ
ĠÐ²Ð°ÑĪ Ð¸
ĠÐĵÐ²Ð°ÑĢÐ´ ÐµÐ¹
ĠÐ¿Ð¾Ðº Ð°Ð·Ð°Ð»
ĠÐ¶ Ð¸ÑĤÑĮ
ĠÐ·Ð°Ð¿ Ð°Ñģ
ĠÑĤÐ¾ÑĢ Ð³Ð¾Ð²
Ġ V
ĠÑĢÐ°Ð· Ð¾Ñĩ
ĠÑĤÐ°Ðº ÑĥÑİ
ĠÐ²ÐµÑĢ Ð½Ð¾
ÐµÐ»Ð¾Ð² ÐµÐº
ĠÐ²Ð·Ð³Ð»Ñı Ð´Ð°
ĠÐ¿ÑĢÐ¸Ð¼ ÐµÐ½
ÑİÑī Ð¸Ðµ
ĠÑĢÐ°ÑģÑģ Ð¼ÐµÑıÐ»ÑģÑı
ĠÑģÑĩÐ¸ÑĤ Ð°Ð»
ĠÑĤÐ°Ð½ ÐºÐ¾Ð²
ĠÐ¾Ð³Ð»Ñı Ð½ÑĥÐ»ÑģÑı
ĠÐ¿Ð°ÑĤ ÑĢÑĥ
ÑĢÑĭ ÑĤÑĮ
ĠÑįÑĤ Ð¸Ð¼Ð¸
ĠÐ°ÑĢ Ð±Ð¸ÑĤ
ÑħÐ²Ð°ÑĤ Ð¸Ð»
ĠÐĿ Ñĥ
ĠÑĤÐ°Ðº Ð°Ñı
Ð½ Ð°Ð¶Ð´Ñĭ
ĠÐºÐ°Ðº Ð¸Ñħ
Ð°Ñĩ ÐµÐ¼
ĠÑĤÐµÐ¼ Ð½ÑĭÐµ
ĠÐ¿Ð¾ÑĢ ÑĥÑĩ
ĠÐºÐ¾Ð³ÑĤ ÑıÐ¼Ð¸
Ð² ÑıÑī
ĠÐ³Ð¾Ð»Ð¾Ð² Ð°Ð¼Ð¸
ÐµÐ»Ñı Ð½
ĠÐ¾Ð±Ð» Ð°ÐºÐ°
ĠÐ¾ÑĩÐµÑĢÐµÐ´ Ð½Ð¾Ð¹
ĠÐ´ Ð»
ĠÐ¿Ð¾ ÑĪÐµÐ»
Ð¾Ð· Ð°
ĠÐ¿Ð¾Ð» ÐµÐ·
Ġw ith
ĠÐ¶ Ð°Ð¶
ĠÐ¿ÑĢÐµÐ´ Ð¿ÑĢ
ĠÐ´Ð¾Ð¿ Ð¾Ð»Ð½
ĠÐ± Ð¾ÑĤÐ¸Ð½
ĠÐ¡ ÐµÑĢÐ¶Ð°Ð½ÑĤ
ĠÑģÐ¸ÑģÑĤÐµÐ¼ Ðµ
ĠÐ±Ð¾Ð¹ ÑĨÐ¾Ð²
ĠÐ³ÑĢÐ¾ÑħÐ¾ÑĤ Ð¾Ð¼
Ð°Ð½ ÑĩÐ¸Ð²
ĠÐ¡ Ð°Ð¹
Ð¸Ð²ÑĪ ÐµÐ³Ð¾ÑģÑı
ĠÐ¸Ð½ Ð¾Ð³Ð´Ð°
ĠÐºÐ¾Ð» ÐµÐ±
ĠÑĥÐ²Ð¸Ð´ ÐµÐ»Ð°
ĠÐ¿ÑĢÐ¸Ð¼ ÐµÑĢÐ½Ð¾
ÐĹ Ð°Ð²
Ð¾ÑĢÐ´ Ð°Ð¶
Ð¾Ð¼ ÐµÑĢ
ĠÐºÐ¾Ð¼Ð°Ð½Ð´ Ð¸ÑĢÐ°
ĠÐºÐ¾Ð½ ÑģÑĤÑĢÑĥÐº
ĠÐ¿Ð¾ÑģÐ»ÐµÐ´ Ð¾Ð²Ð°Ð»
ĠÑĤ Ð¸ÑĤÐ°Ð½Ð°
ÑĢÐ° ÑĩÐ½Ð¾
ĠÐ±ÐµÑģ ÑĩÐ¸Ñģ
ĠÐ¼Ð¾Ð¶ÐµÑĤ Ðµ
Ñı ÑĤÐ¾
ĠÐ² ÑĢÑıÐ´
Ð¾Ð² Ð¾Ðµ
ÐĴ Ð·
ÑĢÐ¸Ðº Ñģ
ĠÐĽ ÐµÐ²
ĠÐ²ÑĢÐ°Ð³ Ð¸
ÐµÐ» ÐµÐ½Ð½Ð¾Ð¹
ĠÐĵ Ð¸Ð´
ĠÐĴÐ¼ÐµÑģÑĤ Ð¾
ĠÑģ ÑħÐ¾Ð´
Ð³ Ðµ
ĠÐĲ ÑģÑĤÑĢ
Ð¸ÑĤÐµÐ»ÑĮ Ð½ÑĭÐ¼Ð¸
Ðĵ ÑĢÐ¾Ð·
ĠÐ·Ð°Ð´ ÑĢÐ¾Ð¶
ĠÑĢÐ°Ð·Ð² Ð¾ÑĢÐ°ÑĩÐ¸Ð²
ÐµÑĢ Ð»Ð¸
ĠÐ¾ÑĤ ÑĢÐ°Ð·
ĠÐºÐ¾ÑĢÐ°Ð± Ð»Ðµ
ĠÐĽÐ¾ÑĢÐ³ Ð°ÑĢÐ°
Ð¸ÑĤ Ð¸Ð²
Ð³ Ñĥ
ĠÐ²Ñĭ ÑĢÑĭÐ²
ĠÐ¿ÑĢÐ¾ Ñī
ĠÐ¾ÑģÑĤÐ°Ð² Ð°ÑĤÑĮÑģÑı
ĠÐ¾Ð³Ð»Ñı Ð´ÐµÐ»
ÑĮ ÐµÐ¼
ĠÐ½Ðµ Ñĳ
ĠÐ´ÑĢÐ°Ð³Ð¾ ÑĨ
ĠÐ² Ð¾ÑģÑĮ
ÑĭÐ² Ð°ÑĤÑĮÑģÑı
ĠÐ¯ ÑĢ
ĠÐĲÐ½Ð³ ÑĢÐ¾Ð½
ĠÐ½ÐµÐ¿ÑĢ ÐµÑĢÑĭÐ²
ĠÐ¶ÐµÐ½Ñī Ð¸Ð½Ñĭ
ĠÐ¾ÑģÐºÐ¾Ð» ÐºÐ¸
ĠÐ² ÐµÐ»Ð¸
Ð¾Ð²Ð¾ÑĢ Ð¸Ð»
ĠÐ·ÐµÐ¼ Ð»Ñı
ĠÑĤ ÑĢÐ°Ð´
Ðľ Ð¾Ð¹
ÑıÐ´ Ð¾Ð¼
ĠÐ¿Ð¾Ð³ Ð»Ð¾Ñī
ĠÐ³ÐµÐ½ Ð¾ÐºÑĢÐ°Ð´
ĠÐ´ÐµÑģÑıÑĤ ÐºÐ¸
Ð¾Ð»Ð¾Ð² Ð¸Ð½Ñĥ
Ð¸Ñı Ð¼
ĠÐ³Ð¾Ð» ÑĥÐ±
ĠÐ¿Ð¾Ð³ ÑĢÑĥÐ¶
ĠÐ·Ð°Ñĩ ÐµÐ¼
ĠÐ¾Ñģ Ð¼ÐµÐ»
ĠÑģÐ¿Ð¾ÑģÐ¾Ð± ÐµÐ½
ĠÐ¿Ð¾Ñģ ÑĢÐµÐ´Ð¸
ĠÐ¿ ÑĥÐ³
ÐµÑģ ÐºÐ¸
ĠÐł Ð°Ð½
ĠÐ¸Ð· Ð¾Ð³
ĠÐ¸ÑģÐ¿ Ð°ÑĢ
ĠÐ¾Ð±ÑĢÐ°Ð· Ð¾Ð²
Ð¾Ð» ÑĤÐµÑĢ
Ð»Ñı ÐµÑĤÑģÑı
ĠÑĥÐ± Ð¸Ð²Ð°ÑĤÑĮ
Ð¾Ð´ ÑĥÑĪ
ĠÑĤÐ¾ ÑĪ
Ð°Ñī Ð¸Ñħ
ĠÐ¿ÐµÑĢÐµÐº Ð»ÑİÑĩ
ĠÐ² ÐµÐº
ĠÐ½Ðµ Ð¾Ð±ÑĭÑĩ
ĠÑĨÐµÐ¿ Ð½Ð¾Ð¹
ĠÑģÑĩÐ¸ÑĤ Ð°ÑĤÑĮ
ĠÑģÑĤÐ°Ð½ ÑĨÐ¸Ð¸
Ð³ Ð°ÑĢ
Ð¸ÑģÑĤ Ð°Ð½
ĠÐ´ÐµÑĢÐ¶ Ð°
ÑĨÐµÐ½ÑĤ ÑĢ
ĠÐ¤ÐµÐ½ ÑĢÐ¸Ñģ
r i
ÑģÑĤÐ² Ð°Ñħ
Ðŀ ÑĢ
ĠÑĤÑĢ Ð¾Ð½
ĠÐ½Ð°ÑĪ Ñĥ
ĠÐ²Ð¾Ð» Ð¸
ĠÑĤ Ð°Ð»
ĠÐ±Ð¸ÑĤ Ð²Ðµ
ĠÑģÐ¾Ð·Ð½ Ð°Ð½Ð¸Ñı
ĠÐ·ÑĢ ÐµÐ»Ð¸
Ð¾Ð² Ð¾
ĠÐĽ Ðµ
ĠÐ½ ÐµÐ»
Ð¸Ðº Ð¾Ð¹
ĠÐ·Ð½Ð°Ñĩ ÐµÐ½Ð¸Ñı
ĠÐ¾ÑģÑĤ Ð°ÑĤÑĮÑģÑı
ĠÐºÐ¾Ð» Ð¾ÑģÑģ
ĠÐ½ÐµÑģ Ð¾Ð¼Ð½ÐµÐ½Ð½Ð¾
ĠÐ°Ð´ ÐµÐ¿ÑĤ
ĠÐ¾ÑĤÑĢÑı Ð´Ð°
ĠÐºÐ¾Ð» Ð´Ð¾Ð²
ĠÐ£ Ð±
ĠÐ·Ð°Ð¿ Ñı
ĠÐ¾ÑģÑĤÐ°Ð² Ð°Ð»Ð¸ÑģÑĮ
ĠÑģÑĥÐ´ Ð½Ð¾
ÐµÑİ ÑģÑĮ
ĠÑģ Ð°ÑĢ
ĠÐ´ Ð°Ð±Ñĭ
ĠÐ½Ðµ ÑģÐ»Ð¸
ĠÐ¿Ð¾ÑģÐ»ÐµÐ´ Ð½Ð¸Ñħ
ĠÑĥÑģÐ»ÑĭÑĪ Ð°ÑĤÑĮ
ĠÑĢÐ°Ð·Ð± ÑĢÐ¾Ñģ
ĠÐ½ ÐµÐ±Ðµ
Ð¾Ð² Ð¾Ð¼
ĠÑĢ ÐµÐ¿
ĠÐ¿ÑĢÐ¾ÑĪ Ð»Ð¾
ĠÐ²ÑĢÐµÐ· Ð°Ð»ÑģÑı
ĠÑĪ ÑĥÑĤ
ĠÐºÑĢÐµÐ¹ ÑģÐµÑĢ
ÐµÐ² ÑĪÐ¸Ð¹
ĠÑģÐº Ð°Ð½
ĠÐ¾ÑģÑĤÐ°Ð² Ð¸ÑĤÑĮ
ĠÑĥÑģÑĤÑĢÐ¾Ð¹ ÑģÑĤÐ²Ð¾
ĠÐ¿Ð¾Ð» Ð°
ĠÑĦ Ð¸Ð³ÑĥÑĢ
Ð½ÑĥÑĤ ÑĭÐµ
ÐĽ ÐµÐ³Ð¸Ð¾Ð½
ĠÐļÐ¾ÑģÐ¼ Ð¸ÑĩÐµÑģÐºÐ¸Ñħ
Ð¾Ð³ Ðµ
Ð°Ð± Ð¾ÑĤ
ĠÐ¿Ð¾Ð´Ð¾Ð± Ð½ÑĭÑħ
ĠÐ¿Ð¾Ð±ÐµÐ´ Ñĭ
ĠÐ³Ð¸Ð± ÐµÐ»Ð¸
ĠÐ²Ð¸Ð· Ð³
ĠÐ¿ÑĢ Ð¸ÐµÐ¼
ĠÐĵ Ð»Ð°Ð·Ð°
Ð¸ ÑĢÐ°Ð¼
Ð¸Ð¼ Ñĭ
ĠÐ¿Ð¾Ð´ Ð²
Ð°Ð»ÑĮ Ð¿ÑĥÑĢ
ĠÑĩÐµÑĢ Ð½Ð¾Ð¹
ĠÐºÐ¾Ð» ÐµÐ½Ð¾
ĠÑģÑĤÐ¾Ð»Ðº Ð½Ð¾Ð²
ĠÐŁ ÑĢÐ¾
ĠÐ»Ð°Ð· Ð³
ĠÐ¥Ð° Ð¾Ñģ
Ð¸ÑĨ Ðµ
ĠÐ¿Ð¾Ð»Ð¾Ð¶ Ð¸Ð»
ĠÐ¾ÑĤÐ²ÐµÑĢ ÑģÑĤ
Ð°Ð´ Ð´
Ð»Ñı Ð²
Ð»Ñı Ð¼Ð¸
ĠÐļ Ð°ÑĢÐ°
ĠÑĤÐ¾Ð¿ Ð¾ÑĢ
ĠÑģ Ñĥ
ĠÐĴ Ð¸Ð´
ĠÐ¼Ð¾Ð³ÑĥÑīÐµ ÑģÑĤÐ²ÐµÐ½
ĠÐ´ Ð¾Ñģ
ĠÑĦ Ð¾Ð½Ðµ
ĠÐ²Ð¸Ð´ Ð¸ÑĤ
ĠÐļÐ¾ÑģÐ¼ Ð¾Ð´ÐµÑģÐ°Ð½ÑĤÐ½Ð¸Ðº
ĠÐ²Ð¾ÑģÐ¿Ð¾Ð¼Ð¸Ð½ Ð°Ð½Ð¸Ñı
ĠÐ¶ Ð°Ð¶Ð´
ĠÐ²Ð· Ð»ÐµÑĤ
ĠÐ±ÐµÐ· Ð¶Ð°Ð»Ð¾ÑģÑĤ
ĠÐ·ÐµÐ»ÐµÐ½Ð¾ÐºÐ¾Ð¶ Ð¸Ñħ
ĠÑĥÑģÐº Ð¾ÑĢ
ĠÐ¿Ð»Ð°Ð½ ÐµÑĤÐ°
ĠÐ»ÐµÐ³ ÐµÐ½
ĠÐ¥Ð¾ÑĢ ÑģÑĤ
ĠÐ¾Ð¿ÑĥÑģÑĤ Ð¸Ð»ÑģÑı
ĠÐ½Ð°Ð½ ÐµÑģÑĤÐ¸
ĠÐľÐµÑħÐ°Ð½Ð¸Ðº ÑĥÐ¼
ĠÑĥÑģÑĤÐ°Ð² Ð¸Ð»ÑģÑı
ĠÐ¿Ð¾Ð´ÑĤÐ²ÐµÑĢ Ð¶Ð´
ĠÑĤÐ¸ÑĪ Ð¸Ð½Ð°
ĠÐ¾Ð± Ð¼ÐµÐ½
Ð²Ð°ÑĢ Ð´Ðµ
ÑĥÑİÑī ÐµÐ³Ð¾
ĠÐ½ÐµÐ´ Ð¾
ĠÑģÐ»ÐµÐ´ÑĥÑİÑī Ð¸Ð¹
ĠÑģÐ¾Ð¼Ð½ÐµÐ² Ð°Ð»ÑģÑı
Ð¸Ð» Ð»Ð°
ĠÑĥÐ´Ð°ÑĢ Ð¾Ð²
ĠÑģÐ¾Ð±ÑģÑĤÐ²ÐµÐ½ Ð½ÑĭÐµ
ĠÑī ÑĥÐ¿
Ð¼ ÑĥÑĤ
Ð¶ Ð°
ĠÐ¾Ð± Ð²Ð¸Ð½
ĠÐº Ð»Ð°Ñģ
ĠÑĥ Ð½
ĠÑĦ Ð¾Ð½ÑĤ
ĠÐ¿ÑĢÐ°Ð² Ð´Ñĥ
ĠÐļ Ð¾Ð¼Ð°Ð½Ð´
ĠÑĪ ÐºÑĥ
ĠÐ´Ð¾ Ð½Ð¾Ñģ
Ð²Ð°ÑĢÐ´Ðµ ÐµÑĨ
ĠÐĴ Ð¿ÑĢÐ¾ÑĩÐµÐ¼
Ð¸Ð´ ÐµÑģÑı
ĠÐ¼ÐµÑĢÑĤÐ² ÑĭÑħ
ĠÐ¼Ð¸Ð½ÑĥÑĤ Ñĭ
Ð½ Ð°ÑĤÑĮ
Ð°ÑĤÐµÐ»ÑĮ ÑģÑĤÐ²Ð¾
ĠÐ´Ñĥ ÑĪÐµ
ĠÐ¸Ð· Ð´Ð°Ð»
Ð°Ð³ Ð°
ĠÐ¿Ð» ÐµÐ¼
ĠÐ¼ÐµÑħÐ°Ð½ Ð¸Ð·
ĠÐĲÑĢÐ³ ÐµÐ»
Ñı ÑıÑģÑĮ
ĠÐ»Ñİ Ðº
ĠÐ²Ð·ÑĢÑĭÐ² Ð°
Ñı Ñİ
ĠÐ¼ ÐµÐ¶
ĠÐ¾Ð´ ÐµÑĤ
ĠÑģÐ»Ð¾Ð² Ð°Ð¼Ð¸
ĠÐ² Ð¾ÑĢÐ²
Ð°Ð· Ð°Ð½
ĠÐ²Ð¾Ð· Ð´ÑĥÑĪ
ĠÐ¾ÑģÑĤÐ°Ð² Ð»ÑıÑı
ĠÐĲÐ½Ð³ ÐµÐ»Ð°
ĠÐ·Ð°ÑīÐ¸ÑĤ Ñĭ
ĠÐ¼Ð¾Ð»Ñĩ Ð°
Ð°Ð» Ð´
ĠÐ· Ð°Ð³Ð¾
ĠÐ¡ Ð¾ÑĢ
ĠÐĺÐ¼ ÐµÐ½Ð½Ð¾
Ðľ Ð°Ð³
ÑĥÑī ÐµÐ¹
ĠÑĢÐ°Ð±Ð¾ÑĤ Ð°
ĠÑģÑĥÐ´ Ð½Ð°
ĠÑĢÑĥ Ñĩ
ĠÐ¿Ð¾Ð² Ð¾ÑĢÐ°ÑĩÐ¸Ð²
ĠÑĤÐµÐ» Ðµ
ĠÐ¿Ð°Ð»ÑĮ ÑĨÐµÐ¼
ĠÑĤÐ¸ÑĢÐ°Ð½Ð¸Ð´ Ð¾Ð²
ÑĤ Ð¾Ð¹
ĠÑģÐ°Ð¼ Ð¾Ð¼Ñĥ
ĠÐ»ÐµÐ¶ Ð°Ð»Ð¸
ĠÐ¿ÐµÑĢ ÐµÐ½
ÐµÑĪÑĮ ÑģÑı
ĠÐ¾ÑĤ ÑĤÐµÐ½
ĠÑĢ ÐµÐ¶
ĠÑĢ Ð¾ÑĤÐ°
ĠÑı Ð´Ð¾Ð²
ÑĥÑģ ÐµÐ½
ĠÐ¿Ð¾ÑģÐ»ÐµÐ´ Ð½ÐµÐµ
ĠÐºÐ°Ð¶Ð´ Ð¾Ðµ
ĠÐĲÑĢ ÐºÐ¸Ð¾
ĠÐĸÐ¸Ð»Ð» Ð¸Ð¼Ð°Ð½
Ð¸Ð² Ð°Ð»Ð¾
ĠÐ»ÑİÐ´ ÑıÐ¼
ĠÐ¿ÑĢÐ¸Ð² ÑĭÑĩ
ĠÑħÑĢÐ°Ð¼ Ð°
ĠÐĳÐ¾ÑĢ ÐµÐ¹
ĠÑĨÐµÑĢ ÐµÐ¼Ð¾Ð½
ĠÐ¾ ÑĪÐµÐ»Ð¾Ð¼
ĠÑĥ ÑģÐµ
ĠÐ´ÑĢÑĥÐ³ ÑĥÑİ
ĠÐ¿ÐµÑĢÐµÐ´ Ð°Ð»
ĠÐ½Ð¾Ð³ Ð°Ñħ
ĠÐ¾Ð¿Ð°Ñģ Ð½Ð¾ÑģÑĤÐ¸
ĠÐ´ÑĢÑĥÐ³ Ð¸Ð¼Ð¸
ÑıÑī Ð¸ÐµÑģÑı
ÑĢÐµ Ð°Ð³
ĠÐ½ÑĥÐ¶ ÐµÐ½
ĠÐ±Ð¾ÑĢ ÑĮ
ĠÐºÐ»Ð¸Ð½ ÐºÐ°
ÑĢÐµÑģ Ð¸
ĠÑĥÐºÑĢÑĭÑĤ Ð¸Ñı
ĠÐĶ ÐµÐ»
Ðĺ Ñħ
ĠÑģÑĤÑĢ Ð¾Ñı
ĠÐº Ð¸Ð¿
ĠÐ± Ð°Ð½Ð´
ÑĨ Ð¸ÑĢ
ĠÐ» Ð¾Ð¿
ĠÐĴÐ¾ Ð¸ÑĤÐµÐ»ÑĮ
Ġs h
Ðº Ð°Ð»
Ð½Ð¾Ð² Ð¸Ð´
ĠÐ½Ð¸Ñĩ ÑĤÐ¾
ĠÐ¼Ð¾Ð» Ð¾ÑĤ
ĠÐ¾Ð¶Ð¸Ð´ Ð°Ñı
ĠÐ°ÑĥÐ³ Ð¼ÐµÑĤ
Ð¸ÑĤ ÐµÐ»Ñİ
ĠÐŀ Ðº
ĠÑĢÐ°Ð· ÑĢÑıÐ´
ĠÐ¥ Ð°ÑĢ
ĠÐ·Ð°Ð¼ ÐµÑĪ
ÐµÐ² ÑĭÐµ
ĠÐ´ÐµÐ¹ ÑģÑĤÐ²Ð¾Ð²Ð°ÑĤÑĮ
Ðµ ÐµÑĤ
Ñĩ Ñĥ
Ð°ÐµÐ¼ ÑĭÑħ
ĠÐ¾ÑĤÐ² Ð»ÐµÐº
ĠÐ¢ÑĭÑģÑıÑĩ Ð¸
e c
ĠÑĩÐµÑĢ Ð½Ð¾Ð³Ð¾
ĠÐ·Ð½Ð°Ñĩ ÐµÐ½Ð¸Ðµ
Ð¾Ð¹Ð´ Ñı
ĠÐ²ÑģÐ¿ÑĭÑĪ ÐºÐ¸
ĠÐłÑĥÑģ ÑģÐ°
Ð»Ñı ÐµÐ¼
Ð¸ÑĢÐ¾Ð² Ð°ÑĤÑĮÑģÑı
Ð¢ Ð¾Ð»ÑĮÐºÐ¾
ĠÐºÐ¾Ð½ ÑĦ
ĠÑĤÐ°Ðº Ð¸Ð¼Ð¸
ĠÐ²Ðº ÑĥÑģ
ĠÐ¾Ð±Ð¾ Ð¸Ñħ
ĠÑĤÑĢÐ¸Ð´ÑĨ Ð°ÑĤÑĮ
ĠÐ» Ð°Ð¼Ð¿
ĠÐĲ Ð³
ĠÑĢÐ°Ð½ ÐµÐµ
ĠÑĥÑĤ ÑĢÐ°ÑĤ
ĠÐ¿ÑĢÐ¾ÑĢ ÑĭÑĩÐ°Ð»
Ðº Ð¾ÑģÑĤÑĮ
Ð»ÐµÐ½ Ð½Ð°Ñı
ĠÐĲ Ð¼
ĠÐł Ð¾Ð³
ĠÐºÐ¾ÑģÐ¼ Ð¾ÑģÐ°
ĠÑģÐºÐ¾ÑĢ Ð¾ÑģÑĤÐ¸
ĠÑģÐ¾Ð»Ð½ ÐµÑĩ
ĠÐ°Ð± Ð¾ÑĢÐ´Ð°Ð¶
ĠÐ±ÐµÑģÑģ Ð¼ÑĭÑģ
ĠÐ½ Ñĭ
ĠÑĤÐ²Ð¾ ÐµÐ¹
ĠÐ½Ð¾Ñģ Ð¸Ð»
ĠÐ²Ñĭ Ð»ÐµÑĤ
ĠÐĳ ÑĥÐ»
ĠÐł ÑĥÐº
ĠÐ³Ð¾Ð» Ð¾Ð´
ĠÐ¾ÑĢ Ð¾ÑĩÑĮ
ĠÐ²ÑģÐº Ð¾Ñĩ
Ð» ÑĥÑħ
Ð¸Ð½ ÑĥÑĤ
Ð°Ð»Ð¸ ÑģÑĤ
ÐĴ Ñģ
ĠÐ¥ Ð°Ð²
ĠÐ·Ð°Ð¼ ÐµÐ´Ð»
Ðķ ÑģÑĤÑĮ
ĠÐºÐ¾Ð»Ð¾Ð½ Ð½Ñĭ
Ð½Ñĥ ÑĪ
ĠÐ¿ÑĢÐµÐ· ÑĢ
ĠÐ¾ Ð²
Ð· Ð°Ð´Ð¸
ÑĢÑĭ Ð¹
ĠÐ½Ð°Ð¿ Ð¾Ð»Ð¾Ð²Ð¸Ð½Ñĥ
ĠÐ¼ÐµÑģÑı ÑĨÐµÐ²
ĠÐ¢ Ð¾ÑĢÐ³
ĠÐºÐ¾Ð½ Ñĩ
ĠÐĴÐµÐ»Ð¸Ðº Ð¸Ð¹
ĠÐ² Ð»Ð°ÑģÑĤÑĮ
ÐµÑĤ ÐµÑĢ
ĠÑĪ ÐµÐµ
ĠÐĵ ÑĥÑĢ
ĠÑĦ ÑĢÐ°Ð³
ĠÐ½Ð¸Ðº Ð¾Ð³Ð¾
ÑĥÑĤ Ð¸
ĠÑģÑĤÐ¾ Ð»Ð°
ĠÐ²ÑĭÐ± Ð¾ÑĢ
ĠÐ²ÑĭÐ¶ Ð¸Ð²
ĠÐ³Ð¸Ð± ÐµÐ»ÑĮ
ĠÑģÐ¼ÑĭÑģ Ð»Ð°
o t
ĠÐ¿Ð¾ÑģÐ»ÐµÐ´ Ð½ÐµÐ¹
ĠÐ½ÐµÑĤ ÐµÑĢÐ¿
ÑĢ Ð¸ÑĨ
ĠÐŀ Ð¿
ÑĳÐ½ Ð½ÑĭÑħ
ĠÑħÑĢÐ°Ð½ Ð¸Ð»Ð¸
ĠÐ²Ð¾ÑģÑħ Ð¸Ñī
ÐµÑĤ ÐµÐ¹
ĠÑħ ÑĢÐµÐ±
Ð»ÐµÐ½ Ð½ÑĥÑİ
ĠÐĽ Ñĥ
ĠÐ¿Ð¾ÑģÑĤ Ð°ÑĢ
ÐµÐ»Ð¾Ð²ÐµÑĩ ÐµÑģÐº
Ñı ÐµÑĤÑģÑı
ĠÑĤ ÑĢÐ°Ð²
ĠÐ¡ ÑĥÐ´
Ðļ Ð°ÑĢ
ĠÐ¼Ñĭ ÑģÐ»
ĠÐ½Ð¾Ð² Ð¾Ð¹
ĠÐ±ÑĢÐ¾Ñģ Ð¸Ð»Ð¸ÑģÑĮ
ĠÑĤÑĢÑĥÐ´ Ð½Ð¾
ĠÐŀÑģÑĤ Ð°Ð»ÑĮÐ½ÑĭÐµ
ĠÐ² Ð³
ĠÑĩ ÐµÑģÑĤÐ¸
ÑĦ Ðµ
Ð¾ÑĪ Ñĥ
) .
ĠÑĢÐ°Ð· Ð½ÐµÑģ
Ð¸ÑĢÐ¾Ð²Ð°Ð½ Ñĭ
ĠÐ¿Ð¾ÑģÐ¼Ð¾ÑĤ ÑĢÐµÑĤÑĮ
ĠÐĶÑĢÑĥÐ³ Ð¸Ðµ
Ð½Ð¾ Ñĩ
ĠÑĩ ÑĢÐµÐ·
Ð°Ð½ÑĤ Ð°
ÐĿ Ð°Ð¼
ĠÑĦ Ð»Ð°Ð½
ĠÑĦ ÑĥÐ½Ðº
ĠÐ¸Ð¼ ÐµÐ»Ð¸
ĠÐ²Ð¾Ð¸Ð½ Ð°Ð¼Ð¸
Ð¥ Ð¾ÑĢ
ĠÐ¿ÑĢÐ¸Ð³ Ð»ÑĥÑĪ
ĠÑĥÐ²Ð¸Ð´ ÐµÐ²
ÐµÑĢ Ð°Ð¼Ð¸
ÐµÐ´ Ð¾Ð¼
Ð¾ÑĤ Ð²
ĠÑĢÐ°Ð· ÑĬ
ĠÐ¿Ð¾Ð½ ÐµÑģ
ÐĽ Ð¾ÑĢÐ´
ĠÑĤÐ²Ð°ÑĢ ÐµÐ¹
ĠÐļ ÐµÐ¹
ĠÐŁ ÑĢÐ¾Ñģ
ĠÐ²Ð· Ð²
Ð°Ð²ÑĪ Ð°Ñı
ĠÑĢÐ°ÑģÑģ ÑĭÐ¿
ĠÐ½ÐµÐº Ð¾Ð³Ð´Ð°
ĠÑĩÑĥÐ²ÑģÑĤÐ² ÑĥÑİ
ĠÐ¿Ð¾ ÑıÑģ
Ðŀ Ñĩ
ĠÐĴÑĭ Ñģ
ÑıÑĤ Ð¾Ð¹
ĠÑĢÐ°Ð·Ð¼ÐµÑĢ Ð¾Ð¼
ĠÐº Ð°Ð·Ð°Ð»Ð°ÑģÑĮ
Ð± ÐµÐ»
ĠÐĺ ÑģÑĤÐ²Ð°
ĠÐ¾Ð³ Ð»ÑıÐ´
ĠÐ¼ÐµÑģÑĤ Ð°Ñħ
ĠÐ²Ð·ÑĢÑĭÐ² Ð¾Ð²
ĠÑĤÐ¾Ð²Ð°ÑĢÐ¸Ñī ÐµÐ¹
ĠÐ²ÑĭÑĤÐ°Ñī Ð¸Ð»
Ð° ÑĪÐµ
Ð¸Ð½ Ð¾Ð¼
ĠÑį Ð²
ĠÐ¿Ð¾Ð» Ð½ÑĭÐ¹
Ðľ Ð°Ð»
ÐĲ Ð´
Ð°ÑĨ Ð¸Ð¹
ĠÐŁÐ¾ ÑħÐ¾Ð´
ĠÐ¿Ð¾ÑĪ Ð°ÑĤ
u l
ĠÑĪ ÑĤÐ¾ÑĢÐ¼
ĠÐ¿Ð¾Ñģ ÐµÐ»
Ð½Ð¸ ÐµÐ¼
ĠÐ´ÐµÑģÑıÑĤ Ð¸Ð»ÐµÑĤ
Ð°Ð´ÑĨÐ°ÑĤ Ð¸
ĠÐ½Ð°Ð¼ÐµÑĢ ÐµÐ²
ĠÐ´ Ð¸
Ð°Ð´ Ð´Ðµ
ĠÐ½ÐµÐ¿ ÑĢÐ°Ð²
Ð°ÐµÐ¼ Ð¾Ð¹
ĠÐ² Ð°ÑĢÐ¸
Ð´ Ð¾Ð¹
Ð½Ñĥ ÑģÐ°
ĠÑĤÐ¾Ð»Ð¿ Ñĥ
Ð¾Ð· Ð°Ð´Ð¸
ÑĦ Ð¾Ð½
Ð¸ÑĤÐµÐ»Ñı Ð¼Ð¸
Ðº Ð°Ð»Ð¸
ĠÐļ Ð°Ð¿
Ð¸ÑĢ Ð°Ð»
ĠÑħ Ð¸ÑĢÑĥÑĢÐ³
ĠÐ´ÑĢÐµÐ² Ð½Ð¸Ñħ
ĠÐ¿Ð¾Ð¼ÐµÑī ÐµÐ½Ð¸Ñı
ĠÐ¿ÑĢ ÐµÐ±
ĠÐ¾ÑĤ ÑħÐ¾Ð´
ĠÐ¸Ð· Ð¼
ÐµÑĩ Ð¸
ĠÐ½Ð°ÑĪ Ð°
ĠÐ¢ÐµÑĢ ÑĢÐµ
ĠÐ½ÐµÐ½Ð°Ð²Ð¸ÑģÑĤ Ð¸
ĠÐ» Ð¾Ð¼
ĠÐ¡ ÑĤÐ¾
ĠÑģÐ¿ Ð¾ÑĢ
Ð¸ÑĪÑĮ ÑģÑı
ĠÐ½Ð¾Ð³ Ñĥ
Ð» ÑĭÑĪ
ĠÐ² Ð¾ÑĢÐ¾Ð½
ĠÐ²ÑħÐ¾Ð´ Ð°
ĠÑģÐ¸ÑĤÑĥ Ð°ÑĨÐ¸Ð¸
ĠÑĤ ÑĥÐ¿
ĠÐĳ Ð°Ð´
ĠÐ´Ð¾ÑģÑĤ Ð°ÑĤÐ¾Ñĩ
ĠÐ±ÑĢÐ°ÑĤÑĮ ÑıÐ¼Ð¸
ĠÐ¿Ð¾Ð±ÐµÐ´ Ñĥ
ĠÑĪÑĤÑĥÑĢÐ¼ Ð¾Ð²
Ð¾Ðº Ñĥ
Ð¾Ðº ÑĥÑģ
ĠÑĢ ÑĤÐ°
ĠÐ¾Ð± ÑīÐµ
ĠÑģÑĤ Ð°Ð½Ð´Ð°ÑĢÑĤ
Ð°ÑİÑī ÐµÐ¼Ñĥ
ĠÐ½Ð°Ð´ ÐµÑı
ĠÐ¾ÑģÑĤÐ°Ð»ÑĮ Ð½ÑĭÐ¼
ĠÐ¸ÑģÑĩÐµÐ· Ð»Ð¸
ĠÐ» Ð¸ÑģÑĤ
ĠÐ³Ð¾Ð» Ð¾Ð»Ð¸ÑĤ
Ð»Ð°Ð´ Ñĭ
ĠÑĥÐºÑĢÑĭÑĤ Ð¸Ðµ
l d
ĠÐ¡ Ð¾Ð»Ð½
Ð°ÑģÑĤ Ñĭ
ĠÐĺÐ¼Ð¿ÐµÑĢÐ°ÑĤÐ¾ÑĢ Ð¾Ð¼
ĠÐ²ÑĭÐ¶ Ð¸ÑĤÑĮ
ĠÐ¸Ð¼Ð¿ÐµÑĢ ÑģÐºÐ¸Ñħ
ĠÑģÐ¸Ð»Ñĥ ÑįÑĤ
ĠÐĴ ÐµÐ»
ĠÑģÐ¼ÐµÑĢÑĤÑĮ Ñİ
ĠÐºÑĥÐ»Ð°Ðº Ð¾Ð¼
ĠÐ¿ÑĢÐ¸ÑģÑĤ Ð°Ð»ÑĮÐ½Ð¾
ÐŀÐ´ Ð½Ð°ÐºÐ¾
ĠÐ½Ð°Ñģ Ð»ÐµÐ´
ĠÐ·Ð°Ð¿Ñı ÑģÑĤÑĮ
ĠÑĥ ÑıÐ·Ð²
ÐŁ ÐµÑĢÐµÐ´
ĠÐºÐ¾Ð½ÑĤ ÐµÐ¹Ð½
ĠÑģÐµÑĢÐµÐ± ÑĢÐ¸ÑģÑĤ
ĠÐ²ÐµÐ»Ð¸Ñĩ ÐµÑģÑĤÐ²ÐµÐ½
? !
ĠÐº Ð¾Ð¶Ðµ
ĠÐ´ ÑĢÑĥÐ¶
ĠÐ¾Ð³ÑĢÐ¾Ð¼ Ð½Ð¾Ðµ
ĠÐ¾ÑģÑĤÐ°Ð½ ÐµÑĤÑģÑı
ĠÐ»ÐµÑģÑĤ Ð½Ð¸ÑĨÐµ
Ðº Ð¾Ð»ÑĮÐ·
ĠÑģÐ» Ñİ
ĠÐł Ð°Ð²
ĠÑĤÑıÐ¶ÐµÐ» ÑĭÑħ
ĠÐ²Ð¾Ð² ÑģÐµ
ÑģÐº Ð¾ÑĢÐµ
ĠÑĢÐ°ÑģÐº Ð¾Ð»
ĠÐ´Ð»Ð¸Ð½ Ð½ÑĭÐµ
ĠÑĥÑģÐ¸Ð» Ð¸Ñı
ĠÑģÑĥÐ´ÑĮ Ð±Ð°
ĠÐĳÑĭ Ð»Ð¾
ĠÐļÑĢÐ¾Ð² ÑĮ
Ð½ Ð°Ð¼
Ð°Ð¹ ÑĤÐµÑģÑĮ
ÑĥÑĢ Ðµ
ĠÑģÑĤÐ°ÑĢ ÑĭÐ¹
ÑĤÑĥ Ð´Ð°
ĠÐĿÐµÑģÑĥÑī Ð¸Ðµ
ĠÐ¾Ð¿ÐµÑĢ Ð°ÑĨÐ¸Ð¸
ĠÑģ ÐµÐ»
ĠÐŁ Ð¾Ðº
ĠÐ³Ð¾ ÑģÑĤ
ĠÑģÐ²Ð¾ Ñĳ
Ð²ÐµÑĢ Ð½
Ð°Ð²ÑĪ ÐµÐ³Ð¾ÑģÑı
ĠÑĥÐ»ÑĭÐ± ÐºÐ¾Ð¹
ĠÐ¿Ð°Ð½ ÑĨÐ¸ÑĢ
ĠÐ¾Ð± ÑĢÑĭÐ²
ĠÑĢÐ°Ð· Ð½Ð¾
ĠÐ¼Ð¾Ñī Ð¸
ĠÐºÐ¾ÑĢÐ¸Ð´ Ð¾ÑĢÐ°
ĠÐļÑĢÐ¾Ð²Ð°Ð² ÑĭÐµ
ĠÐ·Ð°Ð´ÑĥÐ¼ Ð°Ð»ÑģÑı
ĠÐ¾ÑĤÐ½Ð¾Ñģ Ð¸ÑĤÐµÐ»ÑĮÐ½Ð¾
ÑĤ Ð°Ð½
ĠÐľ Ð¾Ð½
ĠÑĤÐ°Ð½ Ðº
ĠÐ» Ð¸Ðº
ĠÐ¿Ð¾Ð» Ð·
ĠÐ´Ð² Ð¸Ð½ÑĥÐ»ÑģÑı
ĠÑĤÐµÐ» Ð¾Ð¼
ĠÐ½ÐµÐ¸Ð· Ð±ÐµÐ¶
ĠÐ·Ð»Ð¾Ð² ÐµÑī
ĠÐĿ Ð°Ñģ
ĠÐŁÑĢ Ð¸Ð½
ĠÑĤ Ñİ
ĠÑĥÐ± Ð»ÑİÐ´
ĠÐ½Ð°ÑĪ Ð¸Ð¼
ĠÐ¤ Ð»Ð¾ÑĤ
ĠÐ¿ÑĢÐ¸ÑĪ Ð»Ð¾
ĠÐ³Ð¾ÑĢÐ¸Ð· Ð¾Ð½
Ð¾Ð» Ð¾Ñħ
ĠÐ¿Ð¾Ð² ÑģÑİÐ´Ñĥ
ĠÐ·Ð°Ð± Ð¾ÑĤ
ĠÐ²Ð°ÑĢÐ¿ Ðµ
ĠÐłÑĥÑģ Ñģ
ĠÐ½ÐµÑĥÐº Ð»Ñİ
ĠÐ¾Ðº Ð½Ð°
ĠÐ§ÐµÐ² Ð°Ðº
ĠÐ¿Ð¾Ð²ÐµÑĢ Ð½ÑĥÐ»
ĠÐ¿ÐµÑĢÐ² ÑĭÑħ
ĠÐ½ Ð°Ð³Ð¾
ĠÐ¡ ÑĤÑĢ
Ð°ÑĤÐµÐ»ÑĮ Ð½ÑĭÐµ
ĠÐºÐ°Ð¼ Ð½Ð¸
ĠÐ·Ð°Ð³ Ð»ÑĥÑĪ
ĠÐ²ÑĭÑģÑĤÑĢ ÐµÐ»Ð°
ÐµÑĢ Ð·
Ð°ÑĪ Ð¸Ð½Ñĭ
ÐµÐ¿ÑĤ Ð¸Ð¼
ĠÑĤÐ¾Ð»Ð¿ Ñĭ
ĠÐķÐ´ Ð¸Ð½ÑģÑĤÐ²ÐµÐ½
Ġ v
ĠÐ´ÑĢÑĥÐ³ Ñĥ
ĠÐ¿Ð¾Ñĩ ÐµÑĢ
ÐĹ Ð´ÐµÑģÑĮ
ĠÐ±Ð¾Ð»ÑĮÑĪ Ð¸Ð½
ĠÑĤÐ¾ÑĢ Ñĩ
ĠÑģÐºÑĢÑĭ ÑĤÑĮ
ĠÐ²Ð¾Ð·Ð´ ÐµÐ¹ÑģÑĤÐ²
ĠÑĢ Ð¾Ð¶Ð´
ĠÐ¿Ð¾Ð² ÐµÐ·
ĠÐ§ ÑĤÐ¾Ð±Ñĭ
ĠÑģÐ¾ÑĤ ÑĢÑıÑģ
ĠÐ´Ð²Ð¸Ð¶ ÐµÐ½Ð¸ÐµÐ¼
ĠÐ·Ð°ÑģÑĤÐ°Ð² Ð¸ÑĤÑĮ
ĠÐ² Ð½Ðµ
ĠÑħ Ð¸Ð¼
ĠÐ¿Ð¾Ðº Ð¸Ð´
ĠÐĽ ÐµÐ¼
ÐµÐ½ÑĮ ÑĪ
ĠÐŁÑĢ Ð¾ÑģÑĤÐ¾
ĠÑģÐ¼Ð¾Ð³ Ñĥ
ĠÐ´ÐµÑĢÐ¶ Ð°ÑĤÑĮ
ĠÐ¿Ð¾ÑĤÐ¾Ðº Ð¸
ĠÐ½ Ð¾ÑĢÐ¼
Ð¾Ð² Ð°Ð»Ð°
ĠÐ¿Ð¾Ð¼ Ð½Ð¸Ð»
ĠÐ¨ ÑĢÐ°Ð¼
ĠÐºÐ»Ð¸Ð½ ÐºÐ¸
Ð» Ð°Ðº
ĠÑĢ ÑıÐ´Ð°
ĠÐ¾Ð± ÑĢÐµÑĩ
ĠÐ° ÑģÑģ
ĠÐ¡ ÐµÐ¼
ĠÐŁ Ð°Ð»
ĠÐ±ÑĢÐ¾Ð½ ÐµÑĤ
ĠÑģÐµÐº ÑĤÐ¾ÑĢ
ĠÐ¼ ÑĥÑģ
ĠÐĲ Ð·
ĠÐ¾ÑĤÐº Ð°Ð·
ĠÑģÑĤÐ°ÑĢ Ð°Ð»ÑģÑı
ĠÐŁÐ¾ ÑįÑĤÐ¾Ð¼Ñĥ
Ð¼Ð°ÑĤ ÑĢÐ¸Ð²
ÑĳÑĤ ÑģÑı
ĠÐ¸Ð¼Ð¿ ÑĥÐ»ÑĮÑģ
Ð´Ð° ÐµÑĤÑģÑı
Ð¸ÑĤÐµÐ»ÑĮ Ð½Ð¾ÑģÑĤÐ¸
ĠÐ¿Ð¾Ð¼ Ð½
ĠÐºÑĢÐµÐ¿ ÐºÐ¾
ĠÑĤÐµÑħÐ½ Ð¾Ð´ÐµÑģÐ°Ð½ÑĤÐ½Ð¸Ðº
ĠÐ½ÐµÐ¾Ð±ÑħÐ¾Ð´Ð¸Ð¼ Ð¾ÑģÑĤÐ¸
Ñĭ Ñī
ĠÐ¿Ð¾Ðº Ð¸Ð½ÑĥÐ»
ĠÐ»Ð°Ð· Ð³Ð°Ð½
Ðĸ ÐµÐ»ÐµÐ·
ĠÐºÑĥÑģ Ð¾Ðº
ĠÐ» Ð°Ð²
ÑĭÐ² Ð°ÐµÑĤÑģÑı
ĠÐ¸Ð·Ð± ÐµÐ¶Ð°ÑĤÑĮ
ĠÐ´Ð¸Ñģ ÑĨÐ¸Ð¿
ĠÑģÐ¼ ÑĥÑĤ
Ðł ÐĲ
Ð»Ð°Ð½ ÐµÑĤ
ĠÐļ Ð°ÑģÑģ
Ð°Ð»ÑĮ ÑĨÐ°
Ð¾Ñĩ Ð½ÑĭÑħ
ÑģÑĤÐ¾Ñı Ð½Ð¸Ðµ
ĠÐ»Ð°Ð´Ð¾Ð½ Ð¸
Ð° ÑĢÐ°Ð¿
Ð°ÑĢ ÑĮ
Ð°ÑĢ Ð¸Ð¸
Ð¾Ñĩ Ð½ÑĭÐµ
ĠÐ¿ÑĢÐµÐ´ Ð¼ÐµÑĤ
Ðļ Ð¾Ð¼Ð°Ð½Ð´
ÑĪÐ¸Ð¹ ÑģÑı
ĠÐļÐ°Ð» Ð¸Ð±
Ð°Ð½ÑĤ Ñĭ
ĠÑģÑĤÐ¾ Ð»ÐµÑĤ
Ð¸ÑĢÐ¾Ð²Ð°Ð½ Ð½Ð¾Ð¹
ĠÐ³ÑĢÑıÐ· Ð¸
ĠÑįÐºÑģÐ¿ ÐµÐ´
ĠÑĤÐ¾ÑĪ Ð½Ð¾
t er
ĠÐ´ Ð¸ÑģÑĤÐ°Ð½
ĠÑģÐ² ÐµÐ´
ĠÐ¢ Ð¾Ð½
ĠÐ¿Ð¾ÑĤÑı Ð½ÑĥÐ»ÑģÑı
Ð» ÑĭÐ¼
âĢĿ .
ĠÑĤÐ° Ñĥ
ĠÐ°Ð» ÑĤÐ°ÑĢ
ĠÑģÑĤÐµÐ¿ ÐµÐ½Ð¸
ĠÐ² Ð½ÑĥÑĪ
ÑĤÐ¾ Ð½Ð°
ĠÐŃ Ð¹
ÐµÐ»Ñı Ð¼Ð¸
ĠÑĤÐ² Ð¾Ñı
ĠÐ·Ð½Ð° ÐµÐ¼
ĠÐĽÑİ Ð´Ð¸
ĠÐ¸Ð·Ð± ÑĢÐ°Ð½
ĠÑĢÐµÐ°Ð»ÑĮ Ð½Ð¾ÑģÑĤÐ¸
Ñģ ÐµÑĢÐ¶Ð°Ð½ÑĤ
ĠÐ½ ÐµÑĢÐ¾Ð²
ĠÐ¾Ð± ÑĪÐ¸ÑĢ
Ñĳ Ð²
ĠÐĶ Ð²Ð°
ĠÐ²Ð¾Ð· ÑĢÐ°ÑģÑĤ
Ð¸Ð²ÑĪ ÐµÐ¹ÑģÑı
ĠÐ²Ð¾Ð» Ð½Ñĥ
ĠÐĴÐµÑĢ Ñħ
ĠÐ½Ð°Ñģ ÐµÐºÐ¾Ð¼
ĠÐ¾ÑĤÐº Ð°Ð·ÑĭÐ²
ĠÑĤÐµÐ¼ Ð½ÑĭÑħ
ĠÑģÐ¿Ð¾ÑģÐ¾Ð± Ð½Ð¾ÑģÑĤÐ¸
ĠÐĲÐ¿ Ð¾ÑģÑĤ
ĠÑĤÑĢ ÐµÑĤ
ĠÑĢÐ°ÑģÑģ Ð²ÐµÑĤ
ĠÐ¶ÐµÑģÑĤ Ð¾Ð¼
ĠÐ²ÑĭÐ´ Ð¾ÑħÐ½ÑĥÐ»
a m
ĠÐ± ÐµÑĪ
ĠÐĶ ÑĢÐµÐ¹
ĠÐºÐ¾ÑģÐ¼Ð¾Ð´ÐµÑģÐ°Ð½ÑĤÐ½Ð¸Ðº Ð°
ÑĤ Ð¸Ð¼
Ñģ Ð¾ÑĤ
Ð¾ÑĢ Ñī
ĠÐ²Ñĭ ÑıÑģÐ½
ĠÐĶ ÐµÐ¼Ð¾Ð½
ĠÐĵ Ð°Ð»
ĠÐ¿Ð¾ÐºÐ¸Ð½Ñĥ ÑĤÑĮ
ĠÑĢÑĥÐºÐ¾ ÑıÑĤÑĮ
ĠÐ¿ Ð¸ÑĢ
ĠÐº Ð¾Ð±
Ð°ÑĤ ÑĭÐµ
ĠÐ¾Ð± Ð¾ÑĢÐ²
ĠÐļ Ð°Ñģ
ÐµÐ³ Ð¼ÐµÐ½ÑĤ
ĠÑĢÑĥ Ð¶
ĠÐ¿ÑĢÐ¾ÑĤ ÑıÐ¶ÐµÐ½Ð¸Ð¸
ĠÐ½ÐµÐ² Ñĭ
ĠÐ¼Ð¸Ð½ÑĥÑĤ Ñĥ
ĠÑĤÑĮ Ð¼Ñĭ
Ð¼Ð± ÐµÑĢÐ»Ð¸
ĠÐ²Ñĭ Ð¸Ð³
ĠÐ²Ð· Ð±
ĠÐ¿ÑĢÐµÐ´ ÑģÑĤÐ¾Ñı
Ð¥ Ð¸Ð¼
ĠÑĢÐ°Ð·ÑĥÐ¼ Ðµ
ĠÐŀÐ³ ÑĢÐ¾Ð¼
ĠÐ²ÑĭÐ½Ñĥ Ð¶
ĠÐ°Ð±ÑģÐ¾Ð»ÑİÑĤ Ð½Ð¾
ĠÐº Ð¸ÑĪ
ĠÐ· Ð°Ð¹
ĠÐµ ÑģÑĤÐµÑģÑĤÐ²ÐµÐ½
Ð¾Ñĩ Ð½Ð¾Ð¹
ĠÐ½Ð°Ð² Ð¸Ñģ
ÑĤÐ¾Ð» Ðº
ĠÐĽÐµÐ³ Ð¸Ð¾
Ðľ Ð¾Ð¶ÐµÑĤ
ĠÐ¾ÑģÑĤÐ°Ð² Ð¸Ð»Ð¸
ĠÑģÐ»ÑĥÐ¶ Ð¸ÑĤÑĮ
ĠÑģÑĥÐ´ Ñı
ĠÑĢÐ°Ð·Ð³ Ð¾Ð²Ð°ÑĢ
ĠÑģÐµÑĢÐ²Ð¸ÑĤÐ¾ÑĢ Ñĭ
ĠÑĩÐ¸Ñģ Ð»ÐµÐ½
ĠÐ²Ñĭ Ð¹ÑĤÐ¸
ÐµÐº ÑĤÐ°
ÑĢÐ¾Ð½ Ð¾Ð²
ÑİÑī Ð¸Ñħ
ĠÐ¶ÐµÐ» Ð°Ñı
ĠÐ¿Ð¾Ð´Ð¾Ð± Ð½Ð¾Ðµ
Ġo n
ĠÐĵÐ²Ð°ÑĢÐ´ Ð¸Ñı
ĠÑħÐ¾Ð´ Ñĥ
ĠÐ¿ÑĢÐµÐ´Ð¿Ð¾Ñĩ Ð¸ÑĤ
ĠÐ³ÑĢÐ°Ð² Ð¸ÑĤ
ĠÑĢ ÐµÑģ
ĠÐ¿Ð¾Ðº Ð¾Ð»
ĠÐ¼Ð¸Ð½ Ð¸Ð¼
ĠÑģÐ¼ÐµÑĢÑĤ Ð½ÑĭÑħ
ĠÐ¿ÑĢ Ð¾Ð²Ð¾ÑĢ
Ð¾Ð» Ñİ
ĠÐ²Ñĭ ÑģÐ»
ĠÐ¿Ð¾Ðº ÑĢÐ¾Ð²
ÑĤÑĥ ÑĢÑĭ
Ðľ Ð°ÑĢ
ĠÐ¿Ð»Ð°Ð½ ÑĪ
ĠÑģÐ¼Ð¾ÑĤÑĢ Ð¸ÑĤ
ĠÐ¿Ð¾Ð´Ð± Ð¾ÑĢÐ¾Ð´
ĠÐ²Ð¾ÑģÐº Ð»Ð¸ÐºÐ½ÑĥÐ»
ĠÐ¿ Ð°ÑģÑģ
ĠÑĢÐ°Ð· Ð»ÐµÑĤÐµÐ»
Ð¾ÑĢÐ´ Ð¸Ð½
ĠÐĴÐ¾Ð» ÐºÐ°
ĠÑĩÑĥÐ´Ð¾Ð²Ð¸Ñī Ð°
ĠÐ¾Ð±Ð»Ð°Ð´ Ð°Ð»
ĠÐ¾Ð¿ÑĢÐµÐ´ÐµÐ» Ð¸ÑĤÑĮ
ĠÐ¿Ð»Ð°ÑĤÑĦÐ¾ÑĢÐ¼ Ñĭ
Ð» Ð¾Ð¹
ĠÐ¿ÐµÑĢ Ðµ
Ð°Ð¹ Ð¾ÑĢ
ĠÐ¿Ð¾ÑģÐ»ÐµÐ´ Ð½Ð¸Ð¼
ĠÑıÑĢ Ð¾ÑģÑĤÑĮÑİ
ĠÐ³ÑĢ Ð¾Ð±
ĠÐ´ÐµÑģÑı ÑĤÐ¸
ĠÑģÑĤÑĢÐ°Ð½ Ð½Ð¾
ĠÑģÐ¾Ð¼Ð½ ÐµÐ½Ð¸Ð¹
ĠÐºÑĢÐ¸ÑģÑĤ Ð°Ð»
ĠÑģ ÐµÑĤ
ĠÐ¿ÑĢ ÑıÑĤ
ÑĨ Ð¸ÐµÐ¹
ĠÑģÐ¼ Ðµ
ĠÐ½ÐµÐ¿ Ð¾Ñģ
ĠÐ¸ÑģÐº ÑĢÐµÐ½
ĠÐ±Ð¸ÑĤ Ð²Ð°
ĠÐºÐ¾Ð¼Ð°Ð½ Ð´Ñĥ
ĠÐĴÐ¾Ð»Ñĩ ÑĮ
Ð»ÐµÐ½ Ð¾
ĠÐ¿ÑĢÐ¸Ð± ÑĭÐ»Ð¸
ĠÑģÑĤÐ¾ÑĢÐ¾Ð½ Ð°Ð¼
ÐŁÑĢ Ð¸Ð¼Ð°ÑĢÑħ
ĠÑģÐ¾Ð±ÑģÑĤÐ²ÐµÐ½ Ð½ÑĭÑħ
ĠÐļ Ð¾ÑĢÐ²
Ð°Ð³ ÐµÐ´
ĠÐŃ Ð»ÑĮ
ĠÐ¿Ð¾Ð´ÑĢÐ°Ð·Ð´ÐµÐ» ÐµÐ½Ð¸Ñı
ĠÐ¸Ð· Ð»ÑĥÑĩ
Ð»Ñı Ð»Ð°
ĠÑģÐ¾Ð±ÑĭÑĤ Ð¸Ð¹
ĠÐºÐ¸Ñģ Ð»Ð¾ÑĤ
ĠÑģ Ð½Ð¸Ð¼
ĠÐºÑĢ ÑİÑĩ
ĠÐ¾ÑģÑĤ Ð°Ð»Ð°ÑģÑĮ
Ð¸ÑĢÐ¾Ð²Ð°Ð½ Ð½Ð¾Ð³Ð¾
ĠÐ¿Ð¸ÑģÑĤÐ¾Ð»ÐµÑĤ Ð°
ĠÐ¿Ð¾Ð» ÑĥÐ¼
ĠÐ¿Ð¾Ñģ Ð»ÑĥÑĪ
Ð¾ÑĪ ÐµÐ»
ĠÐłÐ°Ð· Ð²Ðµ
ĠÐ°Ð² ÑĤ
ĠÐ² ÐµÐ½
Ð°ÑĤ ÑĥÑģ
ĠÑģÐ°Ð¼ Ð¾Ð»ÐµÑĤ
ĠÐºÐ°Ð¶Ð´ ÑĥÑİ
ĠÐ¶Ð´ Ð°Ð»Ð¸
Ġ A
ĠÐļ Ð²
ĠÐļ Ð°Ñį
ĠÑģÑĢÐ°Ð¶ ÐµÐ½Ð¸Ðµ
ĠÐ³Ð»ÑĥÐ± Ð¸Ð½Ðµ
ĠÐ¼ÐµÑĤÐ°Ð»Ð»Ð¸ÑĩÐµÑģÐº Ð¸Ðµ
ĠÑĩÐ»ÐµÐ½ Ð¾Ð²
ĠÐ² Ðµ
ĠÐļ Ð°Ð»ÑĮÐ¿ÑĥÑĢ
ĠÑģÐ¿ Ð¸Ñģ
ĠÐ¿ÑĢÐ¾ÑĤÐ¸Ð² Ð½Ð¸Ðº
ĠÐ¿ÑĢÐ¸Ñģ Ð»ÑĥÑĪ
ĠÐ¿Ð¾Ð´Ð¾Ð± Ð½Ð¾Ð³Ð¾
ĠÐ¾ÑģÑĤÐ°Ð½ ÐºÐ¸
Ð» ÑĭÐµ
ÑģÑĤ ÑģÑı
Ð¡ Ð¢
ĠÑĨ Ð°ÑĢÐ°Ð¿
ĠÐ±ÑĥÐ´ ÐµÑĪÑĮ
ĠÐ½ÐµÐ´Ð¾ÑģÑĤ Ð°ÑĤÐ¾ÑĩÐ½Ð¾
ĠÐŁÑĢÐ¸Ð· ÑĢÐ°Ðº
Ð¾ Ð¾Ð±ÑĢÐ°Ð·
ÑģÑĤÐ²ÐµÐ½ Ð½Ð¾Ð¹
ĠÑĥÐº Ð»Ð¾Ð½
ĠÐ¿ÑĢÐ¾Ð± Ð¸ÑĢ
ĠÑĥÑĩ ÐµÐ½
ĠÑĤÐ²Ð¾ ÐµÐ³Ð¾
ÐµÐ½ Ñħ
ĠÐ¼ ÑĢÐ°ÑĩÐ½Ð¾
ĠÐ´ÐµÐ» Ð°Ð»
ĠÑĤÐ² Ð¾Ðµ
ĠÐ¿Ð°Ð´ Ð°Ð»Ð¸
ĠÐ¼Ð¾ÑģÑĤ Ð¸Ðº
ĠÐ´Ð²Ð¾ÑĢ ÑĨÐ°
ĠÑģÐ¾Ð·Ð´ Ð°Ð½Ð¸Ñı
Ð¾ Ð¸Ñħ
ÐĲ Ð»
ĠÑĥÐ³ÑĢÐ¾Ð· Ñĥ
ĠÐ¶Ð´ ÐµÑĤ
ĠÐ¾ÑĤ ÑĭÑģÐº
ĠÐ¡ Ð¾Ð±
ĠÐ¾Ð±ÑĢÐ°ÑĤ Ð¸Ð»
ĠÐ¾Ð±Ð½Ð°ÑĢÑĥÐ¶ Ð¸Ð»Ð¸
Ð»ÑĥÑĩ ÑĪ
Ð¾ÑĤ ÐµÐ»
Ð¸Ð² Ð°Ð»Ð°ÑģÑĮ
ĠÐ¾Ð± Ð¾Ð»Ð¾Ñĩ
ĠÑĦ ÑĭÑĢ
ĠÐ¿Ð¾Ð² Ð¸Ñģ
Ð¸ÑĢÑĥ ÐµÑĤ
ĠÑįÐ½ÐµÑĢÐ³ Ð¸Ñİ
ĠÐ¿ÑģÐ°Ð¹Ðº ÐµÑĢ
ĠÐ²Ñĭ ÑĢÑĥÐ³
ĠÐ±ÑĢÐ¾Ð½ Ð·
ĠÐ²Ð°ÑĪ ÐµÐ³Ð¾
ĠÐ²ÑĭÑĢÐ² Ð°Ð»ÑģÑı
ĠÐ¤ÑĥÐ»Ð³ÑĢÐ¸Ð¼ Ð°
ĠÐ°Ðº ÐºÑĥ
ĠÐ² ÑģÑĤÑĢÐ¾
ĠÐ±ÑĢ Ð¾Ð²
ĠÑĢÑĥ Ð½
ĠÐĽ ÑĮ
ĠÐ£ ÑĢÐ¸
ĠÐ»ÑİÐ± Ð¾Ð¿ÑĭÑĤ
ĠÑĤÐ²Ð¾ Ð¸Ñħ
ĠÑģÐ¾Ð¾Ð±Ñī Ð¸Ð»
ÐµÑĢ ÐµÐ³
ĠÐ´ ÐµÑĢÐ³
ĠÐĲ ÐºÑģ
ĠÐ¿Ð¾Ð´Ð½Ñı ÑĤÑĮ
ĠÐ±ÐµÐ¶ Ð°Ð»Ð¸
ĠÐ½ÐµÐ½Ð°Ð² Ð¸Ð´
ĠÐ¿Ð¾Ð±ÐµÐ¶ Ð°Ð»
ÑĢ Ð¸Ð´
Ð» Ð°Ð³Ð¾
Ñı Ð½ÑĥÑĤ
ĠÐ¼ ÑıÑģÐ°
Ð¾Ð· ÑĮ
ĠÐŁ Ð¾Ð½
ĠÑĢÐ°ÑģÐ¿ Ð»Ð°Ð²
ĠÐ²ÑĢÐ°Ð³ Ð¾Ð¼
ĠÐ½ÐµÐ± Ð°
ĠÐ¾ÑĤÐ»Ð¸Ñĩ Ð¸Ðµ
ĠÑĥÐ³ÑĢÐ¾Ð· Ñĭ
ĠÐ¸ÑģÐºÐ»ÑİÑĩ ÐµÐ½Ð¸ÐµÐ¼
ĠÐ²Ð¾ÑĢ Ð¾ÑĤÐ°
ĠÑįÐ² Ð°ÐºÑĥ
Ñĭ Ð»Ð°
ĠÑģ ÑĢÐ°Ð±Ð¾ÑĤ
ĠÑĢ Ð¸ÑģÐº
ĠÐĶ Ð°Ð»
ĠÐ²Ð¾ ÑĪ
ĠÐºÐ¾ÑģÐ¼ Ð¸ÑĩÐµÑģÐºÐ¾Ð³Ð¾
ĠÐ¿ÑĢÐµÐ²ÑĢÐ°ÑĤ Ð¸Ð»Ð¸ÑģÑĮ
ĠÐ¾ÑĤÐ± ÑĢÐ¾ÑģÐ¸Ð»
Ð¾Ð´ Ðµ
Ð¸Ð² Ð°ÑİÑĤÑģÑı
Ð¸ÑģÑĤ Ð¾
ĠÐ¾Ñĩ Ð¸Ñī
ĠÐ²ÑģÑĤ Ð°ÑĤÑĮ
ĠÑģÑĤÐµÐº Ð»Ð°
ĠÐŁ Ð¾Ð¼
ÑĥÐ± Ð¸Ð¹
ĠÐ¿Ð¾Ð»ÑĥÑĩ Ð¸Ð»Ð¸
ĠÐ»ÐµÐ² Ð¾Ð¹
Ġ 3
Ġ H
ĠÐ¿ ÑĥÑģÐº
ĠÑģÐ»Ð¾Ð² Ð°Ñħ
ĠÐ·Ð´ Ð¾ÑĢÐ¾Ð²
ĠÑģÐ¾Ð±ÑģÑĤÐ²ÐµÐ½ Ð½Ð¾Ð³Ð¾
ĠÑĨÐµÐ» ÑĭÐµ
ĠÐºÐ¾ÑĢÐ¸Ð´ Ð¾ÑĢÑĥ
ÑĪ ÑĮ
ĠÐĿ Ð°ÐºÐ¾Ð½ÐµÑĨ
ÑıÑĤ ÐµÐ»ÑĮ
ĠÐ³Ð¾Ð²Ð¾ÑĢ ÑıÑĤ
ĠÐ¿ÑĢÐ¸Ð¼ Ð¸ÑĤÐ¸Ð²
ĠÐ²ÑĭÑģÐ°Ð´ ÐºÐ¸
ĠÑĥÐ³Ð¾Ð´ Ð½Ð¾
Ñħ Ð°ÑĢ
Ð¾Ð¶ Ð°
ĠÐ¿Ð» Ð¸ÑĤ
ĠÐĵ Ð°ÑĥÐ½ÑĤ
ĠÐ¿ÑĢÐµÐ´ Ð°Ð½
ĠÐ¾Ñģ Ð¾Ð·Ð½Ð°Ð²
ĠÐ²ÑĭÐ¿ ÑĥÑģÑĤÐ¸Ð»
ĠÐ°ÑĤÐ°Ðº Ð¾Ð²Ð°ÑĤÑĮ
ĠÑģÐ»ÑĭÑĪ Ð°ÑĤÑĮ
ĠÑĤÑıÐ¶ÐµÐ» ÑĭÐ¹
ĠÐ¿ÐµÑĢÐµÐ² ÐµÑĢ
ÑĥÐ»Ñı ÑĢ
ĠÐ¼ÑĥÐ¶Ñĩ Ð¸Ð½Ð°
Ð¸ÑĨ Ð¸Ð¾Ð½
ĠÑģÐ»ÑĥÐ¶ Ð±Ñĭ
ĠÐºÑĢÑĭ Ð»ÑĮÑı
ĠÐ¼Ð¾ÑģÑĤ Ð¸ÐºÐ°
ĠÐ¿ÑĢÐµÐ´ÐµÐ» Ð°Ð¼Ð¸
ĠÐ» Ð¾Ð±
ĠÐ¿Ð¾ÑĢ ÑĤ
ĠÐ¿Ð¾Ð²ÐµÑĢ Ð¸ÑĤÑĮ
ĠÑģÐ¾Ñģ ÐµÐ´
ĠÐŁÑĥÑģÑĤ ÑĮ
Ð¾Ð» Ð¾Ð½
ĠÑģÐ² Ð°Ð»
ÐĿ Ð°ÐºÐ¾Ð½ÐµÑĨ
Ð¢ Ð°Ð¼
ĠÑįÑħ Ð¾
ĠÐ¡ Ð»ÐµÐ´
ĠÐŃ Ð»Ð¸
Ð»Ñİ ÑĤ
ĠÑĩÐµÑĢ Ð½ÑĭÐ¹
ÐĶ Ð»Ñı
ĠÐ¿ÐµÑĢÐµÐ´ Ð°Ð²
ĠÑĤÐµÐ» Ñĥ
ĠÐĶ ÐµÑģÑı
ĠÐĹ Ð°Ð¿
ĠÐ½Ð¸Ñĩ ÐµÐ¼
Ġh im
Ð²ÑĭÑĢ Ð½ÑĥÐ»
Ð¸Ð´ÐµÑģÑı ÑĤÐ¸
Ñħ Ð¾
Ð± Ð¸
ĠÑĢÐ°Ð· ÑĢÐµÐ·
ÐµÐ³Ð¾ Ð½
ĠÐ½Ð°Ñģ Ð¼ÐµÑĪ
ĠÑıÐ·Ñĭ Ðº
ĠÐ°ÑĢÑħ Ð¸Ð²
ĠÑĩÐµÑĤÑĭÑĢ ÐµÑħ
Ñģ Ð¸Ð½
ĠÐ¿ÑĢ Ð¾Ð·
ĠÐ½Ðµ ÑĥÐ¼
Ð½Ñĥ Ñī
ĠÐľ Ð¾Ð¹
Ðŀ Ð³
ĠÐ²ÐµÑĢ Ð½ÑĥÐ»Ð¸ÑģÑĮ
ĠÐ½Ð°Ñģ ÑĩÐµÑĤ
Ð°ÑĢÐ¸ ÐµÐ²
ĠÐ¾ÑĤÑģÑĤÑĥÐ¿ Ð¸Ð»
ĠÐ¼ÐµÑĤÐ°Ð»Ð»Ð¸ÑĩÐµÑģÐº Ð¸Ð¹
ĠÐ¿Ð¾ÑģÐ» ÑĭÑĪ
ĠÐ·Ð°ÑĢÑıÐ´ Ñĭ
Ð§ÐµÑĢ ÐµÐ·
Ð³ Ð»Ð¸
ĠÐĿ Ð°Ð¿
ĠÐĿ ÐµÐ¹Ð»
Ð¸ÑģÑĤ ÑĭÐµ
ĠÐ¿Ð¾Ð¼ ÐµÑĪ
ĠÐ½ÑĥÐ¶ Ð½Ñĭ
ĠÐºÑĢÐµÐ¹Ñģ ÐµÑĢÐ°
ĠÑĢ ÐµÐ¼Ð¾Ð½
ĠÐŁ Ð¾Ñĩ
ĠÐ¾Ð· Ð°ÑĢ
Ð¸ ÑģÑı
Ð°Ð´ Ð½Ð¾
Ð¾Ð¿ Ð¾Ð´Ð¾Ð±
ĠÐºÐ¾ÑģÑĤ Ñı
ĠÐ¼ ÑĳÑĢÑĤ
ÐºÑĥ Ð»
ĠÑģÑĤÐµÐº Ð»ÑıÐ½
ĠÑĨÐµÐ¿ Ð¸
ĠÐ´Ð¾ÑĢÐ¾Ð³ Ð¸
ĠÐłÐ°ÑĦ ÐµÐ½Ð°
ĠÐ·Ð²ÐµÑĢ Ñı
Ñģ Ð¾Ð²
Ð¾ÑĪ Ð»Ð¸
Ðĳ ÐµÐ·
ĠÑĥÐ»ÑĭÐ± ÐºÐ°
ĠÐ²Ñĭ ÑģÑĤÑĢÐ¾
ĠÐ½Ð°Ñĩ Ð°ÑĤÑĮ
ÑĤÐµ ÑĦ
ĠÑĥÐ· Ð½Ð°
ĠÐĶÐ¶ Ð¾Ð½
es s
ĠÐ¿Ð°Ð¼ ÑıÑĤÑĮ
ÑĢÐ°Ñģ Ñģ
ĠÐ¼Ð³Ð½Ð¾Ð² ÐµÐ½Ð¸Ð¹
ĠÑģÐ¾ÑħÑĢÐ°Ð½ Ð¸ÑĤÑĮ
ĠÑģ ÐµÐ¹
ÐµÐ»ÑĮ Ðµ
ĠÐĶ Ð¾ÑĢÐ½Ð°
Ð¡ Ð»Ð¾Ð²
ĠÑĥÐ¼ Ð°
ĠÐ¿ÐµÑĢÐ² ÑĥÑİ
ĠÑģÑĤÐµÐ½ Ð°Ð¼Ð¸
ĠÐ½Ð°Ð¶ Ð°Ð»
ĠÐ²Ð·Ð´ÑĢÐ¾Ð³ Ð½ÑĥÐ»
ĠÐ¿ ÑĥÐ»ÑĮ
ĠÐ³ Ð»Ñı
ĠÑģÐ½ ÐµÐ³
u m
Ð°ÑĢ Ðµ
ÐµÐ² ÑĭÑħ
ĠÑģÐ² Ð¸ÑģÑĤ
ÑģÐ» ÑĥÐ¶
ÑİÑī Ð¸Ð¹
ĠÑĤÐ¾ÑĢ Ð¾Ð¿
ĠÐ¼Ð¾ÑģÑĤ Ð¸ÐºÐµ
ÐŁÐ¾Ñģ Ð»ÐµÐ´
ĠÐ½ÐµÐ½Ð°Ð²Ð¸ÑģÑĤ ÑĮ
ĠÐ¡ ÐµÐ²ÐµÑĢ
ĠÐ±ÑĥÐ´ ÑĥÑīÐµÐµ
ĠÐ¿Ð¾Ð¿ Ð°ÑģÑĤÑĮ
ĠÐ¸ÑģÐº Ð°Ð»
ĠÐ½Ð° ÑĨÐµÐ»
ĠÑĥ Ð»ÑĥÑĩÑĪ
Ð½Ð¾Ð² ÐµÑģ
ĠÐĽÑİ ÑĨÐ¸Ð¹
ĠÑģÐ¸Ð»Ñĥ Ñį
ĠÐ´ÐµÑĢÐµÐ² ÑıÐ½
ĠÐ¨ÑĤ ÐµÐ»ÑĮ
ĠÐ·Ð°ÑıÐ² Ð¸Ð»
Ðº Ð»ÐµÐ·
Ð°Ð½ Ð½
ĠÑģÑĤ Ñĭ
ĠÑħ ÑĢÐ°Ð±
Ð¾Ñĩ ÐºÐ°
ĠÑĢÐ°Ñģ ÑħÐ¾Ð´
ÑĢÐ¾Ñģ Ð¸Ð²
ĠÐºÐ°Ð¿ ÐµÐ»Ð»
ĠÐ½Ð¾Ð² ÑĥÑİ
ĠÐ¾Ð³ÑĢÐ¾Ð¼ Ð½ÑĭÐ¼
ĠÐ²ÑĤÐ¾ÑĢ Ð¾Ð³Ð¾
ĠÐ²ÑĭÐ³Ð»ÑıÐ´ ÐµÐ»Ð¸
Ð°ÑĢ ÑıÐ´
ĠÐ¸Ð· Ð½ÑĥÑĤÑĢÐ¸
ĠÐ¿Ð¾Ð½ ÑıÐ»Ð°
Ð¾Ð²Ð°Ð½ Ð½ÑĭÐµ
Ð¾Ð½ Ð°Ñħ
ĠÐ²Ñĭ ÑģÑĤÐ°Ð²
ĠÐĴ ÐµÐ½
ĠÐŁ ÑĢÐ°Ð²
Ð¼Ð¾ÑĤ ÑĢÐµÑĤÑĮ
ĠÐ¿ÑĢÐ¸Ñģ Ð¿
ĠÐ¼Ð½Ð¾Ð³Ð¾ Ðµ
ĠÐ¢ÐµÑĢ ÑĢÑĥ
ĠÐ¸ÑģÐ¿ÑĭÑĤ ÑĭÐ²Ð°Ð»
ĠÑĢ Ð¾Ð´Ð°
Ð¾ÑģÑĤ Ð°Ð²
ĠÐ°Ð¿Ð¾ÑĤÐµÐº Ð°ÑĢÐ¸Ð¹
ÐµÑĢ ÐµÐ½
ĠÐ¡ ÐŁÐŀ
ĠÐºÐ°Ð¿ Ð»Ð¸
ĠÐ§ÐµÑĢ ÐµÐ¿
ĠÐ²ÑĢÐ°Ð¶ÐµÑģÐº Ð¸Ñħ
ÐĿÐµÑģ Ð¼Ð¾ÑĤÑĢÑı
ĠÐ¼ Ð°Ñı
ĠÐ° Ð½Ð°Ð»
ĠÐ¥ Ð¾Ð»
ĠÐ·Ð°Ð¿ ÐµÑĩÐ°ÑĤ
ĠÐ¿ÐµÑĢÐµÐ´ Ð°Ñĩ
ĠÑįÐº Ñģ
ĠÐ¼Ð°Ð»ÑĮ ÑĩÐ¸Ðº
Ð¡ Ð¾
Ġa n
ĠÐ¿ÑĢÐ¾ÑģÑĤÑĢÐ°Ð½ ÑģÑĤÐ²Ð°
Ð² Ð¸
Ð°ÑĦ ÐµÐ½
ĠÑģÐ¿Ð¾ÑģÐ¾Ð± Ð½Ñĭ
ĠÐ±ÐµÐ·ÑĥÐ¼ Ð¸Ðµ
ĠÐ½Ð°Ð±Ð»ÑİÐ´ Ð°Ñı
ĠÐ¿Ð¾ÑĤÐ¾Ð» ÐºÐ°
ĠÑįÑģÐº Ð°Ð´
ĠÐ²Ñĭ ÑģÐºÐ¾Ñĩ
Ð¸ÑĨ Ð¸Ð½
ĠÐ¿Ð¾Ð¶ ÐµÐ»
ĠÐ±ÑĥÐºÐ² Ð°Ð»ÑĮÐ½Ð¾
ĠÐ§ÐµÐ»Ð¾Ð²ÐµÑĩ ÐµÑģÑĤÐ²Ð°
Ð¸Ð» Ð¸Ñı
Ð°ÑĤ ÑĢ
Ð¸ÑĢ Ð°ÑĤÑĮ
Ð½Ðµ ÑĨ
ĠÑģÑĤÐ¾ ÑıÑĤÑĮ
ĠÑĥÐ¼ ÐµÐ½ÑĮÑĪ
ĠÐŀÑĢ Ð´Ð¾
ĠÑĤÑĥÐ½Ð½ ÐµÐ»Ñı
ĠÐ¿Ð¾Ð²ÑĢÐµÐ¶Ð´ ÐµÐ½Ð¸Ñı
Ġ The
Ð¾Ð´ Ñı
ĠÐ¿Ð¾Ð» Ð½ÑĥÑİ
ĠÐ½Ð°Ð¿ÑĢÐ°Ð² Ð¸Ð»
ĠÐ°Ð´ ÐµÐ¿
ĠÐ²Ð¾Ð² ÑĢÐµÐ¼Ñı
ÑĢ Ð¾ÑĤ
ĠÐ¿ Ð°Ñħ
ĠÐļ Ð»Ñĭ
ĠÐ¡ Ð²ÐµÐ½
ĠÐ¾ÑģÑĤ Ð°ÐµÑĤÑģÑı
ĠÐĹ Ð°Ðº
ĠÐ²ÑĭÐ¿ ÑĥÑģÐº
ĠÑĢÐµÐ· ÐµÑĢÐ²
v e
ĠÐ· ÐµÐ»
ĠÐ¿ÑĢÐ¾ÑģÑĤÑĢÐ°Ð½ ÑģÑĤÐ²Ðµ
ÑĥÐ» Ðº
Ð°ÑĤÐµÐ»ÑĮ Ð½Ð¾Ð¹
Ð°ÑĤÐµÐ»ÑĮ Ð½ÑĭÐ¹
Ñĥ ÑĢÑĥ
ĠÐº Ð°ÑĤÐ°
ĠÐ³ ÐµÑĢÐ¾
ĠÐ¸Ð· Ð´Ð°Ð²
Ð¸Ñĩ ÑĮ
Ð°Ð¶ Ð½Ð¾
Ð¡ Ð²
ĠÑģÑĢÐ°Ð¶ ÐµÐ½Ð¸Ð¹
ĠÑĥÐ»Ð¸ ÑĨÑĭ
Ð°Ð»ÑĮ ÑĪÐµ
ÑĥÐ¶ Ð¶
ĠÐ²ÑĭÐ¿ ÑĢÑıÐ¼
ĠÐ²Ð¿ÐµÑĩÐ°ÑĤ Ð»ÐµÐ½Ð¸Ðµ
ĠÑĢÐµÑģ ÑĥÑĢ
Ð´ Ð¸Ð²
ÐµÑĢ Ð±
ĠÐ· ÐµÑĢÐº
ĠÑĢ Ð¾Ð·
ĠÑĢ ÐµÑĩÑĮ
Ð»Ñı ÑİÑĤ
ĠÐļ Ð°ÑĤ
Ð¸ÑĤÐµÐ»ÑĮ Ð½Ð¾ÑģÑĤÑĮ
ÑĥÑĢ Ð¾Ð´
ĠÐ¿ÑĢÐ°Ð² Ð¾
ĠÐļÐ¾ÑĢ Ð¿
ĠÐ½Ð°ÐºÐ»Ð¾Ð½ Ð¸Ð»ÑģÑı
ĠÑģ Ð¾ÑĢ
ĠÐ± Ð°Ð½
ĠÐ¼ Ñĩ
ÐµÑģÑĤ Ð¸Ð²
Ðķ ÐĿ
ĠÐ³Ð»ÑĥÐ± Ð¶Ðµ
ĠÐ¿Ð¾Ð»Ð°Ð³ Ð°Ñİ
ĠÐ½Ð°Ð´ÐµÐ¶ Ð´Ñĭ
ĠÐĴÐ¾Ð· Ð´ÑĥÑħ
ĠÐ¸ Ñī
ĠÐº Ð°ÑĪ
ĠÐ±ÑĥÐ´ ÑĮ
ĠÑģÐ´ÐµÐ» Ð°Ð»Ð°
ĠÐ¿ÑĢÐ¸Ð½ ÑĨÐµÐ¿Ñģ
ĠÑĤÐ¾ÑĢ Ð¶Ðµ
ĠÐ¿Ð° ÑĥÑĤ
gh t
ĠÑħ ÑĢÑĥÐ¿
Ð°Ð½ÑĤ Ð¾Ð²
ĠÐ½Ð°Ð¿ Ð¸Ñģ
ĠÐ·Ð´ Ð°Ð½Ð¸Ðµ
ĠÐºÐ°Ð¶Ð´ Ð°Ñı
Ð°ÐµÐ¼ Ð¾Ð³Ð¾
ĠÐ½ÐµÐ· Ð½Ð°ÐºÐ¾Ð¼
ĠÐ¿Ð¾ÑĢÑıÐ´ Ð¾Ðº
ĠÑģÑĤÑĥÐ¿ ÐµÐ½
Ñĳ Ð³
ĠÐ·Ð°ÑīÐ¸ÑĤ Ð¸ÑĤÑĮ
ĠÐ¿ Ð°ÑģÑĤÑĮ
Ð¸Ð» Ð»Ð¸
ĠÐĵ Ð°Ð±
ĠÐ¥ ÐµÐ½
ÑıÑī Ð¸ÑħÑģÑı
ĠÑģÑĢÐ°Ð²Ð½ ÐµÐ½Ð¸Ñİ
ÐĺÐ½ ÐºÐ²Ð¸Ð·Ð¸ÑĤÐ¾ÑĢ
ÑĤ ÐµÐ»
ĠÐ¿ Ð¾Ð»ÑĮÐ·Ð¾Ð²
ĠÐ² ÑĢÐµÐ´
ĠÑĤÑĢ Ð¾ÑĦ
ĠÑĩÐµÑĢ Ð½ÑĭÑħ
ĠÐ´ÑĢ Ð¾Ð±
ĠÐĽÑİ ÑĤÐµÑĢ
ĠÑģÑĩ ÐµÑĤ
ĠÐ¿Ð»Ð¾Ñī Ð°Ð´Ð¸
ĠÑĢÐµÐ± ÐµÐ½
ĠÐ¼Ð¾Ð»Ð½ Ð¸Ð¸
c e
ÑĢ Ð¾Ð¿
Ð°Ð» ÐµÐºÑĥ
ĠÐ» Ð°ÑĤ
ĠÐļ ÑĥÑĢ
ĠÐ·Ð½ Ð°Ð½Ð¸Ñı
ÑĪÐµÐ¹ ÑģÑı
ĠÐ¿Ð»Ð°Ð¼ ÐµÐ½ÐµÐ¼
ĠÐ¾ÑģÐ² Ð¾Ð±
ĠÑģ Ð·Ð°Ð´Ð¸
Ðº Ð°Ð¿Ð¸ÑĤÐ°Ð½
ĠÐ¿Ð¾Ð´ ÑĢÐ¾Ð±
ÐĽ Ð¾Ðº
ĠÐ¿Ð°Ð» ÐµÑĨ
ĠÑĩÑĥÐ´Ð¾Ð² Ð¸ÑīÐµ
ĠÑĢÐµÐ´ ÐºÐ¾
) ,
Ñĩ ÑĥÐ²
ĠÑĢ Ð¾Ð±
ĠÐ²Ð¾ ÑĪÐ»Ð¸
ĠÐ¿ÑĢÐµÐ´ Ð»Ð°Ð³
ĠÑģÐ¾Ð± ÑĢÐ°Ð»Ð¸ÑģÑĮ
ĠÐ²ÑĭÐ¿ Ð°Ð´
ĠÐ¶ÐµÑĢÑĤÐ² Ñĥ
ĠÐĹÐ°ÑħÐ°ÑĢÐ¸ ÑįÐ»ÑĮ
Ð°Ð½ Ð°ÑĤ
ĠÑĥÐ²Ð¸Ð´ ÐµÐ»Ð¸
ĠÐ´ÑĢÐ¾Ð¶ ÑĮ
ĠÐ½Ð°Ð²ÐµÑĢÑħ Ñĥ
Ð¾Ðº ÑĢÐ°ÑĤ
Ð°Ð· Ð¸
ĠÐ´Ð²ÐµÑĢ ÐµÐ¹
ĠÑģÐ¾ÑģÑĤÐ¾Ñı Ð½Ð¸Ðµ
ĠÑħÐ²Ð°ÑĤ Ð¸Ð»Ð¾
ĠÑĢÐ¸Ñģ ÐºÐ¾Ð²
ÐºÐ»ÐµÐ· Ð¸Ð°ÑĢÑħ
ÐµÐº ÑģÐ°
ĠÐ¿ÑĢÐ°Ð² Ð¾Ð¹
ĠÐ¿Ð¾Ð³ Ð¾Ð²Ð¾ÑĢÐ¸ÑĤÑĮ
ĠÐ½Ð¾Ð² Ð¾Ð³Ð¾
ĠÐ¼ÐµÑĢÑĤÐ² Ñĭ
ĠÐ±Ð¾Ð³ Ð°
ĠÐ¿Ð¾ÑģÐ» ÑĥÐ¶
ĠÐ¼ Ð»Ð°Ð´
Ð°Ñģ Ð¸Ð±Ð¾
ÐµÐ² Ð°ÑĤÑĮ
ĠÐ¾Ð± ÑħÐ¾Ð´
ĠÐ±Ð¾Ð»ÑĤÐµÑĢ Ñĭ
ĠÐ½Ð°Ð´Ðµ ÑıÑĤÑĮÑģÑı
ĠÐ¿ÑĢÐµÐ´ÑģÑĤÐ¾Ñı Ð»Ð¾
ĠÐ·Ð°Ð¼ÐµÑĤ Ð½Ð¾
ĠÐ¿Ð¾ÐºÑĢÑĭÐ² Ð°Ð»Ð¸
Ð¸Ð½ ÐºÐ¸
ĠÐĺ ÑģÑĤ
ĠÐĶ ÐµÑĤÐµÐ¹
ÐĲ Ð²
ĠÐ»ÐµÐ³ ÐºÐ¾ÑģÑĤÑĮÑİ
ĠÑĢÐ°Ð² Ð½Ð¾Ð²ÐµÑģ
ĠÑĪÑĤ Ð°Ð±
ĠÐ¾Ð¿Ð°Ñģ Ð½Ð¾ÑģÑĤÑĮ
ĠÐ²Ð·ÑĢÐµÐ² ÐµÐ»
ÐµÑģ ÐºÐ¾Ðµ
Ð°Ð· Ð´
Ð½Ñı ÑĤÑĮ
ĠÑĢÐ°Ð·ÑĢÑĥÑĪ ÐµÐ½Ð¸Ñı
ĠÐ±ÐµÑĢ ÐµÐ³
ĠÐ°ÑģÑĤÑĢÐ¾Ð¿ Ð°ÑĤ
ĠÐļ Ð¾Ð¿
ĠÑĪ ÐµÐ¸
ĠÐ²Ð¸Ð´ Ð¾Ð¼
ĠÐ¿ÑĥÑģÑĤ Ð¾ÑĪ
ĠÐ³Ð»Ð°Ð² Ðµ
ĠÐ¸ÑģÑĩÐµÐ· Ð»Ð°
ĠÐ£Ð¶ Ð°ÑģÐ°
ĠÑĤ ÐµÑĩ
Ð½Ñĥ ÑģÑĮ
ĠÐ³ Ð¸Ð´
ĠÐ¿ÑĢÐ¸ÑĪ Ð»Ð°
ĠÐľÐ°ÑĢ ÑģÐ°
ĠÐļ ÑĭÑģ
ĠÐĿ ÐµÐ²
ĠÑĤÐµÐ» Ð¾ÑħÑĢÐ°Ð½
ĠÑĥÐ±Ð¸Ð¹ ÑģÑĤÐ²Ð°
ĠÐºÐ¾Ð½ÑĤ Ð¸Ð½
ĠÐ°ÑĢÑĤÐ¸Ð»Ð»ÐµÑĢ Ð¸Ð¹
ĠÐľ Ð°Ð»ÑĮ
ĠÐł ÐµÐ¹Ð²ÐµÐ½
ĠÐ·Ð°Ð² Ð¾ÐµÐ²
ĠÑģÐ»Ð°Ð± Ð¾
Ð¿ Ð¸Ð¾Ð½
ĠÐł ÑĥÐºÐ¸
Ñį Ð¼
ĠÐ½Ð°Ðº Ð°Ð·
ĠÑįÐº Ð·
ĠÐ·Ð°Ñħ Ð²Ð°Ñĩ
ĠÐ¼ Ð°Ð³Ð¾Ñģ
ĠÐ½Ðµ ÑĥÐ´
Ð¸Ð² Ð°Ñİ
ĠÑĢÐ°Ð±Ð¾ÑĤ Ð°ÑĤÑĮ
ĠÑĤÐµÐ¼Ð½Ð¾ ÑĤÑĥ
ĠÑĩÐµÐ» Ð½Ð¾Ðº
o d
Ñı ÑĢ
Ð»Ñİ Ð½ÑĥÐ»
ĠÐ£ Ð·
ĠÐ²ÑģÐ¿ Ð¾Ð¼Ð¸Ð½
ÐŃÑĤÐ¾ ÑĤ
ĠÑģÐ¾Ð²ÐµÑĢÑĪ ÐµÐ½
ĠÐ¼ÑĭÑĪ ÑĨÑĭ
ĠÑĥÑĢÐ¾Ð´ Ð»Ð¸Ð²
Ð°Ð» Ðº
ÐµÐ¼ Ð°
ÑĥÑģÑĤ Ñı
ĠÐ·Ð°Ð¼ÐµÑĤ Ð¸ÑĤÑĮ
ĠÐ¿ÑĢÐ¸ÐºÐ°Ð· Ñĥ
ĠÑĨÐµÐ» ÑĭÐ¹
ĠÐºÐ°Ð½ Ð°Ð»
ĠÐºÑĢÐµÑģÑĤ Ð¾Ð²Ð¾Ð³Ð¾
ĠÐ¿Ð¸Ðº ÑĤ
ĠÐľÐ¾ÑĢÑĤ Ð°ÑĢÐ¸Ð¾Ð½
ĠÐ¼ ÐµÐ½ÑĤ
ĠÐĺÐ¼Ð¿ÐµÑĢ ÑģÐºÐ¸Ðµ
ĠÐŀÑĤ Ðº
ĠÐ³ÑĢÐ¾Ð¼ ÐºÐ¾
ĠÐ·Ð°ÑīÐ¸ÑĤ Ñĥ
ĠÐ±Ð°ÑĢ ÑĢÐ¸Ðº
ÐĿ Ð¸ÑĩÐµÐ³Ð¾
ĠÑĢÐ°Ñģ ÑģÑĤÐ¾ÑıÐ½Ð¸Ðµ
Ġa t
ĠÐ¼ÑĥÐ¶ ÑĩÐ¸Ð½
ĠÐ±ÑĥÑĢ Ð¸
Ð´ ÑĥÐ¼
ĠÐ½Ð°Ð¿ ÑĢÐ¾ÑĤÐ¸Ð²
ĠÐ·Ð°Ð´ Ð°Ð½Ð¸Ðµ
ĠÐ¿ÑĢÐ¾ÑĪ Ð¸Ð¿ÐµÐ»
ĠÐ½Ð¾Ñĩ ÑĮÑİ
ĠÐ¡ÐµÑĢ Ð´
ĠÑģÑĥÐ´ÑĮ Ð±Ñĭ
ĠÐµÑĢÐµÑĤ Ð¸ÐºÐ¾Ð²
ĠÐ¾Ð± Ð¾Ð·Ð½Ð°Ñĩ
ÐŁ Ð¾ÑħÐ¾Ð¶Ðµ
ÑĳÑĢ Ð·
ĠÑĤÑĢÑĥÐ¿ Ð¾Ð²
ĠÑıÐ´Ð¾Ð² Ð¸ÑĤ
ĠÐ±Ð» ÐµÑģÐº
ĠÑĥÐ¿ Ð°Ð»Ð°
ĠÐ³ÑĢÐ¾Ð¼ ÑĩÐµ
ĠÑģÐ½ Ð°Ð±
ĠÑĤÐ°Ð½ ÐºÐ°
ĠÐ¿Ð¾ÑħÐ¾Ð¶ Ð¸Ðµ
ĠÐ³ ÑĥÑģÐµÐ½
ĠÐ¸Ð· Ð´
ĠÑĪ Ð¾Ðº
Ðł Ð°ÑĦÐµÐ½
ĠÐĿÐµ ÑĥÐ¶ÐµÐ»Ð¸
ĠÐ½Ð¸ÐºÐ°Ðº Ð¾Ð¹
ĠÑĢ ÑıÐ²
ĠÐ° Ð³ÑĢ
Ð¸ÑģÑĤ Ð¾Ð¹
Ð¾Ð²Ð°Ð½ Ð½ÑĭÐ¹
ĠÐ³Ð»Ð°Ð² Ð½ÑĭÐ¹
ĠÐ¿ÑĢÐµÑģ Ð»ÐµÐ´Ð¾Ð²
ÐµÐ½ÑĨ Ð¸
ÑģÑĤÐ² Ð¾ÑĢ
ĠÑĪ Ð»Ñİ
Ð°ÑİÑī Ð¸Ð¼ÑģÑı
ĠÐĽ Ð¸ÑĪÑĮ
ÑĢÐ¸ ÑĢÑĥ
ĠÐ´Ð¾ÑģÑĤ Ð°Ð»
ĠÐ¿Ð¾Ð³ ÑĢÐµÐ±
ĠÑĦÑĢÐ°Ð³ Ð¼ÐµÐ½ÑĤ
ĠÐº Ð»Ð°Ð´
ĠÑģÐº Ð¾Ð½
ĠÐĵ Ð¾Ð²Ð¾ÑĢ
ĠÑĢÑĥ Ð½Ñĭ
Ð¸ÑģÑĤ ÑĭÐ¹
ÑĤÐ¸ ÑĦ
ĠÐ¼Ð¾ ÐµÐ¼
ÑĢÐ°Ðº ÑģÐ°
ĠÐ¸ÑģÐº ÑĢÑĭ
ĠÑģÐ¾Ð±ÑģÑĤÐ²ÐµÐ½ Ð½ÑĭÐ¹
ĠÐ²ÑĭÐ¶ Ð¸Ð²ÑĪÐ¸Ñħ
ĠÑĦÐ¾ÑĢÐ¼ Ñĭ
ĠÐ¾ÑģÐ¼Ð¾ÑĤ ÑĢÐµÐ»
ÑĤÐ¾ Ñģ
ÑĤÐ¾ÑĢ Ð¾Ð¿
ÐĴ Ð½ÐµÐ·Ð°Ð¿Ð½Ð¾
ĠÐ½ÐµÐ¼ Ð½Ð¾Ð³
ĠÐ¿ÑĢÐ¾Ð² ÐµÑģÑĤÐ¸
ĠÐ¿Ð¾Ð´Ð´ÐµÑĢÐ¶ ÐºÐ¸
ĠÐ¿ÐµÑī ÐµÑĢÑĭ
ĠÐ¿ÑĥÑģÑĤ Ð¾ÑĤÑĥ
ĠÑĥÐ´Ð° ÑģÑĤÑģÑı
ĠÐ»Ð¾Ñı Ð»Ð¸ÑģÑĤ
ÑĢÑĥ Ðº
ÑģÐº Ð¾Ð¼Ñĥ
ĠÑħÐ¾ÑĤ ÐµÐ»Ð¸
ĠÐĲÑĢ Ð±Ð¸ÑĤ
ĠÐ¸Ð¼ ÐµÐ»Ð¾
Ñį Ðº
ÑĢÐ°Ðº ÑĤ
ĠÐ¾ÑĤÑģÑĤÑĥÐ¿ Ð¸ÑĤÑĮ
ĠÑĤÐ°Ð½ ÐºÐ¸
ĠÐĴÐ°ÑĢÑģ Ð°Ð²Ð°
ĠÐĿ ÐµÐ±
ĠÐĳ Ð¾ÐµÐ²
ĠÐ¾ÑĤÐ± ÑĢÐ°Ñģ
ĠÐ¾Ð±ÑĢÐ°Ñī Ð°Ñı
ĠÐŁÐ¾Ð²ÐµÐ» Ð¸ÑĤÐµÐ»ÑĮ
ĠÑģÐ¾Ð±ÑĭÑĤ Ð¸Ñı
Ð°ÑĤ Ð¾Ð¹
Ð¸Ðº Ð°ÑĢ
ĠÑĪ Ð»Ð°
ĠÐ¾ÑĤÐº Ð»Ð¸Ðº
Ð°Ñī Ð¸Ð¹
ĠÑĤÐ¾Ð¿ Ð»Ð¸Ð²
ĠÐ¿Ð¾ÑĤÑĢÐµÐ± Ð¾Ð²
ĠÐ¿ÑĢÐµÐ´Ð¿ÑĢ Ð¸Ð½
Ð°Ð´ Ðµ
ĠÑĢÐ°Ð· Ð½ÑĭÑħ
ĠÐ·Ð½ Ð°ÑİÑĤ
ĠÐ²Ð¾Ð¿ Ð»Ð¸
ĠÐ½ÐµÐ± Ð¾Ð»ÑĮ
ĠÐ³ÑĢÑĥÐ¿Ð¿ Ñĥ
ĠÐ¿Ð»Ð°Ð½ÐµÑĤ Ð°ÑĢ
Ð¾ÑĢ Ð°Ð»
Ð¶ Ð¸Ð·Ð½
Ð°Ð½ÑĤ Ðµ
ĠÐ²Ð¾Ð· Ð±
ĠÐ¥ Ð°Ðº
ĠÑĤÐµÐ¼ Ð½Ð¾Ð¹
ÐĽ Ð¾ÑĢÐ³
Ð£ Ð±
Ð°ÑĦ Ð°Ð½
ĠÐ¸ÑģÐ¿Ð¾Ð»ÑĮÐ· Ð¾Ð²Ð°Ð»
ĠÐ¿ÑĢÐ¾Ñģ Ð»ÐµÐ´
ĠÑģÑĩ Ð¸ÑĤÐ°Ð½
ĠÐ¾Ð´Ð¸Ð½Ð¾ Ñĩ
ÐĽÐ¾ÑĢÐ³ Ð°ÑĢ
Ð± Ð¸Ð½
ĠÐļ ÑĢÐ¾
ĠÐ¿ÑĢÐ¸Ð± ÑĭÐ»
ĠÐ¿ÑĢÐ¾Ð´Ð¾Ð»Ð¶ Ð°ÑĤÑĮ
ĠÑģÐ¸ÑģÑĤÐµÐ¼ Ð°
ĠÐ¼Ð¾Ð»Ñĩ Ð°Ð»
ÐµÐ² Ð°Ð»
Ð¸Ð´ Ñĥ
ĠÐ¿Ð¾Ñģ Ð»Ð°Ð½
Ð²ÐµÑĢ ÑĮ
Ð°Ð²ÑĪ ÑĥÑİ
ÐĶ ÑĥÐ¼Ð°Ñİ
ĠÐ¿ÑĢÐ¸Ð´ Ð°Ð²
ĠÐļÐ¾ÑĢ Ð±
ĠÐ¾ÑģÐ½Ð¾Ð² Ð°Ð½Ð¸Ñı
Ð¾Ð³ ÑĢÐ°ÑĦ
ÐµÐ»ÑĮ Ñı
ĠÑĩÐµÑĢ Ð½Ð¾
ÑĥÑīÐµ ÑģÑĤÐ²
ĠÑĥÐº ÑĢÑĭ
ĠÑģÐ¾Ð³Ð»Ð°Ñģ Ð½Ð¾
ĠÐ¾ÑĤÑĢÑı Ð´Ñĭ
Ð¸ÑĢÐ¾Ð² Ð°Ð½Ð¸Ñı
ÑģÑĤÐ²ÐµÐ½ Ð½ÑĭÐµ
ĠÐºÑĢÐ°Ñģ Ð½ÑĭÐ¼
ĠÐºÐ¾Ð¶ ÐµÐ¹
Ð½ ÑĮ
Ð¾Ð¼ Ðº
ĠÐ¾ÑĤ ÑĢÐ¸ÑĨ
ĠÐ¡ Ð¾ÑĤ
ĠÐŃ Ð½
ĠÑĪÐ°Ð³ Ð¸
ĠÐ½ÐµÑĢ Ð°Ð·
Ð» Ð°Ð¹
ĠÐ¿ ÐµÑĤ
ĠÐ¸Ð· Ð²ÐµÑĢÐ³
ĠÑĢÐ°Ð· Ð»Ð¾Ð¶
Ð°Ð²ÑĪ Ð¸Ð¼Ð¸
ÐºÐ² Ð¾Ð·ÑĮ
ĠÑĥÑģÐ¿ ÐµÐ»Ð¸
ĠÐ¶ÐµÐ»ÐµÐ· Ð°
ĠÑĥÑĢÐ¾Ð² Ð½Ðµ
ĠÐ·Ð»Ð¾Ð² Ð¾Ð½
ĠÐ² ÐµÑĩÐ½Ð¾
Ð¾Ð¹ ÑĩÐ¸Ð²
ĠÑĥ Ð»ÑĮ
Ð¸Ð³ Ð¸
ĠÐ·Ð°Ðº Ð°Ð½ÑĩÐ¸Ð²
Ð¼ÐµÑĢ Ð·
Ð¸Ð½ÑĥÐ» Ð°ÑģÑĮ
ĠÐºÑĢÐ°Ð¹ Ð½Ðµ
ĠÐ¿ÑĢÐ¾Ð±Ð»ÐµÐ¼ Ñĭ
Ð½ Ð°Ñħ
ĠÐ¿ÑĢ ÐµÐ³
ĠÐ½Ðµ ÑģÐ¿
Ð°Ð´ ÐºÐ¸
ĠÐ¸Ð· ÑıÑī
ĠÐĺ ÑģÐº
ĠÑĤÑĢ ÐµÑģ
ĠÐ±ÐµÑģ ÑģÑĤÑĢ
ĠÐ¸ÑģÐº Ð¾ÑĢ
ĠÑģÑĤÑĢÐµÐ»ÑĮ Ð±Ñĭ
ĠÑĥÑħÐ¼Ñĭ Ð»ÑĮ
ĠÐºÐ°ÑĤÐ° ÑģÑĤÑĢÐ¾
* *
ĠÑģ Ð´Ð°Ð²
ĠÐ¸ Ð´ÑĥÑī
ĠÐ¾ÑĤ ÑĤÑĥÐ´Ð°
ÐºÐ¾ ÑĦ
ĠÑĤÑĢ Ð¾Ð½Ð°
ĠÐĺÐ¼Ð¿ÐµÑĢÐ¸ÑĥÐ¼ Ñĥ
ĠÑģÑĤÐ°Ð» Ðº
ĠÐ·Ð¾Ð»Ð¾ÑĤ Ð¾Ð¹
ĠÐ´Ð¾Ð¶Ð´ ÑĮ
ĠÐ¾Ð·Ð½Ð°Ñĩ Ð°Ð»Ð¾
Ð» Ð¸ÑĤ
ĠÐº Ð°ÑĢÐ°Ð±
Ð´Ð° ÑİÑĤ
ĠÐ´ÐµÑĢÐµÐ² ÑĮÐµÐ²
ĠÐ¾ÑĤ ÑĢÐ°Ð²
ĠÐŁÑĢ Ð¸Ð¼
ĠÐ»ÐµÐ³Ð¸Ð¾Ð½ ÐµÑĢÐ°
ĠÐ¿ÑıÑĤ Ð¸
ĠÐ´ÑĥÑħ Ð¾Ð²
ĠÐ¾ÑĢÐ±Ð¸ÑĤ Ñĭ
ĠÑĢÐµÐ·ÑĥÐ»ÑĮÑĤ Ð°ÑĤÐµ
ĠÐ¤ÐµÑĢ ÑĢÑĥÑģ
ĠÑĤ Ð¸ÑĤÐ°Ð½Ð¾Ð²
ÑģÑı Ð³
ĠÐ¿Ð¾Ðº Ð¾Ð½Ñĩ
ĠÐ²Ð¾Ð· ÑĢÐ°Ð·Ð¸Ð»
Ðĵ Ð¾Ð»Ð¾Ñģ
ĠÐ¿Ð¾Ð¿ ÑĢÐ¾Ð±
ĠÐ¿ÑĢÐ¾ÑĪ Ð»Ð°
ĠÐ¿ÑĢÐ¸Ð· ÑĭÐ²
ĠÐ·Ð°ÑīÐ¸ÑĤ Ð½Ð¸ÐºÐ¾Ð²
ÐµÑĢ Ñģ
ĠÐ¾Ðº Ð°Ð¶ÐµÑĤÑģÑı
ĠÑĤÑĢ Ð¾Ðµ
ÑĢÐ°Ñģ Ð¿
ĠÐ¥Ð° Ñį
ĠÐ·ÑĥÐ± Ð°Ð¼Ð¸
ĠÐ¿ÑĢÐµÐ´ÑģÑĤ Ð¾Ð¸ÑĤ
ĠÑĥ ÑĩÐ¸ÑĤÑĭÐ²Ð°Ñı
Ð¸Ñĩ Ð½ÑĭÐ¹
ĠÐ¡ Ð¸Ð»ÑĮ
ĠÐ¿Ð¾Ð» ÐºÐ°
Ð½Ñı Ñħ
ĠÑħÐ²Ð°ÑĤ Ð°Ð»Ð¾
ĠÑģÐ»Ð¾Ð¶ Ð½Ð¾
o l
ĠÐ·Ð° ÑħÐ¾Ð´
ĠÑĪ ÐºÐ²
ĠÐĶ Ð¸
Ð¸ÑĢÐ¾Ð² ÐºÐ¸
ĠÐ¾Ðº Ð°Ð¶
ĠÐ¸ÑģÑĤ ÐµÐº
ĠÑĦÐ¸Ð³Ñĥ ÑĢÑĥ
ĠÐ¼ Ð°ÐºÑģÐ¸Ð¼
Ð¶ ÐµÐ²
ĠÐ¶ Ð¸Ð»Ð¸
Ð¡ ÐµÐ¹ÑĩÐ°Ñģ
ĠÐ¾Ñģ ÑĭÐ¿
ĠÐ·ÐµÐ¼ Ð»ÐµÐ¹
ĠÐ¼Ð°Ñģ ÑĪÑĤÐ°Ð±
ĠÐ²ÑĭÐº ÑĢÐ¸Ðº
Ñı ÐµÐ¼
ĠÐ¢ ÑĢÐ¸
ĠÐ¸ÑģÐ¿ Ð¾Ð»Ð½Ñı
ĠÐ¿ÐµÑĢÐµÐ¿ Ð»ÐµÑĤ
ĠÑĥÐºÑĢÐµÐ¿ Ð»ÐµÐ½Ð¸Ñı
ĠÐ½ÐµÐ´ ÐµÐ»ÑĮ
ĠÐ²Ð¾ÑģÐ¿Ð¾Ð»ÑĮÐ·Ð¾Ð² Ð°ÑĤÑĮÑģÑı
Ð¾Ð¿ ÑĢÐ¾Ð²
ĠÐ²Ð¾Ñģ Ñģ
ĠÑģÑĤÐ°Ð½Ð¾Ð² Ð¸ÑĤÑģÑı
ĠÐ¶Ð¸Ð´Ðº Ð¾ÑģÑĤÑĮ
ĠÑģÐ»ÐµÐ· Ñĭ
ĠÐ½Ð°Ð´ÐµÑı ÑģÑĮ
Ð¸ Ð°Ð½Ð°
ÑģÑĤÐ²ÐµÐ½ Ð½ÑĭÐ¹
ĠÐ²ÐµÑĢ Ñĭ
Ðĵ Ð¾Ð²Ð¾ÑĢ
ĠÐ¶Ð¸Ð·Ð½ ÑĮÑİ
ĠÐ²Ð¾Ð¿ÑĢÐ¾Ñģ Ð¾Ð¼
ĠÐ¿Ð¾Ð´Ð½Ð¸Ð¼ Ð°Ð»Ð¸ÑģÑĮ
Ñī Ð¸ÐºÐ¾Ð²
Ð¸ÑĨ Ð¸
ĠÐ¸Ð·Ð² Ð¸Ð½
ĠÐ¸ÑģÐ¿Ð¾Ð»ÑĮÐ· ÑĥÑı
ĠÐĲÑĢÐ¼ Ð°Ð³ÐµÐ´
ĠÑįÐºÑģ Ð¿ÐµÑĢ
k e
ĠÐĿ Ð°ÑĤ
ÐĶ Ð°Ð²
ĠÑģÐ¾Ð¿ÑĢÐ¾ÑĤÐ¸Ð² Ð»ÐµÐ½Ð¸Ðµ
Ð°ÑĤ ÐµÐ»ÐµÐ¼
ÑĨ Ð¾
ĠÐ¸Ð· ÑĥÑĢÐ¾Ð´
Ð½Ð¾ÑģÑĤ ÑıÑħ
ĠÐ¾ÑĤÐº ÑĢÐ¾Ð²
ÑĥÑİÑī Ð¸Ð¼
ĠÐ¿ÑĢÐ¾ÑĢ ÐµÐ·
ĠÐĿÐµÑģÑĥÑī Ð¸Ð¹
Ð¾ÑĤ Ðº
ĠÐ¿ÐµÑĢ Ð¸
ĠÐ¼Ð¸ÑĢ Ð¾Ð¼
ĠÐ´ Ð¾Ð»ÑĮÑĪÐµ
Ð°Ð²ÑĪ ÐµÐ¹ÑģÑı
ĠÐ²ÑĭÑģ Ð¾ÐºÐ¾Ð¹
ĠÐ¿Ð°Ð½ ÐµÐ»Ð¸
ĠÐ¾Ð·Ð½Ð°Ñĩ Ð°ÐµÑĤ
ĠÐ°ÑģÑĤ ÐµÑĢÐ¾
Ð»Ñı Ñİ
ÑģÐ¿ ÐµÐºÑĤ
ĠÐ¸ÑģÐ¿Ð¾Ð»ÑĮÐ· Ð¾Ð²Ð°Ð»Ð¸
ĠÑĤÑĢÑĥÐ¿ Ñĭ
ÑĤ Ð°Ñħ
Ð°Ð¼ Ð°Ð½ÑĤ
ĠÐ·Ð°Ðº Ð¾Ð½
ĠÑĪÐ°Ð³ Ð¾Ð¼
Ð¾ÑĤÐµÐº Ð°ÑĢÐ¸Ð¹
Ñı ÑİÑĤ
Ð´ ÑĢÑĥÐ³
Ð»Ñı ÑİÑĤÑģÑı
ĠÑĥÐ¿ Ð¾Ð¼Ð¸Ð½
ĠÐ¿Ð»ÐµÑĩ Ñĥ
ĠÐ´ÑĥÑĪ Ð°
ĠÐ·Ð½Ð° ÐµÑĤÐµ
ĠÐĴÐ¾Ð»Ñĩ Ð¸Ð¹
ĠÐ½ ÑĭÑĢ
ĠÑĤ Ð°ÑĤÑĥ
ĠÑĥ ÑĢÐ°Ð³
ĠÑģÑĤ Ð¸Ñģ
ÐĿ Ð¾Ñģ
ĠÐ²Ð¾Ð» Ñİ
ĠÐ²Ð°ÑĪ ÐµÐ¹
ĠÐºÐ¾Ð¿ ÑĮÐµ
ĠÐ¿ÑĢÐ¸Ð±Ð»Ð¸Ð· Ð¸Ð»ÑģÑı
ĠÐ²ÑĭÐ½ÑĥÐ¶ Ð´ÐµÐ½
Ð½ ÐµÑĪ
Ð¸Ð¼ Ð°Ð½Ð´
ĠÐĴ Ð¾ÑĢÐ¾Ð½
ĠÑģÐ» ÐµÐ²Ð°
ÑĤÐ¸ ÐµÐ¼
ĠÐ²ÑĢÐ°Ð³ Ñĥ
ĠÐ¸ Ð´Ð¸
ĠÐ¾Ð± Ð²
ĠÐ¾Ð´ Ð¾Ð±ÑĢ
ĠÐĵ Ð¾Ð»Ð¾Ð²
ĠÐĺÐ¼Ð¿ÐµÑĢ ÑģÐºÐ¾Ð³Ð¾
Ð°ÑĤÐµÐ»ÑĮ Ð½ÑĭÑħ
Ð°ÑĤÐµÐ»ÑĮ ÑģÑĤÐ²Ð°
ĠÐ½ÐµÐ± ÐµÑģÐ°
ĠÐ´ÑĥÑħ Ð°
ĠÑĤÐºÐ°Ð½ Ð¸
ĠÐ¾ÑĤÑĪ Ð°ÑĤ
ĠÑģ Ð³Ð¾ÑĢ
ĠÐ¿ÑĢÐµÐ´ Ð²
ĠÐ¿Ð¾Ð³ Ð°Ñģ
Ð¾Ð²Ð°Ð½ Ñĭ
ÐµÐ»ÑĮ Ñİ
ÑĥÑī Ð¸Ð¼
ĠÐºÐ¾Ð¼Ð°Ð½Ð´ Ð¾Ð²Ð°Ð½Ð¸Ðµ
ĠÐ²Ð¾Ð¸Ð½ Ð°Ð¼
ĠÑģÐ¾Ð¿ ÐµÑĢ
ĠÐ¼Ð¸Ð» Ð¾ÑĢÐ´
ĠÑĤÑĢÐµÑĤ Ð¸Ð¹
ĠÐł Ð°Ðº
ĠÐ´Ð² Ð°Ð´ÑĨÐ°ÑĤÐ¸
ĠÑĤÑĢ ÐµÐ¿
ĠÐ²Ð¾Ð» Ðµ
ĠÐ°ÑĤÐ°Ðº Ð°
ĠÐļÑĢÐ¾Ð²Ð°Ð² ÑĭÐ¹
ĠÐ¼ÑĢÐ°Ð¼ Ð¾ÑĢ
ĠÑģÑĥÑīÐµ ÑģÑĤÐ²ÑĥÐµÑĤ
ĠÑĥÑĢÐ¾Ð² ÐµÐ½ÑĮ
ĠÐºÐ°Ð¿Ñģ ÑĥÐ»Ñĭ
a y
ĠÑģÐº Ð°Ð»Ñĭ
ĠÐ¢ Ð°
ÑĢÐ°Ð¶ Ð´
ĠÐ¾ÑĦÐ¸ÑĨ ÐµÑĢÑĭ
Ð° ÑīÐµ
ĠÑĨ ÐµÐ»Ñı
ĠÐ¿Ð¾Ð¿ÑĭÑĤ ÐºÐ¸
ĠÑĥÐ³ Ð°Ñģ
ĠÐĶÐ¶ Ð°Ð³
ĠÐ´Ð»Ð¸Ð½ Ð½ÑĭÐ¹
ĠÑĢÐµÐ² Ð¾Ð¼
ĠÑĥÐºÐ°Ð·ÑĭÐ² Ð°Ñı
ĠÑĢÐ°Ð¼ Ð¿
ĠÐ² Ð¸Ð±
Ð· Ð¸
ĠÐļ ÑĥÐ»
ĠÐ·Ð°Ð¿ Ð»Ð°ÑĤ
ĠÐºÐ¾Ð¼Ð°Ð½Ð´ Ð¾ÑĢ
ĠÐ·Ð°Ð± ÑĭÑĤ
ĠÑĥÑĩ Ð°
ĠÐ²Ð·Ð¾ÑĢÐ² Ð°Ð»ÑģÑı
ĠÐ¼Ð¾Ð»Ð¾Ð´ Ð¾Ð¹
ĠÐ¾Ð±ÑģÑĤ Ð°Ð½Ð¾Ð²
t ed
Ð» Ð¾Ð´
ĠÐ²Ð¾ÑģÐ¿ ÑĢÐ¸Ð½
ĠÐ²Ð¾Ð´ Ñĥ
Ñģ ÐµÐ³Ð´Ð°
ĠÐ¿ Ð¾Ð¹Ð´
ĠÐº Ð²Ð°ÑĢ
ĠÑĤ ÑĢÑı
Ð¸Ðº Ð°Ð¼Ð¸
ĠÐ¿ÑĢÐ¸Ðº Ð¾Ð½Ñĩ
ĠÐ¡ÑĤ ÑĢÐ°Ð¶
ĠÐ½ÐµÐ· Ð°Ð¼
ÑĢ Ð°Ð»Ð°
ÑĨ Ð°ÑĢÐ¸
ÑĢÑĭ Ð»Ð°
ĠÐĶ Ð¾Ð»Ð¶
Ð¸ÑĦ ÑĢÐ¾Ð²
ĠÑģ ÑĥÐ´Ð°
ĠÑĪ ÑĤÑĥ
Ðļ Ð¾Ð¼
Ð¡ Ð°Ð¼
ĠÐ¯ ÑģÑĤÑĢÐµÐ±
ĠÐĴÑĤÐ¾ÑĢ Ð¾Ð¹
ÐĽÐ¾Ðº ÐµÐ½
ĠÐ¿Ð¾Ð» ÑĭÑħ
ĠÐºÐ¾ÑĢÐ°Ð± Ð»Ñİ
Ðł Ðŀ
Ð¸ÑĢÐ¾Ð²Ð°Ð½ Ð½ÑĭÐ¼
ĠÐ²Ð¾Ð¿ Ð»ÑĮ
ĠÐ»ÐµÐ³Ð¸Ð¾Ð½ Ð¾Ð²
ĠÐ·Ð°Ð³ Ð»Ñı
ĠÑĩÐµÐ»Ð¾Ð²ÐµÑĩÐµÑģÐº Ð¾Ð¹
ĠÑĢÐ²Ð°Ð½ ÑĥÐ»
ĠÐºÐ°Ð¿Ñģ ÑĥÐ»
ĠÐ»ÐµÐ³Ð¸Ð¾Ð½ ÐµÑĢ
ĠÑĢÐ°ÑģÑģ Ð¼Ð°ÑĤÑĢ
ĠÑĤÐ¾Ð½ Ð½
ĠÐ¿ÐµÑĢÑĩÐ°ÑĤ ÐºÐ¸
ĠÐ¿Ð¾Ð´Ð½ Ð¾Ð¶
ĠÑĢÐ° ÑģÑĤÐ²Ð¾ÑĢ
Ñĭ Ð»Ð¾
ĠÐ¿ÑĢ Ð¾Ð¼ÐµÑĤ
ÐµÑĤ Ð°Ð»
ĠÐ¾ÑģÑĤ Ð°Ð²ÑĪÐ¸ÑħÑģÑı
ĠÐ¿Ð¾Ð´Ð½Ð¸Ð¼ Ð°Ñı
ÑĢÑĭÐ» ÑģÑı
ĠÑģÐ¾Ð¿ÑĢÐ¾Ð² Ð¾Ð¶
Ð»Ð¸Ð· Ð¾ÑģÑĤÐ¸
Ð½ Ð°Ð´
ĠÐ´ Ð¸Ð²
Ð°ÑĢ Ð½Ð°
ÑĥÑĢ Ð³
ĠÐ¿ÑĢÐ°Ð² Ð¸Ð»ÑĮ
Ġa l
ĠÐ¿ÑĢÑĭÐ³ Ð½ÑĥÐ»
ÐµÐ² Ð°Ñı
ĠÐŀ ÐºÑĤ
ĠÐŃ Ð¼Ð±ÐµÑĢÐ»Ð¸
ĠÐ£ Ð´Ð°ÑĢ
ĠÐ¿Ð¾Ð´Ð½Ñı Ð»Ð¸ÑģÑĮ
ĠÐºÐ°Ð¼ ÐµÑĢÑĭ
ĠÐ¿ÑĢÐµÐ²ÑĢÐ°ÑĤ Ð¸Ð»Ð°ÑģÑĮ
ĠÑıÐ·Ñĭ ÐºÐµ
ĠÐ¿Ð¾ÐºÐ°Ð· Ð°ÑĤÑĮ
ĠÐ½ÐµÐ¿Ð¾Ñģ ÑĢÐµÐ´
Ð¸ÑĤ Ð¾Ð²
ĠÐ·Ð°Ð¿ Ð¾Ð»Ð½Ñı
ĠÐ¿ÑĢÐ¸Ð½ ÑıÐ»ÑģÑı
ĠÐ¼Ð¾Ð» Ð½Ð¸
ÐµÑĢÐ² Ð¸ÑĤÐ¾ÑĢ
Ð¥ Ð¾ÑĤÑı
ĠÐ¿Ð¾ÑıÐ² Ð¸Ð»Ð¾ÑģÑĮ
ĠÐĲÐ´ Ð¼Ð¸Ð½Ð¸ÑģÑĤÑĢ
ĠÑĥÐ´ÐµÑĢÐ¶ Ð°ÑĤÑĮ
ĠÐ¸ÑģÑĤÐ¾Ñĩ Ð½Ð¸Ðº
ĠÑĢ ÐµÐ»Ð¸Ðº
ĠÑģÐº Ð°Ð»
ÑĥÐ¶ Ð½Ð¾
ÑıÑī Ð°Ñı
ĠÐ³ÑĢ Ð¾Ñħ
ĠÐ²Ð°ÑĪ Ð¸Ñħ
ĠÑģÐµÑĢÐ²Ð¸ÑĤÐ¾ÑĢ Ð°
ĠÐ¼Ð°Ð»ÐµÐ½ÑĮ ÐºÐ¸Ð¹
ĠÑħÐ° Ð¾Ñģ
ĠÐ¼ ÑĥÐ´ÑĢ
ĠÐ»Ð¸ ÑĦ
ĠÐ¾Ð±ÑĬ ÑıÑĤ
ĠÐŁÐµÑĢÐ² Ð¾Ð³Ð¾
ĠÐŁÐ¾Ð¶Ð¸ÑĢ Ð°ÑĤÐµÐ»ÐµÐ¹
! Â»
Ñı Ðº
ĠÑģÐ¿ Ð¸Ð½Ñĭ
ĠÐ½Ð°ÑħÐ¾Ð´ Ð¸Ð»Ð°ÑģÑĮ
ĠÐºÑĢÐ°Ñģ Ð½ÑĭÐµ
ĠÐºÐ¾Ð³ Ð¸ÑĤ
ĠÑįÐ¼Ð¾ ÑĨÐ¸Ð¹
ĠÐ¿ÑĢÐ¸Ð±ÑĭÑĤ Ð¸Ñı
ĠÐ¿Ð°ÑģÑģ Ð°Ð¶
ĠÐ½Ð° ÑĢÐ¾Ð´
ÐµÐ´ Ð°
Ð»Ñı Ð»Ð¾
ĠÐ¾Ð´ Ð½Ð°Ð¶Ð´Ñĭ
ĠÐĽ Ð¸ÑĨÐ¾
ĠÐ¿ÑĢÐ¾Ð´ Ð²Ð¸Ð¶
ĠÐ¿ÑĢÐ¸Ð² Ð¾Ð´
ĠÐ·Ð°Ð½ ÑıÑĤÑĮ
ĠÑģÐ¸Ð³ Ð½
ĠÐ¿ÑĢÐ¸ÑģÐ¾ÐµÐ´Ð¸Ð½ Ð¸ÑĤÑĮÑģÑı
ĠÐ¼ÑıÐ³ ÐºÐ¾
ĠÐ·Ð¾Ð² ÑĥÑĤ
Ð¥Ð¾ÑĢ ÑĥÑģ
ĠÐ½Ð° ÑģÑĤÐ¾Ñı
ĠÐ¾ÑĤ ÑĢÐµÐ°Ð³
ĠÐ³ Ð¾Ð´Ð°
ĠÑĦÐ»Ð¾ÑĤ Ð¸Ð»Ð¸Ð¸
ĠÐ¿Ð¾ÑĤÐ¾Ð» Ð¾Ðº
ĠÐ¿ÐµÑĢÐµÐ± Ð¾ÑĢ
Ġl i
+ +
ĠÐ² ÐµÐ·
ÐºÐ¾ ÑĪ
ĠÐ²Ð¾ Ð¾Ð±ÑĢÐ°Ð¶
ĠÑĩÐµÑĢ ÑĤÑĭ
Ð¾Ñģ ÐµÑĢÐ´
ĠÐľ ÑĥÑĢ
ĠÑģÐ¼ Ð¸ÑĢ
ĠÐ¸Ð½ Ð¶
ĠÐ¿Ð¾Ð¿ Ð°Ð»Ð¸
ĠÐ¿Ð¾ÑģÐ»ÐµÐ´ Ð½ÑİÑİ
ĠÐ¾Ð³ÑĢÐ¾Ð¼ Ð½Ð°Ñı
ĠÑĤÐµÑĢ Ð·
ĠÐ»Ð°Ð·ÐµÑĢ Ð½ÑĭÑħ
ĠÐ¶ÐµÑĢÑĤÐ² Ñĭ
ĠÑĥÑģÑĤÑĢÐ¾Ð¹ ÑģÑĤÐ²Ð°
ĠÐ¡Ð°Ð½Ð³Ð²Ð¸Ð½ Ð¸Ñı
ĠÐ¿Ð¾ÑģÐ¼Ð¾ÑĤÑĢ ÐµÐ»Ð°
Ð¾Ð¼ Ð¾Ñī
ĠÑĤ ÑĢÑıÑģ
Ð¾Ñģ ÐµÐ¼
ÐĴ ÐĲ
ÐŁ ÐµÑĢ
Ð¸Ð²ÑĪ ÐµÐ¹
ÑıÑī ÑĥÑİ
ĠÐ·Ð² ÑĥÑĩÐ°Ð»
ĠÐ·ÑĢ ÐµÐ½Ð¸Ðµ
ÐĵÑĢÐ¾Ð¼ Ð¾Ð²Ð¾Ð¹
ĠÑıÑĢÐ¾ÑģÑĤ Ð½Ð¾
ĠÐ¾ÐºÐ¾Ð½Ñĩ Ð°ÑĤÐµÐ»ÑĮÐ½Ð¾
Ð· Ð°Ðº
Ð¸Ð² Ð°Ð½Ð¸Ñı
ĠÐŀ ÑģÐ²
ĠÐ¿ÐµÑĢ Ð¸Ð¼ÐµÑĤ
ĠÑĨ Ð¸Ðº
ĠÐ±ÐµÐ· Ð¶Ð¸Ð·Ð½
ĠÐ¿ÑĢÐ¾Ð´ ÐµÐ»
ĠÐ±Ð¾ÐµÐ² ÑĭÐ¼
ĠÐ½Ð°ÑģÑĤÐ¾ÑıÑī Ð¸Ð¹
Ð¾ Ð¸Ð½
ĠÐ° Ð²Ð°Ð½
ĠÐ¢ ÐµÐ±Ðµ
ĠÐ±ÑĢ Ð¾Ð´
ĠÐºÐ¾ÑģÐ¼ Ð¾Ð¿
ĠÐ»Ð¸Ð½ Ð¸Ñİ
ĠÑĤÑĢÐµÐ±Ð¾Ð² Ð°Ð»Ð¾ÑģÑĮ
ĠÐ²Ð¸Ð´Ð½ÐµÐ» Ð¸ÑģÑĮ
ĠÑĤ ÑĥÐ¼
Ð¾ÑĤ Ð¾Ð²
ĠÑģÑĤÐ°ÑĢ Ð¾Ð³Ð¾
ĠÐ»Ð¸Ð½ Ð·
ĠÐ²ÑĭÐ½Ñĥ Ð¶Ð´
ĠÑĢÐ°ÑģÑģÐ» Ð°Ð±
Ð°Ð½ Ð½Ð¾Ð¼
Ð¸ÑģÑĤ Ð°
ĠÐ¶ÐµÐ» Ð°Ð½Ð¸Ñı
ĠÐ´Ð¾ÑģÐ¿ÐµÑħ Ðµ
Ġ y
Ð°Ð² ÐµÑĢ
ĠÐ¾Ð´ Ð½Ð¸
ĠÐ¿ÑĢÐ°Ð² Ð¸Ð»ÑĮÐ½Ð¾
ĠÑİ Ð½Ð¾ÑĪ
ĠÐ² Ð°ÑĪÐµ
ĠÑį Ð¼Ð±
ĠÐ±ÑĢ Ð¸Ð³
ÐµÑĤÑĭ ÑĢÐµ
ĠÐºÐ» Ð¾Ñĩ
ĠÐ½ÐµÐ²ÐµÑĢ Ð¾ÑıÑĤÐ½Ð¾
ĠÐ¿Ð¾ÐºÐ¸Ð½Ñĥ Ð»Ð¸
ĠÐ¡Ð°Ð½Ð³Ð²Ð¸Ð½ Ð¸Ð¹
ĠÐ¸ ÑĤ
Ñİ Ð½
ĠÐ½Ð° ÑģÑĤÐ°Ð²
ĠÐ¢ Ð¾Ð»
ĠÐľ ÐµÐ»
Ð¾Ñĩ Ð½ÑĭÐ¹
ĠÑģÐ°Ð¼ ÑĥÑİ
ĠÐķ ÑģÑĤÑĮ
ĠÐ¿Ð¾Ñĩ ÐµÑĤ
ĠÑĤÐµÐ¼ Ð¸
ĠÑģÐ¾Ð¾Ð±Ñī ÐµÐ½Ð¸Ñı
ĠÐĲÐ»ÑĮÑĦ Ð°ÑĢÐ¸Ð¹
ĠÐłÐ°Ð² Ð°ÑĪ
Ð°Ð½ ÑĮ
ĠÐĳ Ð¸Ð±Ð»Ð¸
ĠÐ²ÐµÑĢ Ð¸ÑĤÑĮ
ĠÐ¤ Ð°Ð±
ĠÐ·Ð´ Ð°Ð½Ð¸Ð¹
ĠÐ¸ÑģÐº Ð°ÑĤÑĮ
ĠÑĩÐµÐ»Ð¾Ð²ÐµÑĩ ÐµÑģÑĤÐ²Ð¾
ĠÐ¢ÐµÐ¼ Ð½ÑĭÐµ
ĠÑĩÐµÐ»Ð¾Ð²ÐµÑĩÐµÑģÐº Ð¸Ñħ
ĠÐº ÑĥÑģÑĤÐ¾Ð´
Ð¾ÑĢ Ð¸ÑĤ
ĠÐ¡ Ð¾Ð³Ð»Ð°Ñģ
ĠÐĵ ÐµÑĢ
ĠÐ¿Ð¾ÑĢ ÑĭÐ²
ĠÐ·Ð°Ð² Ð°Ð»
ĠÐ½ÐµÐ´ ÐµÐ»Ð¸
ĠÐºÑĥÐ»Ð°Ðº Ð¸
ĠÐ¸ÑģÑĤÐ¾ÑĢ Ð¸Ñİ
ĠÐ¢Ð°ÑĢ Ð²
ĠÐ¼ÑĳÑĢÑĤ Ð²
a p
ĠÐº ÑĢÑĥÑĪ
ÑĥÐ´ ÐµÑĤ
ĠÐĶ ÑĥÐ¼Ð°Ñİ
ĠÐ²Ð¸Ð´ Ð°
Ġf or
ĠÐ³ÑĢÑıÐ· ÑĮ
ĠÐ£Ð»ÑĮÑĤÑĢÐ°Ð¼Ð°ÑĢ Ð¸Ð½Ð¾Ð²
ĠÐĲÐ± Ð°Ð´Ð´Ð¾Ð½
ĠÐºÐ°Ð¿ÐµÐ»Ð» Ð°Ð½Ð°
ĠÐ² Ð¼
ĠÐ¶ ÑĥÐ¶Ð¶
ĠÐ¿Ð¾Ð· Ð²Ð¾
ĠÐ¿Ð¾ÑģÐ»ÐµÐ´ ÑģÑĤÐ²Ð¸Ñı
ĠÐ·Ð°ÑĤ Ð¸Ñħ
ĠÑĥÐ´Ð° ÑĢÐ°Ð¼Ð¸
ĠÐ¼Ð½Ð¾Ð³Ð¾ÑĩÐ¸Ñģ Ð»ÐµÐ½Ð½ÑĭÐµ
ĠÐĸ Ð¸Ð²
ĠÐºÑĢÐ°Ñģ Ð½ÑĭÐ¹
ĠÐ¾Ð±ÑĢÑĥÑĪ Ð¸Ð»ÑģÑı
ĠÐ²ÐµÑĢÑĪ Ð¸Ð½Ðµ
ĠÐ¿Ð¾Ð·Ð²Ð¾ Ð½Ð¾Ñĩ
l ed
Ðº Ð½ÑĥÐ»Ð°
ĠÐ·Ð°Ð¼ÐµÑĤ Ð¸Ð»Ð°
Ð»ÑıÐ» Ð°ÑģÑĮ
ĠÑĤÑĮ Ð¼Ð°
ĠÑģÐ¿ÑĢÐ°Ð² Ð¸ÑĤÑĮÑģÑı
Ð½ Ð¸ÑģÑģ
ĠÐ± ÑĥÐ»ÑĮ
Ð¸Ð² Ð¸Ð»Ð¸Ð·
ĠÐĲ Ð¹
ĠÐĶ ÐµÑģÐ°Ð½ÑĤÐ°
ÐĴ Ð¾Ð·
ĠÐºÐ¾ÑĢÐ°Ð± Ð»ÐµÐ¼
ĠÐ²Ð¾Ðº ÑģÐ°
ĠÐ¿Ð¾ÑĤÐµÑĢ ÑıÐ½
Ð»Ð¾Ð¶ Ð¸Ð»
ĠÐ³Ð¾ÑĢÐ¾Ð´ Ðµ
ĠÐ¾ÑĦÐ¸ÑĨ ÐµÑĢÐ°
ĠÐ²ÑģÐ¿ÑĭÑĪ ÐºÐ°
ĠÐ¾ÑģÐºÐ¾Ð» ÐºÐ¾Ð²
ĠÐ¿ÑĢ ÐµÑĤ
ĠÐ³ Ðµ
Ð¸Ñĩ Ð½ÐµÐ²
Ð°Ð¹ Ð½Ð¾
Ð°Ð¹ Ð¿ÐµÑĢ
ĠÐ¿ÑĢÐ°Ð² Ð°
ÑģÐºÐ°Ð· Ð°Ð»Ð°
ÐºÐ°Ð´ Ð¾ÑĢ
ĠÑĢÐ°Ð±Ð¾Ñĩ Ð¸Ñħ
ĠÐ²ÑĭÑĢÑĥÐ³ Ð°Ð»ÑģÑı
Ð¾ ÑĢÐ°Ð¼
ĠÐĲ ÑĪ
ĠÐ¿Ð¾Ñģ Ð²ÑıÑī
ÑĤÐ¾Ð² Ðµ
ĠÐŁÑĢ Ð¾Ðº
ĠÐ³Ð¾Ð²Ð¾ÑĢ Ñİ
ĠÐ²Ð¾Ð» Ð½Ð¾Ð¹
ĠÐ´ÐµÐ² ÑıÑĤÑĮ
ĠÐºÐ¾Ð½ÑĤÐ°Ðº ÑĤ
ĠÐ² Ð±
ÐµÑĤ Ð¾Ð²
Ð´Ð° Ñİ
ĠÐ±ÑĢ Ð¾ÑĪ
ĠÐ¿Ð¾ÑĤ ÐµÐ½ÑĨÐ¸
ĠÐ»ÐµÑĤ Ð¾Ð¿Ð¸Ñģ
ĠÑģÐºÐ°Ð· Ð°Ð»Ð¸
ĠÐ¼Ð¾Ð½ÑģÑĤÑĢ Ð°
ĠÐ¤Ð¾ÑĢ ÑĢÐ¸ÐºÑģ
o s
Ġ 4
Ð°ÑĤ Ð°Ð¼Ð¸
ĠÑĥ ÑĪÐµÐ»
ĠÐ¿Ð¾ ÑıÑģÐ°
ĠÐ¿Ð¾Ð´ ÑĬÐµÐ¼
ĠÐ½Ð°Ð² ÑģÐµÐ³Ð´Ð°
ĠÐ±Ð¾Ð»ÑĮÑĪ Ð¸Ðµ
ĠÐ¾Ð³ÑĢÐ¾Ð¼ Ð½ÑĥÑİ
Ð°ÑĢÑĢÐ¾ ÑĥÐº
ĠÑĥÑģÐ¸Ð» Ð¸Ð¹
ĠÐ¼Ð¸ÑģÑģ Ð¸Ð¸
ĠÐ¿ÑĢÐ¾ÑĤÐ¸Ð²Ð¾ÑģÑĤÐ¾Ñı ÑĤÑĮ
ĠÐ½Ð°Ð³Ð¾ ÑĤÐ¾Ð²Ðµ
. âĢĿ
Ġ S
ĠÐ± Ð°ÑģÑĤ
ĠÑĢÐ°Ð· ÑĢÑĥÐ±
ĠÐ¿ÑĢÐ¸Ðº ÑĢÐµÐ¿
Ðķ Ðł
ĠÐ¿ÑĢÐ¾Ð± ÐµÐ¶
ĠÐ´ÑĢÐµÐ² Ð½Ð¸Ðµ
ĠÐľÐ°Ð³ Ð½ÑĥÑģÐ°
ĠÐ±Ð¸Ð±Ð»Ð¸ Ð°ÑĢÐ¸Ð¹
Ð¾Ð» Ð°Ð¼
Ð°Ð² Ð¸Ñģ
ĠÐ° ÑĢÐ¾Ð¼
ĠÐ½ÐµÐ· Ð½Ð°Ñĩ
ĠÐ²ÑĢÐ°Ð¶ Ð´
ĠÐ½Ð°Ð³ ÑĢÐ°Ð´
ĠÑĤÐ¸Ð¿ Ð°
a in
Ñı ÑģÐµ
ĠÑģ Ð¾Ð½
ĠÐ· Ð¾Ð½Ñĭ
ĠÐ¿Ð¾Ñģ ÑĭÐ»
ĠÐ¸Ð¼ ÐµÑĤÑĮ
ĠÐ¿Ð»ÐµÑĩ Ð¾Ð¼
ĠÑģÐ»ÑĭÑĪ Ñĥ
ĠÐ³Ð»ÑĥÐ± Ð¸Ð½Ñĭ
ĠÐ½Ð°ÑģÑĤÑĥÐ¿ Ð»ÐµÐ½Ð¸Ðµ
ĠÐ¿ÑĢÐµÐ´Ð»Ð¾Ð¶ Ð¸Ð»
ĠÐĳÑĥÐ» Ð²Ð°Ð¹
ĠÐĶ Ð°Ð¼
Ð°Ð½Ð´ ÑĢ
ĠÑĢÑıÐ´Ð° Ñħ
ÑĥÐ»Ðº Ð°Ð½Ð°
ĠÑģ Ð°Ð´
ĠÐ¡ Ð²ÐµÑĤ
ĠÐ¿ÐµÑĢ ÑģÐ¾Ð½
Ð°ÑİÑī ÑĥÑİÑģÑı
ĠÐ¿ÑĢÐµÐ´ Ð°ÑĤÐµÐ»Ñı
ĠÐ´Ð² ÐµÐ½
ÑĢÐ¾ Ð½Ñĭ
ĠÐ³Ð¾Ð²Ð¾ÑĢ Ð¸ÑĪÑĮ
ĠÐºÐ¾ÑģÐ¼ Ð¸ÑĩÐµÑģÐºÐ¸Ðµ
ĠÐ½ÐµÐ¶ ÐµÐ»Ð¸
ÐŁÐ¾ÑĤ Ð¾Ð¼Ñĥ
ĠÐ¿ Ð¸Ñģ
ĠÐļ ÐµÐ»
ĠÐĵ Ñħ
ĠÐĵ Ð¾Ð»Ð¾Ñģ
ĠÐ½Ð°Ð´ ÐµÐ»
ĠÐºÐ°Ð¼ Ð½ÐµÐ¹
ĠÐ¿ÑĢÐ¾ÑĪ ÐµÐ´
ĠÐ´Ð¾ÑģÑĤÐ¸Ð³ Ð»Ð¸
ĠÐ¿Ð»Ð°Ð· Ð¼ÐµÐ½
ÑĤ ÐµÐ¼
Ð¼ Ð¿
Ð¼ ÐµÐ¹
Ð°ÑİÑī ÐµÐ¼
ĠÑĥÐ½Ð¸ÑĩÑĤÐ¾Ð¶ ÐµÐ½Ð¸Ñı
ĠÐ³ÑĢÐ¾Ð¼ Ð¾Ð·Ð´
ĠÐ²Ð·Ð´ ÑĭÐ¼
Ð°ÑģÐº Ð¾Ð»ÑĮÐºÐ¾
Ð¿ÐµÑĢÐµÐ´ Ð¸
ĠÐ¿Ð¾Ð½ÑıÑĤ Ð¸Ñı
ÐµÐ½ Ñĥ
Ð¾Ñģ ÑģÐ°
ĠÐ¿Ð¾Ð´ Ð¾Ð¶Ð´
ĠÐ·Ð°Ðº ÑĢÐ¸Ñĩ
ĠÐ·Ð°Ð´ Ð°Ð²
Ð°Ð½ Ð°Ð²Ð»Ð¸Ð²
ĠÐ¾Ð± Ð¾Ð¶
ĠÐ¾Ð± ÑĪÐ¸Ð²
ĠÐ¾ÑĤÐ²ÐµÑĤ ÑģÑĤÐ²ÐµÐ½
ĠÑĩÐµÐ»Ð¾Ð²ÐµÐº Ñĥ
ĠÐ¿ÑĭÑĤ Ð°ÐµÑĤÑģÑı
ĠÑĥÑģ Ð¼ÐµÑĪ
ĠÐĽÐµÐ³Ð¸Ð¾Ð½ Ð¾Ð²
ĠÐ²ÑģÑĤÑĢÐµÑĩ Ð¸
ĠÐºÐ¾Ð³ÑĤ ÐµÐ¹
ĠÐ¿Ð¾Ð»Ð¾Ð² Ð¸Ð½Ñĥ
ĠÐĳÐ¾Ð»ÑĮÑĪ Ð¸Ð½ÑģÑĤÐ²Ð¾
ĠÐ½ÐµÐ²Ð¾Ð· Ð¼Ð¾Ð¶
ĠÑĤ Ð°ÑĢ
ĠÐŃ Ð²
ĠÐ²Ð¸Ð´ Ð¸ÑĪÑĮ
ĠÐ°ÑĢ ÑĤÐµÑĦ
ĠÑĢÐ°Ð½ Ñĥ
ĠÑģÐ»ÑĥÐ¶ Ð¸Ð»
ĠÐ¼ÐµÑĤÐ°Ð»Ð»Ð¸ÑĩÐµÑģÐº Ð¸Ñħ
ÑĨÐ¸Ð¿ Ð¸Ð¾Ð½
ĠÐ¼Ð¾Ð»Ð¸ÑĤ Ð²Ñĭ
ĠÐŁ ÐµÑĤ
ĠÐł ÑĥÐ±Ð¸Ð¾
ĠÐ²ÐµÑĢ Ð½ÑĥÑĤÑĮ
ĠÐ¾ÑĢ ÐºÐ°
ĠÐ¼ÐµÑĩ Ð¸
ĠÐ½ÑĥÐ¶ Ð½Ð°
ĠÐ½Ð°ÑħÐ¾Ð´ ÑıÑĤÑģÑı
ĠÑģÐ²ÑıÑĤ Ð¸Ð»Ð¸
ĠÐ·Ð²Ñĥ ÐºÐ¾Ð²
ĠÐ¸Ð½ÑģÑĤÐ¸Ð½ ÐºÑĤÐ¸Ð²
ĠÐ¥ÑĢÐ°Ð¼ Ð¾Ð²
ĠÐ» ÑĥÐ¶
ĠÐ¡ ÑĢÐµÐ´Ð¸
ĠÑģÐº Ð²ÐµÑĢ
Ð°Ð»ÑĮ Ðº
Ðŀ Ð¿
ĠÐł ÑıÐ´Ð¾Ð¼
Ð¡ Ð»ÐµÐ´
Ñį Ð²
Ð°ÑĪ Ð¸Ð½Ð°
ĠÑĢÐ°ÑģÐ¿ ÑĢÐ°Ð²
ĠÐŁÐ¾Ð´ Ð¾Ð±
ĠÐ¿ÑĢÐ¸ÑģÐ¾ÐµÐ´Ð¸Ð½ Ð¸Ð»ÑģÑı
ĠÐ³Ð°Ð»Ð°ÐºÑĤ Ð¸ÐºÐµ
Ð¼Ð¸ÑĢ Ð°Ð»
Ñģ Ð¸Ñģ
ĠÐ¿ Ð¾Ð¹ÑĤÐ¸
ĠÐº Ð²
ĠÐĳ ÑĥÑĢÐ¸
ĠÐ¿Ð¾ÑģÐ»ÐµÐ´ Ð¾Ð²Ð°Ð»Ð¸
ĠÐ¿Ð¾ÑĤÐµÑĢ ÑıÐ»Ð¸
ĠÐºÐ»Ð¸Ð½ ÐºÐ¾Ð¼
ĠÐ´ÑĢ Ð¾Ð³
ĠÐ´ÐµÑĤ Ð°Ð»Ð¸
ĠÐµÐ´Ð¸Ð½ Ð¾Ð³Ð¾
ĠÐ¿Ð¾Ð½Ð°Ð´Ð¾Ð± Ð¸ÑĤÑģÑı
ĠÐ± Ð°ÑĢÐ°Ð±
ĠÐ´ Ð°Ð½Ð½ÑĭÐ¹
ĠÐ¾Ð± Ð¶Ð¸Ð³
ĠÑĤÑıÐ¶ÐµÐ» Ð¾Ð³Ð¾
Ð² ÑĭÑĩ
ĠÐ± Ð¸Ð¾Ð½
Ð°Ð½ Ðº
Ð¸ÑĢ Ñĭ
ĠÐ²Ð¾ ÐµÐ½Ð½ÑĭÑħ
Ð¸ÑĩÐµÑģÐº Ð¾Ð¼Ñĥ
ĠÑħÐ²Ð°ÑĤ Ð¸ÑĤ
ĠÐ¿ÑĢÐ¾Ð¸Ð·Ð½Ð¾Ñģ Ð¸ÑĤ
ĠÑģ ÑĬ
ĠÑĥ Ð½Ð¸
Ð¹ ÑĤÐµ
ĠÐĽ ÐµÐ¾Ð½
ĠÐ±Ð¾Ð¹ ÑĨÑĭ
ĠÑģÑĤÐ°Ð½Ð¾Ð² Ð¸Ð»Ð¸ÑģÑĮ
ĠÐ±ÐµÐ¶ Ð°Ð»
ĠÐ²ÑģÐºÐ¾Ñĩ Ð¸Ð»
Ġ âĢĵ
Ðº Ð¾Ð»
Ðº Ð¾Ð¼Ñĥ
ÐµÐ² Ð¾
ĠÑģÐ² Ð¸ÑĤ
ĠÐľ ÐµÐ½Ñı
ĠÑįÑĤ Ð°Ð¶
ĠÑĦ ÐµÑĢ
ĠÐ¿Ð¾ÑĤ Ð°
ĠÐ½Ð¸Ðº Ð¾Ð¼Ñĥ
ÐŃ ÑĤÐ¸
ĠÐ´Ð¾Ð± ÑĢÐ°Ð»ÑģÑı
ĠÑģÐ¾Ð»Ð´Ð°ÑĤ Ð°
ĠÑĤÑĢÐ°Ð½ Ñģ
ĠÐ½Ð°Ð·Ð² Ð°ÑĤÑĮ
ĠÐ¡Ð°Ð»Ð°Ð¼Ð°Ð½Ð´ ÑĢ
ĠÑģÐ°ÑĢ ÐºÐ¾ÑĦ
ĠÑģÐ½Ð°Ð± Ð¶
Ð² Ð¾Ñı
ĠÐº Ð»Ð¸Ñĩ
Ð¸Ð½ ÐºÑĥ
ÐµÐ± ÑĢÑı
ÑĭÐ² Ð°Ð½Ð¸Ñı
Ð¢ Ð¾
ĠÐ´ÐµÐ» Ð°Ð»Ð¸
ĠÐ»ÑİÐ± ÑĭÐµ
Ġa s
ĠÑģÐ¶ Ð¸Ð¼Ð°Ñı
ĠÐļÐ¾ ÑĢÐ°Ð±Ð»ÑĮ
ĠÐ³Ð»ÑĥÐ±Ð¾Ðº Ð¸Ð¹
ĠÐ² Ð°ÑĢ
ĠÐ²Ñģ Ð»ÑĥÑħ
ĠÐ·Ð² Ð¾Ð½
ĠÐ¸ÑģÑĤ Ð¾Ñī
ĠÐ¾ÑģÐº Ð²ÐµÑĢÐ½
ĠÐ¢Ð°Ð» Ð³
ĠÐ¿Ð¾ÑĤÐ¾Ðº Ð¾Ð¼
ĠÑıÐ²Ð»Ñı ÑİÑĤÑģÑı
Ð¸Ð½ÑĤÐµÑĢÐµÑģ Ð¾Ð²Ð°Ð»ÑģÑı
ÐºÑĥ Ð·
ĠÑģÐ°Ð¼ Ð¸Ð¼
ĠÐ³Ð¾ÑĢ ÑĮ
ĠÐ¼ÐµÑģÑĤ Ñĥ
ĠÐ¶Ð¸Ð² ÑĭÐ¼
ĠÐ»ÐµÐ³Ð¸Ð¾Ð½ ÐµÑĢÑĭ
ĠÐļÐ¾ÑģÐ¼ Ð¸ÑĩÐµÑģÐºÐ¸Ðµ
ĠÑĤÑĢÐ°Ð½ÑģÐ¿ Ð¾ÑĢ
ĠÐ¼Ð¾Ð»Ñĩ Ð°Ð½Ð¸Ðµ
ĠÐ¿Ð¾Ð´Ðº Ð»ÑİÑĩ
ĠÑģÑĩÐ°ÑģÑĤ ÑĮÑİ
ĠÐ° Ð³Ð¾Ð½
ÑĢÑı Ñī
Ð½ÑĥÑĤ ÑĭÐ¹
ĠÑħÐ¾ÑĤ Ð¸ÑĤÐµ
ĠÑģÐ½Ð°ÑĢ ÑıÐ¶
Ð¼Ð°ÑĤ ÐµÑĢ
ĠÐ±Ð»Ð°Ð³ Ð¾Ð³Ð¾Ð²
ĠÐ¿ÑĤ Ð¸ÑĨÑĭ
ĠÐºÐ¾Ð½ÑĦ Ð»Ð¸Ðº
ĠÐ¿ Ð»Ñı
ĠÐ¾ ÑĢÐ°Ð½
Ð¸Ð² Ð°
ĠÐľ Ð¾Ð¶
ÐĶ Ð¾
ĠÐ¿Ð¾ÑĤÐµÑĢ Ð¿
ĠÐ¾ÑĢÑĥÐ´ Ð¸Ðµ
Ð» Ð¾Ð³Ð¾
ĠÐ· Ð¸Ñı
ÐµÐ¼ Ñĭ
ÑıÑī Ð¸Ð¼Ð¸
ĠÐ¾ÑĤÐº Ð»Ð¾Ð½
ĠÐ¿Ð»Ð°Ð½ Ñĭ
ĠÑĥÐ»ÑĭÐ± Ð½ÑĥÐ»Ð°ÑģÑĮ
ĠÐ±Ð°ÑĪ ÐµÐ½
ÐĿÐ¾Ñģ Ð¾ÑĢÐ¾Ð³
ĠÑĢÐ°Ð· ÑĢÑı
ĠÐ¾Ð³ Ð½Ð¸
ÑĢÐ°ÑĤ Ð¸ÑĤÑĮ
ĠÐ¿ÑĢÐ¸Ð´ ÐµÑĤ
ĠÐ¾ÑĦÐ¸ÑĨ Ð¸
ĠÐ¿ÑĢÐ¸Ð·Ð½ Ð°ÑĤÑĮ
ĠÐ¿Ð¾Ð²ÐµÐ» Ð¸ÑĤÐµÐ»Ñı
ĠÑĩÑĥÐ¶ Ð°ÐºÐ¾Ð²
ĠÐ³Ð°Ð»Ð°ÐºÑĤ Ð¸ÐºÐ¸
Ġth at
ĠÐ´Ð¾Ð² Ð¾Ð´
ĠÐ¿ÑĢÐ¸Ð·ÐµÐ¼Ð» Ð¸Ð»ÑģÑı
ĠÐ³ ÑĢÑĥ
ĠÑģÐ¿ Ð»Ð¾
ĠÐ½Ð°Ð² Ð¾Ð´
ĠÐ¿ÑĢÐ¾Ð² Ð¸Ð´
ĠÐ¿Ð¾Ð´Ð½ ÑıÑĤ
ĠÐº Ð°Ð½Ð´
ĠÐ½Ð° ÑĢÐ°ÑģÑĤ
ĠÑį Ð»ÐµÐ¼
ĠÐ²Ñĭ ÑģÐº
ĠÐ²Ñĭ ÑĢÐ¾Ñģ
ĠÐ¾Ð± ÑĢ
ĠÐ¿ÐµÑĢ ÐµÐ·
ĠÐ¾Ð¿ Ð°Ð»
ÐĲ Ð½Ð³
ÑıÐ¶ ÐµÐ»
ĠÐ¸Ð·Ð² Ð»ÐµÐº
ĠÐ°Ð´ Ð°Ð¼Ð°Ð½ÑĤ
ĠÑĤÑĢÐ°Ð½ ÑĪÐµ
ÑĢÐ¸Ð¿ ÐµÐ»
ĠÐ½Ð¸Ð· ÐºÐ¾
ĠÐ»Ð°Ð´Ð¾Ð½ ÑĮ
ĠÑĢÐµÐ¿ ÑĥÑĤ
Ð¸Ðº Ð°Ð½
ĠÐ¾ÑĤ Ð»Ð¸ÑĩÐ½Ð¾
ĠÑĢ ÐµÐ»
ĠÐ¿Ð¾Ð´ Ð°ÑĢ
ĠÐĸ ÑĢÐµÑĨ
ĠÐ¿Ð¾Ð½Ð¸Ð¼ Ð°ÐµÑĪÑĮ
ĠÑģÑĤÐµÐº Ð»Ð¾
ĠÐ¼Ð½Ð¾Ð¶Ðµ ÑģÑĤÐ²Ð°
ĠÐ¿Ð»Ð°ÑģÑĤ Ð¸Ð½Ñĭ
ĠÐ¼Ð¾Ð·Ð³ Ð°
ĠÐ²ÑģÐ¿Ð¾Ð¼Ð½ Ð¸ÑĤÑĮ
ĠÐ¿ÑĢÐµÐ´ÐµÐ» Ñĭ
ĠÐ¿Ð¾ÑĢÐ°Ð¶ ÐµÐ½Ð¸Ñı
ĠÑĤÐµÐ»ÐµÐ¿ Ð¾ÑĢÑĤ
ĠÐĲÐ´Ð¼Ð¸Ð½Ð¸ÑģÑĤÑĢ Ð°ÑĤ
ĠÑĤ Ð°Ñī
Ð°ÑĢ Ñĥ
ÐµÐ² Ð°Ð»Ð¸
ĠÐ¾Ð± Ð·Ð¾ÑĢ
ĠÐ·Ð° ÑĢÐ°Ð¶
ĠÐ²ÐµÑĢ Ð½Ð¾ÑģÑĤÑĮ
ĠÐ±Ð¾ÑĢ Ð¼Ð¾ÑĤ
ĠÐ´ÑĢÐµÐ² Ð½ÐµÐ¹
ĠÐ¿Ð¾ÐºÐ»Ð¾Ð½ Ð¸Ð»ÑģÑı
ĠÐļÐ°Ð»ÑĮÐ¿ÑĥÑĢ Ð½Ð¸Ñı
ĠÑģ ÑĥÐ´Ð¾Ð²
Ð¸Ð² ÐµÑĤ
ĠÐ¸Ð· Ð³Ð¾ÑĤÐ¾Ð²
ĠÑģÐº Ð°Ð¼
ĠÑĦ Ð°Ð½Ð°ÑĤ
ĠÐ¿ÑĢÐ¸Ðº Ð¾ÑģÐ½Ð¾Ð²
ĠÐ¼ÐµÐ´ Ð¸ÑĨÐ¸Ð½
ĠÐ½ÑĢÐ°Ð² Ð¸ÑĤÑģÑı
e m
Ðµ Ñĥ
ĠÐ¼ Ñĥ
ĠÐ· Ð»Ð¾
ĠÐ¿Ð¾ ÑĪÐ»Ð¸
ĠÐ¾Ð¿ ÑĢÐ¾Ðº
ĠÐ¾Ð´Ð¸Ð½ Ð¾Ðº
ĠÑģÐ¸Ð»ÑĮ Ð½ÑĭÐ¼
ĠÑĤÑıÐ¶ÐµÐ» ÑĭÐ¼
ĠÐ¾ÑĤÐ¿ÑĢÐ°Ð² Ð¸Ð»
ĠÐ¿ÐµÑĢÐµÐ² ÐµÐ»
Ð°ÑĢÐ´ Ð¸Ð½
ĠÑģÐºÐ»Ð¾Ð½ Ð¸Ð»
ÑģÑĤÐ¾ÑıÑī ÐµÐ¼Ñĥ
ĠÐ¶Ð¸Ð´Ðº Ð¾ÑģÑĤÐ¸
ĠÐ¾Ð±Ð»Ð°Ðº Ð¾
ĠÑĨÐ¸ÑĤÐ°Ð´ ÐµÐ»Ð¸
Ð¾Ñģ ÑĥÐ´
Ð°ÑĢ Ð¾Ð´
ÑģÑĤÐ² Ð°Ð¼Ð¸
Ð¼Ñĥ Ð½Ð´
ÑĢÐ¾ Ð¸Ð·
ĠÐ²ÑĭÐ± ÑĢÐ°Ð»
ĠÐ±ÑĢÐ°ÑĤÑĮ ÑıÐ¼
ĠÐĲÑģÑĤ ÐµÐ»ÑıÐ½
ĠÐ¡Ð»Ð¾Ð² Ð½Ð¾
ĠÐ¿ÑĢÐ¾Ð¿ Ð¾Ð²ÐµÐ´
ĠÑĥÑģÐº Ð¾Ð»ÑĮÐ·
ĠÐ¿Ð¾Ð»ÑĮÐ· Ñĥ
ĠÐ² Ð¸ÑĤ
ÐµÑĤ Ð¸Ð½
Ð· ÐµÐ»ÐµÐ½
ÑĨ Ð¸Ðº
ĠÐ¼Ð¸ÑĢ Ð°Ñħ
ĠÐ¿ÑĢÐ¸Ñĩ Ð¸Ð½Ðµ
ĠÐļÑĢÐ¾Ð²Ð°Ð² Ð¾Ð³Ð¾
ĠÑįÐ»ÑĮÐ´Ð°ÑĢ Ð¾Ð²
ĠÐ½Ð°ÑĩÐ¸Ð½ Ð°ÐµÑĤ
ĠÐ¾Ð¿ÑĢÐµÐ´ÐµÐ» ÐµÐ½Ð½Ð¾
ĠÑĤÑĥÐ½Ð½ ÐµÐ»ÑĮ
Ð» Ð¾ÑĢ
Ð¾Ð³Ð¾ ÑĤÑĮ
ĠÐĿ ÐµÐ¿
Ð¸Ð³ Ð°
ĠÐ¿Ð¾Ð½ ÑıÐ»Ð¸
ĠÐ¿ÑĢÐ¸Ð² ÐµÑģÑĤÐ¸
ĠÐ³ÑĢ ÐµÐ±
ĠÐºÑĥÐ»ÑĮÑĤ Ð¸ÑģÑĤÐ¾Ð²
Ñĥ ÑĢÑĭ
ÐµÐ´ Ð»Ð¸Ð²
Ð¸ÑĢ Ð°ÑıÑģÑĮ
ĠÑĨ Ð¸Ð²Ð¸Ð»Ð¸Ð·
ĠÐ¸Ð½ ÑĤÐµÑĢ
ĠÐ±Ð¾ÐµÐ² ÑĥÑİ
ĠÐ½Ð°Ð± ÑĢÐ¾Ñģ
ÑĤ ÐµÐ¹
ĠÐ² ÑĤ
ĠÐ¾ Ð¼ÐµÑĢÐ·
ĠÑĢ ÑĤÑĥ
ĠÐ¾Ñģ Ð²ÐµÑĤ
ĠÐ¿ÑĢÐ¸Ðº ÑĢÑĭÑĤ
ĠÐ¿Ð¾Ð¿ ÑĢÐ°Ð²
ĠÐ¿Ð¾ÑģÑĤ ÑĢÐ°Ð´
ĠÐ¿ÑĢÐ¾Ð¸ÑģÑħÐ¾Ð´ Ð¸Ð»Ð¾
ĠÑģÑĥÐ´ÑĮ Ð±Ñĥ
Ð¾Ð± ÑĢÐ°Ð½
ĠÑģÐ»ÐµÐ´ Ð¾Ð²Ð°ÑĤÑĮ
ÐŁÐµÑĢÐ² ÑĭÐ¹
ĠÐ¼ÑĢÐ°Ðº Ðµ
ĠÐ´ Ð°Ð»Ð¸
ĠÐ±ÑĢ Ð¸ÑĤ
ĠÑģÐºÐ»Ð¾Ð½ Ñĥ
ĠÐ»Ð°Ð·ÐµÑĢ Ð½ÑĭÐ¹
ĠÐ¾ÑĤÐ´ ÑĭÑħ
ĠÐ¾Ð³Ð½ÐµÐ² Ð¾Ð¹
ĠÑĦÑĭÑĢ ÐºÐ½ÑĥÐ»
Ð» ÐµÐµ
ÑĥÑģ Ñĥ
Ð¡ Ð¸Ð³
ĠÐ½Ð°Ð· ÑĭÐ²Ð°Ð»Ð¸
ĠÐ²Ð¾Ð¸Ð½ Ð¾Ð¼
ĠÐ¶Ð¸Ð² Ð¾Ð¹
ĠÐ²ÑĭÐ· Ð²Ð°Ð½
ĠÐ»Ð¸Ð½ Ð·Ñĭ
ĠÐ±Ð¾Ð³ Ð°ÑĤ
ĠÐ¸Ð¼Ð¿ÐµÑĢ ÑģÐºÐ¾Ð³Ð¾
ĠÐ½ÐµÐ· Ð°Ð¼ÐµÑĤ
ĠÐºÐ¾Ð»ÐµÐ½ ÑıÑħ
Ð¾Ñĩ ÐºÑĥ
ÑĥÑī ÐµÐ¼
ĠÐ´ÐµÐ» Ð¾Ð¼
ĠÐ¿Ð¾Ð± Ð»Ð¸Ð·Ð¾ÑģÑĤÐ¸
ĠÐºÐ¾ÑĢÐ¾ÑĤ ÐºÐ¾
Ġit s
ĠÐ½Ðµ ÑĦ
ĠÐ½Ðµ ÐµÑģÑĤÐµÑģÑĤÐ²ÐµÐ½
ĠÐ¿ÑĢÐ¾ÑģÑĤ Ð¾Ð¹
ĠÑĥÐ¼ Ð¾Ð»Ðº
ĠÑĢÐµÑĪ Ð¸Ð»Ð¸
ĠÑģÐ»ÑĭÑĪ Ð°Ð»Ð¸
ĠÑĢÐ°Ð·Ð´ ÑĥÐ¼
ĠÐľÐ°ÑĢ Ðº
ĠÐ¼Ð°Ð³ Ð°Ð·
Ð°ÑĢÐ½ Ð¸Ð·
ĠÑĩÐµÐ»Ð¾Ð²ÐµÑĩÐµÑģÐº Ð¾Ð³Ð¾
ĠÑĤÑĢÐµÐ² Ð¾Ð³Ð¸
ĠÐ¿ÐµÐ¿ Ð»Ð°
ĠÐ¿Ð¾Ð²ÐµÐ· Ð»Ð¾
ĠÑĩ Ð»ÐµÐ½Ñĭ
ĠÑĢ Ð¸ÑĤ
ÑĥÑģ Ðµ
Ð¼Ð¾ÑĤ ÑĢÐµÐ»
ĠÑĢÐµÐ· ÐºÐ¸Ð¹
Ð¸ÑĢÑĥ ÐµÐ¼
ĠÑĤÐ²Ð¾ Ñİ
ĠÑĢÑĥÐº Ð°Ð²
Ð¾Ð»Ð°Ð³ Ð°Ñİ
ĠÐ²ÐºÐ»ÑİÑĩ Ð°Ñı
ÑĦÐ¾ÑĢ Ð¼Ñĥ
ĠÐ³ÑĥÐ±ÐµÑĢÐ½Ð° ÑĤÐ¾ÑĢ
ÐµÐ² Ð°ÑĤÐ°ÑĢ
ĠÐ¶ Ð¸ÑĤÐµÐ»ÐµÐ¹
ĠÐºÐ°Ðº Ð¾Ð¼
ĠÐ¢ Ð°Ð´Ð´Ðµ
ĠÐ¾ÑģÑĤ Ð°Ð²ÑĪÐ¸ÐµÑģÑı
ÑıÐ» Ð¾ÑģÑĮ
ĠÐ¤ Ð°Ñį
ĠÐ±Ð¸ÑĤ Ð²Ñĥ
ĠÐ¢ ÑĢ
ÑĥÑĩ Ð°Ð»Ð¸
ÑĢÑĥÐ¶ Ð¸Ðµ
ĠÐ²ÐµÑĢ Ð¸Ð»
ĠÐ§ ÐµÐ¼
ĠÐ±ÐµÑģ Ð¿ÑĢ
ĠÐºÐ¾Ð¼Ð°Ð½Ð´ Ð¾Ð²Ð°Ð½Ð¸ÐµÐ¼
ĠÐ¾ÑģÑĤÐ°Ð»ÑĮ Ð½ÑĭÐ¼Ð¸
ĠÐ¾Ñħ Ð²Ð°Ñĩ
ĠÑģÑĤÑĢÑĥ Ðº
Ð°ÑİÑīÐ¸Ð¼Ð¸ ÑģÑı
ĠÑĢÐ°ÑģÐ¿Ð¾ÑĢ ÑıÐ¶
ĠÐ± ÑĥÐ»
Ð± Ð¾ÑĢ
Ð¢ ÐµÐ±Ðµ
ĠÐ·Ð°ÑĤ ÑĭÐ»
ĠÑĥÐ³ Ð»Ñĥ
ĠÐ¾Ð±Ð¾ÑĢ ÑĥÐ´Ð¾Ð²
ÑĮ ÐµÑĤ
ĠÐ¼ Ð¸Ðº
ĠÐĿ Ð°Ð¹
Ð°ÑĤÐµÐ»ÑĮ Ð½ÑĭÐ¼
ĠÐ¸Ð¼Ð¿ÐµÑĢ ÑģÐºÐ¸Ðµ
ĠÐ´Ð¾ÑĢÐ¾Ð³ Ðµ
ĠÐ¿Ð¾ÑģÐ» Ð°Ð»
ĠÐ»ÐµÐ·Ð² Ð¸Ñı
ĠÑĤÑĢÐµÑģÐº Ð¾Ð¼
ĠÑįÐ»ÐµÐº ÑĤ
ĠÑģÐ»ÑĥÑħ Ð¸
ĠÐ¸Ð»Ð»Ñİ Ð¼Ð¸Ð½Ð°ÑĤÐ¾ÑĢ
ÑİÐ½ ÑĤÐµÑĢ
ĠÐ³ Ð°Ð´
Ðļ Ñħ
Ð¡ ÑįÑĢ
Ñį Ð½Ð´
ĠÐ¿ÑĢÐ¾Ð´Ð¾Ð»Ð¶ Ð°Ð»Ð°
ĠÑģÐ¾Ð±Ð¸ÑĢ Ð°Ð»Ð¸ÑģÑĮ
ĠÑģÑĤÐ°Ð½Ð¾Ð² Ð¸Ð»ÑģÑı
ÐĺÐ¼ ÐµÐ½Ð½Ð¾
ĠÐ·Ð°ÑīÐ¸Ñī Ð°ÑĤÑĮ
ĠÐ¾Ð±Ð¾ÑĢÐ¾Ð½ Ñĥ
Ġ r
Ðº Ð°Ðº
ĠÐĺ Ð»Ð»
Ð¸Ð²ÑĪ Ð¸Ð¼
ÑĥÐº Ñģ
ĠÐ¿ÑıÑĤÑĮ Ð´ÐµÑģÑıÑĤ
ĠÑģÐ²ÑıÑī ÐµÐ½
ĠÐ² Ð¾Ð´Ð°
Ð¾Ð± ÑĢÐµÑĤ
ĠÐĴ Ð½ÑĥÑĤÑĢÐ¸
Ð¸ÑģÑĤ Ð¾ÐºÑĢÐ°ÑĤ
ĠÐ¶ÐµÐ» ÑĤ
ĠÐ¿Ð¾Ð½Ð¸Ð¼ Ð°Ñı
Ġc on
ĠÐ¸Ð´ ÑĥÑĤ
ĠÐ» ÐµÑģÐ°
ĠÑģÐ² ÐµÑĩ
ĠÐŁ ÑĢÐ¾Ð²
ĠÐ¿ÐµÑĢ Ð³
ÑĥÑİ ÑīÐµÐµ
ĠÐĶ ÐµÐ¼
ÐŁ Ð¾Ð½
ĠÑģÐµÑĢ ÐµÐ´
Ð¾Ð²Ð°Ð½ Ð½ÑĭÑħ
ĠÐ²Ð¿ ÑĢÐ°Ð²
ĠÐ¾Ð¿ÑĢÐµÐ´ ÐµÐ»ÐµÐ½
ĠÑģÐ¾Ð·Ð´ Ð°Ð½Ð¸Ðµ
ĠÑĤÑı Ð½ÑĥÐ»Ð¸ÑģÑĮ
ĠÑĤÐµÐ½ ÐµÐ¹
ĠÐºÐ»Ð°Ñģ ÑģÐ°
Ð³ ÐµÐ½ÐµÑĢ
Ð¸Ð¼ ÑĭÐ¼Ð¸
Ð½Ð° ÑģÑĤÐ¾ÑıÑīÐµÐ¼Ñĥ
Ñĳ Ðº
ĠÐ¾Ðº Ð¾Ð¿
ĠÐ²Ð·Ð³Ð»Ñı Ð½ÑĥÑĤÑĮ
ĠÑģÐ¾ÑĤ Ð²Ð¾ÑĢ
ÑıÐ³ Ð¸Ð²Ð°Ñı
ĠÐ¾ÑĤÐ¿ÑĢÐ°Ð² Ð¸Ð»ÑģÑı
ĠÑĥÑĤÐ²ÐµÑĢ Ð¶
ĠÐ¿Ð¾Ñģ ÑĭÐ¿
Ð¼Ð¾ÑĤ ÑĢÐ¸
ĠÐ³Ð»Ð°Ð² Ð½Ð¾Ð³Ð¾
ĠÐ½ÐµÐ¿Ð¾Ð´ Ð°Ð»ÐµÐºÑĥ
ĠÐ¿ÐµÑĢÐ³ Ð°Ð¼ÐµÐ½ÑĤ
Ð´ ÐµÑĢ
ĠÐ¼ Ð°ÑĤ
ĠÐĴ Ð¾Ð»ÑĮ
ĠÐĴ ÑģÐºÐ¾ÑĢÐµ
ĠÐ¿ÐµÑĢÐ² Ð°Ñı
ĠÑįÐ½ÐµÑĢÐ³ Ð¸Ñı
ĠÐ¿ÑĢÐ¸Ñĩ Ð¸Ð½Ð°
ĠÐ¸Ð·Ð± ÐµÐ³
ĠÐĽÑĥ Ð¿ÐµÑĢ
ĠÑģÐºÐ¾Ð½ ÑĨÐµÐ½ÑĤÑĢ
ĠÑĩ ÐµÐ¹
ĠÐ¿Ð¾ ÑıÑģÐµ
ÐĴ ÑĤÐ¾ÑĢ
Ðļ Ð¾ÑģÐ¼
ÑĥÐ» Ð¾
ĠÐ¿ÑĢÐ¾Ð± ÑĥÐ´
Ð¾Ñī Ð°Ð´
ĠÐ²Ð·Ð³Ð»ÑıÐ´ Ñĭ
ĠÐ´Ð¾Ð» Ñİ
ĠÐ³ÑĢ ÐµÑħ
ĠÐ²ÑĭÐ± ÑĢÐ°ÑĤÑĮÑģÑı
ĠÐºÐ°Ð¿Ð¸ÑĤÐ°Ð½ Ñĥ
ĠÐ±ÐµÐ·ÑĥÐ¼ Ð¸Ñı
ĠÐŁÐ¾Ð» ÐºÐ¾Ð²Ð½Ð¸Ðº
ĠÐ¿ÑģÐ°Ð¹Ðº ÐµÑĢÐ°
ĠÑĢÐµÐ°Ð»ÑĮ Ð½Ð¾ÑģÑĤÑĮ
ĠÐŃÐº ÐºÐ»ÐµÐ·Ð¸Ð°ÑĢÑħ
ĠÑģ Ð¾Ð¼Ðº
ĠÐ¼ Ð¸ÑĦ
Ð¸ÑĢ Ð°ÑĤÑĮÑģÑı
Ð°Ð³ Ñĥ
ĠÑĤÑĢ Ð°ÑĤ
ĠÐ½ÐµÐ¼ Ð°Ð»Ð¾
ĠÐ¿ÑĢÐ¾Ð² Ð°Ð»
ÑģÑĤÐ²ÑĥÑİÑī Ð¸Ñħ
ĠÐ²Ð¾ÑģÑģÑĤÐ°Ð½Ð¾Ð² Ð¸ÑĤÑĮ
ÐµÑĢ ÐµÐ¼
ĠÐ· Ð¾Ð½Ðµ
ĠÐ½Ðµ ÑĥÐ²ÐµÑĢ
ĠÐºÐ¾Ð¼ Ð¼
ĠÐ´Ð²Ð¸Ð³ Ð°ÑĤÐµÐ»Ñı
ĠÐ·Ð½Ð°Ñĩ Ð¸ÑĤÐµÐ»ÑĮÐ½Ð¾
ĠÐ²ÑģÑĤÑĢÐµÑĤ Ð¸ÑĤÑĮ
ĠÐ¸Ð·Ð³ Ð¸Ð±
ÐµÐº ÑĤÐ¾ÑĢÐ°
ÑģÑĤÐ²ÐµÐ½ Ð½Ð¾Ð³Ð¾
ĠÐ¿Ð¾Ð¼ Ð½Ñİ
Ð°ÑĢÑħ Ð°
ĠÐ°ÑĢÐ¼ Ð¸Ñı
ĠÐ¿ÑģÐ°Ð¹Ðº ÐµÑĢÐ¾Ð²
ĠÐ¾Ð´Ð¸Ð½Ð¾ ÑĩÐµ
ÐĲÐ» Ð°ÑĢÐ¸Ðº
ĠÐĲÑĢÐ±Ð¸ÑĤ ÑĢÐµÑģ
Ð¾ ÑĢÐ°Ð¼Ð¸
ĠÐ² ÑĤÑı
ÐµÑģÑĤ Ð¾Ñĩ
ĠÐł Ð¾
ĠÐ»ÑĥÑĩ ÑĪÐ¸Ñħ
ĠÐ²ÑĭÐ± Ð¾ÑĢÐ°
ĠÐĲÐ½Ð³ ÑĢÐ¾Ð½Ð°
ĠÑįÐ½ÐµÑĢÐ³ Ð¸ÐµÐ¹
ĠÐ°ÑĤÐ¼Ð¾ÑģÑĦ ÐµÑĢÑĥ
ĠÑģÑĤÐ°ÑĤÑĥ Ð¸
ĠÑĩÑĢÐµÐ· Ð²ÑĭÑĩ
ĠÐº Ð°ÑİÑĤ
ÑģÐº Ð°
ĠÐĶ ÑĢÐµÐ²
ĠÑĤÑĢ Ñİ
ÑĢÐ°Ð¼ Ð¼Ð°ÑĤ
ĠÐ²ÑĭÐ¿ ÑĥÑģÑĤ
ĠÐ±ÑĢÐ°ÑĤ Ð¾Ð¼
ĠÑĢÐ°ÑģÑģ ÑĥÐ´
ĠÐ¿Ð¾Ð´Ð½ÑıÐ» Ð°ÑģÑĮ
ĠÐ¾ÑģÐ½Ð¾Ð² Ð½Ð¾Ð¼
ĠÑħÐ¾Ð»Ð¾Ð´ Ð½ÑĭÐ¹
ĠÐ²ÑĭÑģÐ¾Ðº Ð¸Ð¹
ĠÐ³ÑĢÑı Ð´ÑĥÑī
ĠÐ¼ÑĭÑģÐ» ÐµÐ¹
ĠÑĥÑħÐ¼ÑĭÐ»ÑĮ Ð½ÑĥÐ»ÑģÑı
ÐµÑĢ Ð¼Ð°Ð½
ĠÑĨ ÐµÐ»ÐµÐ¹
ĠÐ¡Ðº Ð¾Ð»ÑĮÐºÐ¾
ĠÐ¾ÑĩÐµÑĢÐµÐ´ Ð¸
ĠÑĪÐ¸Ð¿ ÐµÐ½Ð¸ÐµÐ¼
Ð» ÐµÑĢ
ĠÐ¿ Ð°Ð²ÑĪÐ¸Ñħ
ĠÑĩ ÑĥÐ¼
ĠÑĥ ÑĢÐ¾Ð½
ĠÐ±Ð¾Ð»ÑĮÑĪÐµ Ðµ
ĠÐ¡ÑĤ ÑĢÐ°Ð½
ĠÐ²ÑĤÐ¾ÑĢ Ð°Ñı
ĠÐ½Ð°Ð±Ð»Ñİ Ð´Ð°ÑĤÑĮ
ĠÑİ Ð¶
ĠÐ·Ð°ÐºÐ¾Ð½Ñĩ Ð¸Ð»
ĠÐ½Ð°Ð¿Ð°Ð´ ÐµÐ½Ð¸Ñı
ĠÑĥÑĪ Ð°Ñħ
ĠÐŀÐ¼ Ð½Ð¸ÑģÑģ
Ñĩ Ð°Ð¹
ĠÐ¿Ð¾ Ñī
ÐµÐ»ÑĮ Ð½Ð¾
ĠÑĤÑĢ Ð¸ÑĥÐ¼
Ð£ ÑĢÐ¸ÑįÐ»ÑĮ
ĠÐ¼Ð³Ð½Ð¾Ð² ÐµÐ½Ð¸Ñı
ĠÑĪÑĤ ÑĥÑĢ
ĠÐºÐ°Ð¼Ð¿ Ð°Ð½Ð¸Ð¸
ĠÑģ Ð°Ð»
ÐµÐ´ Ð¸
ĠÑģÑĤ ÑĥÐº
Ð¸Ð´ Ð¾Ð²
ĠÐľ Ð¾Ð¸
Ðĳ Ð»Ð°Ð³Ð¾Ð´Ð°ÑĢ
Ð»Ð¸Ð² ÑĭÐ¹
ĠÐ¶ÐµÐ» Ð°Ð»
ĠÐ± ÑĮÑİ
Ð¾ÑĤ Ð²Ð¾ÑĢ
ĠÐ¿Ð¾Ð² Ð¾ÑĢÐ¾ÑĤ
ĠÐºÐ¾Ð¼ Ð¸ÑģÑģ
ÑģÑĤÐ²Ð¾Ð² Ð°Ð»Ð¾
ĠÐ±ÑĢÐ¾Ñģ Ð¸ÑĤÑĮ
ĠÐ¿Ð¾ÑĤÑĢÐµÐ± ÑĥÐµÑĤÑģÑı
ĠÐŁ Ð°
Ð¸ÑĢÐ¾Ð² Ð°Ð»Ð¸ÑģÑĮ
Ðł Ð¾ÑģÑģ
ĠÐ¾Ð¶Ð¸Ð´ Ð°ÑĤÑĮ
ĠÐ¿Ð¾ÑħÐ¾Ð¶ Ð¸Ð¹
ĠÐ°Ð» ÐµÐ±
ĠÐ·Ð°ÑĪ Ð°Ð³
ĠÐºÐ¾Ð»Ð´Ñĥ Ð½
ĠÐĸÐ¸Ð»Ð» Ð¸Ð¼Ð°Ð½Ð°
Ðµ ÑģÑĤÐ²Ð¾Ð¼
Ð»Ñı Ñī
ÐµÑĪ Ð½Ð¾
ĠÐ¿ÑĢÐ¾ÑĪ Ð»Ð¾Ð¼
ĠÑģÐ»ÑĥÑĩ Ð°Ñı
ĠÐ¿Ð¾Ð³Ð¸Ð± ÑĪÐ¸Ñħ
ĠÐ¿ÑĢÐ¾Ð¸Ñģ Ñħ
ĠÑģÐ¸Ð¼Ð²Ð¾Ð» Ñĭ
ĠÑĪÑĢÐ°Ð¼ Ð°Ð¼Ð¸
ĠÐ±Ð°ÑĤÐ°ÑĢ ÐµÐ¸
Ð¸Ð» Ðµ
Ð¾ÑĢ Ð¾
ĠÐ¾Ð± Ð»Ð°ÑģÑĤ
ĠÑĢÐ°Ð±Ð¾ÑĤ Ðµ
ĠÐ¾ÑģÑĤÐ°Ð½Ð¾Ð² Ð¸Ð»Ð¸ÑģÑĮ
ĠÐ²ÑĭÐ· Ð²Ð°Ð»
ÑĢÐ°ÑĤÑĮ Ñı
ĠÐ¿ ÑĥÑĢ
ĠÐ¿ÑĢ Ð¸Ñī
Ð¾Ð´ Ð¾Ð²
ĠÐ²Ñĭ Ð²
ĠÐŃ Ð¹Ð´
ĠÐ²ÐµÑĢ Ð°
ĠÐ²ÐµÑĢ Ð½Ð¾ÑģÑĤÐ¸
ĠÐ§ ÐµÑĤ
ĠÑĩÐ¸Ñģ Ð»Ð¾
ĠÐļÑĥÐ»Ð°Ðº Ð¸
ĠÑĥÑĪ Ð¸
ĠÐ¸Ð·Ð±Ð°Ð² Ð¸ÑĤÑĮÑģÑı
Ð½ Ð°Ð»Ð¸
ÑĢÐ¸ ÑĦ
ÐŁÑĢ Ð¸Ð½
ĠÐ¼Ð°Ñģ ÐºÐ¸
ĠÑĢÐ°Ð±Ð¾ÑĤ Ð°Ð»Ð¸
ĠÐ¼ÑĥÐ¶Ñĩ Ð¸Ð½Ñĭ
ĠÑĪÐ°Ñħ ÑĤÑĭ
ĠÐ¡ÑĥÐ´ Ñı
ĠÑĢÐ°ÑģÐºÐ¾Ð» Ð¾Ð»
ĠÑģÐ¸Ð»ÑĥÑį ÑĤÑĭ
Ð°ÑĤ ÑĥÑĢ
ĠÐĴ ÐµÐ´ÑĮ
ĠÐ¸Ð¼ ÐµÐ½
ĠÐ±Ð°Ð³ ÑĢÐ¾Ð²
Ð¿ Ð°Ð´
ĠÐ¾Ð± ÑģÐ»ÑĥÐ¶
ĠÐĳ Ð¾Ð»ÐµÐµ
ĠÐ½Ð°ÑģÑĤ Ð°
ĠÐ¼Ð°Ð½ Ð¸Ð¿
ĠÐ²Ð»Ð¸ Ñı
ĠÐĶÑĢÐµÐ¹ Ðº
ĠÐ°Ð²ÑĤ Ð¾Ð¿
ĠÐ²ÑĢÐ°Ð¶Ð´ ÐµÐ±
ÐµÑĢ Ð½ÑĥÐ»
ĠÐ¼ Ð¾ÑĢÐµ
Ð¾Ð» Ð¾Ðº
ĠÐ¸Ð· ÑĬ
ĠÐ·Ð° ÑģÑĤÑĢ
ĠÐ¸ÑģÐº ÑĢ
ĠÐ¿ÑĢÐ¸Ð² ÐµÐ»
ÑĢÐµÐ½ Ð´
ĠÐ³ÑĢÐ°Ð½ Ð¸
ĠÐ´Ð²Ð¾ÑĢ ÐµÑĨ
ĠÐ¼Ð°Ð³Ð¸ÑģÑĤÑĢ Ð°
Ð°Ð½ ÑģÐ°
ĠÑģÐ» Ð¸Ð·
ÐĲ ÑĢÐ³
ÐµÑĢÑĤ Ð²Ð°
ĠÐºÐ¾ÑĢÐ°Ð± ÐµÐ»ÑĮ
ĠÐ³Ð¾Ð»Ð¾Ñģ Ð¾Ð²
ĠÑģÐ»Ð°Ð± ÑĭÐ¹
ĠÐĲÐ½ Ð´
ĠÐ²ÑģÐ¿ÑĭÑħ Ð½ÑĥÐ»Ð¸
ĠÑģÐµÑĢÑĮÐµÐ· Ð½Ð¾
ĠÐ½Ð°Ð¿Ð»ÐµÑĩ Ð½Ð¸Ðº
ĠÐ¾ÑĢÐ³ Ð°Ð½Ñĭ
Ð¸Ð² Ð°ÐµÐ¼
ÐŁ Ð¾Ð¶
ĠÐ¿Ð¾ÑĢ Ð¾Ð¶Ð´
ĠÐ¾Ð±ÑĬ ÑıÑģ
ĠÐŀÐ± Ð°
ĠÐ´ÐµÑĤ ÐµÐ¹
ĠÐºÐ¾Ð¿ ÑĮÑı
ĠÐ¿Ð¾Ð´ÑĤÐ²ÐµÑĢÐ´ Ð¸Ð»
ĠÐ´ ÑĥÐ±
ĠÐ¾Ð± Ð´ÑĥÐ¼
ĠÐ¿Ð¾Ñģ ÐµÑĤ
ÐŁ Ð¾Ðº
ĠÐĹ Ð¾Ð»Ð¾ÑĤ
ĠÐ¿ÑĢÐ¾Ð± Ð¸Ð»
ĠÐ»Ð°Ð·ÐµÑĢ Ð½ÑĭÐµ
ĠÐ·ÑĥÐ± Ð¾Ð²
ĠÐ¿ÑĢÐ¸Ð¿ Ð¾Ð´Ð½Ñı
ĠÑģÐ¼ ÐµÐ»
ĠÐ¿ÑĢÐ¾Ð½Ð¸Ðº Ð½ÑĥÑĤÑĮ
ĠÐľÐµÑĢ Ð¾Ñģ
Ð°Ð² ÑĪÐµÐµ
ĠÐļ Ð¾Ð´
ĠÑħ Ð»ÐµÑģÑĤ
ĠÐ²Ð· Ð²Ð¾Ð´
ÑĢÑı Ð·
ĠÐ¿ÑĢÐ¸Ð¼Ð°ÑĢÑħ Ð¾Ð¼
ĠÐ¿ÑĢÐ¸Ð·Ð½ Ð°ÐºÐ¸
ĠÐ½Ð°Ð» ÐµÑĤ
ĠÐ³Ð²Ð°ÑĢÐ´ÐµÐ¹ ÑĨÑĭ
ĠÑģÐµÐ½Ñģ Ð¾ÑĢ
ĠÐ·ÑĢÐµÐ»Ð¸ ÑīÐµ
Ð¸Ð² Ð°ÑİÑīÐ¸Ð¹
ĠÐ¾Ñģ Ð°Ð´
ĠÑĥÐ± Ð¸Ð»Ð¸
Ð½ÑĥÑĤ ÑģÑı
Ðķ Ð´
ĠÐ¿ÑĢÐ¸Ð·Ð½ Ð°ÐºÐ¾Ð²
ĠÐ·Ð°ÑħÐ²Ð°ÑĤ Ð¸ÑĤÑĮ
ĠÐĺÑģ ÑģÑĤÐ²
ĠÑĩÐµÐ»Ñİ ÑģÑĤÐ¸
ĠÐ°ÑģÑģ Ð°Ñģ
Ð° Ð¸Ð¼
ĠÐ· Ð¾Ð½Ñĥ
ĠÑĥ ÑĢÐ¾Ðº
ĠÐ¾Ð± Ð¾Ð¹
ĠÑĦ ÑĢÐ°Ð·
ĠÑĤÐµÐ¼ Ð¿ÐµÑĢ
ĠÐ»ÐµÐ³ ÐºÐ¸Ðµ
ĠÐ±Ð¾ÑĢ Ð¾Ð»
ĠÐ´ÑĢÐµÐ´Ð½Ð¾ÑĥÑĤ Ð°
ĠÐļÑĢÐµÑģÑĤ Ð¾Ð²Ð¾Ð³Ð¾
ĠÐ¿ÑĢÐ¾Ð· ÑĢÐ°Ñĩ
ĠÑĤ ÑĢÐ°Ð¿
ĠÐļ Ð°Ð±
ĠÑĢÐ°Ð· Ð½Ð¾Ñģ
ĠÑģÐº ÑĢÐ¸Ð²
ĠÐ¸Ð¼ ÐµÐ»Ð°
ĠÑģÐ¸Ð» Ðµ
ĠÐ½Ð°Ð¿ ÑĥÐ³
ĠÐºÐ¾Ð½ Ðº
ĠÑĥÐ´Ð°ÑĢ Ð¸Ð»Ð¸
ĠÑĨÐµÐ» ÑĥÑİ
ÑĮ ÑıÐ²
Ð¾ÑģÑĤ ÐµÐ¹
ĠÐ¿Ð¾Ð´Ð½Ñı Ð»Ð°
ĠÑģÑĤÐ°Ð½ ÑĥÑĤ
ĠÐĿÐµÑģÑĥÑī ÐµÐ³Ð¾
ĠÐ·Ð²ÐµÑĢ ÑĮ
ĠÐ¼Ð¾ÑĢ Ñī
ĠÑģÐ¾Ð¼Ð½ÐµÐ² Ð°ÑİÑģÑĮ
ĠÐ½Ð°Ð·Ð² Ð°Ð½Ð¸Ðµ
ĠÐĳÐ°Ð´ Ð°ÑĢ
c h
Ñĩ ÐµÐ¹
Ð°ÑĤ ÑĩÐ¸Ðº
Ð½Ñı Ð»
ĠÐºÐ°Ð± Ð¸Ð½Ñĭ
Ð¡Ðº Ð¾Ð»ÑĮÐºÐ¾
ĠÐļÐ°ÑģÑĤ Ð¸Ð½
ĠÐ¿ Ð¾Ð³Ð¾
ĠÐ¡ Ð¸Ð¼
ĠÐ°ÑĤÐ°Ðº Ð¾Ð²Ð°Ð»Ð¸
ĠÐ·Ð°ÑģÑĤÐ°Ð² Ð¸Ð²
ĠÑģÑĤÑĢÐ°Ð½ Ð½ÑĭÐ¼
ou ld
ĠÐ²ÑĭÐ³Ð»ÑıÐ´ÐµÐ» Ð°
ĠÐ» Ð°Ð³ÐµÑĢ
ĠÐ¿Ð¾Ð´ Ð¶
ĠÐ²Ð¾Ð· ÑĢÐ°Ð¶
ĠÐ´ÑĢÑĥÐ³ Ð¾Ð¼Ñĥ
Ñĭ Ð´ÑĥÑī
ĠÐ¿Ð¾Ð´ Ð°Ð»ÑĮÑĪÐµ
ĠÑĩÐµÑĢ ÑĤÐ¾Ð²
ĠÐĹ Ð°Ð²
Ð°Ð½Ð´ ÑĢÐ°
ĠÐ´Ð¾ÑģÑĤ Ð¸Ð¶
Ð¿ÑĢ Ð¾ÑĪ
ĠÑģÐ± ÐµÐ¶Ð°ÑĤÑĮ
ĠÐ²ÐµÐ»Ð¸Ðº Ð¸Ð¹
ĠÑĢÐ°Ð·Ð¼ ÐµÑī
ĠÐ´ÐµÐ² ÑĥÑĪÐºÐ°
ĠÐºÐ°Ð¿ÑİÑĪ Ð¾Ð½
ĠÐ¥Ð°Ð² ÑģÐµÑĢ
ĠÑģ ÑĥÐ¶Ð´
ĠÑĩ ÑĮÑı
Ð± ÑĥÑģ
ÑģÑĤÐ² Ð¸Ð¹
ĠÐĴ Ð°ÑĢÐ¿
ĠÑħÐ¾ÑĤ ÐµÐ»Ð°
ÑĥÐ· Ñĥ
ĠÐ¿ÑĢÐ¾Ð½ Ð¸Ð·
ĠÐĺÐ½ Ð¾Ð³Ð´Ð°
ĠÐ¿ÐµÑĢÐµÐº ÑĢÐµÑģÑĤ
ĠÑĥÐ·Ð½ Ð°Ð²
ĠÑģÐ³ ÑĥÑģÑĤ
Ð¸Ð½Ð´ ÐµÑĢÐ¼Ð°Ð½
ĠÐ´Ðµ ÑıÑĤÐµÐ»ÑĮ
ĠÐ¾ÑĤÐ¼ÐµÑĤ Ð¸Ð»
ĠÑģÐµÑģÑĤ ÑĢÐ°
ĠÐ¶ Ð°ÑĢÐ°
ÑĢÐ°Ð± Ð°ÑĤ
ĠÐ½ÐµÐ¿ Ð¾Ð½ÑıÑĤ
ĠÐ¿ÑĢÐ¾ÑĤÐ¸Ð² Ð½Ð¸ÐºÐ¾Ð²
ĠÐ¸Ð·Ð² ÑĢÐ°Ñī
ĠÑģÐ¾Ð±ÑģÑĤÐ²ÐµÐ½ Ð½ÑĭÐ¼
ĠÑģÐ¼Ð¾Ð³ Ð»Ð°
ĠÐ¿Ð¾Ð´ÑĥÐ¼ Ð°ÑĤÑĮ
ĠÐ½ÐµÐº ÑĢÐ¾Ð½Ð¾Ð²
ĠÑģÐ¼Ð¾Ð¶ ÐµÑĪÑĮ
ĠÐºÐ¸Ð½ Ð¶Ð°Ð»
ĠÐŁÑĢÐ¾Ñģ Ð¿ÐµÑĢ
Ð»Ð¸ ÑĨ
ĠÐ¿Ð¾ ÐµÐ´Ð¸Ð½
ĠÐĿ Ð¸ÑĩÐµÐ³Ð¾
ĠÐ´ÑĢÑĥÐ³ Ð°Ñı
Ð¼Ñĥ Ð½Ð¸Ðº
ĠÐ·Ð°ÑĤ Ñı
ĠÑĢÐ°Ð± Ñĭ
ĠÐ¼Ð¾Ñī ÑĮÑİ
ĠÐŁÐ¾Ñģ Ð»ÑĥÑĪ
ĠÐ¿ÐµÑĢÐµÐ³ Ð¾Ð²Ð¾ÑĢ
ĠÐ²Ðµ ÑīÐµ
ÐµÐ½ ÑĨÐµÐ²
Ð¾Ð¶ Ñĥ
ĠÑį Ð»ÑĮ
ĠÐ° Ð¼Ð±
ĠÑģÐ¾Ð±ÑģÑĤÐ²ÐµÐ½ Ð½ÑĥÑİ
ĠÐ¿Ð¾ÑĤÐµÑĢ Ñı
Ð¸ÑħÐ¾ ÑĢÐ°Ð´
Ñĥ Ð½Ð°
Ðº Ð¾ÑĤ
Ð¸Ñģ Ðµ
ĠÐ¸Ð· Ð¾Ð»
ĠÑĢÐ°Ð ¿
ĠÐĲÑĢ Ð¸Ð¼Ð°Ð½Ð°
ĠÐ·Ð°Ð± ÑĭÑĤÑĮ
ĠÐ±Ð¸ÑĤ Ð²
ĠÑģÐ¿ÑĢÐ°Ð² Ð°
ĠÑĤÐ¸ÑĪ Ð¸Ð½Ðµ
ÐŁÐ¾Ð² ÐµÐ»
ĠÐ¿ÑĢÐ¸Ñī ÑĥÑĢ
Ð¾ ÐµÐ¼
ĠÐĴ ÑĢÐµÐ¼Ñı
Ð´Ð° ÐµÐ¼
ĠÐĽ ÐµÐºÑģ
Ð¸ÑĢÐ¾Ð² Ð°Ð½Ð¸Ðµ
ĠÐ¿Ð¾Ð² Ð¾Ð´Ñĥ
Ð¾ÑĢÐ¾Ð´ Ð¸Ñĩ
Ð°ÑİÑīÐµ ÐµÑģÑı
ĠÐ¸ÑģÑģ Ð»ÐµÐ´Ð¾Ð²
ĠÐ½ÐµÐ¿Ð¾Ð´Ð²Ð¸Ð¶ Ð½Ð¾
ĠÑģÐ¼ÑĭÑģ Ð»Ðµ
ĠÑģÐ²Ð¸Ñģ Ð°Ð»Ð¸
ĠÐ°Ð³ÑĢ ÐµÑģÑģ
Ð°Ð¿ Ð¸ÑĤÐ¾
ÑĥÐ¼ Ð½Ð¾
Ðļ Ð°Ð¶Ð´
Ð°Ð²ÑĪ Ð¸Ð¼ÑģÑı
ĠÐ·Ð°Ðº Ð»Ð¸Ð½
ĠÐ¾ÑĤÑģ ÐµÐºÐ°
ĠÐŀÐ´ Ð½Ð°
ĠÐºÐ½ Ð¾Ð¿
ĠÑģÐ¸ÑĤÑĥ Ð°ÑĨÐ¸Ñİ
ĠÑĢÐ°Ð²Ð½Ð¾Ð²ÐµÑģ Ð¸Ðµ
ĠÐºÐ°ÑĤÐ°ÑģÑĤÑĢÐ¾ ÑĦ
a is
ĠÐ¾ Ð¼
ÐµÐ½ Ðµ
ĠÐ¾ÑĤ ÑģÑĤ
ĠÐļ ÑĥÑģÑĤÐ¾Ð´
ĠÑĢÐ°Ð· Ð¾Ð¼
Ñĳ Ð¿
ÐĿ Ð¸
ĠÐĵ Ð»Ð°Ð²
ĠÐ·Ð°Ð¿ ÐµÑĢÑĤ
ĠÐ´Ð¾Ð» Ð¾Ð¶Ð¸Ð»
ĠÐ½ÐµÐ´ Ð¾Ð²ÐµÑĢ
ĠÐ¸Ð·Ð¼ÐµÐ½ Ð¸ÑĤÑĮ
Ð¾ÑĢÐ¾Ð¶ Ð½Ð¾
ĠÐŁÑĢÐ¸ Ð°Ð´
ro m
Ð¸Ð² Ð°Ð½Ð¸Ðµ
ĠÐ¾Ð± ÑĢÐµÑĤ
ĠÑĤÑĢ Ð¾Ð¿
ĠÐ±ÐµÐ· ÑĥÐ¿
ĠÐ³Ð¾ÑĢ ÐµÐ»
Ð½ÑĥÑĤ Ð¾Ð¹
ĠÐŁÑĢ Ðµ
Ð°ÑĦ ÑĦ
ĠÑĤÐ¾ÑĢ Ð³
Ġh ad
ĠÐ¼ÐµÑĤÐ°Ð»Ð»Ð¸ÑĩÐµÑģÐº Ð¾Ð¹
ĠÐºÐ¾ÑģÐ¼Ð¾Ð´ÐµÑģÐ°Ð½ÑĤÐ½Ð¸Ðº Ð¸
ĠÐºÐ°Ñģ Ð°ÐµÑĤÑģÑı
ĠÐŀÐ¼ ÐµÐ³Ð¾Ð½
Ð°Ð»Ð´ Ð¾ÑĢÐ¾Ð½
ĠÑĢÑıÐ² ÐºÐ½ÑĥÐ»
ÑĤ ÐµÐº
ÐŁ ÑĥÑģÑĤ
ÑĢÐ°Ðº Ð°
ĠÐ³ÐµÐ½ Ð¾ÑģÐµÐ¼
r ou
ĠÑģ Ð¾ÑĢÐ¾Ðº
Ð¿ ÑĢÐ°Ð²
Ð¾ÑĢ Ð°Ñĩ
ĠÐľ Ð°Ð´
ÐŁ ÑĢÐ°Ð²
ÐµÐ¼Ñĥ ÑģÑı
ĠÐ·Ð°Ð± ÑĭÐ»
ĠÐ¾Ð³ÑĢÐ¾Ð¼ Ð½ÑĭÐ¼Ð¸
ĠÑĥÑģÐ¿ Ð¾ÐºÐ°
ĠÑģÑĩÐ¸ÑĤ Ð°Ð»Ð¸
ĠÐ¿ÑĢÐ¸ÑģÑĥÑĤ ÑģÑĤÐ²Ð¸Ð¸
ĠÑĢÑĥÐº Ð¾Ð¿
ĠÐ³ÐµÐ½ÐµÑĢ Ð°Ð»
ĠÐ²ÑĤÐ¾ÑĢÐ¶ ÐµÐ½Ð¸Ñı
Ð¿ Ð°
Ð°ÑĤ ÑģÑı
Ñī Ð¸ÐºÐ¸
ĠÐ¸Ð·Ð¼ÐµÐ½ Ð¸Ð»Ð¾ÑģÑĮ
ĠÐ½Ð°Ð½ Ð¾Ñģ
ĠÑĤÐµÐº ÑģÑĤ
Ð¿ Ð¾
Ð¾Ð± ÐµÑī
ĠÐ° ÐºÐ²Ð¸Ð»
ĠÐ¢ ÐµÑħÐ½
ĠÐ¿Ð¾Ð» Ðº
Â» ?
ĠÐ½Ð°Ñģ ÑĭÑī
ĠÐ½Ð¾Ð² ÑĭÐ¼
ĠÐºÑĢÐ°Ñģ Ð½Ð¾Ð¹
ĠÐ´ÑĢ ÐµÐ¹
ĠÐ²ÑĭÑģÐ¾Ðº Ð¾Ð¼ÐµÑĢ
Ð°ÑĨÐ¸Ð¾Ð½ Ð½ÑĭÐµ
ĠÐ¼Ð½Ð¾Ð³Ð¾ÑĩÐ¸Ñģ Ð»ÐµÐ½Ð½ÑĭÑħ
Ñİ Ñħ
Ð¸Ð½ Ð´Ð¸
ĠÐ¡ Ð°ÑħÐ°
ĠÑĢÐ°Ð· Ð»ÐµÑĤ
ĠÐºÐ¾ Ð¾ÑĢÐ´Ð¸Ð½
ĠÐ½Ð¾Ð³ Ð¾Ð¹
ĠÐºÐ°Ð¿Ð¸ÑĤÐ°Ð½ Ð¾Ð¼
ĠÐ²ÐµÐ»Ð¸Ðº Ð¾Ð³Ð¾
ĠÑģÑĤÑĢÐ°Ð½ Ð½Ð¾Ðµ
ĠÑįÐ¿ Ð¾Ñħ
ĠÐ´ ÐµÑı
Ð°ÑĢ Ð»
Ð¾Ð¿ Ð¸Ð»
ĠÑĤÐ¾ Ð½Ð¾Ð¼
ÐĿ ÐĲ
ĠÐĽ Ð¸Ð³
ÐŃ Ð¹
ĠÐ½ÐµÐ½ Ð°Ð´
ĠÐ´ÐµÐ¼ Ð¾Ð½Ñĭ
ĠÑģÐ»ÑĥÐ³ Ð¸
ĠÐ¸ÑģÑģ Ð»ÐµÐ´
Ð¼ Ð¾Ð¼
Ð¼ ÐµÑı
ĠÑģÑĤ ÐµÑĢ
ĠÐŀ ÑħÐ¾ÑĤ
Ð´ÐµÐ» ÐµÐ½Ð¸Ðµ
ÐĲ ÑģÑĤ
ĠÐ¿Ð¾Ð· Ð²
ĠÐ½Ð¾Ð² Ð¾Ðµ
ĠÑĢÐ°ÑģÑģ Ð¼Ð¾ÑĤÑĢÐµÑĤÑĮ
ĠÐ·Ð°ÑĢ ÑıÐ¶
ĠÐºÐ»Ð¸Ð½ ÐºÐ¾Ð²
ĠÑģÐ½ Ð°Ð¹Ð¿ÐµÑĢ
ĠÐ¾ÑĤÑģÑĤÑĥÐ¿ Ð°ÑĤÑĮ
ĠÐ²Ð½ÑĥÑĤÑĢÐµÐ½ Ð½Ð¾ÑģÑĤÐ¸
ar d
ĠÐ²ÑĭÐ¿Ð¾Ð»Ð½ Ð¸ÑĤÑĮ
K ais
ĠÑģ ÐµÐ´
Ð°Ðº Ð¾Ð¼
Ð»Ð¸ ÑĢÐ¾Ð²
ÑĳÐ½ Ð½Ð¾Ð¹
ÑįÐ¹ Ð´
ĠÐ¿Ð¾ÑĩÐµÑĢ Ð½ÐµÐ²
ĠÐĵ Ð°Ð¼
ĠÐŃ ÑĤ
ĠÐ²Ð¸Ð´ Ð¸Ð¼Ð¾
ĠÐºÐ¾Ð½ ÑĨÑĥ
ĠÐ¿ÑĢÐ¸Ðº Ð°Ð·ÑĭÐ²
ĠÐ¾ÑĢÑĥÐ¶ Ð¸Ñİ
ĠÑģÑĤÐµÐ½ Ð°Ð¼
ĠÐ²ÑĭÐ± ÑĢÐ¾Ñģ
ĠÐ¿Ð¾Ð½Ð¸Ð¼ Ð°ÑĤÑĮ
ĠÑģÐ¸ÑĤÑĥ Ð°ÑĨÐ¸Ñı
ĠÐ¿ÑĢÐ¾Ð» Ð¾Ð¼
ĠÑĩ ÑĮ
ĠÐ²Ñĭ Ð¹Ð´
ĠÐŁ Ð¾Ð·Ð°Ð´Ð¸
Ð°Ñĩ Ð°Ð»Ñĥ
ĠÐ½Ð°ÑĪ ÐµÐ¼
ĠÑĤÐµÑĢ Ð¼
ĠÐ¾ÑĤÐ´ÐµÐ» ÐµÐ½Ð¸Ð¹
ÑĪÐµÐ³Ð¾ ÑģÑı
ĠÑħÐ¾Ð´ Ðµ
ĠÐ¸Ð¼Ðµ ÑİÑĤ
ĠÐ¡ÐµÑĢ ÐµÐ±ÑĢÑı
ĠÐºÐ»Ñĭ ÐºÐ¸
ĠÐ¾Ð´ÐµÐ¶ Ð´Ñĭ
Ð½ ÐµÐ»Ð¸
Ðº Ð¾ÑģÑĤÐ¸
Ð°ÑĢ Ð¸Ð½
ĠÐĴ Ð¾ÑģÑĮ
ĠÐ¡ Ð»Ð¸ÑĪÐºÐ¾Ð¼
Ð°Ð¶ Ñĥ
Ð°Ð± ÑĢÐ¸Ðº
ĠÑģÐ¼ ÑıÑĤ
ĠÐĳ Ð»Ð°Ð³Ð¾Ð´Ð°ÑĢ
ÐĹ Ð²
Ð¾Ð¿ÑĢ Ð¾Ð»Ð¸ÑĤ
ĠÐ¿ÑĢÐµÐ¸Ð¼ ÑĥÑīÐµÑģÑĤÐ²Ð¾
ĠÑĢÐµÐ»Ð¸Ðº Ð²
ĠÐº Ð¾Ð²
ÑĤÐ¾ ÑĨÐ¸Ðº
ÐµÐ¹ Ð·
ĠÐ³ Ð¸Ð»ÑĮ
Ð´Ð° Ñħ
ĠÐĿ Ð¾Ðº
ĠÐ¿ÑĢÐ¾ ÑĦ
ĠÑģÐ¼ ÑĥÑī
ĠÐ¸Ð¼ ÐµÐ½Ð°
ĠÑģÐ°Ð¼ Ð°Ñı
Ð´Ð¸ Ð¾Ð·
ĠÐ¿Ð¾Ð±ÐµÐ´ Ð¸ÑĤÑĮ
ĠÐ¡Ð² ÑıÑĤ
ÑĳÐ· Ð´
ĠÐļÐ»Ð¸Ð½ Ð¾Ðº
ĠÐ¸ÑĤ Ð¾Ð³Ðµ
ĠÑĤ ÑĢÐ°
Ð¾Ð½ Ð´
ÐµÐ· Ð¶
ÑĥÑĩ ÑĪÐµ
ĠÐ±Ð¾Ð»ÑĮ Ñİ
ĠÐ·Ð°Ð± ÑĢÐ°ÑĤÑĮ
ĠÐ»ÑİÐ± Ð¾Ðµ
ĠÑĥÐ¶Ð°Ñģ Ð¾Ð¼
ĠÑĥÐ½Ð¸ÑĩÑĤÐ¾Ð¶ ÐµÐ½Ñĭ
ĠÑģÐ¾Ð·Ð½ Ð°Ð½Ð¸Ð¸
ÑģÑĤÐ²ÑĥÑİÑī Ð¸Ðµ
ĠÐ¡ ÐµÐ¿ÑĤÐ¸Ð¼
ĠÐĵ ÑİÐ½ÑĤÐµÑĢ
Ðł Ð°Ñģ
ĠÐŁÑĢ Ð¸Ðº
ĠÐ·Ð°Ð¼ÐµÑĤ Ð¸Ð»Ð¸
ĠÐ°ÑĤÐ°Ðº Ðµ
ĠÑĢÐ°ÑģÑĤ Ñı
ĠÐĿÐ¸Ðº Ð°Ðº
ĠÐ¿Ð»Ð°Ð· Ð¼Ñĭ
ĠÐ²ÑĭÐ·Ð² Ð°ÑĤÑĮ
ĠÐĲÑĢÐ¼ Ð¸Ð¸
ĠÐ¾Ð±ÑģÑĤÐ¾ÑıÑĤÐµÐ»ÑĮ ÑģÑĤÐ²Ð°Ñħ
ĠÑģÑĤÐ° Ð¸
ĠÑĩ Ð°ÑīÐµ
Ð¸ÑĤ ÑĭÐµ
ĠÑģÑĤ ÐµÐ½Ð°
ĠÐ²Ñģ Ð°Ð´
ĠÐ²Ñģ ÐµÐ»ÐµÐ½Ð½Ð¾Ð¹
ĠÑĢÐ°Ð· Ð½ÑĭÐµ
he r
ĠÐ¿Ð»ÐµÑĩ Ð°
ĠÐ¸ÑģÑĩÐµÐ· Ð»Ð¾
ĠÐ¿ÑĢÐµÐº Ð»Ð¾Ð½
ĠÑħÐ¾Ð·Ñı Ð¸Ð½Ð°
ĠÑĢÐ°ÑģÑģÐºÐ°Ð· Ð°ÑĤÑĮ
Ð°Ð¼ Ð°Ð½
ĠÐļ Ð°Ð½
Ð²ÐµÑĢ ÑģÑĤ
ĠÐ´Ð² Ð¾Ð¹
Ðľ ÐµÐ½Ñı
ĠÐ¿ÐµÑĢÐµÐ´ Ð°ÑĤÑĮ
ĠÐ¿ÑĢÐµÐ´ÑģÑĤÐ°Ð² Ð»ÑıÐ»Ð¸
ĠÐ±ÐµÑĪ ÐµÐ½
ĠÐ² ÐµÐ½ÑĤ
ÑĥÐ´ Ð¸
ĠÐ±ÐµÑģ ÐµÐ´
ĠÐ¾ÑģÑĤÐ°Ð½Ð¾Ð² Ð¸ÑĤÑĮÑģÑı
ĠÐ·Ð²Ñĥ ÐºÐ°
ĠÐ±Ð¾ÐµÐ¿ÑĢÐ¸Ð¿Ð°Ñģ Ð¾Ð²
ĠÐ¼Ð¾ÑĢÐ³ Ð½ÑĥÐ»
ĠÑĦÑĥÐ½Ðº ÑĨÐ¸Ð¾Ð½
ĠÐŁÑĢÐ¾ÑģÐ¿ÐµÑĢ Ð¾
ĠÑĢ Ñı
ĠÐ»Ñİ ÐºÐ°
Ðĳ Ð¾ÐµÐ²
ĠÐ¼Ð°Ñģ ÐºÑĥ
ĠÐ°Ð¿Ð¾ÑĤÐµÐº Ð°ÑĢÐ¸Ñı
ĠÐ¿ÑĢÐµÐ´Ð¿Ð¾Ð»Ð¾Ð¶ Ð¸Ð»
ĠÐ¾ÑĤÑģÑĥÑĤ ÑģÑĤÐ²Ð¸Ðµ
ĠÐºÐ¾ÑģÐ¼Ð¾Ñģ Ðµ
Ñģ Ð°Ð¹Ðº
ĠÑģ ÑĦÐ¾ÑĢÐ¼
ĠÐº Ð°Ð»
ĠÐ¾ÑĤ Ð¾Ð¼
ĠÐ¿ÑĢÐµÐ´ ÑĭÐ´ÑĥÑī
ĠÐ°ÑĢ Ð¼Ð¸
ĠÐ¿Ð°ÑĢ ÐµÐ½ÑĮ
ĠÑģÑĤÐ°Ð½Ð¾Ð² Ð¸Ð»Ð¾ÑģÑĮ
ĠÐ¶ÐµÐ½Ñī Ð¸Ð½
ĠÑįÐºÑĢÐ°Ð½ Ðµ
ĠÐ°ÑĤÐ¼Ð¾ÑģÑĦ ÐµÑĢÑĭ
Ñı ÑİÑĤÑģÑı
ĠÐ½ Ð¾ÑģÐ°
Ð°ÑĤ ÑĭÐ¼
ĠÐŀ ÑģÑĤÐ°Ð²
ĠÐ±ÑĥÐ´ ÑĥÑīÐµÐ³Ð¾
ĠÐ¾ÑĢ Ðº
Ð½ÑĥÑĤ Ñĭ
ĠÐºÐ¾Ð» ÐµÑģ
ĠÑģÐ»ÐµÐ´ Ð¾Ð²Ð°Ð»Ð¸
ĠÐ¿ÑĢÐ¸Ð±Ð»Ð¸Ð¶ Ð°Ð»Ð¸ÑģÑĮ
ĠÐļÐ¾ÑģÐ¼ Ð¸ÑĩÐµÑģÐºÐ¸Ð¹
ĠÐ¾Ð±ÑĭÑĩ Ð½ÑĭÑħ
ĠÐĲÐ½ ÑĤ
ÑĢÑĭÐ· Ð³
ĠÐ¿ÑĢÐ¾Ð¸Ð³ Ð½Ð¾ÑĢ
Ð°Ð·Ð°Ð½ Ð¸ÑĥÑģ
u p
Ð» Ð¾Ðµ
ÐµÐ´ Ñı
ĠÐĿ ÑĥÐ¼
ÑĥÐ¼ ÐµÐ½ÑĤ
ĠÑĥÐ´ Ð°Ð²
ÑĥÑģÑĤ Ð°Ð²
ĠÐºÐ¾ÑĢ Ð¾Ð±
ÐĽ ÐĲ
ĠÐŁÑĢ ÐµÐ¶Ð´Ðµ
ĠÐĽÐµÐ³Ð¸Ð¾Ð½ ÐµÑģ
ĠÐ·Ð°ÑĢ ÑĭÑĩÐ°Ð»
ĠÑĢÐµ Ð°Ð³
ĠÑĩÐ°Ñģ Ñĭ
ĠÑģÐ»Ð°Ð² Ñĥ
ĠÐ»Ð¾Ð¶ ÑĮ
ĠH e
g e
Ñģ ÑĥÐ³
Ð» ÐµÐ±
ĠÐ´ Ð¾Ð·Ð½Ð°Ð²
ĠÐ¾Ð± Ð¼
ĠÐĴ Ð°Ð½
ĠÐľ ÐµÑĩ
ĠÐºÑĢ Ð¾Ð·
ÑĥÑĪ ÐºÐµ
ĠÐķ ÑĢÐµÑģÐ¸
Ð°Ð½Ð¾Ð² Ð¾
ĠÐ·Ð² ÐµÐ½
ĠÑĥÐ¿ Ð°Ð»Ð¸
ĠÐ¿ÑĢÐ¸Ð¼Ð°ÑĢÑħ Ñĥ
ĠÐ²Ð¾Ð¿ÑĢÐ¾Ñģ Ð¾Ð²
ĠÑģÐ»Ð°Ð± Ð¾ÑģÑĤÑĮ
ĠÐ¿Ð¾Ð´Ð½Ð¸Ð¼ Ð°Ð»ÑģÑı
ĠÑĥÑģÑĤÑĢÐµÐ¼ Ð¸Ð»Ð¸ÑģÑĮ
ĠÐºÑĢÐµÑģ Ð»Ð°
Ð» Ð°Ð¼Ð¸
Ñħ Ð¾Ð»
Ð¼ ÐµÐ·Ð´
ĠÐ¡ Ð°Ñħ
ĠÐ¡ Ð½Ð°ÑĩÐ°Ð»Ð°
ĠÐ²ÑĭÐ¿ ÑĥÑī
ĠÑĥÐ½Ð¸ÑĩÑĤÐ¾Ð¶ Ð¸Ð»
ĠÐ·Ð½Ð°Ðº Ð¸
ĠÐ½ÐµÐ· Ð°Ð²Ð¸Ñģ
ĠÐ¿ ÐµÐ»ÐµÐ½
Ñĩ Ð»ÐµÐ½
Ð· ÐµÐ½Ñħ
ĠÐŁ Ð¾Ð³
Ð°ÑĤÐµÐ»ÑĮ Ð½Ð¾Ð³Ð¾
ĠÑħÐ¾ÑĤ ÑıÑĤ
Ðł ÑĥÐ±Ð¸Ð¾
ĠÐºÐ¾ÑĢ Ñĩ
ĠÐ¿ÑĢÐ°Ð² ÐµÐ´
ĠÐ±Ð¾ÐµÐ² ÑĭÐ¼Ð¸
ĠÐ½Ð°Ð² Ñĭ
ÑĩÐ¸ÑĤ Ð°Ð»
ĠÐ±Ð¾ÑĢ ÑĤÐ°
Ġb l
ĠÐ²ÐºÐ»ÑİÑĩ Ð¸Ð»
Ð¡Ð¿ Ð°ÑģÐ¸Ð±Ð¾
ĠÐ¼Ð°Ñħ Ð½ÑĥÐ»
Ġ ÑĢÑĥÐ³
Ð¸ Ð¾Ð»ÐµÑĤ
ĠÐ° Ð»ÑĮ
ÑĦ ÐµÑĢ
Ð°Ð³ Ð°Ñģ
ĠÐ¾Ð¿ Ð¾ÑĢ
ĠÐ¿Ð¾Ð¿ Ð¾Ð»Ð°Ð¼
ĠÐ¿ÑĢÐ¾Ð´Ð¾Ð»Ð¶ Ð°Ñı
ĠÐ»ÐµÐ³ ÑĩÐµ
ĠÑīÐ¸ÑĤ Ð¾Ð²
ĠÐ´ÐµÑĢÐµÐ² Ð°
ĠÐºÐµÑĢÐ°Ð¼ Ð¸ÑĤÐ°
ĠÑīÐµÐ» Ñĩ
ĠÐ´ÑĢÐµÐ¹ ÑĦ
Ð» Ð°Ð±
ÐµÐ½ Ñĩ
ĠÐ¿Ð¾Ð» Ð¸ÑĤ
ĠÑĢÑĥ Ð¸Ð½Ñĭ
ĠÑĦ ÑĢÐµÐ³
Ð¸Ð½Ñĥ ÑĤÑĮ
ĠÐµÐ´ Ð¸
ĠÐ·Ð°Ð³ Ð°Ð´Ð¾Ñĩ
ĠÑĤÑıÐ¶ÐµÐ» Ð¾Ð¹
ĠÐ¿ÑıÑĤ Ð½Ð¾
ĠÐ¿ÑĢÐ¸Ð³ Ð¾Ð´
ĠÐºÐ¾Ð½ÑĤ ÑĢÐ°ÑĤ
ĠÐ²ÑĭÐ³Ð»ÑıÐ´ÐµÐ» Ð¾
ĠÐĲÐºÑģ Ð¸Ð¼Ð°Ð½Ð´
4 1
Ð¸ÑĢ Ð°ÐµÑĤ
Ð°Ð¹ ÑĤ
ĠÑĩÑĥÐ² ÑģÑĤÐ²Ð¾Ð²Ð°ÑĤÑĮ
ĠÐ´Ð¾Ð± ÑĢÐ°Ð»Ð¸ÑģÑĮ
ĠÐ·Ð°Ð½ ÑıÐ»
ĠÐ¿ÑıÑĤ Ð½Ð°
ÐŀÑĤ Ð²ÐµÑĤ
ĠÐ¾ÑĤÐºÑĢÑĭÑĤ Ð¾Ð¹
ĠÐ¾ÑģÑĤÑĢ Ð¾Ð²
ĠÐ·Ð°Ð´Ð°Ñĩ Ð°
ĠÐ¿ÑĢÐ¾Ð·Ð² ÑĥÑĩÐ°Ð»
ÐĿÐ¸Ðº ÑĤÐ¾
ĠÐ¼Ð°Ð»ÐµÐ¹ ÑĪÐµÐ³Ð¾
ÑĮ Ð¾ÑĢÐ½
Ñİ ÑįÐ»ÑĮ
ĠÐļ ÑĢÑĥÐ·
ĠÐ´Ð² Ð°Ð¶Ð´Ñĭ
ĠÐ½Ð°Ñĩ Ð°Ð»Ð°ÑģÑĮ
ĠÑĪÐ»ÐµÐ¼ Ðµ
ÑĥÐ¶Ð´ ÐµÐ½Ð¸Ñı
ĠÐ±Ñĥ ÑĢÑı
ĠÐ¿ÑĢÐµÐ´ÐµÐ» Ð°Ñħ
ĠÑģÑĥÑīÐµÑģÑĤÐ²Ð¾Ð² Ð°Ð½Ð¸Ðµ
ĠÐ¤ÐµÐ½ÑĢÐ¸Ñģ Ð°
Ð°Ð¼ ÐµÐ½
Ð¸Ðº ÑĤ
ĠÑģÐ¾ ÑĪ
ĠÐ³Ð¾Ð²Ð¾ÑĢ Ð¸Ð»Ð°
ĠÐ¾ÑĤÐ± ÑĢÐ¾Ñģ
ĠÐ²ÑģÑĤ Ð°Ð»Ð¸
ĠÐ½Ð¸Ð¶ Ð½Ð¸Ñħ
ĠÐ±Ð¸Ð±Ð»Ð¸ Ð°ÑĢÐ¸Ñı
ĠÐ»Ð¾Ð² ÑĥÑĪÐºÑĥ
ĠÐ·Ð°Ð· ÑĥÐ±
ĠÐ°ÐºÐºÑĥ ÑĢÐ°ÑĤÐ½Ð¾
Ð² ÑıÐ·
Ð¸Ð» Ð¸Ð½Ð´
ĠÐ²Ñĭ ÑĢÐ°Ð·
ĠÐĿ Ð°ÑĪ
ĠÐĺ Ð³
ĠÐĽ ÑĥÐ½
Ð¢ ÑĢÐ¸
ĠÐ·Ð°Ð´ ÑĭÑħ
ĠÐ¿ÑĢÐ°Ð² Ð´Ðµ
ĠÐ¿Ð°Ð´ ÐµÐ½Ð¸Ñı
ĠÑĤÐ¾Ñĩ ÐºÑĥ
ĠÐ¿ÑĢÐ¸Ð» Ð¸Ð²
ĠÐ¾ÑĤÐ²ÐµÑĩ Ð°ÐµÑĤ
ĠÐ¿ÐµÑĢÐ¸ Ð¾Ð´
ĠÑģ Ð¾ÑĢÐ¾Ð´Ð¸Ñĩ
ĠÑĢ Ð¾Ð³
ÑıÑī Ð¸Ð¹ÑģÑı
ĠÐ¿ÑĢÐ¸Ð² ÑıÐ·
ĠÐ·Ð°ÑģÑĤÐ°Ð² Ð¸Ð»Ð¾
ĠÑĪÐ¸ÑĢ Ð¾ÐºÐ¾Ð¹
ĠÐ¢Ð¾ÑĢ Ð¸Ð½
ÑĢ Ð¸Ð¾Ð½
Ñĥ Ð·Ð°
ĠÐ¿ Ð¸Ñī
Ñħ Ð°Ð»
ĠÐ½Ðµ Ð¸ÑģÑĤÐ¾Ð²
ĠÐļ Ð°Ð½Ð¾
ĠÐĴ Ð½ÐµÐ·Ð°Ð¿Ð½Ð¾
ĠÑĢÐ°Ð· Ñĥ
ĠÑĪ ÐµÐ²ÐµÐ»
ĠÐºÑĢ Ð¸ÑĤ
ĠÐ²Ð· Ð¼ÐµÑĤ
ĠÐ¿ÑĢÐµÐ´ ÑĩÑĥÐ²
ĠÐ·Ð°Ð¼ ÐµÐ´
ĠÐ²Ð¾Ð» Ð½Ð¾Ð²
ĠÐºÐ°Ð¼ ÐµÐ½Ð½Ð¾Ð¹
ĠÐ¿Ð¾Ð·Ð²Ð¾Ð» ÑıÑı
ĠÐļÐ°ÑĢ Ð»
ĠÐ¿ÑģÐ¸Ñħ Ð¸ÑĩÐµÑģÐºÐ¾Ð¹
ĠÐĶÐ¾Ð¼ Ð°
ĠÐĴÐµÑĢÑħ Ð¾Ð²
Ð½ Ð°Ð²
ĠÐ¿ ÑĥÐ½Ðº
ĠÐ½ ÑĳÐ¼
ĠÐ½Ðµ ÑģÐ»
ÑĥÑģ Ð¾Ð¼
Ð»Ñİ Ð±
ĠÐºÑĢÐ¾Ð² Ð¾Ð¿ÑĢÐ¾Ð»Ð¸ÑĤ
ĠÑĥÐ»ÑĭÐ± ÐºÑĥ
ĠÑĢÐ°Ð´ Ð¾ÑģÑĤ
ĠÐ¸ÑģÑĤÐ¾ÑĢ Ð¸Ñı
ĠÐ¾ÑĢÐ±Ð¸ÑĤ Ñĥ
ĠÑģÑĤÐ¾Ð»Ðº Ð½ÑĥÐ»Ð¸ÑģÑĮ
ĠÐºÑĢÑĭÑĪ Ð¸
ĠÐļÐµÐ¹ ÑĢÐ°
ĠÐĵÐ°Ð± ÑĢÐ¸
Ġy ou
ĠÐ¿ Ð¸ÑĢÐ°Ð¼
Ð¿ Ð¾Ð»
ĠÐ¿ÑĢ Ð°Ð·Ð´
ĠÐĵ Ð°Ð»ÑĮ
Ðļ ÑĢÐ°Ñģ
ĠÑģÐ»Ð¾Ð² Ð°Ð¼
ĠÐ²ÑĭÑģ Ð²
Ð»Ð¸Ð² ÑĭÐ¼
ĠÐ¸Ð¼Ðµ Ñİ
ĠÐ²ÑĭÑħÐ¾Ð´ Ñĥ
ĠÐ·Ð°ÐºÐ¾Ð½Ñĩ Ð¸ÑĤÑģÑı
ĠÐ¿Ð¸Ð» Ð¾ÑĤÐ°
Ð¿Ð¸ÑģÑĤÐ¾Ð»ÐµÑĤ Ð°
Ð°Ð½ ÐµÑģ
Ð¾Ñģ Ð»ÐµÐ´
ĠÑĪ ÑĤÐ¾ÑĢ
Ð²Ð°ÑĢ Ð¸Ð¹
ĠÑĥÐ¼ ÑĢÐµÑĤ
ÑĬ ÐµÑģÑĤÐµÑģÑĤÐ²ÐµÐ½
ĠÐ¿ÑĥÑģÑĤ Ð¾ÑĤÐµ
ĠÑģÐ»ÑĭÑĪ Ð¸ÑĤ
ĠÐ´Ð°Ð»ÑĮ Ð½ÐµÐ¼
ĠÐ¾Ð±ÑĬÑıÐ² Ð¸Ð»
ĠÐĵÑĢÐ¸Ð¼ Ð¼
Ñī ÐµÐ½Ð¸Ñı
ÑĭÐ² Ð°Ð½Ð¸Ðµ
ĠÐł ÐµÐ³
Ð¡ ÑĤÐ¾
Ð°Ð²ÑĪ ÑĥÑİÑģÑı
ĠÐ²Ð¾Ð¹ ÑĤÐ¸
ĠÐ²Ð¾Ð» Ñı
ĠÐ¾ÑĤÐ² ÐµÐ»
ĠÐ¸ÑģÐ¿Ð¾Ð»ÑĮÐ· ÑĥÑİÑĤ
ĠÐ¼Ð°Ð³ Ð½Ð¸ÑĤ
ĠÐļÐ¾ ÑĢÐ°ÐºÑģÐ°
ĠÑĪÐ¸Ð¿ ÐµÐ½Ð¸Ðµ
ĠÑģÐ¸Ð³Ð½Ð°Ð» Ñĭ
ĠÑģÐ¸Ñı Ð½Ð¸Ðµ
ĠÐ¾ÑĤÑĩÐµÑĤ Ð»Ð¸Ð²Ð¾
ĠÑĥÑģÐ»Ð¾Ð² Ð¸ÑıÑħ
ĠÑģ ÐµÐ²
ĠÐº Ð¾ÑģÑĤÑĮ
ĠÐ¼ Ð¾Ðº
ĠÐ» Ð¸ÑħÐ¾ÑĢÐ°Ð´
Ð¸Ñĩ Ð½ÑĭÐµ
ĠÐ¿ÑĢÐµÐ´ ÑģÐºÐ°Ð·
ĠÐ·Ð°Ð¼ Ð¾Ð»ÑĩÐ°Ð»
ĠÐ¿ÑĢÐ¸ Ð½Ð¾Ñģ
ĠÐ½Ð°ÑħÐ¾Ð´ Ð¸Ð»Ð¾ÑģÑĮ
ĠÑĢÐ°Ð±Ð¾ÑĤ Ð°Ð»
ĠÐ¿ÑĢÐ¸Ð¼Ð°ÑĢÑħ Ð¾Ð²
ĠÑĥÑģÑĤÐ°Ð½Ð¾Ð² ÐºÐ¸
ĠÐ»Ð°Ð·ÐµÑĢ Ð½Ð¾Ð³Ð¾
ĠÑģÑĤÑĢÑĥ Ð¹
ĠÐĵÐ¾ÑĢ Ð³Ð¾
ĠÐ³Ð°Ð» ÐµÑĢÐµ
ĠÐ±ÑĥÐ» Ð°Ð²
Ð¾Ð» Ð³
Ð°ÑĤ Ð°Ð»ÑĮ
ĠÐ¿ÑĢÐ¾ ÐµÐ¼
ĠÐ¿Ð¾Ð² Ð°Ð»
ĠÐ²Ð¸Ð´ ÐµÐ½Ð¸Ñı
ĠÑģÑĤÐ°ÑĢ ÑĭÐµ
ĠÐ¾Ð±Ð½Ð°ÑĢÑĥÐ¶ Ð¸ÑĤÑĮ
ĠÑĥÐ²ÐµÑĢÐµÐ½ Ð½Ð¾ÑģÑĤÑĮ
ĠÐ¾Ð±ÑĭÑĩ Ð½Ð¾Ð³Ð¾
ĠÐºÐ°ÑĢÑĤ Ñĭ
ĠÐºÐ¾Ð¼Ð¿Ð»ÐµÐº Ñģ
ĠÐ´Ñĭ ÑĢÑĥ
ĠÐ¡ÐµÐº ÑĥÐ½Ð´
ÑĤ Ð²Ð¾ÑĢ
Ð» ÑĭÑħ
Ð¾Ð¿ Ð»Ð°Ð½ÐµÑĤ
ĠÐĶ Ð²
ĠÐĶ Ð»Ð¸Ð½
ÑĢÑı Ð¼Ð¾
ĠÐ¿ÐµÑĢÐ² ÑĭÐ¼Ð¸
ĠÐ¿ÐµÑĢÐµÑģÑĤ ÑĢÐµÐ»
ĠÐŁÐ¾Ð²ÐµÐ» Ð¸ÑĤÐµÐ»Ñı
ĠÐ¾Ð´ÐµÑı Ð½Ð¸Ñı
ĠÐ¿ÑĢÐ¸ÑģÐ¿ Ð¾ÑģÐ¾Ð±
Ð² Ð¾ÑĤ
ÐµÑĢ Ð°Ñħ
Ð»Ñı Ñħ
ĠÐ¥ Ð¾
ĠÐ³Ð¾ÑĢ ÐµÐ»Ð¸
ĠÐ¼ÐµÑģÑĤ Ð¾Ð¼
ĠÐ·Ð´ ÑĢÐ°Ð²
ĠÑĥÐ´Ð¸Ð² Ð¸ÑĤÐµÐ»ÑĮÐ½Ð¾
ĠÐ¸Ð·Ð¾Ð±ÑĢÐ°Ð¶ ÐµÐ½Ð¸Ñı
ĠÐºÐ¾Ð»ÑĮ ÑĨÐ¾
ĠÐ¾Ð±ÑĬÑıÑģÐ½ Ð¸ÑĤÑĮ
ĠÑĤÐµÑĢÐ¿ ÐµÐ»
ĠÑģÐ¾Ð±ÑĢÐ°Ð² ÑĪÐ¸ÑħÑģÑı
ĠÑģÐ°Ð¿ Ð¾Ð³
ĠÐºÐ¾Ð¼Ð°Ð½Ð´ ÑĥÑİÑīÐ¸Ð¹
ÑĳÐ½ Ð½ÑĭÐ¼
ĠÑģÐ»ÑĥÐ¶ Ð±Ñĥ
ĠÑģÐ»ÑĥÐ¶ Ð±Ðµ
Ð°ÑĤÑĥ ÑĢÑĭ
ĠÐ¾Ð¿ÑĥÑģÑĤ Ð¸Ð»Ð°ÑģÑĮ
ĠÐ²Ð¾Ð´ Ð¾Ð¹
ĠÐ¿ÑĢÐ¾Ð²ÐµÑĢ Ð¸ÑĤÑĮ
ĠÐºÐ¾Ð½ÐµÑĩ Ð½Ð¾Ð¼
ĠÐ»ÐµÑģÑĤ Ð½Ð¸ÑĨÑĭ
ĠÐĴÑģ Ñĳ
ĠÑĤ Ð°Ð±
ÐµÐ² ÑĪÐµÐ³Ð¾
Ð°Ð¶ Ð¸ÑĤÐµ
ĠÐ¿Ð¾Ðº Ð¾Ñı
ĠÑģÐ¸Ð» Ð¾Ð²Ð¾Ð³Ð¾
ÐĶ Ð²Ð°
Ðķ Ð¼Ñĥ
ĠÐ¿Ð¾Ð²ÐµÑĢ Ð½ÑĥÐ»Ð°ÑģÑĮ
Ð°ÐµÐ¼ ÑĭÐ¼
ĠÐ·Ð°Ð± Ð»
ĠÐ½Ð°ÑħÐ¾Ð´ Ð¸ÑĤÑĮÑģÑı
ĠÐ¿ÑĢÐ¾Ð¸Ð· Ð¾Ð¹Ð´ÐµÑĤ
ĠÐ¿ÑĢÐ¾Ñģ Ð²
ĠÐ¿ÑĢÐ¸Ñĩ Ð¸Ð½Ñĭ
ĠÐ¼Ð°ÑģÑģ Ñĥ
ĠÑģÐ¾Ð¿ÑĢÐ¾ÑĤÐ¸Ð² Ð»ÐµÐ½Ð¸Ñı
ĠÐ¿ÑĢÐµÐ´Ð°ÑĤÐµÐ»ÑĮ ÑģÑĤÐ²Ð°
ĠÐ½Ð°Ð¿ÑĢÑıÐ¶ ÐµÐ½Ð¸Ðµ
ĠÐºÐ¾Ð¼Ð°Ð½ Ð´Ð°
ĠÑģÐ¾Ð³ Ð»Ð°ÑĪ
ĠÑĦÐ»Ð°Ð³ Ð¼Ð°Ð½
ĠÐ² Ð°ÐºÑĥ
Ð¸ÑĤ Ñı
ĠÐµ Ñİ
ĠÐļ Ð»ÑİÑĤ
ĠÐĴ Ð°Ð¼
ĠÐ¿Ð¾Ð´ ÐµÐ»
ĠÐºÑĢ Ð¸Ð²
ĠÑĢÐ°Ñģ ÑģÐºÐ°Ð·Ð°Ð»
Ð¸ÑĢÐ¾Ð² Ð°Ð²
ĠÐ²ÑĭÑģÑĤÑĢÐµÐ» Ð¾Ð¼
ĠÐ¸Ð½ÑĦÐ¾ÑĢÐ¼ Ð°ÑĨÐ¸Ñı
ĠÐºÐ°Ð± ÐµÐ»Ð¸
ĠÐ·Ð°Ñħ Ð»Ð¾Ð¿
ÑĥÐ¶Ð´ ÐµÐ½Ð¸Ðµ
ĠÐºÐ°ÑĢÑĤ Ñĥ
ĠÐ±Ð°ÑĢ ÑĮ
ĠÐ¿ÑĢÐµÐ´Ð°ÑĤÐµÐ»ÑĮ ÑģÑĤÐ²Ð¾
ĠÐ³ÑĥÐ±ÐµÑĢÐ½Ð° ÑĤÐ¾ÑĢÐ°
Ðº ÑĢÐ¸ÐºÐ½ÑĥÐ»
ĠÐĳ Ð¾Ð»ÑĮ
Ðľ ÐµÑĢ
ĠÑĥÐ´Ð°ÑĢ Ð¸Ð»Ð°
ĠÐ½Ð°Ð· Ð²Ð°Ð½
Ð»ÑıÐ» Ð¾ÑģÑĮ
ĠÐ³ÑĢÐ°Ð½ Ð´Ð¸Ð¾Ð·
ĠÐŀÐ³ Ð½
ĠÐ¡Ð¸Ð³ Ð¸Ð»Ð»
ĠÐ±Ð¸ Ð¾Ð»Ð¾Ð³
ĠÐ»ÑĮ Ð´Ð°
ĠÐ¿ÑĢÐµÑĢÐ² Ð°Ð»
ĠÐ¾ÐºÐµ Ð°Ð½
ĠÐ· Ð°Ð½Ð¾Ð²Ð¾
ĠÐ» ÑĳÐ³
ĠÐ·Ð° ÑĢÐ°Ð·
ĠÐ³Ð¾ÑĢ Ð»Ðµ
ĠÐ´ÐµÑĢÐ¶ Ð°ÑĤÑĮÑģÑı
ĠÑģÐ»ÑĥÐ¶ Ð¸Ð»Ð¸
ĠÐ»ÐµÐ¶ Ð°Ð»Ð°
ĠÑģÐ¸Ð´ ÐµÐ»Ð¸
ĠÐ²ÑĭÑħÐ¾Ð´ Ð°
ĠÑģÐºÑĢÐµÐ¶ ÐµÑĤ
ĠÐĲÐ¿Ð¾ÑģÑĤ Ð¾Ð»
ĠÐºÐ¾Ð¼Ð¸ÑģÑģ Ð°ÑĢÐ°
ĠÐº Ð°ÑĦ
ĠÐ½Ðµ Ð¾ÑĤ
ÐĿ ÐµÑģÐºÐ¾Ð»ÑĮÐºÐ¾
ĠÐ¿Ð¾Ðº Ð¾Ð¹
ÑĥÑĪ ÐµÐº
ĠÐ¿ÑĢÐ¸Ð½ ÑĨÐ¸Ð¿
Ð°Ð´Ð¸ Ð°Ð½
ĠÐ·Ð°Ñģ Ð»Ð¾Ð½
ĠÑĥÑĩÐ°ÑģÑĤ Ð¸Ðµ
ĠÐºÐ¸Ð»Ð¾Ð¼ÐµÑĤ ÑĢÐ°Ñħ
ĠÐ¡ÐµÑĢÐ´ ÑĨÐµ
ĠÐ»Ð¾ÑıÐ»Ð¸ÑģÑĤ Ð¾Ð²
ĠÐłÐ°Ð²Ð°ÑĪ Ð¾Ð»ÑĮ
ĠÐºÐ°Ð½Ð´ Ð¸Ð´
ĠÑģ ÐµÑĤÑĮ
Ñİ Ð¶
ĠÑĩ Ð°ÑĪ
Ð¶ Ð¸Ð²
Ð¾Ð± Ð¾ÑĢ
ĠÐ» Ð±Ñĥ
Ðļ Ð°Ð¿
ĠÑģÑĤÐ¾ Ð»Ð¸
ĠÐ¿ÐµÑĢÐµÐ´ Ð²Ð¸Ð³
Ð¸ÑĢÑĥ Ñģ
at ion
ĠÐ·Ð°Ñħ Ð»ÐµÑģÑĤ
ĠÐŁÐ¾Ð²ÐµÐ» Ð¸ÑĤÐµÐ»ÐµÐ¹
ĠÐ¼Ð¾Ð»Ð¸ÑĤ Ð²Ñĥ
ĠÐ¿ÐµÐ¿ ÐµÐ»
ĠÑģÑĩÐ¸ÑĤÐ°Ð½ Ð½ÑĭÐµ
Ð°ÑĢÑĢÐ¾ÑĥÐº Ð¸Ð½
ĠÑĢ ÑĭÐ²
Ð¸ÑĢ Ð°Ð»ÑģÑı
Ð¸ÑĢÐ¾Ð² Ð°Ð»ÑģÑı
ĠÐ±Ð¾ÐµÐ² Ð°Ñı
ĠÐ¿ÑĢÐ¸Ð² ÐºÑĥÑģ
ĠÐ¿ÑĢÐ¸Ñģ ÐµÐ»
ĠÐ¿Ð¾Ð¼Ð¾Ñī Ð½Ð¸Ðº
ĠÐ¾ÑģÐ½Ð¾Ð² Ð½Ð¾Ð¹
ĠÐ¾ÑĤÐ¿ÑĢÐ°Ð² Ð¸ÑĤÑĮÑģÑı
ÐĲÑĢ Ð¸Ð¼Ð°Ð½
ÐĺÐ¼Ð¿ÐµÑĢ Ð°ÑĤÐ¾ÑĢÐ°
ĠÑģÑĤÑĢÐµÐ»Ñı Ñı
Ð ©
ĠÐ± Ð¾Ð³Ð¾
ĠÐĽ Ð°ÑĢ
ĠÑĥÐ´ Ð¾Ð±
ĠÑģÐ¾Ð· Ð´Ð°ÑĤÑĮ
ĠÑģÐ²ÑıÐ· Ð°ÑĤÑĮÑģÑı
ĠÑħÐ¾Ð»Ð¾Ð´ Ð½Ð¾Ð¹
ĠÐ¿Ð¾ÐºÑĢÑĭÑĤ ÑĭÐµ
ĠÐĶÐ¶Ð°Ð³ Ð´Ð¸
Ġ T
ĠÐ² Ð¾Ð¶
ĠÐ» Ð¸Ð²
Ð°Ð½ÑĤ Ð¾Ð¼
ĠÐ¿Ð¾ÑĤ ÑĢÐµÐ¿
ĠÑĤÑĢ Ð¾Ð½Ðµ
ĠÐ·Ð°Ð¿ ÑĢÐµÑĤ
ĠÑĤÐµÐ¼ Ð½ÑĭÐ¹
ÑĥÐ³ Ð¸
Ð´Ð°ÑĤ Ñĭ
ĠÐ´Ð¾Ð²ÐµÑĢ ÑıÑĤÑĮ
ĠÐºÑĢÐµÑģ Ð»Ð¾
ĠÑĢÐµÐ¶ Ð¸Ð¼
ĠÐ¢Ð°Ð»Ð³ ÑĢÐ¾Ð½
Ð¸ ÑĤÐ¾ÑĢÑĥ
ĠÐ¼ Ð°Ð³Ð¾
ĠÐ´ ÑĥÑĢ
Ð°ÑĤ ÐºÐ¸
ĠÐ³ Ð°ÑĢÐ½Ð¸Ð·
ÐµÐ² Ð¾Ð¶
ĠÑģÑĤÐ¾ Ð»Ð¾Ð¼
ĠÐ§ ÐµÐ»Ð¾Ð²ÐµÐº
ĠÐ½Ð°Ð· ÐµÐ¼
ĠÐ¼Ð½ ÐµÐ½Ð¸Ðµ
ĠÐ½ÐµÐ´ Ð¾Ð²Ð¾Ð»ÑĮ
ĠÐ²ÑĭÑģÐ¾Ðº Ð¸Ðµ
ĠÐ±ÐµÐ» ÑĭÐµ
ĠÐ²Ð¸Ñģ ÐµÐ»
Ð»ÑĥÐ± ÑĮ
ĠÑĩÑĥÐ´ ÐµÑģ
ĠÑĥ Ð»ÐµÑĤ
Ð¾ÑģÑĤ ÑĢ
ÑĥÐ¼ Ð°Ð»
ĠÐ²ÐµÑĢ Ñİ
ĠÐ¿Ð¾Ñĩ Ð¸ÑĤ
ĠÑģÐ»ÐµÐ´ Ð¾Ð²Ð°Ð»
ĠÐ½ÐµÐ¼ Ð½Ð¾Ð³Ð¸Ðµ
ĠÑĢÐµÑĪ Ð¸ÑĤÐµÐ»ÑĮÐ½Ð¾
ĠÐ¿ÑĢÐ¸Ð· Ð²
ĠÐ¾Ð±ÑĬ ÐµÐºÑĤ
ĠÐ·Ð°ÑĢ Ð¾Ñģ
ĠÐ²ÐµÑĢÑħ Ð½Ð¸Ñħ
ĠÑĤÐ° Ð¸Ð½ÑģÑĤÐ²ÐµÐ½
ĠÐ¿Ð¾ÑģÐ°Ð´Ð¾Ñĩ Ð½Ð¾Ð¹
Ġ III
ĠÑĩ ÑĳÐ¼
ĠÐĴ ÑģÑı
ĠÐĿ Ð°ÑĢ
ĠÐĳ Ð¸ÑĤ
ĠÑĩÐ°ÑģÑĤ Ð¸ÑĩÐ½Ð¾
ĠÐ²ÑĢÐ°Ð³ Ð°Ð¼Ð¸
ĠÑģÐ¾Ð±ÑģÑĤÐ²ÐµÐ½ Ð½Ð¾Ðµ
ĠÐ¼Ð¾Ñī Ð½ÑĭÐ¹
ĠÐ¾Ð±Ð» Ð¸Ðº
ĠÐ°ÐºÑĤÐ¸Ð² Ð¸ÑĢÐ¾Ð²Ð°Ð»
ĠÐ¼ÑıÑĤÐµÐ¶ Ð½Ð¸ÐºÐ¾Ð²
ĠÑĢÐ°ÑģÑģÑĤÐ¾ÑıÐ½ Ð¸Ñı
ÑĢ Ð°Ð»Ð°ÑģÑĮ
ĠÐº ÑĥÐ±
Ð°Ð´ Ð°Ñĩ
ĠÐĺ Ðº
Ð°Ð»ÑĮ ÑīÐ¸Ðº
ĠÐ¿ÑĢÐ¾ Ð½Ð¾Ñģ
ĠÐ¾Ðº ÑĢÐ°ÑĪ
ÐµÐ»Ð¸Ðº Ð¾Ð¼
ÐŁÑĢ Ð¾Ðº
Ð°Ñī ÐµÐ³Ð¾
ĠÐ¿ÑĢÐ¸Ñĩ Ð¸Ð½Ð¾Ð¹
ĠÑĥÐ´Ð¸Ð² Ð¸Ð»ÑģÑı
ĠÑħÐ¾Ð»Ð¾Ð´ Ð½Ð¾
ĠÐ¿ÑĢÐ¸ÑģÑĥÑĤ ÑģÑĤÐ²Ð¸Ñı
ĠÐ¿ÑĢÐµÐ´ÑĥÐ¿ ÑĢÐµÐ¶
ĠÐ¿ÑĤ Ð¸ÑĨ
ĠÐ¿ÑĢÐµÐ³ ÑĢÐ°Ð´
Ñģ Ð¾
ĠÐ¿ ÑĥÐ·Ñĭ
ĠÑĥ ÑħÐ²Ð°ÑĤ
Ð¸Ð¼ ÑĥÑİ
ĠÐ¾ÑĤ Ð´Ð°ÑĤÑĮ
Ð°Ð³ ÑĢÐ¾Ð²
ÐĿ ÐµÐ¿
ĠÑĢÐ°Ñģ Ñĭ
ĠÐ¿Ð¾Ð² ÑĭÑĪ
ĠÐķ Ñĳ
ĠÐ¿ÑĢÐ¾ÑģÑĤ Ð¾ÑĢ
ĠÐ°ÑĢ Ð¸ÑģÑĤÐ¾ÐºÑĢÐ°ÑĤ
ĠÐ¿ÑĢÐ¸Ð½ ÑıÑĤ
ĠÐºÐ¾Ð¶ Ð°Ð½
ĠÑĤÐµÐ¼Ð½Ð¾ ÑĤÑĭ
ĠÐ¾ÑĪÐ¸Ð± ÐºÑĥ
ĠÐ·Ð°Ð´ÑĥÐ¼ ÑĩÐ¸Ð²Ð¾
Ð¼ Ð¾Ð²
ĠÐ´ Ð¾Ð¶Ð¸Ð´
Ð¾Ð¼ Ð¾Ð³
ĠÐ²Ñĭ Ð²ÐµÐ´
ĠÐĳ ÑĥÐ´
ÐĹ Ð°ÑĩÐµÐ¼
ĠÐ´Ð¾Ð± ÐµÑĢ
ĠÑģÐ»ÑĭÑĪ Ð°Ð»Ð°
ĠÐ±ÐµÑģÐ¿ Ð¾Ð¼Ð¾Ñī
ĠÐ²ÑĭÑģÐ¾Ðº Ð¸Ð¼
ĠÐµÐ´Ð¸Ð½ÑģÑĤÐ²ÐµÐ½ Ð½Ð¾Ðµ
ĠÐ·Ð°ÑģÑĤ ÑĭÐ²
ÑģÐ² ÑıÐ·
Ð» ÐµÐ³Ð¸Ð¾Ð½
ĠÐ¿ ÑĥÐ»Ð¸
ĠÑģÑĤ Ð°Ð´
ÑĥÑĩ Ð½Ð¾
ĠÐ·Ð°Ðº ÑĢÑĭ
ĠÑĩÑĥÐ² ÑģÑĤÐ²ÑĥÐµÑĤ
ĠÑģÑĤÐ°ÑĢ ÑĭÑħ
Ð¸ÑĢÑĥ ÑİÑĤ
ĠÐ²ÑģÑĤÑĢÐµÑĤ Ð¸Ð»
ĠÐ²ÑģÑĤÑĢÐµÑĤ Ð¸ÑĤÑĮÑģÑı
ĠÐ²ÑģÑı ÐºÐ¸Ð¹
ĠÐ´Ð¾Ð¶Ð´ Ñı
ĠÑįÐ¼Ð¾ ÑĨÐ¸Ð¸
ĠÐ²Ð·Ð¼Ð°Ñħ Ð½ÑĥÐ»
ĠÑĢÐ°Ð·Ð¾Ñĩ Ð°ÑĢÐ¾Ð²
ĠÐ²ÐµÐ½ÑĤ Ð¸Ð»Ñı
Ġ 9
ĠÑģ ÐµÑĤÐ¸
Ð°Ð» Ð»Ð¸
Ð¾Ð² Ð°Ð»Ð¸ÑģÑĮ
ĠÐ¿Ð¾ÑĤ ÐµÐº
ĠÐ¾Ñģ ÑĥÑīÐµÑģÑĤÐ²
ĠÐ¿ÑĢÐ¾Ð¸Ð· Ð¾ÑĪ
Ġs p
Ð°ÑĤÑĥ ÑĢÐ°
ĠÑħÐ¾Ð»Ð¾Ð´ Ð½ÑĭÐ¼
ĠÐ±Ð¾Ñı Ð»ÑģÑı
ĠÐ¿Ð¾Ð»Ð¾Ð¶ ÐµÐ½Ð¸Ð¸
ĠÐ¾Ð±ÐµÑģÐ¿ Ð¾ÐºÐ¾
ĠÐºÑĥÐ¿ Ð¾Ð»
ĠÐ½ÐµÑĥÐºÐ»Ñİ Ð¶
Ð³Ð¾ ÑĢÐµÐ²
ĠÑĨ Ð¸Ð»Ð¸Ð½Ð´
ĠÐ¾Ñģ Ð¼Ð°ÑĤÑĢ
ĠÐ½Ð°ÑĪ Ð¸Ð¼Ð¸
ĠÐ¾ÑģÑĤÐ°Ð² Ð°Ð»Ð°ÑģÑĮ
ĠÑģÐ¸Ð»ÑĮ Ð½ÑĭÐ¹
ĠÐ¿ÑĢÐ¸ÐºÐ°Ð· Ð°
ĠÐ½Ð°ÑģÑĤ Ð¾ÑĢÐ¾Ð¶
ĠÐ²Ð·ÑĢÑĭÐ² Ñĭ
ĠÐ²Ð¾Ð½ ÑĮ
ĠÐ¸Ð½ÑĦ Ð¾Ð¿
ĠÑģÐ¿ÑĢÐ°ÑĪ Ð¸Ð²Ð°ÐµÑĤ
ĠÑģÑĥÑī Ð½Ð¾ÑģÑĤÑĮ
ĠÑĤÐµÑĢÑĢÐ¸ÑĤÐ¾ÑĢ Ð¸Ð¸
ĠÐ²Ð³ Ð»ÑĥÐ±ÑĮ
ĠÐ¢Ð°ÑĢÐ² Ð¸ÑĨ
Ð» Ð¾Ð±
ĠÐ¿Ð¾Ð´ Ð´
ĠÑĢÐ°Ð· Ð»Ð¾Ð¼
ĠÐ¸ÑģÐº Ð°Ð·
ĠÐ·Ð°Ð» Ñĥ
ĠÐ±Ð¾Ð³ Ð¸
ĠÐ»ÐµÐ¶ Ð¸ÑĤ
ĠÐ±ÐµÐ» Ð¾Ð³Ð¾
ĠÑĤÑī ÐµÑĤ
ĠÑĢÐ¾Ñģ ÐºÐ¾ÑĪ
Ð» ÐµÐ¼Ñĥ
ÑĢÑĭ Ðµ
ĠÑĪ ÐµÑģÑĤÐ¸
ÐµÑħ Ð°
ĠÐĳ ÑĥÐ´ÑĮ
ĠÐ¿Ð¾Ð´Ð½Ð¸Ð¼ Ð°ÑĤÑĮÑģÑı
ĠÐ½ÐµÑģÐºÐ¾Ð»ÑĮ ÐºÐ¸Ð¼Ð¸
ĠÐºÐ»ÐµÑĤ ÐºÐ¸
ĠÑģÐ¾Ð±ÑĢÐ°ÑĤÑĮ ÐµÐ²
ĠÑĥÐ´Ð°Ð² Ð°Ð»Ð¾ÑģÑĮ
ĠÑģ ÑĢÑĭÐ²
ĠÐº Ð¸ÑĢ
ĠÐ²ÑĭÑģ Ð¾ÑĤÑĭ
ÑĥÐ»ÑĮ Ð¿
ĠÐĶÐ¶ Ð°Ðº
ĠÐ¿Ð° ÑĢÐ°Ð´
Ġf rom
ĠÑĢÐ¾Ð´ Ð½Ð¾Ð¹
ĠÐ¾Ð¿ÐµÑĢ Ð°ÑĤÐ¸Ð²
ĠÐ½ÐµÐ²Ñĭ Ð½Ð¾Ñģ
ĠÑģ ÐµÐ³Ð¼ÐµÐ½ÑĤ
ĠÐ¿ÑĢ ÐµÑĢÑĭÐ²
ĠÐļ ÑĳÑĢÐ·
ÑĢÐ¾Ð½ Ð¸ÑĨ
ĠÐ´Ð²ÐµÑĢ ÑĮÑİ
ĠÐ½ÐµÑĩ ÐµÐ³Ð¾
ĠÐ·Ð¾Ð»Ð¾ÑĤ Ð¾Ð¼
ĠÐ·Ð°Ð¿ÑıÑģÑĤÑĮ Ðµ
Ð¸ ÑĦÐ¸ÑĨ
ÑĪ Ð¸Ð¼ÑģÑı
Ð¸ÑĤ Ð¸Ð°Ð½
ĠÑģÑĤ Ð°Ð»ÑĮ
Ð¾Ñĩ ÐµÐº
ÐĲ Ð½
ĠÐ¿Ð¾Ð½ ÑĢÐ°Ð²
ĠÑĤÐµÐ¼ Ð½Ð¾Ð³Ð¾
ÑĥÑħ Ð°
ĠÑĥÐ¼ Ðµ
ÑİÑī ÐµÐ³Ð¾
Ð°ÑĤÐ¾ Ðµ
ĠÐ´ÐµÑĢÐ¶ Ð°Ð»Ð¸
ĠÐ¿ÑĢÐ¸Ð±Ð»Ð¸Ð¶ Ð°ÐµÑĤÑģÑı
ĠÐ´ÐµÑģÑıÑĤ ÐºÐ¾Ð²
ĠÑģÐ²ÐµÑĢÑħ ÑĬÐµÑģÑĤÐµÑģÑĤÐ²ÐµÐ½
ĠÑģÐ¾Ñĩ Ð»ÐµÐ½
ĠÐ²Ð¾ÑģÑĤ Ð¾ÑĢÐ³
ĠÐ½Ð°Ð²Ð¸Ð³ Ð°ÑĤÐ¾ÑĢ
ÑĢ Ð¾ÑģÑĤÑĮ
ĠÐ¿ ÑĥÑĩ
ĠÑĤ ÑĢÑĥÑģ
Ñī Ð¸Ð¹
Ð¸Ñĩ Ð½Ð¾Ð¹
ÑģÑĤÑĢ ÐµÐ»Ð°
Ðļ Ð¾Ð»
ĠÐ¿ÑĢÐ¾ÑĤÐ¸Ð² Ð½Ð¸ÐºÐ¾Ð¼
ĠÐĸ Ð°Ðº
Ð¿ÑĢ Ð¸Ðº
ĠÐ¿ÑĥÑģÑĤ Ð¾Ð¹
ĠÑĢÐ°Ð±Ð¾ÑĤ Ð°ÐµÑĤ
ĠÐ¿Ð»Ð¾ÑĤ Ð½Ð¾
ĠÐºÑĢÐ°Ñģ Ð½Ð¾Ð³Ð¾
ĠÐ´ÑĭÐ¼ Ð¾Ð¼
Ð¨ ÑĤ
ĠÑĥÑģÑĤÑĢÐµÐ¼ Ð¸Ð»ÑģÑı
ÑĢÐ°ÑģÐ¿ Ð»Ð¾Ñħ
ĠÐºÐ»Ð¾Ñĩ ÑĮÑı
ĠÐ¾ÑĤÐ¾Ð¼ ÑģÑĤ
ĠÐ² ÑĢÐ°ÑģÐ¿Ð»Ð¾Ñħ
ĠÐº ÑĥÐ²
ÑīÐµ ÐµÑģÑı
Ð°Ð½Ð¸Ñı Ð¼
ĠÐ¿ÑĢÐ¾ÑĪ Ñĥ
ĠÐ·Ð°Ð¼ÐµÑĤ Ð¸Ð²
ĠÐ¡Ð»Ð¾Ð² Ð°
Ð²Ð¾ Ð¸
ĠÐ·Ð²ÐµÑĢ Ð¸
ĠÑĥÐ³ÑĢÐ¾Ð· Ð°
ĠÐ·Ð½Ð°Ð¼ ÐµÐ½
ĠÑĤÐºÐ°Ð½ ÑĮ
Ð»Ð¸Ð¶ Ðµ
ĠÐ¾Ð´Ð¸Ð½Ð¾Ñĩ ÐºÑĥ
Ð¾ ÑĨÐµÐ½
Ð´ ÐµÐ¼
ĠÑĩ ÑĮÐµ
ĠÐ¾ÑĤ ÑĤ
ĠÐ¸Ð· ÑĢÑĭÐ³
ĠÐĴ Ð¾Ñģ
Ð¸Ñĩ Ð½ÑĭÐ¼
ĠÐĿ Ð°ÑģÑĤ
ĠÐĿ Ð°ÑĪÐ¸
ĠÐ¾Ðº ÑĢÐ°
ĠÐ±ÐµÐ· Ð·Ð²
Ð¸Ð»ÑĮ ÑĤ
ĠÐ¿Ð¾Ð²ÐµÑĢÑħ Ð½Ð¾ÑģÑĤÑĮÑİ
ĠÑĨÐµÐ¿ Ð½ÑĭÐ¼
ĠÐ¸Ð·Ð¼ÐµÐ½ ÐµÐ½Ð¸Ñı
ĠÐ²ÐµÐ»Ð¸Ðº Ð¾Ð¹
ÐµÐ½Ñī Ð¸Ð½Ð°
Ð¡ÑĤ Ð°ÑĢ
ĠÐ°Ð½Ð³ Ð°ÑĢ
ĠÐ¿Ð¾ÑģÐ¿ÐµÑĪ Ð½Ð¾
ĠÐ¿ÑĢÐµÐ¿ ÑıÑĤ
ĠÐ±ÐµÑģÑģÑĤÑĢ Ð°ÑģÑĤ
Ð¼ Ð¾ÑĢ
ĠÐ± ÑĥÑĤ
ÐºÑĥ ÑĪ
ĠÐ¥ ÐµÐ»ÑĮ
ĠÐ±ÑĥÐ´ ÑĥÑĩÐ¸
ĠÐ¾ÑģÑĤÐ°Ð»ÑĮ Ð½Ð¾Ðµ
ĠÑĢÐ°Ð´ Ð¾ÑģÑĤÑĮÑİ
ĠÐ² Ð³Ð»ÑıÐ´
ĠÐļ ÑĥÐ·
ĠÐ¿Ð¾Ñģ Ð°Ð´
ĠÐ¿ÑĢÐµÐ´ Ð°ÑĤÐµÐ»Ð¸
ĠÑĨ ÐµÐ»Ð¸ÐºÐ¾Ð¼
ĠÑģÐ¸Ð» Ð¾Ð²ÑĭÐµ
Ð½Ð°ÑĢ ÑıÐ´
ĠÐ²ÑĭÑģ Ð¾ÑĤÑĥ
Ð¸ÑĢÐ¾Ð²Ð°Ð½ Ð½ÑĭÐ¼Ð¸
ĠÑģÐµÐº ÑĤÐ¾ÑĢÐ°
ĠÐ´ÐµÐ¹ÑģÑĤÐ² Ð¸Ðµ
ĠÐ²ÑĭÑģÐ¾Ðº Ð¾Ð³Ð¾
ĠÐ¿ÑĢÐ¾Ñĩ Ð¸Ñħ
ĠÐ¿ÑĥÑĪ ÐµÐº
ĠÐ¾Ð±ÑıÐ·Ð°Ð½ Ð½Ð¾ÑģÑĤÐ¸
ÐĶÐ¶ Ð¾Ð½
ĠÐĴÐµÐ½ÑĤ Ð°Ð½
Ð¸ÑĤ ÑĭÐ¹
Ð°Ðº Ð°Ð½
ĠÑĢ ÐµÐ³Ð¸Ð¾Ð½
ĠÑĢÐ°Ñģ ÑĩÐµÑĤ
Ð°ÐµÑĤ ÐµÑģÑĮ
ÑİÑī ÐµÐ¹
Ð°ÐµÐ¼ Ð¾ÑģÑĤÐ¸
ĠÑĥÐ½Ð¸ÑĩÑĤÐ¾Ð¶ Ð¸Ð»Ð¸
ĠÐ¼Ð¾Ñī Ð½ÑĭÐµ
ĠÐ¿Ð¾Ð±ÐµÐ¶ Ð°Ð»Ð¸
ÑĢÐ¸Ð¼ ÐµÑĢ
ĠÑĢÐ¸ÑĤÑĥ Ð°Ð»
ĠÐ¼ÑĥÑĤÐ°Ð½ÑĤ Ð¾Ð²
ĠÐ·Ð°Ð¿Ð¸Ñģ Ð¸
ĠÐŁÐ¾ÑħÐ¾Ð´ Ð°
ĠÑģÐ¿Ð»Ð¾ ÑĪ
ĠÑģ ÑĨÐµÐ½
Ð»Ñı Ð½ÑĥÑģÑĮ
ĠÐĴ Ð¾Ð½
ÐĿ ÐµÐ¼
ĠÐºÐ¾ÑĢÐ¸Ð´ Ð¾ÑĢÐ°Ð¼
ĠÑĤÐ¾Ð»Ð¿ Ð°
ĠÑĩÐ¸Ñģ Ð»Ð°
ĠÐ£Ð»ÑĮÑĤÑĢÐ°Ð´ ÐµÑģÐ°Ð½ÑĤÐ°
ĠÐ¿Ð¾Ð´Ð¾Ð·ÑĢÐµÐ² Ð°Ð»
ĠÐ·Ð° Ð¾ÑĢÐ°Ð»
ĠÐ¾Ðº Ð¾Ð½
ĠÐ²ÐµÑĢ Ð½ÑĥÐ»Ð°ÑģÑĮ
ĠÐ´Ð¾ÑģÑĤ Ð¸ÑĩÑĮ
ĠÐ´Ð¾ÑģÑĤ Ð¾Ð¸Ð½
ĠÐ°ÑĢ ÑģÐµÐ½
ĠÐºÐ»Ð¸Ð½ ÐºÐ°Ð¼Ð¸
ĠÑĨÐµÐ¿ Ð½Ð¾Ð³Ð¾
ĠÐ¿Ð¾Ð±ÐµÐ´ Ð°
ĠÐ·Ð°Ñĩ Ð¸ÑģÑĤ
ĠÐĳÑĢÐ¾Ð½ ÐµÐ½Ð¾Ñģ
ĠÐ¿ÑĥÑĤÐµÑĪÐµ ÑģÑĤÐ²Ð¸Ñı
ĠX V
ÑĤÐ¾ ÑĢÐ°Ð¼Ð¸
ĠÐĶ Ð°ÑĢ
Ð°ÑģÑĤ ÐµÑĢ
ĠÐ¿ÑĢÐ¾ÑĤÐ¸Ð² Ð¾ÑĢ
ĠÐ½ÐµÐ± ÑĢÐµÐ¶
ĠÐ¼ÐµÑĢÑĤÐ² Ð¾Ð³Ð¾
ĠÐ¿ÑĢÐµÐº ÑĢÐ°Ñī
ac k
ĠÑĥÐ±Ð¸ÑĤ ÑĭÑħ
ĠÑĤÑĢÑĥ Ð´Ð°
ĠÑĢÐ°Ð·Ð¾Ñĩ Ð°ÑĢ
ĠÐŀÐºÑĤ Ð°Ð²
Ð¾Ð» ÐµÑĤÑĭ
ÑĢÑĥ ÑģÐ°
ĠÐ¢ ÑĥÐ»
ĠÐ²Ð¸Ð´ Ñı
ĠÐ²Ð¸Ð´ Ð½Ñĭ
ĠÐ£ Ð¶Ðµ
ÐŃ ÑĤÐ°
ĠÐ²Ð¾Ð» Ñĩ
ĠÐ±ÑĢÐ°ÑĤ ÑģÑĤÐ²Ð°
ĠÐ»ÑİÐ± ÑĥÑİ
ĠÐ¿Ð¾Ð·Ð²Ð¾Ð» Ð¸Ð²
ĠÑī ÐµÐº
ĠÐ¿ÐµÑĢÐµÐ² Ð¾Ð´Ð°
ĠÐ¿Ð° ÑĥÐ·Ñĥ
ĠÐ²Ð½ÑĥÑĤÑĢÐµÐ½ Ð½Ð¸Ðµ
ĠÑģÐ»ÑĥÑĪ Ð°Ð»
Ġ 5
ĠÐº Ð°Ð´
Ð¸Ð½ ÐµÑĤ
ĠÐĴ ÑĥÐ»ÐºÐ°Ð½Ð°
ĠÐ¿ÑĢÐµÐ´ Ð²Ð¾Ð´
Ðļ Ñģ
Ðĵ Ð¾ÑĢ
ĠÐ¾ÑĢ Ð´
ĠÑĤÐ¾Ð» ÐºÑĥ
ĠÐ²Ð´ Ð°Ð»Ð¸
ĠÑĢÐ°Ð½ÐµÐ½ ÑĭÑħ
ÐĲÑĢÐ³ ÐµÐ»
Ð°ÑĢ Ð¸ÐºÐ°
ĠÐł Ð¾Ð±
ĠÐ½Ð°Ð´ Ð²Ð¸Ð³
ĠÐ¼ÐµÑĤ Ð¾Ð´
ĠÐ¿Ð¾ÑĢ Ð°
Ð»Ð¾ÑĤ ÑĮ
ĠÐºÐ¾ÑģÐ¼ Ð¸ÑĩÐµÑģÐºÐ¸Ð¹
ĠÑģÐ¾ÑĤ ÑĢÑĥÐ´
ĠÐ¿Ð¾ÑĩÑĥÐ² ÑģÑĤÐ²Ð¾Ð²Ð°Ð»Ð°
ĠÐ½ÐµÑĩ ÐµÑģÑĤÐ¸Ð²
ĠÐ¼Ð¸Ð» Ð¾ÑģÐµÑĢÐ´
ĠÑĤÐ°Ð¹ Ð½Ñĭ
ĠÐ¸Ð´Ðµ Ñı
ĠÑģÐ°Ð¼Ð¾ ÑĥÐ±Ð¸Ð¹
ĠÐºÑĢÐ¸Ñĩ Ð°Ð»
ĠÐ¼Ð¾Ð»Ð¸ÑĤ Ð²
ÑģÑĤÐ² ÑĥÑİÑĤ
Ð¾ÑģÑĤ Ð°ÑĤÐ¾ÑĩÐ½Ð¾
Ð½Ð¸ Ñİ
ÐĶ ÐµÐ²
Ð¸Ð²ÑĪ Ð¸Ð¼ÑģÑı
ĠÐ´ÐµÐ» Ð°Ñı
ĠÑģÐ»Ð°Ð± ÑĭÐ¼
ĠÑģÑĤÑĢÐ°Ð½ Ð½ÑĭÐµ
ĠÐ·Ð²Ñĥ ÐºÐ¾Ð¼
ĠÐ¾Ð±Ðµ Ð¸Ñħ
ĠÐ´Ð¾Ð²Ð¾Ð´ Ð¸Ð»Ð¾ÑģÑĮ
ĠÑĩ ÐµÑĪ
ĠÐļ Ð¾Ð³Ð¾ÑĤÑĮ
ÑģÑĤÑĢ ÐµÐ¼
ĠÑģÑĤÐ°ÑĢ ÑĪÐ¸Ð¹
ĠÐ±ÑĢÐ°ÑĤ Ñĥ
ĠÐ½Ð°Ð¿ÑĢÐ°Ð² Ð»ÐµÐ½Ð¸Ñı
ĠÑģÐ»ÑĭÑĪ Ð½Ð¾
ĠÐ³Ð¾ÑĤÐ¾Ð² ÑıÑģÑĮ
ÑĳÐ½ Ð½Ð¾Ð³Ð¾
ĠÐ´Ð°Ð² Ð°Ñı
ĠÐ¾ÑģÑĤÐ°Ð½Ð¾Ð² Ð¸Ð»
ĠÐ¿Ð¾ÑħÐ¾Ð¶ Ð¸
ĠÑĤÐ¾Ð½ ÐºÐ¸Ðµ
ĠÐµÐ´Ð¸Ð½ÑģÑĤÐ²ÐµÐ½ Ð½Ð¾Ð¹
ĠÑĢÐ°Ð·Ð¾ÑĢÐ² Ð°Ð»
ĠÑįÑĦ Ð¸ÑĢ
ĠÐ²ÐµÑī ÐµÐ¹
ĠÐ²Ð·Ð¾ÑĢÐ² Ð°Ð»Ð°ÑģÑĮ
ĠÑĤÑĢÑĥÐ± Ñĭ
ĠÐ¿ÐµÑģ Ð¾Ðº
ĠI V
ĠÐ±Ð¾ÐµÐ¿ÑĢÐ¸Ð¿Ð°Ñģ Ñĭ
ÑĥÐ¼Ðµ ÐµÑĤÑģÑı
ÑĢÐ°ÑģÑģ ÑĥÐ´
ĠÐ½Ð°ÑģÑĤÐ¾Ñı ÑīÐµÐµ
l a
Ñģ Ð¼ÐµÑĢÑĤ
ĠÑģ Ð½Ð°
ĠÐ² Ð¸Ð½Ð¾Ð²
Ð°Ð½ ÑĥÐ»
ĠÐ´ ÐµÐº
ĠÐ³ Ð¸Ð¿
ĠÐ²Ð· ÑıÐ»Ð¸
ĠÐ±ÐµÐ· Ð²
ĠÐ¼Ð¾ ÑĤÐ¾ÑĨÐ¸Ðº
ĠÐ¿ÑĢÐ¸Ð½ ÐµÑģÑĤÐ¸
ĠÑģÐ¾Ð±Ð¸ÑĢ Ð°ÑİÑģÑĮ
ĠÐ¿ÑĢÐ¾Ð³ Ð¾Ð²Ð¾ÑĢÐ¸Ð»
ĠÐ¿Ð¾Ð´Ð¾ÑĪ Ð»Ð¸
ÐµÐ½ ÐµÐ±
ÐµÐ» Ð»Ð°
ĠÐ¶ Ð¸ÑĤÐµÐ»Ð¸
Ð¾Ñĩ Ð½Ð¾Ð³Ð¾
Ð¸ÑģÑĤ ÑĭÑħ
Ð´Ñĥ Ð²
ĠÐºÐ¾Ð» Ð»ÐµÐº
ĠÐ½ÑĥÐ¶ Ð´
ĠÐ¿Ð»ÐµÑĩ Ðµ
ĠÐŀÑĢ Ð´
ĠÐĵÑĢ ÐµÐ¹
ĠÐ¾ÑĤÐ²ÐµÑĢ Ð³
ĠÐ¿ÑĢÐ¾Ð²ÐµÑĢ Ð¸Ð»
ĠÑĥÐ»Ð¾Ð² Ð¸Ð»
ĠÐ¿Ð»Ð°Ð½ÑĪ ÐµÑĤ
ĠÐ¥Ð°Ñį Ð³ÑĢ
Ð°ÑĤ Ð¸Ð»Ð°ÑģÑĮ
Ð°ÑĢ Ð´Ñĭ
Ð¸Ð½ ÐºÐ°
ĠÐ¸Ð· ÑĥÑĩÐ°Ð»
ĠÐĶ Ð°ÑĦÐ°Ð½
ÑĢÐ¾Ð² Ð¸Ð·
ĠÐ²ÐµÑĢ ÑĤÐ¸Ðº
ĠÐ¾ÑĤÐºÑĢÑĭ ÑĤÐ¾
ĠÐ¾ÑĤÐºÑĢÑĭ Ð»Ð¸ÑģÑĮ
ĠÐ¿ÑĢÐ¾ÑĢ ÑĭÐ²
ĠÐºÐ¾Ð¼Ð¿Ð»ÐµÐº ÑģÐ°
ĠÐ´Ð¸ÑģÐ¿ Ð»ÐµÐµ
ĠÐ¢Ð¸ÑĢ Ð¾
ĠÐ¡ÐµÐ¼ Ð¿ÐµÑĢ
ĠÐ¿ÑĥÑĢ Ð¿ÑĥÑĢ
Ð¿ Ð¾ÑģÑĤ
Ð°Ð¿ ÑĢÐ°Ð²
ĠÐ¢ ÑĢÐµÑĤÑĮ
Ð°Ð½ÑĤ Ð°ÑĢ
ĠÐ´Ð² Ð¸Ð½ÑĥÐ»Ð¸ÑģÑĮ
ĠÐ±Ð¾Ð» ÑĤÐ¾Ð²
ĠÐ±Ð¾Ð»ÑĮÑĪ Ð¾Ðµ
ĠÑĤÐ¾Ð» Ñĩ
ĠÐ²ÐµÐ´ ÐµÑĤ
ĠÐ¿ÑĢÐ¾Ð¸Ð· Ð²ÐµÐ´
ĠÐ²ÑģÑı ÐºÐ¾Ð³Ð¾
ĠÐ²Ð¾Ð·Ð½Ð¸Ðº Ð»Ð°
ĠÐĿÐ°Ð² ÐµÑĢ
ĠÐ´ÑĢÐ¾Ð± Ð¾Ð²
ĠÑĢ Ð¸Ð½ÑĥÐ»ÑģÑı
ĠÐ·Ð°Ð² ÐµÑģ
in d
ĠÐ²ÑģÐº Ð¸Ð½ÑĥÐ»
ĠÐ³Ð»Ð°Ð² Ð½Ð¾Ð¹
ÑıÑģÐ½ Ð¸Ð»
ĠÐ¿ÑĢÐµÐ´ÑģÑĤÐ°Ð²Ð»Ñı Ð»Ð°
ĠÑĢÐ°Ð·Ð½Ð¾ Ð¾Ð±ÑĢÐ°Ð·
ĠÐ ©
ĠÐ¾ÑĤ Ð·
ĠÑĢÐ°Ð· Ð°
ĠÑĢÐ°Ð· Ð¾ÑĪ
ĠÐĵ Ð¾Ð»
ĠÐł ÐµÐ¼
ĠÐºÐ¾Ð¼ Ð¼ÑĥÐ½Ð¸Ðº
ĠÐ¸Ð½ Ð¾Ð¿Ð»Ð°Ð½ÐµÑĤ
ĠÑĢÐ°Ð·Ð² Ð¸ÑĤ
ĠÐ·Ð°Ð½ ÑıÐ»Ð¸
ĠÐ´Ð»Ð¸Ð½ Ð½ÑĭÐ¼Ð¸
ĠÐ´ÐµÑĤ Ð¸
Ð°ÑĨÐ¸Ð¾Ð½ Ð½ÑĭÐ¹
ĠÐºÐ¾ÑĢÐ¿ÑĥÑģ Ðµ
ĠÐĺÑģÐ¿ Ð¸Ð²Ð°ÑİÑīÐ¸Ñħ
ĠÐĲÐ³ Ð°Ð¿Ð¸ÑĤÐ¾
Ðµ ÑĤÐ¾
ĠÐ² ÑĢÐ°ÑĤÐ°
ĠÐ½ ÐµÐ»Ð¾Ð²
ĠÐº ÑĢÑĥ
ĠÑĤ ÑıÐ³
Ð¸Ð² ÑĪÐµÐµÑģÑı
ĠÐ¿Ð¾Ð» Ð½ÑĭÐ¼
ĠÐ¸Ð½ ÐºÐ²Ð¸Ð·
ĠÐ½Ð°Ñĩ Ð°Ð»Ð¾ÑģÑĮ
ĠÐ½ÐµÐ¿ Ð»Ð¾Ñħ
ĠÐ±ÑĥÐ´ÐµÑĤ Ðµ
ĠÑĤÐµÑĢ Ð¼Ð¸Ð½
ĠÐ²ÐµÑĤ ÑĢÑĥ
ĠÑĪÑĢÐ°Ð¼ Ñĭ
ĠÐ³ÑĥÑģÑĤ Ð¾Ð¹
ĠÐľÐ°Ðº ÑĢÐ°Ð³
ĠÐĵÐ°Ð»Ð°ÐºÑĤ Ð¸ÐºÐ¸
Ðº Ð°Ð»ÑģÑı
ÐµÑĢ ÐµÐ¶
ĠÐ± Ð´
Ð°Ð½ ÐºÐ¾Ð²
Ð¾ÑģÑĤ Ð¾ÑıÑĤÐµÐ»ÑĮ
Ð½Ñı Ð²
ĠÐ£ Ð»
ĠÐ¾ÑĤÐ²ÐµÑĤ Ð½ÑĭÐ¹
ÐµÑī ÐµÐ½Ð¸Ðµ
ĠÐ¿Ð¾Ð´Ð½Ñı Ð»Ð¸
ĠÐ·Ð°ÑģÑĤÐ°Ð² Ð»ÑıÑı
Ġc om
Ð»ÑıÑĤÑĮ Ðµ
ĠÐ¿Ð¾Ð´Ð´ÐµÑĢÐ¶ Ð¸Ð²Ð°ÑĤÑĮ
ĠÐºÑĥÑĢ ÑĤ
ĠÐ²ÑĢÐ°Ð¶ÐµÑģÐº Ð¾Ð³Ð¾
ĠÐ°ÑģÑĤ Ð°ÑĢÑĤÐµÑģ
ĠÐ¿ÑĢÐ¾Ð²Ð¾ÑĢ ÑĩÐ°Ð»
ĠÐ¸Ð½ÑĦÐ¾Ð¿ Ð»Ð°Ð½ÑĪ
ĠÐ¿Ð¾Ð² ÑĢÐµÐ´
Ð°Ð½Ð´ ÐµÑĢ
Ð¸Ð²ÑĪ ÑĥÑİÑģÑı
ĠÐ³Ð¾ÑĢ ÑģÑĤ
ĠÐ´ÐµÐ» Ð°ÑİÑĤ
ĠÐ¸ÑģÑĤ Ð¸Ð½Ñĥ
ĠÐ¸Ð·Ð² Ð¸Ð²
ĠÑĢÐ°ÑģÐº Ð¾Ð»Ð¾ÑĤ
ĠÐ¿ÑĢÐ¾Ñģ Ð»Ð°Ð²
ĠÐ²ÑĭÑģÐ¾Ðº Ð¸Ñħ
ĠÐ´ÐµÑĤ Ð°Ð»
ĠÐ±Ð»Ð¸Ð¶Ð°Ð¹ ÑĪÐµÐ³Ð¾
ĠÑĤÑĢÐ¸Ð´ÑĨ Ð°ÑĤÐ¸
ĠÐ½Ð°Ð³ÑĢÑĥÐ´ Ð½Ð¸Ðº
t o
Ġ un
Ðº Ð½ÑĥÐ²
ĠÐļ ÐµÑĢÐ³
ĠÑģÐº ÑĢÐ¾Ð¼
ĠÐ¢ Ð¸ÑĤÐ°Ð½
ĠÐĲ ÑĢÐ°Ð¼
ĠÐĵ ÑĢÐ¾Ð¼
ĠÐĳ Ð¾Ð»ÑĮÑĪÐµ
ĠÐ±ÐµÑģ ÑĨ
ĠÐ±Ð¾Ð»ÑĮÑĪ Ð¾Ð³Ð¾
ĠÑĤÐµÑĢ ÑĢÐ°Ð½
Ð³Ð¾Ð» Ð¾Ñģ
ĠÐ²ÐµÑĤÐµÑĢ Ð°Ð½
ĠÐ²Ð¸Ñģ ÐµÐ»Ð¸
ĠÐ²ÑĭÐ³Ð»ÑıÐ´ Ð¸ÑĤ
ĠÐ´Ð¸ÑģÐ¿ Ð»Ðµ
ĠÑĥÐ´Ð¾Ð²Ð¾Ð»ÑĮ ÑģÑĤÐ²Ð¸Ðµ
ĠÐ²Ð¾ÑģÐ¿ÑĢÐ¸Ð½ Ð¸Ð¼
Ð¿ Ð¾Ð²
ĠÐ¾ÑĤ ÑģÐºÐ¾Ñĩ
ĠÐ¿Ð¾ Ð¸Ð½ÑĤÐµÑĢÐµÑģÐ¾Ð²Ð°Ð»ÑģÑı
ĠÐ¢ ÐµÐ»
Ð°Ð»ÑĮ Ð½Ð¾Ð¼Ñĥ
ĠÐľ Ð°
ĠÐ±ÑĢ ÐµÑĪÑĮ
ĠÐĳ Ð°
ĠÐł Ñĥ
ÐĶ ÑĢÑĥÐ³
ĠÐ¿Ð¾Ð¿ÑĭÑĤ Ð°ÑĤÑĮÑģÑı
Ġc h
ĠÑĥÐ±Ð¸Ð¹ ÑĨÑĭ
ĠÐĲÐ½ Ñģ
ĠÑģÐ²ÐµÑĢÐº Ð°Ð»Ð¸
Ðº Ð½
ĠÐ´ ÑĮÑıÐ²
ĠÐ¿Ð¾Ð» Ñİ
ĠÐł ÐµÐ·
ĠÑĩÐµÑĢ Ð½ÑĭÐ¼Ð¸
ÑģÑĤÐ²ÐµÐ½ Ð½ÑĭÑħ
ĠÐ¿ÑĢÐ¸Ð± ÑĭÐ²
ĠÑĥÑģ ÑĭÐ¿
ĠÐ¿Ð¾Ð·Ð²Ð¾Ð» Ð¸Ð»Ð¸
ĠÐĵÐ¾ÑĢ Ð³Ð¾Ð½
ĠÐ¿ÑĥÐ»ÑĮÑģ Ð¸ÑĢÑĥÑİÑī
ĠÐ°ÑĥÐ³ Ð¼ÐµÐ½ÑĤ
ĠÐ¿ÑĢ Ð¸Ð¹
ÐµÐ³Ð¾ ÑĢ
ĠÑģÐº ÑĥÐ»ÑĮÐ¿
Ð¸Ð»Ð¸ ÐµÐ¼
ĠÐ²Ð· Ð¾ÑĢ
Ðļ Ð°Ð¹
ĠÑĥÐ² ÐµÐ½Ñĩ
ĠÐ´Ð¾Ð» Ð¾Ð¶
ĠÑĥÐ¶Ð°Ñģ Ðµ
ĠÑĥÐ²ÐµÑĢ ÐµÐ½Ñĭ
ĠÑģÐ½ Ð¸Ð·Ñĥ
ĠÐºÐ» ÑĥÐ±Ñĭ
ĠÐ´Ð¾Ð¶Ð´ ÐµÐ¼
ĠÑģÑĥÐ± Ñģ
ĠÐ¾Ð´Ð¸Ð½Ð¾ÑĩÐµ ÑģÑĤÐ²Ðµ
ĠÐ¿ÑĢÐ¾ÑĤÐ¸Ð²Ð¾ÑĢ ÐµÑĩ
Ġ 8
ĠÐ² Ð¾Ð¶Ð´
ĠÐ» Ð°Ð³
ĠÐ» ÑĥÐ½
ĠÑĢ ÐµÑĩÐ¸
Ð¸Ð´ ÑĥÑģ
ÐŁ ÑĢÐ¾
ĠÐ²Ð· Ð²Ñĭ
ĠÐ¾Ðº Ð¸Ð½ÑĥÐ»
ĠÑĩÐµÑĢ Ð½ÑĭÐ¼
ÑĥÑī ÑĥÑİ
ÑĢÐ°Ðº Ðµ
ĠÐºÐ¾Ð¼Ð°Ð½Ð´ Ð½Ð¾Ð¹
ĠÑĥÐ²ÐµÑĢ ÐµÐ½Ð½Ð¾
ĠÐ´ÑĢÐµÐ² Ð½ÐµÐ³Ð¾
ĠÐ½Ð°Ð²ÐµÑĢ Ð½Ð¾Ðµ
ĠÐ´Ð¾Ð±ÑĭÑĩ Ñĥ
ĠÐ´Ð¾Ð½ÐµÑģ ÑģÑı
ĠÐŀÑĩ ÐµÐ½ÑĮ
ĠÐ¼Ð¸Ð½Ð¸Ð¼ ÑĥÐ¼
ĠÐłÐµÐ¹Ð²ÐµÐ½ Ð¾ÑĢ
ĠÑĥÐ½Ð¸ ÑĦÐ¾ÑĢÐ¼
Ð½ Ð¸Ñģ
ĠÐ²Ð· Ð°Ð¸Ð¼
ĠÐ´Ð² Ð¾Ð¸Ñħ
Ðĵ Ð¾ÑģÐ¿
ĠÐ¿Ð¾Ð´Ð¾Ð± Ð½Ð¾Ð¹
Ð°Ñī Ð¸Ð¼
Ð¾Ð²ÐµÑĢÑĪ ÐµÐ½
ĠÐ¿ÑĢÐ¾Ðº Ð»Ñı
ĠÐ·Ð°ÑģÑĤÐ°Ð² Ð¸Ð»Ð°
ĠÑĥÑģÐ»ÑĭÑĪ Ð°Ð»Ð¸
ĠÐ²ÑĭÐ¶ Ð¸Ð»
ĠÑĪÐµÐ¿ Ð¾ÑĤ
ĠÐĿÐ°Ð² Ð¸Ð³
ĠÐĲÑĢÑħ Ð°Ð¼
ĠÐ°Ð³Ð¾Ð½ Ð¸Ð¸
Ðµ ÑģÑĤÐ²Ñĥ
Ð¾Ð² Ð¾Ð¼Ñĥ
ĠÐľ Ñį
Ðĺ Ð»Ð¸
ĠÐ¿ÑĢÐ¸Ð¼ ÐµÑĢÑĥ
ĠÑĢÐ°Ð½ Ð¾
ĠÐ·Ð°Ð± ÑĭÐ²
Ð¾Ð²Ð°Ð½ Ð½Ð¾Ð¹
ĠÐ¢Ð°Ðº Ð¶Ðµ
ĠÐºÐ» ÐµÑĪ
ĠÑĢÐ°Ð·Ð»Ð¸Ñĩ Ð½ÑĭÑħ
ĠÐ·Ð°ÑĢÑıÐ´ Ð¾Ð²
ÐĲÐ² ÑĤÐ¾ÑĢ
? âĢĿ
a nd
Ð¾Ð» ÐµÐ²
Ð· Ð°Ð½Ð¾
ĠÑĢÐ°Ð· Ð³Ð¾
Ñĳ Ñħ
ĠÑĢÐ°Ñģ ÑģÐº
ĠÐ½Ð¾Ð² Ð¾ÑģÑĤÐ¸
ĠÑĢÑıÐ´ Ð°Ð¼Ð¸
ĠÐ¼Ð¾Ð¼ÐµÐ½ÑĤ Ñĥ
ĠÐ¿Ñģ Ð¸Ð¾Ð½
ĠÐ³Ð¾ÑĢÐ¾Ð´ Ð¾Ð²
ĠÐ³ÑĢÐ°Ð½ Ð°ÑĤ
ĠÐ²ÑĭÐº ÑĢÐ¸ÐºÐ½ÑĥÐ»
ĠÐ¾ÑĤÐºÑĢÑĭÐ» Ð°ÑģÑĮ
q u
ÑĢ Ð¸ÐºÐ°
ĠÐ½ Ð¾ÑĤ
ĠÐ¡ ÐµÑĤ
ÐĴ Ðŀ
ÑĥÐ½ ÐºÑĤ
Ð¸Ð²ÑĪ Ð°Ñı
ĠÐ±ÑĢÐ¾Ð½ ÐµÐ¹
ĠÐ¿ÐµÑĢÐ² Ð¾Ðµ
ĠÑĩÑĥÐ² ÑģÑĤÐ²Ð¾Ð²Ð°Ð»Ð°
ĠÑģÐ¿Ð¾ÑģÐ¾Ð± Ð½Ð¾ÑģÑĤÑĮ
ĠÐ²ÐµÑģ Ð¾Ð¼
ĠÐ¼ÐµÑĢÑĤÐ²ÐµÑĨ Ð¾Ð²
ĠÐºÐ¾Ð½Ðº ÑĢÐµÑĤ
ĠÐ´ Ð¾ÑĤ
ĠÐĴ ÑģÐ¿
ĠÐ¢ ÑĥÑĤ
ĠÑģÐ± Ð¾ÑĢ
ĠÑĥÐ³ Ð»ÑĥÐ±
ĠÐ½ÐµÐ¿ÑĢ ÐµÐº
ĠÑģÑĭ Ð¿
ĠÑįÐ»ÑĮÐ´Ð°ÑĢ Ñĭ
ĠÐ²ÑģÑĤÑĢÐµÑĤ Ð¸Ð»ÑģÑı
ĠÐĳÐµÐ» ÑĭÑħ
ĠÐ»ÐµÐ´ Ð¸
ĠÐ³Ð°ÑĢ Ð°Ð½ÑĤ
ĠÐ³ÑĢ Ð¸Ð¼
ĠÐ¾ÑģÑĤÐ°Ð½Ð¾Ð² Ð¸Ð»Ð°ÑģÑĮ
ĠÑĥÑģÐ»ÑĭÑĪ Ð°Ð»Ð°
ĠÐ¾ÑģÐ¾Ð± Ð¾
ĠÐ´Ð¾Ð»Ð³ Ð¸Ðµ
ĠÐ²Ð¾Ð´ Ðµ
Ð°ÑĨÐ¸Ð¾Ð½ Ð½ÑĭÑħ
ĠÐ¿ÑĥÑģÑĤÑĭ Ð½
ĠÑĤÑĭÑģÑıÑĩÐµÐ»ÐµÑĤ Ð¸Ñı
ĠÑīÑĥÐ¿ Ð°Ð»ÑĮÑĨÐ°
ĠÐ² Ð°Ð³Ð¾
ÐµÑĢ Ð½
ĠÑĤ ÑĥÑĪ
Ð¾ÑģÑĤ ÑĢÐ°Ð¼
ĠÐŀ ÑĢÑĥÐ¶Ð¸Ðµ
ĠÐ¡ ÐºÐ²Ð¾Ð·ÑĮ
Ð°Ð»Ð¸ Ð¸
ĠÐ¿Ð¾ÑĤ ÐµÐ¼
ĠÐ½Ð°Ð´ ÐµÑİÑģÑĮ
ĠÑĢÐµÐ· ÐºÐ¸Ð¼
ĠÐ´Ð²Ð¸Ð³ Ð°ÑĤÐµÐ»ÑĮ
ĠÐ²Ð½ÑĥÑĤÑĢÐµÐ½ Ð½ÐµÐ¹
ĠÐ¿Ð¾ÑĤÑĢÐµÐ± Ð¾Ð²Ð°Ð»
ĠÑĤÐµÐ¿ Ð»Ð¾
ĠÐ²ÑĭÑĪ Ð»Ð°
ĠÐ½ÐµÐ» ÐµÐ³
ĠÐ¢Ð¾ÑĢÐ³ Ð°Ð´Ð´Ð¾Ð½
! !
a u
Ð¾ ÑĤÐ¾
Ð¸ Ð°ÑĤ
ÑĢ Ð¸ÐºÐ¸
Ð» Ð¸Ð¼
ĠÐ´ Ð¾ÑĢÐ¾Ð¶
Ð³ Ð¾Ð²Ð¾ÑĢ
ĠÐ½Ðµ Ð¾ÑħÐ¾ÑĤ
ĠÐŀ ÑģÐº
ĠÑģÐ¿ ÑĢÐ¾ÑģÐ¸ÑĤÑĮ
ĠÐ²ÐµÑĢ Ñĥ
ĠÐ·Ð°Ð¿ ÑĥÑĤ
Ð¸Ð½Ñĥ Ð»Ð°
ÐĽ Ð¸ÑĨÐ¾
ĠÐ·Ð°Ð± ÑĢÐ¾ÑĪ
ĠÑĢÐµÑĪ ÐµÐ½Ð¸Ñı
ĠÐļÐ¾ÑĢ Ñģ
ĠÐ²ÑĭÑĢÐ² Ð°Ð»Ð¸ÑģÑĮ
ĠÑĥÐ±ÐµÐ¶ Ð´
ĠÐ³ÐµÐ½Ð¾ÐºÑĢÐ°Ð´ Ð¾Ð²
ĠÐĽÑĮ Ð²Ð°
ĠÐ¿ÑĢÐ¸Ð¹ ÑĤÐ¸
ÑĢ Ð¸ÑıÑĤ
ĠÐľ Ð°Ð¹
Ð¸ÑĤÐµÐ»ÑĮ Ð½Ð¾Ð¼
ĠÑģÑĤÐ°ÑĢ Ð¸Ðº
ĠÐºÐ¾ÑĢÐ°Ð±Ð»Ñı Ð¼Ð¸
ĠÐ¾Ð¶Ð¸Ð´ Ð°Ð»Ð¸
ĠÑĤÐ¾Ð¿ Ð¾ÑĢÐ°
ĠÐ¿Ð¾Ð½ÑıÑĤ Ð½Ð¾
ĠÐļÐ¾Ð½ Ñģ
ĠÐ´Ð¶ÑĥÐ½ Ð³
ĠÐĳÑĥÐ»Ð²Ð°Ð¹ ÑĦ
ÐļÑħ Ð°ÑĢÐ½
ĠÐ¿ÑĢ ÑıÑĩ
Ð³ Ð°ÑĢÐ´
ĠÐ¾ÑĤ ÑģÑĤÐ°Ð²
Ð¸ÑĢ Ð°Ð»Ð¸ÑģÑĮ
Ð¸ÑģÑĤ ÑĭÐ¼
Ðļ ÑĢÐ¾Ð²
ĠÑģÑĤÐ¾ Ñı
ĠÐºÐ¾Ð½ Ð²
ĠÐ·Ð°Ð¿ Ð¾Ð¼Ð½
Ð½ÑĥÑĤ ÑĭÑħ
ĠÐ¸ÑģÐ¿ ÐµÑī
ÐŁÑĢ Ð¾ÑģÑĤÐ¾
ĠÑĤÐ¾ÑĤ ÑĩÐ°Ñģ
ĠÐ²ÑĭÑģÑĤÑĢÐµÐ» Ð°Ð¼Ð¸
ĠÑĥÐ¿ÑĢÐ°Ð² Ð»ÑıÑĤÑĮ
ĠÐ¿Ð¾Ð»ÐºÐ¾Ð² Ð½Ð¸ÐºÐ°
ĠÐŁÑĢÐ¸Ð¼Ð°ÑĢÑħ Ð°
Ð¾ÐºÐ¾Ð» ÐµÐ±
Ð¾ Ð½Ð¾Ñģ
ĠÐ½Ðµ Ð¾Ð¿
ÑĭÐ² Ð°Ð»Ð°ÑģÑĮ
ĠÐ²Ð¾Ð· ÑĮ
ĠÑĤÐµÑħ Ð½Ð¸ÐºÐ¸
ĠÐ³Ð»ÑĥÐ± Ð¸Ð½
ĠÐ²ÑĭÑĢ Ð²Ð°Ð»
ĠÑĤÑĢÐµÐ± ÑĥÐµÑĤÑģÑı
ĠÑĤÐ¾Ð»Ð¿ Ðµ
ĠÐ¿Ð»Ð° ÑĤÐ¾
an t
ĠÐ¼ÑĥÑģÐº ÑĥÐ»Ñĭ
ĠÐ¾Ð² Ð»Ð°Ð´
ĠÐļÑĢÐ¾ Ð°Ð³ÐµÑĢ
o re
Ð¸ ÑĥÑģÐ°
ĠÐ¸Ð· Ð¼ÐµÑĢ
ĠÐ²Ð¾ ÐµÐ½Ð½Ð¾Ð¹
ĠÐ±Ð¾Ð»ÑĮÑĪ Ð¸Ñħ
ĠÐ¿ÑĢÐ¾Ð´Ð¾Ð»Ð¶ Ð¸ÑĤÑĮ
ĠÐ¿Ð»ÐµÑĩ Ð°Ñħ
ĠÑĤÐ¾Ñĩ ÐºÐµ
ĠÐºÐ¾ÑĢÐ¸Ð´ Ð¾ÑĢÐµ
ĠÐ¿Ð¾ÑħÐ¾Ð¶ ÐµÐµ
ĠÑĥÐ±Ð¸Ð¹ ÑĨ
ĠÐ³Ð¸Ð³Ð°Ð½ÑĤ Ð°
ĠÐ¿Ð¾Ð¹Ð¼ Ð°Ð»
ĠÐ¾Ð³Ð»ÑıÐ´ÐµÐ» ÑģÑı
ĠÐ² ÐµÐ¶
ÐµÐ» Ñĭ
Ð¾Ð» Ð¸Ð½
ĠÐĴ Ð´
ĠÐĴ Ð»Ð°Ð´Ñĭ
ĠÐ¶ Ð³
ĠÐ¿Ð¾Ð» Ð½Ð¾
ĠÐ¿Ð» Ð¾Ñģ
ĠÐĳ Ð»Ð°Ð½ÑĪ
ĠÐ²Ð¸Ð´ ÐµÐ½Ð¸Ðµ
ÐĲ Ð»ÑĮ
ĠÐ¸ÑģÐ¿ ÐµÐ¿
ĠÑĨÐµÐ½ÑĤ ÑĢÑĥ
ĠÑģÐ¼Ð¾ÑĤÑĢ ÐµÐ»Ð°
ĠÐ¿ÑĢÐ¾Ð¼ ÑĭÑĪ
ĠÐ½Ð°Ð±Ð»ÑİÐ´ Ð°Ð»Ð¸
ĠÐĽÐ¾ÑĢ Ð´Ð°
ĠÑĥÐ²Ð°Ð¶ ÐµÐ½Ð¸Ñı
ĠÐ¾ÑĢÐ°Ð½ Ð¶ÐµÐ²
Ð¸ ÐµÐ²
ÑĢ ÐµÑģÑĮ
ĠÑħ ÑĢÐ¾Ð½
Ðŀ Ð½Ð¾
Ðļ Ð¸ÑĢ
Ð»Ñİ Ñī
ĠÐ¾Ðº ÑĢÐµÑģÑĤ
ĠÐ²ÑģÑĤÑĢ ÐµÐ²Ð¾Ð¶
ĠÐ¼ÑĭÑģ Ð»ÐµÐ½Ð½Ð¾
ĠÐ¸Ð¼Ð¿ ÑĢÐ¾Ð²Ð¸Ð·
ĠÐ¿Ð»Ð¾ÑīÐ°Ð´ ÐºÐ¸
ĠÑģÑĤÑĢÐ°Ð´ Ð°Ð½Ð¸Ñı
ĠÑģÐ¿ÐµÑĨÐ¸ Ð°Ð»ÑĮÐ½Ð¾
ĠÐ½Ð°Ð¿Ð¾Ð¼Ð½ Ð¸Ð»
ĠÐ±Ð°ÑģÑĤ Ð¸Ð¾Ð½
Ð» Ð¸Ð»
ĠÐ¿ÑĢ Ð¾ÑģÑĮ
Ð¾Ð³ Ð¾Ð²Ð¾ÑĢ
ĠÐ¿Ð¾ ÑĢÐ°Ð¶ÐµÐ½Ð¸Ðµ
ĠÐ¡ Ð¸Ðº
ĠÐ¿ÐµÑĢ ÐµÑģÐ¿
ĠÐĲ Ðº
ĠÑĢÐ°Ñģ ÑģÑĤÐ°Ð²
ĠÐ¿Ð¾Ðº Ð°Ð·Ð°Ð»ÑģÑı
ĠÐŃ ÑĦ
ĠÑģÐ°Ð¼ Ð¾ÑģÑĤÐ¾ÑıÑĤÐµÐ»ÑĮ
ĠÐĹ Ð°Ð»
ĠÐºÐ¾Ð¼Ð°Ð½Ð´ Ð½Ð¾Ð³Ð¾
ĠÐ¿Ð¾Ð´Ð¾Ð± Ð½ÑĭÐ¼
ĠÐ½ÐµÐ± Ñĥ
ĠÐ³Ð»ÑĥÐ± Ð¸Ð½Ð°Ñħ
ĠÐºÑĢÐ°Ñģ Ð¸Ð²
ĠÑģÑĤÐ¾Ð» Ð±
ĠÐ¿Ð¾Ð¼ÐµÑī ÐµÐ½Ð¸Ð¸
ĠÑĢÐ°Ð·Ð¼ÐµÑĢ Ð¾Ð²
ĠÐ²ÑģÐ¿ÑĭÑħ Ð½ÑĥÐ»
ĠÐ·Ð°Ð¼ÐµÑĢ Ð·
ÐĵÑĢÐ¾Ð¼ Ð¾Ð²Ð¾Ð³Ð¾
ĠÐ¼Ð¸Ð»Ð»Ð¸ Ð¾Ð½Ñĭ
ĠÐ¿ÑĢÐ¾ÑĪÐ» Ð¾Ð³Ð¾
ĠÐĴÐ¾ÑĢÐ¾Ð½ Ð¾Ð²
Ð¾ Ñİ
ĠÐ¡ ÑĥÑīÐµÑģÑĤÐ²Ð¾
ĠÐ½ÐµÐ´ Ð°Ð²
ĠÐ³Ð»Ð°Ð² Ð½ÑĭÐ¼
ĠÐĸÐµÐ»ÐµÐ· Ð½ÑĭÐ¹
ĠÐ¾Ð±Ð»Ð¾Ð¼ ÐºÐ°Ð¼Ð¸
ĠÑĢÑĥÐºÐ¾ ÑıÑĤ
ĠÐļÑĢÐ¾Ð² Ð¸
ĠÑĢÐµÐ¼Ð¾Ð½ ÑĤ
ĠÐ¿Ð¾ÑģÑĭÐ¿ Ð°Ð»Ð¸ÑģÑĮ
ĠÐ´ Ð¾ÑĢ
ĠÐŁ ÑıÑĤ
ĠÐ¾Ð´ Ð°ÑĢ
ĠÐ¿ÑĢÐµÐ´ Ð¾ÑĤÐ²
Ð¸ÑĢÐ¾Ð² Ð°Ð»Ð¾
ÑĢÐ°Ñģ ÑĭÐ²Ð°Ñı
ĠÐ·Ð°Ð² Ð¾Ð´
ĠÐ³Ð¾ÑĤÐ¾Ð² Ð½Ð¾ÑģÑĤÐ¸
ĠÐ´ÑĢÐµÐ² Ð½Ð¸Ð¹
ĠÐ²ÑĭÐ´ Ð²
ĠÐ½Ð¸Ð· ÐºÐ¸Ð¹
ĠÐ´Ð¾Ð»Ð³Ð¾ Ðµ
ĠÐ¼Ð¾Ð»Ð¾Ð´ Ð¾Ð³Ð¾
ĠÐ¿Ð¾Ð´ÑĢÐ°Ð·Ð´ÐµÐ» ÐµÐ½Ð¸Ð¹
ĠÐ¶ÑĢÐµÑĨ Ð°
ĠÑĢÐ°ÑģÑģÐµ ÑıÐ½
ĠÑĤÐµÑĢÐ¼Ð¸Ð½Ð°ÑĤÐ¾ÑĢ Ð¾Ð²
ĠÐ¾Ð±ÐµÐ· Ð³Ð»Ð°Ð²
Ð½ Ð¾Ð¿
Ðº Ð°ÑĤ
ĠÐ¿Ð¾Ð´ ÑĩÐµÑĢ
ĠÐ·Ð° ÑĢÐ°Ð±Ð¾ÑĤ
ĠÐ¿ÐµÑĢ ÐµÐ½Ð¾Ñģ
ÐĿ Ðŀ
ĠÐĵ Ð»Ð°Ð·
ÑĤÐµÑĢ Ð½
Ð°ÐµÐ¼ Ð°Ñı
ĠÐ¼Ð°ÑĪ Ð¸Ð½Ð¾Ð¹
ĠÐºÐ¾ÑģÑĤ Ñİ
Ð¾Ð¼ÐµÑĤ ÑĢ
ĠÐºÑĢÑĭÐ»ÑĮ ÐµÐ²
ĠÐ²ÑĭÑıÑģÐ½ Ð¸ÑĤÑĮ
ĠÑĢÑĥÐºÐ¾Ð¿ Ð°ÑĪ
Ð¾Ðº ÑĢÑĥÑĪ
ÐĴ Ð¾ÐºÑĢÑĥÐ³
ĠÐł Ð°Ð¿
ĠÑģÑĢÐ°Ð¶ ÐµÐ½Ð¸Ð¸
ĠÐ½Ð°Ð¿ÑĢÐ°Ð² Ð»ÑıÑıÑģÑĮ
ÐŁÑĢ ÐµÐ¶Ð´Ðµ
ĠÐ¿Ð°Ð´ Ð°ÐµÑĤ
ĠÐ¿ÑĢÐ¾ÑħÐ¾Ð´ Ð¸Ð»Ð¸
ĠÑĥÐ¼Ð¸ÑĢ Ð°ÑĤÑĮ
ĠÐ¿ÑĢÐ¾ÑĨ ÐµÐ´
ĠÑģÐ»Ð°Ð² Ñĭ
ĠÐ¼Ð¸Ð»Ð»Ð¸ Ð¾Ð½Ð¾Ð²
ĠÐºÐ¾Ñģ Ð½ÑĥÐ»ÑģÑı
ĠÐ²ÑĭÐ¿ÑĢÑıÐ¼ Ð¸Ð»ÑģÑı
ĠÑĩÑĢÐµÐ·Ð²ÑĭÑĩ Ð°Ð¹Ð½Ð¾
ĠÐº Ð°ÑĢÐ´Ð¸Ð½
ĠÐĴ Ð°ÑĢÐ¸
ĠÑĢÐ°Ñģ ÑĪ
ĠÐºÐ¾Ð½ Ñģ
Ð¸ÑĢÐ¾Ð²Ð°Ð½ Ð½Ð°Ñı
ĠÑģÑĢÐ°Ð¶ Ð°ÑİÑĤÑģÑı
ĠÑıÑĢ ÐºÐ¸Ðµ
ĠÐ¿ÑĢÐ¾Ðº Ð»Ð°Ð´
ĠÐ¸Ð¼Ð¿ÐµÑĢ ÑģÐºÐ¾Ð¹
ĠÑĢÐ°Ðº ÐµÑĤÑĭ
ĠÐ²ÑĭÑĢÐ°Ð¶ ÐµÐ½Ð¸ÐµÐ¼
ĠÐ½Ð°ÑģÐµÐ» ÐµÐ½Ð¸Ñı
ĠÐ¿ÑĢÐµÐ´ÑĥÐ¿ÑĢÐµÐ´ Ð¸Ð»
ĠÐ´Ð¸ÑģÑĨÐ¸Ð¿ Ð»Ð¸Ð½
Ð½ ÐµÐ¶
ĠÐ³ Ð½Ð¸
ÐĴ Ð¸Ð´
ÐĴ ÐµÑĢÐ½Ð¾
ĠÐ²Ð· Ð¾ÑĢÐ¾Ð¼
ĠÑĥÐ± ÑĮÑİ
ĠÐ¿ÑĢÐ¸Ðº Ð¾Ñģ
ĠÐŁÑĢ Ð¾ÑĤÐ¸Ð²
ĠÐ½ÐµÐ² Ð¾Ð¾Ð±ÑĢÐ°Ð·
ĠÐ²Ð°ÑĢÐ¿ Ð¾Ð¼
ĠÐ¿Ð¾Ð³Ð¸Ð± Ð½ÑĥÑĤÑĮ
ĠÑħÐ²Ð°ÑĤ Ð°ÐµÑĤ
ĠÐ´ÐµÐ² ÑıÑĤ
ĠÐ·Ð°ÑģÑĤ ÑĭÐ»
ĠÐ¿Ð¾Ð³ÑĢÑĥÐ· Ð¸Ð»ÑģÑı
ĠÐ¼ÐµÑħÐ°Ð½Ð¸Ð· Ð¼Ñĭ
Ð½ ÐµÐ»Ð¾
ĠÐ² ÐµÐºÐ°
Ðº Ð°Ð»ÑĮ
ĠÐ¿ÑĢ ÐµÐ½ÐµÐ±
Ð± Ð¾Ð»ÑĤÐµÑĢ
ÑĤÐ¸ Ð½Ñĭ
Ðķ Ðµ
ĠÐ·Ð°Ð´ Ð°Ð½Ð¸Ñı
ĠÐ¿ÑĢÐ¸Ð´ ÐµÑĢÐ¶
ĠÐ½ÐµÑĩ ÐµÐ»Ð¾Ð²ÐµÑĩÐµÑģÐº
ĠÐ´ÐµÑĢÐµÐ² ÑĮÑı
ĠÐĲÐ» Ð°ÑĢÐ¸ÐºÐ°
ÐĲÑĢ Ñħ
ÐŀÑĩ ÐµÐ½ÑĮ
ĠÐĶÐ°Ð» Ð¸Ñı
ĠÐ²Ð°ÑĢ Ð²Ð°ÑĢ
ĠÐ§ÐµÑĤ Ð²ÐµÑĢ
Ð» ÐµÑģ
ĠÐº Ð°ÑĢÐ°
ĠÐ¶ Ð°Ð»ÑĮ
ĠÐ¿Ð¾Ð² ÐµÑĢÐ¶
ĠÐĹ Ð¸Ð½Ð´ÐµÑĢÐ¼Ð°Ð½
ĠÐ±ÐµÑģ ÑĪ
Ð£ Ð¶Ðµ
Ð´Ð°Ð» ÐµÐºÐµ
ĠÑģÐ¾Ð±ÑģÑĤÐ²ÐµÐ½ Ð½ÑĭÐ¼Ð¸
ĠÐ±Ð¾ÑĢ ÑĤÐ¾Ð²
ĠÐ¿Ð°Ð´ ÐµÐ½Ð¸Ðµ
ĠÐ¢ÐµÑĢ ÑĢÐ°
ĠÐ²Ð¾Ð·Ð²ÑĢÐ°Ñī ÐµÐ½Ð¸Ñı
ĠÐ¿ÑĢÐ¸ÑģÐ¾ÐµÐ´Ð¸Ð½ Ð¸Ð»Ð¸ÑģÑĮ
ĠÐ¿Ð¾Ð»Ð¾Ð² Ð¸Ð½Ð°
Ð°Ð´Ð´ Ð¾Ð½Ð°
ĠÐļÐ¾Ð¿ ÑĮÐµ
ÐŁÐ¾Ð²ÐµÐ» Ð¸ÑĤÐµÐ»ÑĮ
Ð¼ Ð¾Ð³Ð¾
Ð¸Ð» Ñĭ
Ð¾Ð± ÐµÐ´
ĠÑģÑĤ ÑĢÐ°ÑģÑĤ
ĠÐ²Ð¾Ð· Ð¼ÐµÐ·Ð´
ĠÐ¼Ð½ ÐµÐ½Ð¸Ñİ
ÐµÐ¼Ð¾Ð½ ÑģÑĤÑĢ
ĠÐ¾ÑĤÐ¿ ÐµÑĩÐ°ÑĤ
ÐµÑı Ð½
ĠÑģÐ¾Ð²ÐµÑĢÑĪ Ð¸Ð»
ĠÐŀÐ± ÑĬ
ĠÑģÐ´ÐµÑĢÐ¶ Ð°ÑĤÑĮ
ĠÐ²ÐµÑī ÑĮ
Ð»ÐµÐ² Ð¾
ĠÐ²ÑĭÑģÐ» ÑĥÑĪ
Ñĭ Ð»ÑĮ
ĠÐ¿ Ð°Ð»Ð°
ĠÐ² Ð¸ÑģÑı
ĠÐ½ Ñĥ
ĠÐ· Ð¾Ð»
ĠÐ¡ Ð¾Ð½
Ð½Ð¾ÑģÑĤ ÑıÐ¼
ĠÐ¿ÑĢÐµÐ´ ÑĪÐµ
ÐµÐ»Ð¸ Ð°Ð½
ĠÑĢÐ°ÑģÐ¿ Ð»
ĠÐ´Ð¾Ð± Ð¸ÑĤÑĮÑģÑı
ĠÐ·Ð°Ñģ Ðº
ĠÐ¿Ð¾Ð¶ Ð°Ð»ÑĥÐ¹ÑģÑĤÐ°
ĠÑĥÑģÐ»ÑĭÑĪ Ð°Ð²
ĠÐ²ÐµÐ»Ð¸Ðº Ð¸Ñħ
ĠÑģÑĤÐ°Ð½ Ñĥ
ĠÐ¡Ðº Ð°Ð¶Ð¸
ĠÑģÑħÐ²Ð°ÑĤ ÐºÐ¸
ĠÐ¾Ð±ÑĢÑĥÑĪ Ð¸Ð»Ð¸ÑģÑĮ
ĠÑĥÐ³ÑĢÐ¾Ð· Ð¾Ð¹
ĠÐļÐ°Ð¶Ð´ Ð°Ñı
ĠÐ¶Ð¸Ð²Ð¾ÑĤ Ð½ÑĭÑħ
ĠÐ±Ð¾Ñİ ÑģÑĮ
ĠÐ½Ð°Ð´ÐµÐ¶ Ð´Ð°
ĠÑģÑĥÑī Ð½Ð¾ÑģÑĤÐ¸
ÑĢ Ð¾ÑħÐ¾ÑĤ
Ñħ ÑĥÐ»ÑĮ
ÑĥÐ´ Ð¸ÑĤÑĮ
ÑĤÐ¸ Ñİ
Ð¢ Ðŀ
ÑģÑĤÐ²ÐµÐ½ Ð½ÑĭÐ¼
ĠÐ½Ð°Ð¼ ÐµÐº
ĠÑĥÐ½Ð¸ÑĩÑĤÐ¾Ð¶ ÐµÐ½Ð¸Ðµ
ĠÐļÐ°Ð» ÑĤÐ°
ĠÑĥÐ´Ð¾Ð²Ð¾Ð»ÑĮ ÑģÑĤÐ²Ð¸Ñı
ĠÐłÐ°Ñģ ÑĩÐ»ÐµÐ½
ĠÑĪÐ°ÑĤÑĤ Ð»
ĠÐ»Ñĥ Ð½Ñĭ
ĠÑįÐ¼Ð± Ð»ÐµÐ¼
Ġ M
Ð¸Ð» Ñĥ
ĠÑĥ ÑĪÐ»Ð¸
ĠÑĢÐ°Ñģ Ñħ
ĠÐ¿Ð¾Ð¼ Ñĩ
ĠÐ¿ÑĢÐ¾ÑĤ ÐµÑģÑĤ
Ðĵ Ð»Ð°Ð·Ð°
ĠÐ¼Ð°ÑĪ Ð¸Ð½Ðµ
ĠÑĥÑģÐ¿ ÐµÐ²
ĠÐ¿ÑĢÐ¸Ð·Ð½ Ð°Ð»ÑģÑı
ĠÑĥÑģÑĤÐ°Ð½Ð¾Ð² Ð¸ÑĤÑĮ
ĠÐ¿Ð¾Ð¼ÐµÑħ Ð¸
ĠÐ¾ÑĤÐ²ÑĢÐ°Ñī ÐµÐ½Ð¸Ðµ
ĠÐļÐ°Ð»Ð¸Ð± Ð°Ð½Ð°
Ð°Ð» Ñı
ĠÐ° Ð²Ð°ÑĢÐ¸Ð¹
ĠÐľ ÐµÑĤ
ÑĭÐ² Ð°ÑİÑīÐ¸Ð¹
ĠÑģÐ¸Ð» Ð¾Ð²ÑĭÐ¼
ĠÐ¾Ðº Ð½Ð¾
ĠÐ±ÑĥÐ´ ÑĥÑīÐµÐ¼
ĠÐºÐ¾Ð½ ÑĩÐ¸Ðº
ĠÐ¿Ð¾Ð¼ Ð¾Ð¶ÐµÑĤ
ĠÐ·Ð°Ð¿ ÑĥÑģÐº
ĠÐ·Ð² Ð°Ð»Ð¸
Ðĳ Ð¾Ð»ÑĮÑĪ
ĠÐ¿ÑĢÐ¸Ð½ ÑıÐ»Ð¸
ĠÐ½Ð¾Ð² Ð°Ñı
ÑĳÐ½ Ð½Ð¾
ĠÐ¿ÑĥÑĤ ÐµÐ¼
ĠÑģÐ¾Ð±Ð¸ÑĢ Ð°ÐµÑĤÑģÑı
ĠÐ²ÑĢÐ°Ð¶ÐµÑģÐº Ð¸Ðµ
ĠÐ±ÐµÑģÑģ Ð¼ÐµÑĢÑĤ
ÑĤÐ°Ð» Ðº
ĠÑģÐ¾Ð´ÑĢÐ¾Ð³ Ð½ÑĥÐ»ÑģÑı
ĠÑĥÑħÐ¼Ñĭ Ð»
ĠÐ¼ÐµÐ½ÑĮ ÑĪÐµÐ¹
ĠÐ¡Ð¸Ð»ÑĮ Ð²ÐµÑĢÑģÑĤ
ĠÐ¸Ð½ÑģÑĤÐ¸Ð½ÐºÑĤÐ¸Ð² Ð½Ð¾
Ð· Ð°Ð¼ÐµÑĤ
ĠÐ¡ Ð°Ð½
Ð¸ÑĨ ÐµÐ¹
ĠÑĦ Ð¸Ð½
Ð°Ñĩ Ð°Ð»ÑĮ
ĠÐ¿Ð¾Ð½Ð¸Ð¼ Ð°ÐµÑĤ
Ð¸ÑĤÐµÐ»Ñı Ð¼
ĠÑĥÑģÑĤÑĢ Ð°ÑĪ
ĠÐ³ÑĢÐ°Ð½ Ð°ÑĤÑĭ
ĠÐ¾ÑīÑĥÑī ÐµÐ½Ð¸Ñı
ĠÐ¦ ÐµÑģÑĤ
ĠÐ¿Ð¾ÑĪ ÐµÐ²ÐµÐ»
ĠÐ¿Ð¾ÑģÑĤÐ°Ð² Ð¸Ð»
ĠÐ¡ÐºÐ¾ÑĢ Ð¾
ĠÐ¡ÐºÐ¾ÑĢ ÐµÐµ
ĠÐºÑĢÑĭÐ»ÑĮ ÑıÐ¼Ð¸
Ð¾Ð½ Ð°Ð»
ĠÐ¿ÑĢÐµÐ´ Ð²Ð¸Ð´
ÑĢÐ°Ð² ÑĪÐ¸ÑģÑĮ
ÑģÑĤÐ²ÐµÐ½ Ð½Ð¾Ðµ
ĠÐ¸ÑģÑĤ Ð¸Ð½Ñĭ
ĠÐ¿ÑĢÐ¾Ðº ÑĢÐ¸ÑĩÐ°Ð»
ĠÐ¾Ð¶Ð¸Ð´ Ð°Ð½Ð¸Ð¸
ĠÐ´Ð¾ÑĢÐ¾Ð³ Ð¾Ð¹
ĠÐ½Ð°Ð» Ð¸Ñĩ
ĠÐ±Ð°Ð· Ñĭ
ĠÑĤ ÑĥÑĩ
ĠÐ½Ðµ ÑģÑĤÐ¸
ĠÐļ Ð¾ÑģÑĤ
ÐŁ Ð¾Ñĩ
Ð¢ ÐĲ
ĠÑģÐ°Ð¼ Ð¸Ñħ
ĠÐ¿ÑĢÐ¾Ð´ ÐµÐ¼Ð¾Ð½ÑģÑĤÑĢ
ÐĽ ÐµÐ¼
ĠÑĥÐ½Ð¸ÑĩÑĤÐ¾Ð¶ ÐµÐ½
ĠÐ¾Ð±Ð» Ð¸Ð·
ĠÐ¿ÑĢÐ¸Ð±Ð»Ð¸Ð¶ Ð°Ð»ÑģÑı
ĠÑģÑĭ Ð½Ð°
ĠÐ±ÑĢÐ¾Ð½Ð¸ÑĢÐ¾Ð²Ð°Ð½ Ð½ÑĭÑħ
ĠÐĿÐ°Ð´ Ð¾
ĠÐ¼Ð°Ð½ÐµÐ² ÑĢ
ĠÐºÐ² Ð°Ð´
Ð¾Ð´ ÑĢÐ°Ð½
ĠÑĢÐ°Ð· Ð³Ð»ÑıÐ´ÐµÐ»
ĠÐ¿Ð¾Ð» Ð¾ÑģÑĭ
ĠÐĵ ÑĢÐ°Ð¼Ð¼Ð°ÑĤ
ÑĢÐ°Ð½ ÑģÐ¿
he d
ĠÐ¾ÑģÐº Ð°Ð»
ÐºÐ½ÑĥÐ» Ð¾
ĠÑĥÐ²ÐµÑĢÐµÐ½ Ð½Ð¾ÑģÑĤÑĮÑİ
ĠÐ¿ÑĢÐ¸Ð³ Ð¾Ð²Ð¾ÑĢ
ĠÑĩÐµÐ»Ð¾Ð²ÐµÑĩÐµÑģÐº Ð¸Ðµ
ĠÑģÐ¿ÑĥÑģÑĤ Ð¸Ð»ÑģÑı
ĠÐ¼Ð¾ÑĢ Ñı
ĠÐ´Ñĭ ÑĢÑĭ
ĠÐķÐ´ Ð²Ð°
ĠÐ²Ð´Ð¾Ñħ Ð½Ð¾Ð²
ĠÐĳÑĢÐ°Ð½ Ð½
ĠÐ»ÑıÐ·Ð³ Ð¾Ð¼
ĠÐ¿Ð¾ÑĤÑĢÐµÐ±Ð¾Ð² Ð°Ð»Ð¾ÑģÑĮ
ĠÐ½ÑĭÑĢ Ð½ÑĥÐ»
ÐĳÐ»Ð°Ð³Ð¾Ð´Ð°ÑĢ Ñİ
Ð·ÐµÐ½Ñħ Ð¾ÑĢÐ½
ĠÑģ ÑĥÑģÑĤÐ°Ð²
Ð¼ Ð°Ð´
ĠÑĥ Ð»ÐµÐ¹
Ð°Ñģ Ñĥ
ĠÐºÑĢ Ð°
ĠÐ·Ð½ Ð°Ð½Ð¸Ð¹
ÐŃ Ðº
ĠÐ»ÑĥÑĩ ÑĪÐ¸Ðµ
ĠÐ²ÑĭÐ¶ Ð¶
ĠÐ¢Ð°Ð» Ð»
ÐµÐ²Ð¸Ð´ Ð½Ð¾
ĠÐ¿ÑĢÐ¾Ð±Ð»ÐµÐ¼ Ð°
ĠÑģÑĤÑĢÐµÐ»Ñı Ð»Ð¸
ĠÐ³Ð¾ÑĢÐ¸Ð· Ð¾Ð½ÑĤ
ĠÐ¿ÑĢÑĭÐ¶ ÐºÐ¾Ð²
ĠÐ»Ð°Ð±Ð¸ÑĢÐ¸Ð½ ÑĤ
ĠÐ½ÐµÐ±Ð¾Ð»ÑĮ ÑĪÐ¸Ðµ
ĠÐ¿Ð¾Ð´Ð½Ð¾Ð¶ Ð¸Ñı
Ð½Ð°Ð´ ÐµÐ¶
ĠÐ¿ ÑĥÐ½ÐºÑĤ
ĠÐ´ Ð¾Ð·
Ð¾ÑĢ Ð°ÑĤÐ¾ÑĢ
ĠÐļ ÑĢÐµÐ¿
Ð¾ÑģÑĤ ÑĢÐ°Ð½
ÐµÐ· Ð´Ð°
ĠÐľ Ñĥ
ĠÐ´ÐµÑĢÐ¶ Ð°Ð»ÑģÑı
ĠÑĢÐµ Ð°ÐºÑĤÐ¸Ð²
ĠÐ¿Ð»Ð¾ÑīÐ°Ð´ ÑĮ
ĠÑĢÐµÐ·ÑĥÐ»ÑĮÑĤ Ð°ÑĤ
ĠÐ±ÐµÑģÐ¿Ð¾ÐºÐ¾Ð¹ ÑģÑĤÐ²Ð¾
ĠÑĢÐ°ÑģÐ¿Ð¾ÑĢ ÑıÐ¶ÐµÐ½Ð¸Ð¸
ĠÐ¿Ð¾Ð´Ð±Ð¾ÑĢÐ¾Ð´ Ð¾Ðº
Ð»Ð°Ð³Ð¾ ÑģÐ»Ð¾Ð²
ĠÐ·Ð°ÑĪÐ°Ð³ Ð°Ð»
Ð½ ÑĤÐ°ÑĢ
ĠÐŀ Ð³Ð¾Ð½ÑĮ
ĠÐŁ Ð°Ð·Ð°Ð½Ð¸ÑĥÑģ
ĠÐľ Ð°ÐºÑģÐ¸Ð¼
ÐŁ Ð¾Ð¼
Ð¢ ÐµÑĢ
ĠÑģÐ°Ð¼ Ð¾Ð´
ÑĢÐµÐ´ ÐµÐ»
ÑĥÑī Ð°Ñı
Ð¸Ð²ÑĪ Ð°ÑıÑģÑı
ĠÐ¿Ð¾ÑĢ ÐµÐ·
ĠÑĥÐ¿ Ð°ÑģÑĤÑĮ
ĠÐ³ÑĥÐ± Ð°Ñħ
ĠÑģÐ³ Ð»Ð¾ÑĤ
ĠÐ¿ÐµÑī ÐµÑĢÑĥ
ĠÐ¿ÑĢÐ¾Ð·Ð² ÑĥÑĩ
ĠÑģÑĤÐ¾Ð»ÐºÐ½Ð¾Ð² ÐµÐ½Ð¸Ñı
ĠÐºÐ°ÑĦ ÐµÐ´
ÑĢ Ð¸ÑĤÐ°
ĠÐ¿ Ð»Ð°Ñĩ
Ñĩ Ð°Ð½
Ð°Ð» ÐµÐºÐ¾
Ð¸Ð¼ Ð¾Ð¼Ñĥ
ÐµÐ² ÑĪÐµÐ¹
ĠÐĴ Ð¾Ð¿
ÐĿ Ð°Ñģ
ĠÐĵ Ð¾ÑĤ
Ð°Ð½ÑĤ Ð¸Ð¼ÐµÑĤ
ĠÐ²Ð¾Ð· Ð¼Ñĥ
ÑĤÑĥ ÑĢÐ°
ĠÑģÐ¾Ð²ÐµÑĢÑĪ Ð¸ÑĤÑĮ
ĠÑĢÐ°Ð·Ð²ÐµÑĢ Ð½ÑĥÐ»
ĠÐ²ÐµÑĢÑħ Ð¾Ð²
ĠÐ¡ÐµÑĢ ÑĭÑħ
ĠÑĩÐµÐ»Ñİ ÑģÑĤÑĮ
ĠÐŁÐ¾Ñĩ ÑĤÐ¸
Ð°Ð» Ð°Ð½Ð³
Ð¾Ð³ Ð°ÑĢ
ĠÐ¶ Ð¸ÑĢ
ÐµÐ»ÑĮ Ð½ÑĭÐµ
ĠÑģÐº Ð¾Ð»ÑĮ
ĠÐ¢ ÐµÐ»Ð¾
ĠÐľ ÐµÐ»ÑĮ
ĠÐĶ Ð°Ð½ÑĤÐµ
ĠÐĽ Ð°ÑĢÐ½
Ðľ Ð¸Ð»
Ðľ Ð¾Ð¶
Ðĺ Ðķ
ÐĽ ÑįÐ½Ð´
ĠÐ½ÐµÐ¿ ÑĢÐµÐ´
ĠÑĤÐµÑħ Ð½Ð¾
in e
ĠÐ´Ð°Ð² Ð»ÐµÐ½Ð¸Ðµ
ĠÑĥÐ²ÐµÑĢ ÐµÐ½Ð°
ĠÐ¿ÑĢÐ¸ÐºÐ°Ð· Ð¾Ð²
ĠÑĤÐ²Ð¾ Ð¸Ð¼
ĠÐ¾Ð±ÑĭÑĩ Ð½ÑĭÐ¹
ĠÐ»ÐµÐ² ÑĥÑİ
ĠÐĿÐ¸Ðº Ð¾Ð³Ð´Ð°
ĠÑĥÐºÑĢÐµÐ¿ Ð»ÐµÐ½Ð¸Ð¹
ĠÐ¾ÑĨÐµÐ½ Ð¸ÑĤÑĮ
ĠÑĨÐµÐ½ Ð¾Ð¹
ĠÑĤÑĢÐµÑī Ð¸Ð½Ñĭ
ĠÐĵÐ°Ð»Ð°ÐºÑĤ Ð¸ÐºÐµ
Ð½Ð¾ÑģÑı Ñī
Ð¾ÑĤÑĮ ÑģÑı
ĠÐ¾ÑĤÑĭÑģÐº Ð°ÑĤÑĮ
ĠÑĤÑĥÐ¼ Ð°Ð½Ð°
ĠÐ°ÑĢÑĤÐµÑĦ Ð°ÐºÑĤ
ĠÐ¿ ÑĥÐ»
ĠÐ¼ Ð¸
ĠÐ²Ñĭ ÑħÐ²Ð°ÑĤÐ¸Ð»
ĠÐ¡ ÑĨÐ¸Ð¿Ð¸Ð¾Ð½
ĠÐ¢ ÑĥÑĢ
ĠÑĪ Ð²ÑĭÑĢÐ½ÑĥÐ»
ĠÑģÐ²Ð¾ ÑĳÐ¼
ĠÐ¿Ð» Ñİ
ÑĥÐ² ÐµÑĩ
ĠÐ¿ÑĢÐ¸Ð² ÐµÐ»Ð¸
ĠÐ»ÑİÐ± Ð¾Ð²
ĠÐ½Ð°Ð¿ÑĢÐ°Ð² Ð»ÐµÐ½Ð¸Ðµ
ĠÐ²Ð¿ Ð°Ð´
ĠÑĤÐµÐ» Ð°Ð¼Ð¸
ĠÐ¡ÑĤ ÐµÐ½Ñĭ
ĠÐ±ÐµÐ» Ð¾Ð¹
ĠÑĢÐ°ÑģÐ¿Ð¾Ð»Ð°Ð³ Ð°Ð»Ð¸ÑģÑĮ
ĠÐĴÐ¼ÐµÑģÑĤ Ðµ
ĠÐ²ÐµÐº Ð¾Ð²
ĠÑĥ Ð¹Ð´
ĠÐ½Ðµ ÑģÑĤ
ÐµÐ¹ ÑĤ
ĠÐ¾Ð± ÑĥÐ³
ĠÐĴ ÐµÑģÑĮ
ÑĦ Ð»ÐµÐº
Ñį Ð²ÐµÐ½
ÑĥÐ½ Ð´Ñĥ
ĠÐ³Ð»Ð°Ð· Ð°Ð¼
ĠÐ½ÐµÐ¿ ÑĢÐ¾Ð½Ð¸ÑĨ
ĠÐ¿ÑĢÐ°Ð² ÑĥÑİ
ĠÑģÐ´ÐµÐ» Ð°Ð½Ð¾
ĠÑģÑĤÐµÐ½ Ð¾Ð¹
Ð·Ð° ÑīÐ¸ÑĤ
ÑįÐ¹ ÑĪ
ĠÑģÐ²Ð¾Ð±Ð¾Ð´ Ñĥ
Ð°ÑİÑīÐ°Ñı ÑģÑı
ĠÐ¾Ð±Ðµ Ð¸Ð¼Ð¸
ĠÑĥÐ±ÐµÐ´ Ð¸ÑĤÑĮÑģÑı
ĠÐ¢Ð°Ð½ Ðº
ĠÐ±ÑĢÐ¾Ð½ÐµÑĤ ÐµÑħ
ĠÐºÑĢÐ¾Ð· Ð¸ÑĥÑģ
ĠÐ¿ Ð°ÑģÑĤÐ¸
ĠÐ´ Ð°Ð¼
ĠÐ´ ÐµÐ·
Ð°Ð² Ð°Ð½
ĠÐ¡ Ð°
ĠÑĩÐµÑĢ Ð²
Ð²Ð°ÑĢ ÑĮ
ĠÐ¿ÑĢÐ¾Ð± Ð¸ÑĤÑĮ
ĠÐ¿Ð¾Ð¿ÑĭÑĤ ÐºÐµ
Ð´Ð°Ð² Ð½Ð¾
ĠÐ²ÑĭÑĢÐ² Ð°ÑĤÑĮÑģÑı
ĠÐ°ÑĢÑħ Ð¸ÑĤ
ĠÑĦÑĢÐ¾Ð½ ÑĤÐ°
ĠÐĲÑģÑĤÑĢ Ðµ
Ð°Ð´Ð´ ÐµÐ¹
l ing
p er
ĠÐ¿ Ð°Ð»Ð¸
ĠÐ² Ð¸Ð½Ð°
Ð¾Ð² Ð°Ð»Ð¾
Ð»Ð° Ñĥ
ĠÑĢÐ°Ñģ ÑģÑĤ
ĠÑģÐ»ÐµÐ´ Ð°
ĠÐ»ÑİÐ± ÑĭÑħ
Ð°Ñī ÐµÐ¹
it y
Ð¾Ð¶Ð¸Ð´ Ð°Ð½Ð½Ð¾
ĠÐ¿Ð»Ð°ÑĤ ÑĦÐ¾ÑĢÐ¼Ñĥ
ĠÐ°Ð½Ð³ Ð°ÑĢÐ°
ĠÐºÐ½Ð¸Ð³ Ð¸
ĠÑģ Ñģ
ĠÐ² Ð»ÐµÐ²Ð¾
ÐµÐ½ Ð¾Ð¹
ĠÑĩ ÑĥÐ¶Ð´
ĠÐĵ ÐµÐ½
ĠÐķ Ð²
ĠÐºÑģÐµÐ½ Ð¾ÑģÑĭ
ĠÐ¸Ð³ Ð½Ð¾ÑĢ
ĠÐ³Ð»ÑĥÐ±Ð¾Ðº Ð¸Ðµ
ĠÑĤÐµÐº Ð»Ð°
ĠÐ²ÑģÑĤÑĥÐ¿ Ð¸ÑĤÑĮ
ĠÐ¿Ð¾ÐºÐ°Ð·ÑĭÐ² Ð°Ñı
ĠÑħÐ»Ñĭ Ð½ÑĥÐ»Ð°
ĠÑĦÐ¾Ð½ Ð°ÑĢ
ĠÐĶÐ¾Ð»Ð¶ Ð½Ð¾
Ð¸ ÑįÐ»ÑĮ
ÐµÑĢ Ð¸Ð¹
Ð± Ð¾Ð¼
ÑģÑĤÐ² ÑĥÑİ
ĠÐ²Ñĭ Ð²ÐµÑĢ
ĠÑģÑĤ Ð°Ð·
ĠÐĴ ÑĢÐ°ÑĤ
ĠÐľ Ð¾Ð»
ĠÐ¿Ð¾Ð» ÑĥÐº
Ðļ ÑĢÐ¾Ð²Ð°Ð²
ĠÐ·Ð°Ð¼ Ð¾Ð»Ñĩ
ĠÐ¿Ð¾Ð· Ð²Ð°Ð»
Ð¸ÑĢÐ¾Ð²Ð°Ð½ Ð½Ð¾Ðµ
ĠÐ´Ð²Ð¸Ð³ Ð°ÑıÑģÑĮ
ĠÑĢÐ°Ð·ÑĥÐ¼ Ð¾Ð¼
ĠÐ¶Ð¸Ð·Ð½ ÐµÐ¹
ÑĢÑĭÐ» Ð°ÑģÑĮ
ĠÐ±ÑĥÑĢ Ð»ÑıÑī
ĠÐ²ÐµÑĩ ÐµÑĢ
ĠÐ³ÑĢÑĥÐ± Ð¾
ĠÐºÐ¾Ð¼Ð°Ð½ Ð´Ðµ
ĠÐ¾Ð±Ð¸ÑĤ Ð°ÑĤÐµÐ»ÐµÐ¹
ĠÐ°Ð½ ÑĤ
ĠÐĵÐ°Ð±ÑĢÐ¸ ÑįÐ»
ĠÐ¿ ÐµÑĪ
ÑģÑĤ ÐµÑĢ
ĠÐ¾ÑĤ ÑĢÐ°Ð¶ÐµÐ½Ð¸Ðµ
ĠÐ³Ð¾ ÑĤ
ĠÐ¿ÐµÑĢ ÑģÐ¿ÐµÐºÑĤ
ĠÑģÐ°Ð¼ ÑĭÐ¼Ð¸
ĠÐ¿ÑĢÐ¾ÑĤÐ¸Ð² Ð½Ð¸ÐºÑĥ
ĠÐ¾ÑĤÐ² Ð°Ð¶
ĠÐ·Ð°ÑģÑĤÐ°Ð² Ð¸Ð»Ð¸
ĠÐ²ÑĭÑģÑĤÑĢÐµÐ» Ð¸ÑĤÑĮ
ĠÐºÑĢÑĭ ÑĪÐµ
ĠÑģÑĤÑĢÐ°Ð½ Ð½ÑĭÐ¹
ĠÐ¿Ð¾Ð´Ð½Ð¸Ð¼ Ð°ÑıÑģÑĮ
ÑĩÐ°ÑĤ ÑĭÐµ
ÐłÐ°Ð· Ð²Ðµ
ĠÐ¼ÑĢÐ°Ñĩ Ð½ÑĭÐ¼
ĠÐ³Ð¾ÑĢÐ´ Ð¾ÑģÑĤÑĮ
ĠÑĥÑĤÐ²ÐµÑĢ Ð¶Ð´
ĠÐ¾ÑģÐ²Ð¾Ð± Ð¾Ð¶Ð´
. Â»
Ð½ Ð¸Ð·Ñĥ
ÑĪ ÐµÐ´
ĠÑĢ ÑĳÐ²
ĠÐŁ Ð»Ð°Ð½
ÐµÑĩ ÐµÐ½Ð¸Ñı
ÑģÑĤÑĢ Ð°
ÑģÑĤÑĢ Ð°Ð½
ĠÐ¿Ð¾Ð» Ð½Ð¾Ðµ
Ðŀ Ñģ
ÐĴ ÐµÐ»Ð¸Ðº
ÐĴ Ð¼ÐµÑģÑĤ
Ð¢ ÑĢ
ĠÑģÐ¸Ð» Ð°Ð¼
ĠÑģÐ¸Ð» Ð¾Ð²ÑĭÑħ
Ð°Ð²ÑĪ Ð°ÑıÑģÑı
ĠÐ¿Ð¾Ð¼ ÐµÑģÑĤ
ĠÐ·Ð°ÑĤ ÑĢÐµÑī
ĠÐ¿ÑĢÐ¸ÑĪ ÐµÐ»ÑĮ
ĠÐ¾Ð±Ð» Ð°ÐºÐ¾Ð²
ĠÑĥÐ³ Ð»Ð¾Ð²
ĠÐłÐ°Ð· Ð´
ĠÐ·Ð°ÐºÐ¾Ð½Ñĩ Ð¸ÑĤÑĮ
ĠÑĥÐ±ÐµÐ¶ Ð¸ÑīÐµ
ĠÐ²ÑĭÐ¿Ð¾Ð»Ð½Ñı ÑĤÑĮ
ĠÐ°Ð½Ð°Ð» Ð¸Ð·
ĠÐ¾ÑĤÑĪÐ°ÑĤ Ð½ÑĥÐ»ÑģÑı
Ð¼Ð¿ Ð¸ÑĢ
ÑĤ ÑĭÐ¹
ĠÐ¿ Ð°ÑĢÑĤ
ĠÑģ ÑĢ
Ð¸Ð½ Ð¸ÑģÑĤ
Ð¾Ðº ÑĢÑĥÐ¶
ĠÐĲ Ñģ
ĠÐ¿ÑĢÐµÐ´ ÑģÐ¼ÐµÑĢÑĤ
ĠÐĹ Ð°ÑĩÐµÐ¼
ĠÐ¾ÑĢ Ð´Ñĭ
Ð½ÑĥÑĤ ÑĢÐµÐ½
ĠÐ¿Ð¾ÑĢ Ð¾Ð´
ĠÑĨÐµÐ½ÑĤ ÑĢÐ°
ĠÐ¾ÑĤÑģÑĤÑĥÐ¿ Ð¸Ð»Ð¸
ĠÐ½Ð°ÑģÐº Ð²Ð¾Ð·ÑĮ
ĠÐ²Ð¸Ð· Ð¶
ĠÑģÐ¿ÑĥÑģÐº Ð¾Ð²Ð¾Ð¹
ÐĴÐ¾ Ð¸Ð½
ĠÐ¿ÑĢÐµÐ´ÑĥÐ¿ÑĢÐµÐ¶Ð´ ÐµÐ½Ð¸Ðµ
ĠÐ½Ðµ ÑıÑģ
ĠÐ¢ Ð°Ð¹
ĠÐĳ Ð°ÑĪ
ĠÐ¿Ð¾Ð² Ð¸Ð½Ð¾Ð²
Ðľ Ð°ÑħÐ°ÑĢÐ¸
ĠÐ¼ÐµÑģÑĤ Ð¸
ĠÐ·Ð² ÑĳÐ·Ð´
ÑĥÐ»ÑĮ Ñı
ĠÐ»ÐµÐ³ Ð¸Ð¾Ð½Ñĭ
Ġs e
ÐŀÑĤ Ðº
ĠÐ±Ð°ÑĪ Ð½Ñİ
ĠÐºÐ¾Ð»ÑĮ ÑĨÐ°
ĠÐ´ÑĢÑĥÐ· ÐµÐ¹
ĠÐ½ÐµÑĤÐµÑĢÐ¿ ÐµÐ»
ĠÐ² Ð¿ÑĢÐ¾ÑĩÐµÐ¼
ĠÐĴ ÐµÐºÑģ
ĠÐ¢ ÑĳÐ¼
ĠÑĢÐ°Ñģ ÐºÐ°
Ðļ Ðŀ
ĠÐ½ÐµÐ² ÐµÐ¶
ĠÐ»ÐµÐ³ ÐºÐ¸Ñħ
ĠÐ²ÑģÑĤÑĢÐµÑĤ Ð¸Ð»Ð¸ÑģÑĮ
ĠÐ²ÐµÑĢÑħ Ð½ÐµÐ¹
ĠÑģÑĤÑĢÐµÐ» ÐºÐ¾Ð²
as t
ĠÐ®ÑĢÐ³ ÐµÐ½Ð°
ĠÐ½Ð°ÑģÐµÐ» ÐµÐ½Ð¸Ðµ
ĠÑĢÐ¸ÑĤ Ð¼
Ġ E
ĠÐº Ð»Ð°Ð½
ĠÐ´ Ð°ÑĤ
ĠÑĢ Ð°Ð½Ð°
ĠÐĿ ÐµÐº
ĠÐ¼Ð¾Ñī Ð½ÑĭÐ¼
ĠÑģÐ»Ð°Ð± Ð¾Ðµ
ĠÐ¿ÑıÑĤ Ð¸Ð´ÐµÑģÑıÑĤÐ¸
ĠÐ´ÐµÑĢ Ð·
ĠÐ¢ÐµÐ¼ Ð½ÑĭÐ¹
ĠÑĥÐ±Ð¸Ð¹ ÑģÑĤÐ²Ð¾
ĠÐ±Ð°ÑĢ Ð¶Ð¸
ĠÐ½Ð°Ð¿Ð¾Ð¼Ð¸Ð½ Ð°Ð»Ð¸
ĠÐ¼ÐµÑģÑı ÑĨÑĭ
ĠÐ¿Ð»Ð°ÑĤÑĦÐ¾ÑĢÐ¼ Ðµ
ĠÑĥÑģÐµ ÑıÐ½
ĠÐ¥ÐµÐ½ ÑĢÐ¸Ðº
Ð¾Ð½ Ð°Ñĩ
Ð°Ð± Ð¾Ñĩ
Ð»ÐµÐ´ Ð¸ÑĤÑĮ
ĠÐ±ÐµÐ· ÑĢÐ°Ð·
Ð¾Ð²Ð¾ÑĢ Ð¾ÑĤ
ĠÑĪÐ»ÐµÐ¼ Ð¾Ð¼
ĠÐ½Ð¾Ñģ Ð¸Ð»Ð¸
ĠÐ¿Ð¾ÐºÑĢÑĭÑĤ Ñĭ
ĠÐ½Ð°Ð¿Ð¾Ð¼Ð¸Ð½ Ð°Ð»
ĠÐ¿ÑĢÐµÐ´Ð¿Ð¾Ð»Ð¾Ð¶ Ð¸ÑĤÑĮ
ĠÐļÐ¸ÑĢ Ð»Ð¾Ðº
Â ·
Ð´ Ð¾Ð¼
ĠÐº Ð¾Ð²Ð°ÑĢ
ĠÐµ Ð»Ðµ
Ð¸Ðº ÑģÐ°
ĠÐ²Ñĭ Ð³Ð»Ñı
ĠÐ¢ ÑĢÐ¾Ð½Ð°
ĠÐľ Ð¾Ð³
ÐµÐ¶ Ð°Ð»Ð¸
Ñĳ Ð¶
ĠÐºÐ¾Ð¼ Ð±Ð¸Ð½
ĠÐ½Ð°Ñĩ Ð°Ð»ÑĮ
Ðķ ÐĽ
ĠÐ¿ÑĢÐ¸Ð·Ð½ Ð°Ð»
ĠÐ¾Ð±ÑĢÐ°Ñī Ð°ÑıÑģÑĮ
ĠÐ·Ð²ÐµÑĢ ÐµÐ¹
ĠÐºÑĢÐµÑģ Ð»Ðµ
ĠÐ¿Ð¾ÑģÐ»ÑĭÑĪ Ð°Ð»ÑģÑı
ĠÐ½ÐµÐ¼Ð½Ð¾Ð³ Ð¸Ñħ
ĠÐĲÐ´Ð¼Ð¸Ð½Ð¸ÑģÑĤÑĢÐ°ÑĤ ÑĥÐ¼Ð°
ĠÐĺÐ»Ð» Ð¸ÑĤÐ¸Ð°Ð½
ĠÐŀÐ¼Ð½Ð¸ÑģÑģ Ð¸Ð¸
Ð½ ÐµÑģÑĤÐ¸
ĠÐº Ð¸ÑģÑĤ
ĠÐ± Ð¸Ð½
ĠÐ¾ÑĤ Ð»ÐµÑĤ
ĠÑĪ ÐµÐ²
ÑĭÐ² Ð°Ñİ
ÐĹ Ð°Ð¿
ĠÐ¼Ð°Ñģ Ð»ÑıÐ½
Ð¾Ð²Ð°Ð½ Ð½Ð¾Ð³Ð¾
Ð±Ñĭ ÑĩÐ½Ð¾
ĠÐ¿ÑĢÐ¾ÑĢ Ð¾Ðº
Ð¾Ð»Ð¾Ð³ Ð¸Ð¸
ĠÑĤÑĢÐ°Ð½ÑģÐ¿ Ð¾ÑĢÑĤÐ°
ĠÐ¿ÑĢÐ¸Ð½Ð°Ð´Ð»ÐµÐ¶ Ð°Ð»
Ġe x
ĠÐ»Ð°Ð¿ Ñĭ
ĠÑĪÐ°ÑĤÑĤ Ð»Ð°
Ð¾ÑĤ Ð°Ð»
ĠÐļ Ð¸Ð½
ĠÑģÐ¿ Ð»ÐµÑĤ
Ð´Ñĥ Ð½
Ð¢ Ð°ÑĢ
ĠÐ¸ÑģÐ¿ ÑĢÐ°Ð²
ĠÐºÐ¾Ð¼Ð°Ð½Ð´ Ð¸ÑĢÐ¾Ð²
Ð¸ÑĥÐ¼ Ðµ
ĠÐ´ÑĥÐ¼ Ð°Ð»Ð¸
ĠÑĨÐµÐ¿ ÑĮ
ĠÐ¾ÐºÑĢÑĥÐ¶ Ð°Ð»Ð¸
ĠÐºÐ¾Ð½ÐµÑĩ Ð½Ð¾ÑģÑĤÐµÐ¹
ĠÐ¿Ð¾Ð²ÑĢÐµÐ¶Ð´ ÐµÐ½Ð¸Ð¹
ĠÑĪÐ°Ð½Ñģ Ñĭ
ĠÐ¿ÐµÑĢÐµÐ» Ð¾Ð¼
ÑĤÐµÐ» Ð»ÐµÐº
ĠÐĳÐ»Ð°Ð³Ð¾Ð´Ð°ÑĢ Ñı
Ð° Ð°
ĠÐ¿ ÐµÐ»
Ð· Ð¸Ð½
Ð¸Ð½ Ð½
ĠÐ» Ð¸Ð¿
ĠÐļ ÑĢÐ°Ð¹
ĠÐĴ Ð¸ÑĢ
ĠÐĴ Ð¾Ð·Ð²
ĠÑģÐ» Ð°Ð´
ÑĤÐ¸ ÑĢÑĥ
ĠÑģÑĤÑĢ Ð¾Ð³
ĠÐłÐ°Ð³Ð½Ð°ÑĢ Ñĥ
ĠÐ·Ð²ÐµÐ· Ð´Ð°
ĠÐłÑĭÑĨÐ°ÑĢ ÐµÐ¹
ĠÐ±ÑĥÑĤ ÑĭÐ»
a b
Ðµ ÑİÑĤ
Ð¸ Ð¸Ð»Ð°
ÐµÑĢ Ð¸Ñģ
ĠÐ¾Ð´ ÐµÐ¶Ð´Ñĥ
ÐĴ ÑĥÐ»ÐºÐ°Ð½
ÑĥÐ± ÐµÑĢÐ½Ð°
ĠÐ³Ð»Ð°Ð· Ð¾Ð¼
Ð»Ð¸Ð² ÑĭÐµ
ĠÐ¶Ð¸Ð² Ð¾Ðµ
ĠÑĤÑĢÑĥÐ¿ Ð°
ĠÑĪÑĤÑĥÑĢÐ¼ Ð¾Ð²Ð¾Ð¹
ĠÐ¿ÑĢÐ¸ÑħÐ¾Ð´ Ð¸ÑĤÑģÑı
ĠÐ¸Ð»Ð»Ñİ Ð·
ĠÐ¿Ð¾ÑĪÐ°ÑĤ Ð½ÑĥÐ»ÑģÑı
ĠÑĤÑİ ÑĢÑĮ
ĠÐ°Ð´ÐµÐ¿ ÑĤÐ°
ĠÐ°ÑĢÐ¾Ð¼ Ð°ÑĤ
Ġ âĢĿ
Ð½ ÑıÑĤ
ÐµÑģ Ð»Ð¸
ĠÐŁ Ð¾ÑĢ
ĠÐĶ ÐµÑĤÐ¸
ĠÐĺÐ¼Ð¿ÐµÑĢ ÑģÐºÐ¸Ð¹
ĠÐ¾Ð¿ ÑĤ
ÐĹ Ð°Ðº
ÐĹ Ð°ÑħÐ°ÑĢÐ¸
ĠÑĢÐµÑĪ Ð¸Ð¼Ð¾ÑģÑĤÑĮ
ĠÐ½Ð°Ð¿ÑĢÐ°Ð² Ð¸Ð»Ð¸ÑģÑĮ
ĠÑģÐ¾Ñģ ÑĥÐ´
ĠÐ® Ð»
ĠÐ¾Ð±Ð»Ð°Ð´ Ð°Ð»Ð¸
ĠÐ²Ð¾Ð·Ð²ÑĭÑĪ Ð°Ð»ÑģÑı
ĠÐ¿ÐµÑĢÐµÐ³ ÑĢÑĥÐ¿Ð¿
ĠÑĩÐ¸ÑĤ Ð°ÑĤÑĮ
ĠÑĤÐµÑħÐ½Ð¾Ð»Ð¾Ð³ Ð¸Ð¸
Ð¸Ð³Ð¸ Ð¾Ð·
ÐµÑĢ ÐµÐº
Ð°ÑĤ Ð¸ÐºÐ°
Ð¾ÑĢ Ðº
Ð¸Ð´ Ð¸
ĠÐľ Ð¾Ð»Ð¾Ñħ
ÑģÑĤÐ²Ð¾Ð² Ð°Ð²
ĠÑĥÐ± ÑĢÐ°Ð»
ĠÐ·Ð°Ð± ÑĢÐ°Ð»
Ð¿ÑĢ Ð¾Ð´Ð¾Ð»Ð¶
ĠÐ¾Ð¶ ÐµÑģÑĤÐ¾Ñĩ
ĠÐ¿ÑĢÐµÐ´ÑģÑĤÐ°Ð² Ð»ÑıÐµÑĤ
ĠÐĺÐ¼Ð¿ÐµÑĢÐ¸ÑĥÐ¼ Ðµ
ĠÑĪÐ»ÐµÐ¼ Ñĭ
ĠÐ±ÐµÑģÐ¿ Ð¾ÑīÐ°Ð´
ĠÐ¿ÑĢÐ¾Ñĩ Ð¸Ðµ
ou s
ĠÑĢÐ°Ð·ÑĢÑĭÐ² Ð°Ñı
ĠÐŀÑģ Ð½Ð¾Ð²
ĠÐ½Ð°ÑģÑĤÑĢÐ¾ ÐµÐ½Ð¸Ðµ
ĠÐļÐ¾ÑĢÐ± ÐµÐº
ĠÐ¿ Ð¸ÑģÑĮ
ÐµÐ» ÑģÑı
ĠÐ¾Ð± ÑģÑĤÑĢÐµÐ»Ð°
ÐµÑģÑĤ Ð½Ð¾
Ð¸ÑĢÐ¾Ð² ÐºÐ°
ĠÑģÑĤÐ¾ Ð»Ðµ
ĠÐ¾Ð³ Ð½Ðµ
ĠÐºÐ¾Ð½ ÑĨÐµÐ½ÑĤ
ĠÑĩÐµÐ¼ Ð¿Ð¸Ð¾Ð½
Ð¿ÑĢ Ð¸Ð·
Ð¤ ÑĥÐ»Ð³ÑĢÐ¸Ð¼
ĠÑĥÐ»Ð¸ ÑĨÐµ
ĠÐ²Ð·Ð¾ÑĢÐ² Ð°Ð»Ð¸ÑģÑĮ
Ð¾ÑĦ Ð¾Ð½
Ð½Ð°Ð´ÑĨÐ°ÑĤ Ð¸
ĠÐ·Ð¼Ðµ Ð¸
ĠÐ¾ÑĤÐºÐ»Ð¸Ðº Ð½ÑĥÐ»ÑģÑı
ĠÐ´Ð²ÐµÐ½ Ð°Ð´ÑĨÐ°ÑĤÑĮ
ĠÐ±ÐµÐ·ÑĥÐ¿ ÑĢÐµÑĩ
ĠÐ¿ÑĢÐ¾ÑĦ ÐµÑģÑģ
Ð°Ð³Ð°Ñģ ÐµÐ½Ð°
Ð¸Ð² Ð°Ð»Ð¾ÑģÑĮ
Ð¸Ð² Ð°ÑİÑīÐ¸Ð¼
ĠÐļ ÑģÐµÐ½
ĠÑģÐ² ÐµÑĩÐµÐ½Ð¸Ðµ
ĠÑĪ ÑĤÑĭ
ĠÑĪ Ð°Ð½ÑģÐ°
Ð¾Ñĩ Ð½ÑĭÐ¼
ÐµÐ½ÑĤ Ð¾Ð¼
ĠÐ½ÐµÐ² Ð¾Ð»ÑĮÐ½Ð¾
ĠÐ¼ÐµÑĩ ÐµÐ¹
ĠÐ¿ÑĭÑĤ Ð°Ð»Ð°ÑģÑĮ
ĠÑĤÐµ Ð¾ÑĢ
ĠÐ¿ÑĢÐµÐ´Ð¿ Ð»ÐµÑĩ
ĠÑĢÐ°Ð·Ð¼ ÑĭÑĤ
ĠÐ²ÑĭÐ´ Ð¾Ñħ
ĠÐļÑħ Ð°ÑĢÐ½Ð°
ĠÑĢÐ°Ð·Ð»Ð¸Ñĩ Ð¸ÑĤÑĮ
ĠÑĤÐµÑħÐ½Ð¾Ð¶ÑĢÐµÑĨ Ð¾Ð²
ĠÐ²ÑĭÑĤ ÐµÐº
ĠÑģÐ´ Ð²
ĠÐ¢Ð¾Ð½ Ð¸ÑĥÑģ
ĠÑģÑĥÐ¶Ð´ ÐµÐ½Ð¾
ĠÐ¿Ð¾Ð´ Ð»Ð¸Ð½
ĠÐ¿Ð¾Ð» ÐµÐ¼
ĠÐ¿Ð» Ð¸ÑĤÑĭ
ĠÑĦ ÐµÐ½
ĠÐ¸Ð¼ ÐµÐ½ÐµÐ¼
ĠÑģÐ¾Ð± ÑĢÐ°Ð»ÑģÑı
ĠÐ¿ÑĢÐ¾Ð´ ÐµÑĢÐ¶
ĠÐºÐ¾Ð¼Ð°Ð½Ð´ Ð¾Ð²Ð°Ð½Ð¸Ñı
ĠÐºÑĢÐ°Ñģ Ð½ÑĭÑħ
ĠÑĥÐ´Ð¸Ð² Ð»ÐµÐ½Ð¸Ðµ
ĠÑģÑĤÑĢÐ°Ñħ Ð¾Ð¼
ĠÐºÐ°ÑĢ Ð¼Ð°Ð½
ĠÑģÐ»ÐµÐ´ÑĥÑİÑī ÐµÐ³Ð¾
ĠÐ½ÐµÐ¾Ð±ÑħÐ¾Ð´Ð¸Ð¼ Ð¾ÑģÑĤÑĮ
ĠÑĤÑĢÐµÐ² Ð¾Ð³Ñĥ
ĠÐ²Ð¾ÑģÑĤ Ð¾Ðº
ĠÑĤÐ²ÐµÑĢ Ð´Ð¾
ĠÑıÑģÑĤÑĢÐµÐ± Ð°
ĠÐ¸ÑģÐºÐ¾ÑĢ ÐµÐ¶
ĠÑĤÑĢÐ° ÐµÐºÑĤÐ¾ÑĢ
ĠÑģ ÑĢÐµÐ·
ĠÐ² ÑĢÐ°ÑĤ
ÑĪ Ð°
ĠÑĥ Ð½Ð¸Ðº
ĠÐ¾Ð± Ð¾Ð³
Ðŀ ÑģÑĤÐ°Ð²
ĠÑĦ Ð¸Ð¾Ð»ÐµÑĤ
ĠÐ¿Ð¾Ð² ÑĢÐµÐ¶
ĠÐ¾Ðº ÑĢÐ°Ñģ
ĠÑģÐ¾Ð± ÑĢÐ°Ð»
ĠÐ¼ÐµÑģÑĤ Ð½ÑĭÑħ
ĠÐ¿ÑĢÐ¾ÑģÑĤ ÑĥÐ¿
ĠÑĩÑĥÐ² ÑģÑĤÐ²Ð¾Ð²
Ð¼ÐµÑĢ ÑĤÑĮ
ĠÑĥÑģÑĤÑĢ Ð°
ĠÐ±Ð¾Ðº Ñĥ
ĠÐºÑĢÐ¾Ð²Ð°Ð² ÑĭÐµ
ĠÐ²ÑĭÐº Ð»ÑİÑĩ
ĠÐ¼ÐµÐ» ÐºÐ¸Ðµ
ÐµÑĦ Ð¸ÑģÑĤ
ĠÑĪÐ¸ÑĢÐ¾Ðº Ð¸Ð¹
ĠÐ²ÑĢÐµÐ· Ð°Ð»Ð¸ÑģÑĮ
ĠÑĤÐµÐ¿ Ð»Ð¾Ð²
ĠÑģÐµÑģÑĤ ÑĢÑĭ
ĠÐ¾ÑģÑĤÑĢÑĭ Ðµ
ĠÐ¿ÑĢÐ¾Ñħ Ð»Ð°Ð´
ĠÐ±Ð¾Ð»ÑĮÑĪÐ¸Ð½ ÑģÑĤÐ²Ð°
ÑĢ ÐµÑĤÑĭ
ÑĪ Ð°Ð»
ĠÐ¼ ÑĥÐ´
Ð¸Ð» Ð¾ÑĤ
Ð°ÑĤ Ð¾Ðº
ĠÑĢÐ°Ð±Ð¾ÑĤ Ð¾Ð¹
ĠÐ¾ÑĤÐ¿ Ð¾Ð»
ĠÐ¾ÑĤÑĩ ÐµÐ³Ð¾
ĠÑģÐ»Ð°Ð± ÑĭÐµ
ĠÑģÑĩÐ¸ÑĤ Ð°ÑİÑĤ
ĠÑĥÐ´ÐµÑĢÐ¶ Ð¸Ð²Ð°ÑĤÑĮ
ĠÐ½Ð°ÑĤ Ðº
ÑĥÐ»Ð¸ ÑģÑĤ
ĠÐ¿ÑĢÐ¸Ð½Ð¸Ð¼ Ð°ÑĤÑĮ
ĠÐ¤Ð»Ð¾ÑĤ Ð°
ĠÐ½ÐµÑĥÐ¼ Ð¾Ð»
ĠÑĤÑĢÐ¸ÑĥÐ¼ ÑĦ
ĠÐļÐµÑĢÐ³ Ð¸Ñģ
ÑĪ Ð°ÑĦ
ĠÐ´ Ð°ÐµÑĤ
ĠÐ½Ðµ ÑĤÐ¾ÑĢÐ¾Ð¿
ĠÐ³ ÑĢÐ°
ĠÐľ ÐµÐ¶Ð´Ñĥ
ĠÑĩÐµÑĢ Ð½ÑĥÑİ
ĠÐ¼Ð¾ Ð½Ð¾
ĠÑĤÐµÐ¼ Ð½ÑĭÐ¼
ÐŁÑĢ Ð¸Ðº
ĠÐ¼Ð°Ñģ ÑģÐ°
ĠÑĥÐ²ÐµÑĢÐµÐ½ Ð½Ð¾ÑģÑĤÐ¸
ĠÐ¦ ÐµÐ»
ĠÐ¿ÐµÑĢÑĩÐ°ÑĤ ÐºÑĥ
ĠÐ¸Ð½ÑģÑĤÐ¸Ð½ Ðº
ĠÐ½ÐµÐ³ ÑĢÐ¾Ð¼
ĠÐºÑĥÐ»ÑĮ ÑĤÐ°
ĠÐºÐ°ÑĢÐ°Ð± Ðº
ĠÐ¾Ð±Ð»Ð°ÑģÑĤ Ð¸
ÐŁÑĥÑģÑĤ ÑĮ
ĠÐº ÑĥÑģÑĤ
Ð¸ÑĤ ÑĭÑħ
Ð°Ð»ÑĮ Ð½Ð¾ÑģÑĤÑĮ
ÑĥÐ¶ Ñĩ
ĠÐĽ Ð¸Ð½
ĠÐŃ ÑĢ
ĠÐ¼ÐµÑģÑĤ Ð½Ð¾ÑģÑĤÐ¸
ĠÐ¿Ð¾ÑģÐ»ÐµÐ´ Ð½ÑıÑı
ĠÐ¾Ð´Ð¸Ð½ Ð°ÐºÐ¾Ð²
ĠÐ´ÐµÐ» Ñĥ
ĠÑĤÑıÐ¶ÐµÐ» ÑĭÐ¼Ð¸
ĠÐ¿ÑĢÐ¸Ñĩ ÑĥÐ´
ĠÐ¾ÑĤÑĩÐ°Ñı Ð½Ð¸Ñı
ĠÐ²ÑĢÐ°Ð¶ÐµÑģÐº Ð¸Ð¹
ĠÐ¿Ð¾Ð¿Ð°Ð´ Ð°Ð½Ð¸Ñı
ĠÐ£Ð»ÑĮÑĤÑĢÐ°Ð¼ Ð°ÑĢÐ°
ĠÐ´Ð¸ÑģÐ¿ Ð»ÐµÐ¹
ÐĴÐ°ÑĢ ÑĢÐµÐ½
ĠÐºÑĢÑİÑĩ Ð¾Ðº
ĠÐĵÐ¾Ð»Ð¾Ð² Ð°
ĠÐ±Ð¾Ð³Ð¾ ÑħÑĥÐ»ÑĮ
ÑĮ ÑģÑı
ĠÐ³ Ð½Ð¸Ð»
ĠÐ¸Ð· ÑĥÐ²ÐµÑĩ
Ð°Ð»Ð¸ Ð½Ñĭ
Ð¡ Ð¾Ð»
ĠÐ½Ð¾Ð² Ð¾Ð±ÑĢÐ°Ð½
ĠÐ¾ÑĤÐ² Ð»ÐµÑĩÑĮ
ĠÑĤÑıÐ¶ÐµÐ» Ð¾Ðµ
ĠÑī ÐµÐ±
ĠÑĤÐ¾Ð¿ Ð¾ÑĢÐ¾Ð¼
ĠÐ¼Ð½Ð¾Ð¶Ðµ ÑģÑĤÐ²Ð¾Ð¼
ĠÐ´Ð¾ÑģÑĤÐ°Ð² Ð¸ÑĤÑĮ
ĠÐ½ÐµÑĥÐ´Ð° ÑĩÑĥ
ĠÐĽÐµÐ¾Ð½ Ð¸Ð´
ĠÐ²Ñĭ ÑħÐ²Ð°ÑĤ
ĠÐ·Ð° ÑĤÐ¾Ñĩ
ĠÑĥÐ´Ð°ÑĢ Ð¸ÑĤÑĮ
ĠÑĥÐº ÑĢÑĭÐ²
ĠÐ¨ ÐµÐ½
ĠÐ´Ð¾Ð± ÑĢÐ¾Ð²
ĠÐ¾Ð³Ð½ÐµÐ¼ ÐµÑĤ
ĠÐºÐ¾ÑĢÐ¾ÑĤ ÐºÐ¸Ð¹
ĠÑĥÐ²Ð°Ð¶ ÐµÐ½Ð¸Ðµ
ĠÑģÐ»ÑĥÑĩÐ°Ð¹ Ð½Ð¾
ĠÐĴÐ° Ð°Ð½ÐµÑģ
ĠÐ½Ñĭ Ð½ÐµÑĪ
ĠÑģ Ð½Ðµ
ĠÑģÐº ÑĢÐµÑģÑĤ
ĠÐĶ ÐµÐ»ÑĮ
Ð¸Ð± Ð°Ð½
ĠÐ²Ð· ÑıÑĤ
Ð¼Ð¸ ÑĢÑĥ
Ð¸Ð½Ñĥ ÑĤÑĮÑģÑı
Ðł Ðĺ
ĠÐ²ÑĭÐ¿ Ð°Ð»
ĠÑıÐ² Ð»ÑıÐ»ÑģÑı
ĠÐ¾Ð¶ Ð¸Ð²
ĠÑĥÑĤ Ð¸Ñħ
ĠÐ·Ð°Ð´ÑĢÐ¾Ð¶ Ð°Ð»
ĠÐ²ÑĢÐµÐ´ Ð°
ĠÑģ Ð°Ð½ÑĤÐ¸Ð¼ÐµÑĤ
ĠÑĥ ÑĩÐ¸ÑĤ
ĠÐ³ Ð²Ð°ÑĢÐ´ÐµÐµÑĨ
ĠÐ¿Ð¾Ð´ Ð²Ð¸Ð³
ÐµÐ»ÑĮ Ð½ÑĭÐ¹
ĠÐł Ð°Ð¼
ĠÑĦ Ð¾ÐºÑĥÑģ
ÑĥÑī Ð¸ÑħÑģÑı
ĠÐ·Ð°Ðº Ð°Ð»
ĠÐºÐ¾ÑĢ Ð¼
Ð§ ÐµÐ»Ð¾Ð²ÐµÐº
ÑĩÐ¸ÑĤ Ð°ÑĤÑĮ
ĠÐ²Ð°ÑĪ Ð°
ĠÐºÐ¾Ð»Ð¾Ð½ Ð½
ĠÐ½Ð°ÑģÑĤÐ¾ÑıÑī Ð¸Ð¼
ĠÐºÑĢÑĥÐ³ Ð°
ĠÑĥÐ»Ð¸ ÑĨÑĥ
ĠÐºÐ¾Ð½ÑģÑĤÑĢÑĥÐº ÑĨÐ¸Ð¸
h ing
Ñĥ Ð³Ð¾Ð»ÑĮ
Ñĭ Ð±
ĠÐ² ÐµÐ»Ð°
ÑĪ Ð¸
ÑĦ ÐµÐ½
ĠÐ¿Ð¾Ñģ ÑĢÐµÐ´
Ðĺ ÑĤÐ°Ðº
ĠÐºÐ¾Ð» ÑİÑĩ
ĠÑĩÐ°ÑģÑĤ ÐµÐ¹
Ð²Ð¾Ð» Ð½Ð¾Ð²
ĠÐ¸Ð·Ð¼ÐµÐ½ Ð¸Ð»ÑģÑı
ĠÐļÐ°Ð» Ð»Ð¸
ÑįÐ¹ Ð½
ĠÐ¿ÐµÑĩ Ð°Ð»ÑĮÐ½Ð¾
ĠÐ´ÑĭÑĪ Ð°ÑĤÑĮ
ĠÐ¿Ð¾Ð»ÐµÑĤ ÐµÐ»Ð¸
ĠÐ»Ð°Ð·Ð³ Ð°Ð½Ð°
ÑĤÐ¸ÑĦ Ð¸Ðº
ĠÐ¤Ð°Ñį ÑĢÐ¾Ð½
ĠÑģ ÑĥÑĤÑĮ
ĠÐ¼ Ð¸ÑĢÑĥ
Ð¾Ð´ Ð¸Ð½
ĠÐ¾ÑĤ ÑĢÑĥÐ±
ĠÐĿ ÐµÐ´
Ð»Ð° ÑĤÐ¾Ð½
ĠÐ¿Ð» Ð°Ð²Ð½Ð¾
Ðľ Ð¾Ð¸
Ð¾Ñı Ð²
ĠÑĢÐ°Ð·Ð´ ÑĢÐ°Ð¶ÐµÐ½Ð¸Ðµ
ĠÐ³ÑĢÐ°Ð½ Ð¸ÑĨÑĭ
ĠÑĤÑĢÐµÐ± ÑĥÐµÑĤ
ĠÐ¼Ð¾Ð»Ð½ Ð¸Ð¹
ĠÐ´ÑİÐ¶ Ð¸Ð½Ñĭ
Ġ ,
ĠÑģÐ» Ð¾Ð¹
ĠÑģÐ¿ Ð¸ÑĢ
Ð½Ñı Ð»Ð¸
Ð°Ð²ÑĪ ÐµÐ¼Ñĥ
Ð°Ð½Ð´ ÑĪÐ°ÑĦ
ÐĲ Ð¿
ĠÐºÐ°Ð¶Ð´ Ð¾Ð¼Ñĥ
ĠÐ½ÐµÐ² Ð¸Ð½
ĠÐ¿Ð¾Ð½Ð¸Ð¼ Ð°Ð½Ð¸Ðµ
ĠÑĤÐ¾Ð» Ñī
ĠÑĢÐµ ÑĦÐ»ÐµÐº
ĠÐ²ÑĭÐ¶ Ð¸Ð²ÑĪÐ¸Ðµ
ĠÑįÐºÑģÐ¿ÐµÑĢ Ð¸Ð¼
Ð¾Ð² Ð°ÑĤÑĮÑģÑı
ĠÐ²Ñĭ ÑĤÐµÑĢ
ĠÐ¾Ð± Ð¾ÑĢÐ°ÑĩÐ¸Ð²
Ð¸Ñĩ Ð½ÑĭÑħ
ĠÐŁ ÑıÑĤÑĮ
ÑĢÑĭ Ð¼
ÑĥÑģ Ð»Ð¾Ð²
Ð¡ Ð°Ð»Ð°Ð¼Ð°Ð½Ð´
ĠÐºÐ¾Ð½ ÑģÐ¾Ð»
ĠÐ¿Ð¾Ð·Ð²Ð¾Ð» ÑıÐ»Ð¸
is t
ĠÐºÐ¾ÑĢÐ¸Ð´ Ð¾ÑĢÐ¾Ð²
ÂłÂłÂłÂł ÂłÂłÂłÂł
ĠÐºÐ°ÑĢÑĤ Ð¸Ð½Ñĥ
ĠÑĢÑĥÑħ Ð½ÑĥÐ»Ð°
ĠÐ¼ÐµÑĢÑĨ Ð°Ð»Ð¸
ĠÐ½Ð°Ð¿ÑĢÑıÐ¶ ÐµÐ½Ð¸Ñı
ĠÐĴÑģ ÐµÐ³Ð¾
ĠÐºÐ¾Ð½ÑĤÑĢÐ¾Ð» Ñı
ĠÐ»Ð°Ð± Ð¾ÑĢÐ°ÑĤÐ¾ÑĢ
ĠÐºÐ»ÑıÑĤ Ð²Ñĥ
ĠÑģÐºÐ°ÑĥÑĤ Ð¾Ð²
ĠÐ¾Ð¿ÑĢÐ°Ð² Ð´
ĠÑĦÐ¾Ð½ÑĤ Ð°Ð½
Ð¿ÑĢÐ¸Ðº Ð°Ð·Ð°Ð»
ĠÐĴ Ð°Ð¹
ÐºÐ¾ Ñĩ
ĠÐķ Ð¹
ÐĶ ÐµÑĢÐ¶
ĠÐ½ÐµÐ¼ ÑĭÑģÐ»
Ð£ Ð»ÑĮÑĤ
ĠÐ¿Ð¾Ð´Ð¾Ð± Ð¸Ðµ
ĠÐ¿Ð»Ð°ÑģÑĤ Ð¸Ð½
ĠÑĤÑĥÐ½Ð½ ÐµÐ»ÐµÐ¹
ĠÑģÐ²Ð¾Ð±Ð¾Ð´ Ð½Ð¾
ĠÐ¾ÑģÑĤÑĢ Ð¸Ðµ
ĠÐ²Ð¾ÑģÐ¿Ð¾Ð¼Ð¸Ð½ Ð°Ð½Ð¸Ð¹
ĠÐ¡Ð¸Ð³ Ð¸Ð·
ĠÐ½ Ð¸ÑĤ
Ð´ Ð°ÑĢÐ°
Ð°Ð» ÐµÑĨ
Ð²ÐµÑĢ Ð¶
Ðļ ÐĲ
ĠÐ¥ Ð°Ð»ÑĮ
ÑĢÐ°Ð± Ð»Ð¸
ĠÐ¸Ð½ ÐºÑĥ
ĠÐ¸Ð½ ÑĤÐµÐ»Ð»ÐµÐº
ĠÐ³Ð¾Ð»Ð¾Ð² Ð¾ÐºÑĢÑĥÐ¶
ĠÑĥÐ± ÐµÐ³
ĠÐ¿Ð¾Ð¿ ÑĢÐ¾ÑģÐ¸Ð»
Ð¾Ð¶Ð´ ÐµÐ½Ð½ÑĭÐ¹
ĠÐ¿ÑĢÐ¸Ð² ÐµÐ»Ð¾
ĠÐµÐ´Ð¸Ð½ÑģÑĤÐ²ÐµÐ½ Ð½Ð°Ñı
ĠÐ¶ÐµÐ½Ñī Ð¸Ð½Ñĥ
ĠÐ½ÐµÑĢ ÐµÑĪ
ÑįÐ½ Ñģ
ĠÐ¿Ð¾Ð´ÐºÑĢÐµÐ¿ Ð»ÐµÐ½Ð¸Ñı
ĠÐłÐ°Ðº ÐµÐ»
ĠÐ¿ÑĢ Ð°Ñħ
ĠÑģÑĤ Ð°Ñı
ĠÑģÐ» ÐµÑĤ
ĠÐĿ ÑĥÑĢÐ³
ÑĥÑĤ Ñĭ
ĠÐĵ Ð²Ð°ÑĢÐ´ÐµÐµÑĨ
ĠÐŁÑĢ Ð¸Ñģ
ĠÑģÐ»ÐµÐ´ Ð¸Ð»
ĠÑģÐ»ÐµÐ´ ÑĥÑı
ĠÐ¿ÑĢÐ°Ð² Ð¾ÑģÑĥÐ´
ĠÐºÐ¾Ð¼Ð°Ð½Ð´ ÑĥÑİÑīÐµÐ³Ð¾
ÑģÑĤÐ¾Ñı ÑĤÑĮ
ĠÐ²Ð°ÑĪ Ð¸Ð¼
ĠÐ¡Ðº ÑĢÐ°
ĠÐ¾Ð¿ÐµÑĢ Ð°ÑĨÐ¸Ñı
ĠÐ¡Ñĭ Ð½Ñĭ
ĠÐľÐµÐ´ ÑĥÐ·
ĠÑģÑĩÐ°ÑģÑĤ Ð»Ð¸Ð²
ĠÐ¿ÐµÑħ Ð¾ÑĤÑĭ
ĠÐĶÐ²Ð¾ÑĢ ÑĨÐ°
ĠÐĵÐ²Ð°ÑĢÐ´ÐµÐ¹ ÑĨÑĭ
ĠÑĢÐµÐ» Ð¸Ð³Ð¸Ð¾Ð·
i f
Ð· Ð°Ð¿
Ð°ÑĢ Ð¸Ñģ
ÑĨ Ð¸Ð´
ÑĥÑģ Ñģ
ÐĿ Ð«
Ð´Ñĥ Ðº
ĠÐºÑĢÐ¾Ð² Ð¾ÑĤÐ¾Ñĩ
ĠÐ¿Ð¾Ð± Ð»Ð¸Ð¶Ðµ
ĠÐ¼Ð°Ñģ ÐºÐ°
ĠÐ¿Ð¾Ð¶ ÐµÑĢÑĤÐ²
ĠÐ¿ÑĢÐµÐ²ÑĢÐ°ÑĤ Ð¸Ð»Ð¾ÑģÑĮ
ĠÑģÑħÐ²Ð°ÑĤ ÐºÐµ
ĠÐ´Ð¾Ð¼ Ð¾Ð¹
ĠÐŁÐ¾Ð² ÑģÑİÐ´Ñĥ
ĠÐ¿Ð¾ÐºÑĢÑĭÑĤ ÑĭÐ¹
ĠÐ±ÑĭÐ² ÑĪÐµÐ³Ð¾
ĠÐºÐ½ Ð¸Ð³Ñĥ
ĠÐ³Ð¾ÑĢÐ´ Ð¾ÑģÑĤÐ¸
ĠÑħÐ¾Ð·Ñı Ð¸Ð½
ĠÐ°ÑĢÑĤÐ¸Ð»Ð»ÐµÑĢ Ð¸Ð¸
ĠÐ¿Ð¾ÑģÑĤÐ°ÑĢ Ð°Ð»ÑģÑı
i p
Ð½Ð¾ ÑģÑıÑĤ
Ð°Ð· ÐµÑĢ
ĠÐ¿Ð¾Ð» ÐºÐ¸
ĠÐ¾Ðº ÑĢÑĥÐ³
ĠÐ½Ð°Ð´ ÐµÐ¶Ð´Ðµ
ĠÐ¿Ð¾Ð¼ ÐµÐ´Ð»
ĠÐ¾ÑĤÐ²ÐµÑĤ Ñĭ
Ð§ ÑĤÐ¾Ð±Ñĭ
Ð°ÐµÐ¼ Ð¾Ðµ
ĠÐ½Ð¾Ñģ Ð¾Ð¼
Ð¾Ð·Ð² Ð¾Ð»ÑĮ
ĠÑģÐ¿Ð¾ÐºÐ¾Ð¹ Ð½ÑĭÐ¼
ĠÐ±ÑĢÐ¾Ð½Ð¸ÑĢÐ¾Ð²Ð°Ð½ Ð½ÑĭÐµ
ĠÐ¿ÑĢÐ¸Ð½Ð°Ð´Ð»ÐµÐ¶ Ð¸ÑĤ
ĠÐĽÐµÐ³ Ð¸Ð¾Ð½Ñĭ
ĠÐľÐ°Ð½ ÑĥÑģ
ĠÐ²Ð³ ÑĢÑĭÐ·
Ñģ ÑİÐ´Ð°
ĠÐ²Ñĭ Ð¸ÑģÐº
ĠÑģÑĤ ÑĢÑıÑħ
ĠÐ·Ð° Ð¸Ð½ÑĤÐµÑĢÐµÑģ
ĠÑħ Ð¾ÑĢ
Ð°Ð½Ð´ ÑĢÐ¾
ĠÐ·Ð°Ð¿ ÑĢÐµÑī
ĠÐºÐ¾ÑĢ Ð¸ÑĩÐ½ÐµÐ²
Ð¿ÑĢ Ð¾ÑĢ
ĠÑĥÑĤ ÐµÑĪ
ou r
ĠÐºÐ°Ð± ÐµÐ»ÐµÐ¹
ĠÐ·Ð°Ð¼ÐµÑĢ ÑĨ
ĠÐ¿ÑĢÐ¸ÑĨÐµÐ» Ð¸Ð»ÑģÑı
ĠÐĳÐ¾Ð»ÑĮÑĪ Ð°Ñı
ĠÑĢÐ°Ð·Ð¾Ð± ÑĢÐ°ÑĤÑĮÑģÑı
ĠÑģÑĭÐ½Ð¾Ð² ÐµÐ¹
ÑĤÑĢÐ¸ Ð°Ð½
ĠÐ¾ÑĤÐ¾ ÑĪÐµÐ»
ĠÐ¿ÑĢÐ¾Ñī ÐµÐ½Ð¸Ñı
ĠÐ²Ð¾ÑģÑĮ Ð¼
ĠÐ½ÐµÐ´Ð¾ ÑĥÐ¼
ĠÐ½ Ð¸ÑĪ
Ð¸Ðº ÑĥÐ¼
ÑģÑĤÐ² Ð¾Ð»ÑĮ
ĠÐ¿Ð¾Ð´ Ð¼
ĠÐĲ Ð¼Ð¾Ð½
ĠÐ²Ð¾ Ð¸Ð½Ñĥ
ĠÐŃ ÑģÐº
ÑĢÐ¾Ñģ Ñĭ
ĠÐ²ÑĭÑģ Ð¾ÑĤÐµ
ÑĬ ÑİÑĤ
ĠÐ½ÐµÐ² Ð·
ĠÐºÑĢÐ°Ñģ Ð½ÑĭÐ¼Ð¸
ĠÐ¿ÑĢÐ¸Ð´ ÑĥÐ¼
ĠÑĨÐµÐ» Ð°Ñı
ĠÐ±ÐµÐ» ÑĭÐ¹
ĠÐ²Ð½ÑĥÑĤÑĢÐµÐ½ Ð½Ð¸Ð¹
ĠÐ¼Ð°ÑĪÐ¸Ð½ Ð°Ð¼Ð¸
ĠÐ½Ð¾Ð¶ Ð¾Ð¼
ĠÐ²Ð¾Ð·Ð½Ð¸Ðº Ð»Ð¾
ÂłÂłÂłÂłÂłÂłÂłÂł ÂłÂłÂł
Ð´ Ð¸Ðº
Ð¾ÑģÑĤ Ð°
ĠÐŀ ÑĦÐ¸ÑĨ
ĠÐĲ ÐºÐ²Ð¸Ð»
ĠÐ²Ð¾ ÐµÐ½Ð½Ð¾Ð³Ð¾
Ð¸ÑĢÐ¾Ð² Ð°Ð½Ð°
ĠÐ·Ð½ Ð°Ð½Ð¸Ðµ
ĠÐ²Ð¾Ð¹ Ð½
ĠÐŀÑĢ ÐºÐ¸
ĠÐ´Ð°Ð» Ñĳ
Ġw h
ĠÑģÐºÐ»Ð¾Ð½ Ð¸Ð»ÑģÑı
ĠÐ¾Ð±ÑĭÑĩ Ð½ÑĭÐ¼
ĠÐ¾Ð±ÑĢÑĥÑĪ Ð¸Ð»
ĠÐ¼Ð°Ð»ÐµÐ½ÑĮ ÐºÐ¾Ð¹
ĠÐĳÐµÐ» Ð»Ð°ÑĤÐ¾Ð½
ĠÐ¡Ð² ÑıÑī
ĠÐ·Ð°Ð´Ð°Ñĩ Ñĥ
ĠÐĳÐ°ÑĢ Ð·Ð°Ð½Ð¾
ĠÐ±Ð°ÑĤÐ°ÑĢ ÐµÐ¹
ĠÐ²Ð¸Ð½ÑĤÐ¾Ð² ÐºÑĥ
Ġ 6
ĠÐ± ÑĥÐ½
ĠÐ¼ Ð¾Ð±
ĠÐ·Ð° ÑĨÐµÐ¿
ĠÐĶ Ð²Ð¾Ðµ
ÐĿ ÐµÐºÐ¾ÑĤÐ¾ÑĢÑĭÐµ
ĠÐ²Ð¾ ÐµÐ¼
ĠÐ¿Ð¾Ðº Ð°ÑĩÐ¸Ð²
ĠÐ¾ÑĤÐº Ð°Ð·Ð°Ð»ÑģÑı
ĠÐ¿Ñģ Ð¸
ĠÐ±Ð¾ÑĢ Ð¾ÑĤÑĮÑģÑı
ĠÑģÐ¶ Ð¸Ð³
re s
ĠÐ¿Ð¾Ð´ÑĥÐ¼ Ð°Ð»Ð°
ĠÐ´Ð¾Ð¼ Ð¾Ð²
ĠÐ²ÑĭÐ´ Ð²Ð¸Ð³
ĠÑģÐ»ÐµÐ´ÑĥÑİÑī ÐµÐ¹
ĠÐ¸Ð³ ÑĢÐ°
ĠÐ¸Ð½ÑģÑĤÑĢÑĥ Ðº
ĠÐļÐ° Ð¸Ð½
ĠÐŃÐºÐºÐ»ÐµÐ·Ð¸Ð°ÑĢÑħ Ð¸Ð¸
Ġ k
Ñģ Ð¸Ð»
ĠÑģ Ð±Ð¸ÑĤ
Ð² ÐµÑĩ
Ð¾Ð² ÐµÑĤ
ĠÐ± Ð°ÑĤÐ°Ð»ÑĮ
Ð°Ð½ ÐµÑĤ
ĠÐ¿Ð¾ Ð¾Ð±ÐµÑī
ĠÐļ ÑĢÑĭ
ĠÐ¡ ÑĥÐ´ÑĮ
Ð¾Ñĩ Ð°
ÐºÑĥ Ð¿
ÑĢÐ¾Ñģ Ð°
ĠÐ½Ð°Ð´ Ð²Ð¾Ðµ
ÑıÑī ÐµÐ¹ÑģÑı
Ðł Ðķ
Ð°Ñī Ð¸Ñī
ĠÑģÐ¿Ð¾ÑģÐ¾Ð± Ð¾Ð¼
ĠÐ³ÑĢÐ°Ð½ Ð¸ÑĨ
ĠÐ´Ð¾Ð¼ Ð¾Ð¼
ĠÐ±Ð°ÑĪ Ð½Ðµ
ĠÐ¾Ð±Ð»Ð°Ð´ Ð°ÐµÑĤ
ĠÐ±ÑĥÑĢ Ñİ
ĠÐ¡Ð¿ ÑĥÑģÑĤÑı
ĠÐ¾Ð±ÑĬÑıÑģÐ½ Ð¸Ð»
ĠÑĤÐ¾ÑĢÐ¿ÐµÐ´ Ñĭ
ĠÐ±ÐµÑģÑĩÐ¸Ñģ Ð»ÐµÐ½Ð½ÑĭÑħ
ĠÐŁÑĢÐ¾Ðº Ð»ÑıÑĤ
ÑĤÐ¾ÑĢ Ð¸Ð°Ð½
ĠÐ²Ñĭ ÐºÐ¾Ð²
ĠÐ²Ð¾ ÐµÐ½
ĠÐ¥ Ð°Ð»
Ð¸Ð½Ñĥ Ð»Ð¸
ÐŁÑĢ Ð¸Ð¼
ĠÐ°ÑĤÐ°Ðº Ð¾Ð²Ð°Ð»
ĠÐ½Ð°ÑĩÐ°Ð» Ð¾Ð¼
ĠÐ¿Ð°Ð´ Ð°Ð»
ĠÐĽÑİ ÑĨ
ÑĨÐ¸Ñı Ð¼Ð¸
ĠÐ¾ÑĢÐ³Ð°Ð½ Ð¸Ð·Ð¼
ĠÐĺÐ½ÐºÐ²Ð¸Ð· Ð¸ÑĨÐ¸Ñı
ĠÐĺÑģÐ¿ Ð¸Ð²Ð°ÑİÑīÐ¸Ðµ
ĠÐ²ÑĭÐ´ÐµÑĢÐ¶ Ð°ÑĤÑĮ
ĠÐ¸Ð½ÑģÑĤÐ¸Ð½ ÐºÑĤ
ĠÑĢÑĭÑĨÐ°ÑĢ ÐµÐ¹
ĠÐ¿Ð¾Ð²ÐµÐ´ ÐµÐ½Ð¸Ðµ
ĠÑĢÐµÐº ÑĢÑĥ
ÐļÐ¾Ð¼ Ð¸ÑģÑģÐ°ÑĢ
ĠÐļÑĥÑģÑĤÐ¾Ð´ ÐµÑģ
Ñģ Ð¾Ð¼
ĠÐ³ ÑĢÐ°ÑĦ
ĠÐĶ Ð¾ÑĢ
ĠÐ½ÐµÐ¿ Ð¾ÐºÐ¾Ð»ÐµÐ±
ĠÐ¿ÑĢÐ¾Ð± Ð¸ÑĤÑĮÑģÑı
ĠÐ¿Ð¾Ð± Ð»ÐµÑģÐº
ĠÐ¾ÐºÑĢÑĥÐ¶ Ð°ÑİÑīÐ¸Ñħ
ĠÐ³Ð¾ÑĢÐ¾Ð´ Ð¾Ð¼
ĠÐ¸Ð¼Ð¿ÐµÑĢ Ð¸Ð¸
ĠÐ¾ÑīÑĥÑī Ð°Ñı
es t
ĠÐĽÐ¾Ðº ÐµÐ½Ð°
ÑģÑĥ Ð»Ð°
ĠÐ¸ÑģÐºÐ»ÑİÑĩ Ð¸ÑĤÐµÐ»ÑĮÐ½Ð¾
ĠÐ¨ÑĤ ÑĥÑĢÐ¼
ĠÑģÑĥÑīÐµÑģÑĤÐ²Ð¾Ð² Ð°Ð½Ð¸Ñı
ĠÑĪÐ¿ Ð¸Ð»
ĠÐ³Ð»Ð¾ÑĤ Ð¾Ðº
ĠÑĢÐ° ÑģÑĤÑĢ
ĠÐ¿ÑĢÐµÐ¸Ð¼ ÑĥÑīÐµ
ĠÑģÐ»ÑĥÑĩÐ°Ñı Ñħ
Ñĭ ÑģÐ»Ð¾Ð²
ĠÐ± Ð¾Ð¼
ĠÐļ Ð°Ð¶ÐµÑĤÑģÑı
Ð¾ÑģÑĤ Ð¸ÑĤÐµ
ĠÐºÐ°Ðº Ð¸Ð¼Ð¸
Ð°Ð¿ ÑĤ
ĠÐŁ Ð°ÑĢ
ĠÑģÐ¿ Ð°Ð»
ĠÑĢÐ°Ñģ ÑģÑĤÑĢÐµÐ»
ÑģÐ¿ ÑĢÐ¾ÑģÐ¸Ð»Ð°
ĠÐŃ Ð½Ð´
Ð°ÑĤÐµÐ»ÑĮ Ð½Ð¾ÑģÑĤÑĮ
ĠÐ·Ð°Ð» Ñĭ
ĠÑģÐºÐ¾ÑĢ Ð±
ĠÑģÐ¾ÑģÑĤ Ð¾Ð¸ÑĤ
ĠÐ¿Ð¾ÑıÐ² Ð»ÐµÐ½Ð¸Ñı
ĠÐ¿ÑĢÐ¾Ð¸Ð· Ð¾Ð¹ÑĤÐ¸
ĠÑĤÑĭÑģÑıÑĩ Ñĥ
ĠÐ·Ð°ÑīÐ¸ÑĤ Ð½ÑĭÐµ
ĠÐ³ÑĢÑĥÐ¿Ð¿ Ðµ
ĠÑģÐµÑĢÑĮ ÑĳÐ·
ĠÑĤÐµÐ½ ÑıÑħ
ĠÐºÑĥÐ¿ Ð¾Ð»Ð°
ĠÑĪÐµÐ¿ Ð¾ÑĤÐ¾Ð¼
ĠÐ½ Ð¾Ð·Ð´
ĠÑĤ Ð¾ÐºÑģ
ĠÐ²Ñĭ ÑĩÐ¸Ñģ
ĠÐĴ ÑĥÐ»ÑĮ
ĠÐ¾ÑĢ ÐºÐ°Ð¼Ð¸
ĠÐ¼Ð°Ñģ ÐºÐ¾Ð¹
ĠÑĢÐ°Ð·Ð´ ÑĢÐ¾Ð±
ĠÐ³Ð¾ÑĤÐ¾Ð² ÑĭÐµ
Ð¤ ÐµÑĢ
ĠÑģÐ¾Ðº ÑĢÐ¾Ð²
ĠÐ¿ÑĢÐ¸Ð» Ð¾Ð¶
ĠÐ°ÑģÑĤÑĢÐ¾Ð¿ Ð°ÑĤÐ¾Ð²
ĠÐºÑĢÑĭÑĪ Ñĥ
ĠÑģÐ¶Ð¸Ð¼ Ð°Ð»
ĠÐ¼ÑĥÑģÐº ÑĥÐ»Ð¸ÑģÑĤ
ĠÐ´ÐµÑģÑıÑĤÐ¸Ð»ÐµÑĤ Ð¸Ñı
ÑĤ Ð°Ð¼Ð¸
ĠÐ¿Ð¾Ð´ ÑħÐ²Ð°ÑĤ
ĠÑĢÐ°Ð· Ð¾ÑĢ
ĠÐŁ Ð°ÑĥÑĤ
ÑĥÑģ Ð¾Ð²
ÐºÐ° ÑģÑĤ
Ð¢ Ð¾ÑĤ
Ð°Ð½Ð¸Ñı Ñħ
ĠÐ£ Ð»ÑĮ
ĠÐ¼ÐµÑĩ Ð°Ð¼Ð¸
ĠÑĢÐ°Ð·Ð² ÐµÐ²
ĠÐºÑĢÐ°Ñģ Ð½Ð¾
ĠÑģÐ¾Ð»Ð´Ð°ÑĤ Ð°Ð¼Ð¸
ĠÐ·Ð½Ð°Ñĩ Ð¸Ð»Ð¾
ĠÑģÐ½ Ð¸Ð¶
ĠÑĥÐ±Ð¸Ð¹ ÑĨÐ°
ĠÑĤÐ¾Ð²Ð°ÑĢÐ¸Ñī Ð°
ĠÐ¿ÑĢÐ¸Ð¶ Ð°Ð»
ĠÐ´ÐµÐ»Ð° ÐµÑĪÑĮ
ĠÐ³ÑĢÐ°Ð¶Ð´Ð°Ð½ ÑģÐºÐ¸Ñħ
ĠÐ´ÑĢÑĥÐ· ÑĮÑı
ĠÐ½ÐµÐ²Ð¾Ð· Ð¼ÑĥÑĤ
Ð¾Ð´ÑĥÑĪ ÐµÐ²
ĠÐĲÑĢÐ¼Ð°Ð³ÐµÐ´ Ð´
Ġ âĢ¦
Ġ en
Ð°Ð½ Ð½Ð¾Ð¼Ñĥ
ĠÐ´ Ð¾ÑĤÑı
Ð½Ð¾ ÑĢÑĥ
Ð¾ÑĢ Ð¸
ĠÐ¾ÑĤ Ð¾Ð´
ĠÐĴ Ð°Ñģ
ĠÑĢÐ°Ð· ÑĢÐ°Ð±Ð¾ÑĤ
ĠÑģÐ» Ð¾ÐµÐ¼
ĠÐĽ Ð¸Ðº
ĠÐĹ Ð½Ð°ÑĩÐ¸ÑĤ
ĠÐ´Ð¾ ÑħÐ¾Ð´
ĠÐ¾ÑĢ Ðµ
ĠÐºÐ¾Ð¼Ð°Ð½Ð´ Ð½ÑĭÐ¹
ĠÑģÑĤÐ°ÑĢ Ð¾Ð¹
ĠÐ¿ÑĢÐ¸ÑĪ ÑĳÐ»
Ð¸ÑĢÑĥ Ñİ
ĠÑĥÐ¶Ð°Ñģ Ð½Ð¾Ð¹
ĠÑģÐ¾Ð±Ð¸ÑĢ Ð°ÑıÑģÑĮ
ĠÐ¾ÑĤÐ¿ÑĢÐ°Ð² Ð¸ÑĤÑĮ
ĠÑģÑĥÐ´ Ð¸ÑĤÑĮ
ÑĢÐµÐ¹ Ð´
ĠÑĥÑħÐ¾Ð´ Ð¸ÑĤÑĮ
ĠÑģÑĤÐ²Ð¾Ð» Ñĭ
ĠÐºÐ¾Ð»Ð´Ñĥ Ð½Ð°
ĠÐ»ÐµÐ´Ñı Ð½Ð¾Ð¹
ĠÑģÐºÐ°Ð¶ Ñĥ
ĠÐ¾Ð±ÐµÑģÐ¿ÐµÑĩ Ð¸ÑĤÑĮ
ÐľÐ°Ð³ Ð½ÑĥÑģ
ÑģÑĥÐ³ ÑįÐ¹
ĠÐ¾ÑĤÐ¾Ð¼ÑģÑĤ Ð¸ÑĤÑĮ
ĠÐ¿ Ð°ÑģÑĤ
Ð°Ð½ Ð´Ð°
ĠÐ´ Ð¸Ð½Ð°Ð¼
ĠÑĥ ÑĢ
ĠÐĲ Ñį
ĠÐ¿Ð¾Ð² Ð¾Ð´
ĠÐ²Ð¸Ð´ Ð¸Ð¼Ð¾ÑģÑĤÐ¸
Ð¸Ð²ÑĪ ÑĥÑİ
ĠÐ¿ÑĢÐ¾ÑĤ Ð¾ÐºÐ¾Ð»
ÑģÐ» Ð¸Ð²
ĠÑĥÐ¼ ÑĢ
ĠÑĢÐ°ÑģÐº ÑĢÑĭÑĤ
ĠÑĢÐ°Ð´ Ð¾ÑģÑĤÐ¸
ĠÐºÐ¾ÑĢÐ°Ð±Ð»Ñı Ð¼
âĢĿ ,
ĠÐ¿ÐµÑĢÐµÐ² Ð¾Ð·
ĠÐ¼ÑĭÑģ Ð»ÑıÐ¼Ð¸
ĠÐ¿Ð¾ÑģÐ» Ð°Ð½Ð¸Ðµ
ĠÐ½Ð¾Ð¶ Ð½Ñĭ
ĠÐ¼Ð°ÑģÑĤ ÐµÑĢÐ°
ĠÐ±ÑĭÐ² ÑĪÐ¸Ð¹
ĠÑħÐ¾Ð·Ñı ÐµÐ²
ĠÐ½Ð°Ð·ÑĭÐ² Ð°ÑİÑĤ
ĠÑĢÑĭÑĩ Ð°Ð³
ĠÑĤÐ¾ÑĪÐ½Ð¾ ÑĤÐ²Ð¾ÑĢ
Ġ [
Ñħ Ñĥ
ĠÐµ ÑĢÐµÑģÐ¸
ĠÐĳ ÑĢ
ĠÐ¥ Ð¾ÑĢÐ¾ÑĪÐ¾
Ð²Ð°ÑĤ Ð¸ÑĤ
ĠÐ¤ Ð¸ÑĪ
ĠÐŁÑĢ Ð¸Ð±
ĠÐ½Ð¾Ð³ Ð°
ĠÐ»ÑĥÑĩ ÐµÐ¹
ĠÐŀÑĤ Ð²ÐµÑĤ
Ġf l
ĠÐ¥Ð¾ÑĢÑĥÑģ Ñĥ
ĠÑĩÐµÑĤ ÐºÐ¾
ĠÐ²ÑĭÐ·Ð² Ð°Ð»Ð¾
ĠÐ³Ð½ ÐµÐ·Ð´
ĠÑĢÐ°Ð·Ð»ÐµÑĤÐµÐ» Ð¸ÑģÑĮ
ĠÐ°ÑĢÐ¼Ð¸ Ñİ
ĠÐ² Ð¾Ð»ÑĮ
Ð´ ÐµÐ¹
Ñī ÐµÐ¼
ĠÑģÑĤ Ð²Ð¾ÑĢ
ÑĭÐ² Ð°ÑİÑĤÑģÑı
ĠÐĳ Ð¸Ðº
ÐĶ Ð¾Ð»Ð¶
Ðĳ ÑĥÐ´ÑĮ
ĠÐ·Ð°ÑĤ Ð¾Ð¿
ĠÐ·Ð°Ð² ÑĤ
ĠÐ¶Ð¸Ð² Ð¾Ð³Ð¾
ĠÑģÐ»ÑĥÑĩ Ð¸ÑĤÑģÑı
Ð½Ð¸ÑĨ ÐµÐ¹
ĠÐ³Ð¾ÑĤÐ¾Ð² ÑĭÐ¹
ĠÐ´Ð°Ð² Ð½ÑĭÐ¼
ĠÐ³ÑĢÐ¾Ð¼ ÐºÐ¸Ð¼
ĠÑģÐ½ ÐµÐ¶
ĠÑĨÐ²ÐµÑĤ Ð¾Ð²
ĠÐ¼Ð°ÑģÑģ Ñĭ
ĠÐºÐ°ÑĢ ÑĤÐ¸Ð½Ñĭ
ĠÑĢÑĥÑħ Ð½ÑĥÐ»Ð¸
ĠÑĥÐ¼Ð¸ÑĢ Ð°Ð»Ð¸
ĠÑĪÐ¸ÑĢÐ¾Ðº Ð¸Ð¼
ĠÑıÐ·Ñĭ ÐºÐ¸
ĠÑģÐ²ÑıÑĤ Ð¾Ð¹
ĠÐ¿ÑĢÐµÐ´Ð»Ð¾Ð¶ ÐµÐ½Ð¸Ðµ
ĠÑģÐ°ÑĢÐºÐ¾ÑĦ Ð°Ð³
Ð» Ð°Ñı
ÐµÐ½ Ð´ÐµÐ»
ĠÐ¼ Ð°Ðº
ĠÐ¼ Ð¾Ð·Ð°
Ð¾Ð± Ð»Ð°Ð´
ĠÐ³Ð¾ Ð½
ĠÑħ ÑĢÐ¾Ð¼
ĠÐ¿Ð¾Ð» Ð½Ð¾Ð³Ð¾
ĠÐŃ ÑĤÐ¾Ð³Ð¾
ĠÐĹ Ð°Ð±
ĠÐ¼ÐµÑģÑĤ Ð½Ð¾ÑģÑĤÑĮ
ĠÐ¿Ð¾Ñħ Ð¾ÑĢÐ¾Ð½
ĠÐºÑĥÐ»Ð°Ðº Ð°
ĠÑĩÐµÐ»Ð¾Ð²ÐµÑĩÐµÑģÐº Ð¸Ð¹
ĠÐ¼Ð°Ð»ÐµÐ½ÑĮ ÐºÐ¸Ðµ
ĠÐ¿Ð¾ÑģÑĤÑĥÐ¿ Ð¸Ð»
ĠÐ¿Ð¾ÑĪ Ð»Ð°
ĠÐ·Ð°Ð´Ð°Ñĩ Ð¸
ĠÐ¡ÐµÐºÑĥÐ½Ð´ ÑĥÑģ
ĠÐºÐ¾Ð¼Ð±Ð¸Ð½ ÐµÐ·
Ð¾Ð» ÐµÐ½
Ñī Ð¸ÐºÐ°
ĠÐ²Ñĭ Ñħ
ĠÐļ ÑĢÑĥÐ³
ĠÐĿ Ð°Ñĩ
ÑĭÐ² Ð°ÑİÑīÐ¸Ñħ
ĠÐ¿Ð¾Ðº Ð¾
ĠÐł Ð°Ð»Ð´Ð¾ÑĢÐ¾Ð½
ÑĢÐµÐ¼ ÐµÐ»
ÑĥÐ» Ñĥ
ĠÐ½Ð°Ð´ Ð¿
ĠÐ±ÐµÐ· ÑĢÐ°ÑģÑģÑĥÐ´
ĠÐ¨ Ð°ÑĢÑĢÐ¾ÑĥÐºÐ¸Ð½
ĠÐ¿Ð¾Ð½Ð¸Ð¼ Ð°Ð»Ð¸
ĠÐ½Ð°ÑĩÐ°Ð» Ðµ
ĠÐ¿Ð¾ÑĢÑıÐ´ ÐºÐ°
ĠÐ¿ÑĢÐ¾ÑĨ ÐµÑģ
ĠÐ¿ÐµÑĢÐµÑģÑĤ Ð°Ð»
ĠÐ²Ð»Ð°Ð´ Ñĭ
ĠÐľÐ°ÑĢÐ´Ñĥ ÐºÐ°
ĠÐ·ÐµÐ»ÐµÐ½Ð¾ÐºÐ¾Ð¶ Ð¸Ðµ
ĠÐĹÐ°ÑħÐ°ÑĢÐ¸ Ð¸Ð»
ĠÐ½Ð°ÑĢ ÐºÐ¾ÑĤ
ĠÑĢÐ°ÑģÑģÐ» ÑĭÑĪ
ĠÐ¡Ð¾Ð»Ð½ ÑĨÐ°
ĠÑģÐ²ÐµÐ´ ÐµÐ½Ð¸Ñı
ĠÐ·ÐµÐ» Ñĳ
Ñģ Ð¸Ð²
ĠÐ¼ ÐµÑħ
Ð°ÑĤ Ð¾Ð³Ð¾
ĠÑĥ ÑĤÐ¾
ĠÑı Ð½ÑĤÐ°ÑĢ
Ð¾Ð¿ Ð¾Ð»
ĠÐĿ Ð°Ðº
Ð»ÐµÐ½ Ð½Ð¾Ð¼
Ðŀ Ðº
ÐĴ ÑĢÐµÐ¼Ñı
ĠÐĽ Ð¾ÑĤ
Ð¡ Ð¾Ð³Ð»Ð°Ñģ
ÐµÐ½ÑĮ Ðµ
ĠÐ½Ð°ÑĪ ÐµÐ¼Ñĥ
ĠÐ·Ð°ÑĤ Ð¼
ĠÐ¿ÑĢÐ¸Ð½ ÑıÐ»Ð¸ÑģÑĮ
ĠÐ½ÐµÐ² ÐµÐ´Ð¾Ð¼
ĠÐ´Ð²Ð¸Ð³ Ð°Ð»Ð°ÑģÑĮ
ĠÐ¼ÐµÑĢ Ñĭ
ĠÐ´ÑĥÐ¼ Ð°ÐµÑĤ
ĠÐ¾ÑģÑĤÐ°Ð»ÑĮ Ð½Ð¾Ð¹
ĠÑģÐ¾Ð² Ð¿Ð°Ð´
ĠÑĦÐ»Ð¾ÑĤ Ð¾Ð¼
ĠÑĨÐµÐ» Ð¾Ð¼
ĠÑĥÐ³ Ð»Ð¾Ð¼
ĠÐºÑĥÐ· Ð½Ð¸ÑĨÑĭ
ĠÑģÐ¾Ð¿ÑĢÐ¾Ð²Ð¾Ð¶Ð´ ÐµÐ½Ð¸Ð¸
ĠÐ±ÑĢÑĭÐ· Ð³
ĠÑģÑĤ Ð¸Ð¼
ĠÐĺ Ð´Ðµ
Ð¿ÐµÑĢ Ð²ÑĭÐµ
Ð¡ Ð»ÑĥÑĪ
ĠÐ²Ð·Ð³Ð»Ñı Ð´Ðµ
ĠÑģÐ´ÐµÐ» Ð°ÐµÑĤ
ĠÐ¿ÑĢÐ¾Ð´Ð¾Ð»Ð¶ Ð°ÐµÑĤ
ĠÑĢÐµÑĪ Ð¸Ð»Ð°
Ġa r
ĠÑĢÑıÐ´ Ð¾Ð²
ĠÐ·Ð°Ð» Ð¾Ð¶
ĠÐ¼Ð¾Ñī Ð½Ð¾ÑģÑĤÑĮ
ÑģÑĤÐ²Ñĥ Ñı
ĠÐ³ÑĢÐ°Ð½ Ð¸ÑĨÐµ
ĠÐ²Ð¾ÑģÑģÑĤ Ð°Ð½Ð°Ð²Ð»Ð¸Ð²
ĠÐ¿Ð»Ð¾ÑīÐ°Ð´ ÐºÐµ
ĠÐŁÐ¾Ð¶Ð¸ÑĢ Ð°ÑĤÐµÐ»Ð¸
ĠÐĺÑģ ÑģÑĤÐ²Ð°
ĠÐ²Ð·Ð¼Ð°Ñħ Ð¾Ð¼
ĠÐ¿ÑĥÑģÑĤÐ¾ÑĤ Ð½ÑĭÐµ
ĠÑĦÐ»Ð°Ð½ Ð³
ĠÐ¼ÑĥÑģ Ð¾ÑĢ
ĠÐłÐ¾Ð± Ð°ÑĥÑĤ
s e
Ġ C
ĠÑĢ ÐµÐºÐ¸
ĠÑĢ Ð¾Ð»Ð¸
Ð°Ð½ÑĤ Ð¸ÐºÐ°Ð½
Ð¸ÑģÑĤ ÑĭÐ¼Ð¸
ĠÐŃ Ð¼Ð¾Ñģ
ÑĢÐ¾Ð½ ÑĥÑĤ
ĠÐ°ÑĢ ÑĤÐµÑĢ
ĠÑĥÐ¼ Ð¾Ð»
ĠÐºÐ°Ð¼ ÐµÐ½Ð½ÑĭÑħ
ĠÑĥÐ¶Ð°Ñģ Ð½Ð¾Ðµ
ĠÑĤÐ¾Ñĩ Ð½Ð¾ÑģÑĤÑĮÑİ
ĠÐ½Ð°ÑģÑĤÑĥÐ¿ Ð»ÐµÐ½Ð¸Ñı
Ð»ÑıÑİÑī Ð¸Ðµ
ĠÐ¡Ð¼ÐµÑĢ ÑĤÑĮ
ĠÐ²Ð»Ð°Ð´ ÐµÐ½Ð¸Ñı
ĠÐ¿ÑĢÐ¸Ð¶ Ð¸Ð¼
ĠÑĢÑĥÐºÐ¾ ÑıÑĤÐ¸
ĠÐļÐ¾Ð³ ÑĤÑı
ÐºÐ¾ÑĢ Ð¸ÑĦ
ĠÐ¾Ð±Ð¾Ð¶ Ð¶
Ð» Ð¸Ð¿
ĠÐ¾ ÑĪ
ĠÐ´ Ð¸ÑģÐº
Ð¾Ð½ ÑĤÑĢ
ĠÑĢ Ð¾Ð¶Ð´ÐµÐ½Ð¸Ñı
ĠÐľ Ð¾Ñı
ĠÑģÐ¿ Ð»ÑİÐ½ÑĥÐ»
ĠÑĥÐ± Ð¸Ð²Ð°Ð»
ĠÐ¿ÑĢÐ¸Ðº Ð»Ð°Ð´
ĠÐ²Ð¾Ð¹ Ð½Ð¾Ð¹
ÑĤÑĥ ÑĢÑĥ
ĠÐ´ÑĥÐ¼ Ð°ÐµÑĤÐµ
ĠÐ¾Ð±ÑĢÐ°Ð· Ñĭ
ĠÐ¾ÐºÑĢÑĥÐ¶ Ð¸Ð»Ð¸
ĠÐ¾Ð¿Ð°Ñģ Ð½Ð¾
ĠÐ´Ð¾Ð»Ð³ Ð°
Ġb y
ĠÑĦÐ¾ÑĢÐ¼ Ð°
ĠÐ¾ÑĤÐºÑĢÑĭÐ» ÑģÑı
Ġin to
ĠÑĥÐ´Ð¾Ð²Ð¾Ð»ÑĮ ÑģÑĤÐ²Ð¸ÐµÐ¼
ĠÑĥÐ·Ð½Ð° ÐµÑĤ
ÑģÑıÐ³ Ð°ÐµÐ¼Ð¾ÑģÑĤÐ¸
ÐĶÐ°Ð² Ð°Ð¹
ĠÐ¼ ÐµÑģ
ÐµÑĤ ÑĢ
ĠÐ¾ÑĤ Ð´Ð°
ĠÐ¸Ð· Ð½Ð°Ñĩ
ĠÐ¡ ÐµÐ²Ð°ÑĤÐ°ÑĢ
ĠÐŁ Ð¾Ð²ÐµÑĢ
ĠÐĿ ÑĥÐ¶Ð½Ð¾
ĠÐ¾ÑĤÐ²ÐµÑĤ Ð¸Ð»Ð¸
Ð¸ÑĢÐ¾Ð²Ð°Ð½ Ð¾
ĠÑĩÑĥÐ² ÑģÑĤÐ²Ð¾Ð¼
ĠÐ¿Ð°ÑĢ Ñĭ
ĠÐ¿Ð¾Ð½Ð¸Ð¼ Ð°Ð½Ð¸Ñı
ĠÐ¿Ð¾ÑĤÐµÑĢ ÑıÐ²
ĠÐ¼Ð¾Ð½ Ð¸ÑĤÐ¾ÑĢ
ĠÐ°Ð² ÑĤÐ¾ÑĢ
ĠÐ½Ð°Ð±Ð»ÑİÐ´ ÐµÐ½Ð¸Ñı
ĠÐ¾Ð³Ð½ ÑĳÐ¼
ĠÑģÐ¾ÑģÑĢÐµÐ´Ð¾ÑĤÐ¾Ñĩ Ð¸ÑĤÑĮÑģÑı
ĠÐ¼Ð¸ÑģÑģ Ð¸Ñı
ĠÐ½Ð°Ð·Ð½Ð°Ñĩ ÐµÐ½Ð¸Ñı
ÐľÐ°ÑĢ Ð´ÑĥÐº
ĠÐ¿ÑĢÐµÐ´Ð² ÐºÑĥÑĪ
ĠÐ¿ÑĢÐ¾Ð´Ð²Ð¸Ð¶ ÐµÐ½Ð¸Ðµ
ĠÐ´Ð¾ÑĢ Ð¾Ð³Ð¾
ĠÐĶ Ð²Ðµ
ĠÐ¿Ð» Ð°Ð½Ð°
ĠÐ¿Ð¾Ðº Ð°Ð»
ĠÐ¿Ð¾Ðº Ð»ÑıÐ»ÑģÑı
ĠÑĨ Ð¸ÑĦ
Ðĺ ÑģÐ¿
ĠÐ¸Ð½ ÑĤÐµÐ½
ĠÐ¿Ð¾ÑĢ ÑĤÐ°Ð»
ĠÐĲÑĢ ÐºÐ°Ð´
ĠÐ±Ð¾Ð»ÑĮÑĪ ÐµÐ³Ð¾
ĠÐ¿Ð¾ÑıÐ² Ð»ÐµÐ½Ð¸Ðµ
ĠÑģÐ»Ð°Ð± Ð¾ÑģÑĤÐ¸
ĠÐ¦ ÐµÐ¿
ĠÐ´ÐµÑģÑıÑĤ Ð¾Ðº
ĠÑģÐºÐ¾Ð»ÑĮÐ· Ð½ÑĥÐ»
ĠÐļÐ¾Ð³ ÑĤÐ¸
ĠÐĶÐµÑģÐ°Ð½ÑĤÐ½Ð¸Ðº Ð¸
ĠÑĢÐ°Ð·Ð¾Ð± ÑĢÐ°ÑĤÑĮ
ĠÐ¼ÐµÑħÐ°Ð½Ð¸Ð·Ð¼ Ð¾Ð²
ĠÐ¿ÐµÑģÐº Ð°
ĠÑĤÑİ ÑĢÐµÐ¼
ĠÑĤÐ¾ÑĢÐ¾Ð¿ Ð»Ð¸Ð²Ð¾
Ð¸Ð² ÑĪÐµÐµ
Ð°Ð² Ð°Ñı
ĠÐ¸Ð· Ð»Ð¸ÑĪ
ĠÐ¢ Ð°ÑĢÐ¸Ðº
ĠÐ¢ Ð·Ð¸Ð½
ĠÐł Ð¾ÑģÑģÐ°
Ðľ Ð¸ÑĢ
ĠÐ²ÐµÑĢ Ð½ÐµÑĤÑģÑı
ĠÐºÐ¾Ð» Ð»ÐµÐ³
ĠÐºÐ°Ð¼ ÐµÐ½Ð½ÑĭÐµ
ĠÐ²ÑģÐ¿ Ð¾Ð¼Ð¾Ð³
ĠÐ½ÑĥÐ¶ Ð´Ñĭ
Ġthe ir
Ð¾Ð·Ð½ ÐµÑģ
ĠÐ¿ÑĢÐ¾ÑħÐ¾Ð´ Ð°
ĠÑģÐ¿Ð°Ñģ ÐµÐ½Ð¸Ðµ
ĠÐ¿ÑĢÐ¾ÐºÐ»ÑıÑĤ Ð¸Ñı
ĠÐ²ÑģÐ¿ÑĭÑħ Ð½ÑĥÐ»Ð°
ĠÐ°ÑģÑĤÑĢÐ¾Ð¿ Ð°ÑĤÐ°
ĠÑģÑĦ Ð¾ÐºÑĥÑģ
ĠÐ¼ÑĥÑģÐº ÑĥÐ»
ĠÐ²Ð¸Ð·Ð³ Ð¾Ð¼
ĠÐĽÐµÐ¼ ÑİÑįÐ»ÑĮ
ĠÑĤÑĢÐ°Ð½ÑĪÐµ Ð¸
ĠÐĲÑĢÐ°Ð¼ ÑĥÑģ
0 1
ĠÐ² ÐµÑģÑĤ
Ð°Ð» Ð¼
ÐµÑĢ ÑıÐ½
ĠÑĤ ÑĢÐµÐ¼Ñı
Ð¾ÑĢ Ñĩ
ĠÐĴ ÑģÐµÐ¼
ĠÑĢÐ°Ð· Ð¶
ÐµÑģÑĤ ÑĢ
ĠÐ´Ð¾ ÑģÑıÐ³Ð°ÐµÐ¼Ð¾ÑģÑĤÐ¸
ĠÐ¿Ð¾Ð²ÐµÑĢ Ð³
ĠÑĤÐµÑĢ ÑıÑĤÑĮ
ĠÐ·Ð°Ñģ Ð¼ÐµÑıÐ»ÑģÑı
ĠÐ½ÐµÐºÐ¾ÑĤÐ¾ÑĢ ÑĭÐ¼
ĠÐºÑĢÐ¾Ð²Ð°Ð² Ð¾Ð¹
ĠÐ²Ð¾Ð¾ÑĢÑĥÐ¶ ÐµÐ½Ð½ÑĭÑħ
ĠÐ³Ð²Ð°ÑĢÐ´ Ð¸Ð¸
ĠÐ¿ÑĢÐ¾Ð½Ð· Ð¸Ð»
ĠÐ¾ÑĤÐºÑĢÑĭÐ² Ð°Ñı
ĠÐ½ÑĢÐ°Ð² Ð¸Ð»Ð¾ÑģÑĮ
ĠÐ½Ð°Ð²Ð¸Ð³ Ð°ÑĤÐ¾ÑĢÐ°
ĠÑİÐ½Ð¾ÑĪ Ð°
ĠÑģÐ°Ð¼Ð¾ÑģÑĤÐ¾ÑıÑĤÐµÐ»ÑĮ Ð½Ð¾
ĠÐ¾ÑĤ Ð¼Ð°Ñħ
ĠÐŀ ÐºÐµ
ĠÑĪ Ð»Ð¾
ĠÐ¿ÑĢÐ¾ ÐµÐº
ĠÐ¥ Ð¸ÑĢ
ĠÐ½Ð°Ð¿ ÑĢÐ°Ñģ
ĠÐ±ÐµÐ· Ð¼
Ðĵ Ð°ÑĢ
ĠÐ¿Ð¾ÑĢ ÑĪ
Ðĳ ÐµÐ»Ð»
ĠÐ¿ÑĢÐ¾ÑĤÐ¸Ð² Ð¾Ð²
ÑİÑī Ð¸Ð¼
ĠÐ¨ Ð°Ð´
ĠÐ»ÐµÑĤ ÐµÐ»Ð¸
ĠÐ¿Ð¾ÑģÑĤ Ð¸Ð³
ĠÑģÑĤÐ¾Ð» Ñĥ
ĠÐ²Ð½ÑĥÑĤÑĢÐµÐ½ Ð½Ð¸Ñħ
ĠÐºÑĢÐ¾Ð²Ð°Ð² Ð¾
ĠÐ±Ð¸Ð±Ð»Ð¸ Ð¾ÑĤÐµÐº
ĠÐ¿ÐµÑī ÐµÑĢ
ĠÐ¤ÐµÐ½ Ð¸ÐºÑģ
ĠÐ¿ÐµÑĢÐµÐ¶ Ð¸ÑĤÑĮ
ĠÐľÐ°Ð³Ð¸ÑģÑĤÑĢ Ð°
ĠÐ¼Ð°Ð½ÑĤ Ð¸Ð¸
ĠÐ¼ÑıÑģ Ð¾
ÐļÑĢÐ¾Ð² ÑĮ
ĠÐ¾ ÑĨÐµÐ¿
Ð¼ Ð¸Ð½Ð°
ÑĪ Ð¸Ð½
ĠÐ¼ Ð¸Ð¼
Ð¾Ð´ Ð¸
Ð³ ÑĥÑģÑĤ
ĠÐ» ÐµÐ¿
ĠÐĴ Ð¸Ð»
ĠÐĿ Ð°ÑģÐºÐ¾Ð»ÑĮÐºÐ¾
ÑĭÐ² Ð°Ð»Ð¾ÑģÑĮ
ÑĭÐ² Ð°ÑİÑīÐ¸Ðµ
Ð½Ðµ ÑĨÐ°
ĠÐķ ÑĢÐµÑĤ
ĠÐ½Ð°Ð´ ÐµÐ¶Ð´Ñĥ
Ðĵ Ð°ÑĥÐ½ÑĤ
ĠÐ¾ÑĤÐº ÑĢÐ¾
ĠÑģÐ²ÐµÑĢ ÑĪ
ĠÐ³ÑĢÑĥÐ´ Ñĭ
ĠÐ¾ÐºÑĢÑĥÐ¶ ÐµÐ½Ð¸Ð¸
ĠÐ³Ð¾ÑĢÐ¾Ð´ Ñĥ
ĠÐ´Ð¾Ð»Ð³ Ð¸Ñħ
ĠÑĢÐ¾Ð´ Ð½Ð¾Ð³Ð¾
ĠÑĪÑĥÐ¼ Ð°
ĠÐ¿Ð¾Ð»Ð¾Ð² Ð¸Ð½Ñĭ
ĠÐ²ÐµÑĢÑĪ Ð¸Ð½Ñĭ
ĠÐ¿ÑĢÐ¸ÑĤ Ð²Ð¾ÑĢ
ÐļÐ¾ ÑĢÐ°Ð±Ð»ÑĮ
ĠÐĴÐ¾Ð»ÑĩÑĮ ÐµÐ³Ð¾
Ð» Ñĳ
ĠÐ² Ð¾Ð³
Ñĩ ÑĥÑĢ
ÑĪ ÑĥÑİÑģÑı
Ð»Ð¸ Ð½Ñĭ
ĠÑĢÐ°Ð· ÑĢÐ°Ð·
ĠÐ¾Ð´ Ð¾Ð»
ĠÑģÐ¼ Ð°Ð·
ĠÐ¿Ð¾ÑĤ ÐµÑĢÑĮ
ÐĶ Ð¾ÑĢÐ½
Ð¸Ð¿ ÐµÐ»Ð°
ÑĢÐ¾ Ñĥ
ĠÐ·Ð°ÑĤ Ð°
ĠÐ½Ð¸Ñĩ ÑĥÑĤÑĮ
ĠÐĿÐ° Ð°Ð¼Ð°Ð½
ĠÐ¼ÐµÑĩ ÑĤ
ĠÑĪÐ°Ð³ Ð°Ð»
ĠÐ¾ÑĤÑģ ÐµÐºÐµ
ÑĤÐ¾Ð» ÐºÐ½ÑĥÐ»
ĠÐ¸ÑģÐºÑĥÑģ ÑģÑĤÐ²Ð°
ĠÐ½Ð°ÑĤ Ñı
ĠÐ¿Ð¾Ð·Ð¸ÑĨ Ð¸Ð¹
ac e
ĠÐ¿ÑĥÑĤÐµÑĪÐµ ÑģÑĤÐ²Ð¸Ðµ
ĠÐ½Ð°Ð¿ÑĢÑıÐ³ ÑģÑı
ĠÑģÐ¾Ð¶Ð°Ð» ÐµÐ½Ð¸Ñİ
ĠÐ½Ð°ÑģÐµÐºÐ¾Ð¼ ÑĭÑħ
ĠÑĢÐ²Ð°Ð½ÑĥÐ» ÑģÑı
ĠÐºÐ²Ð°Ð´ ÑĢÐ°ÑĤ
ĠÐ² ÑĢÑĥÑĩ
ĠÐ¼ ÑĥÐ·Ñĭ
Ð¿ ÐµÐ»
ĠÐ» Ð°Ð½Ð´ÑĪÐ°ÑĦ
ĠÑĢ ÐµÐ»ÑĮ
ĠÑį Ð»
ĠÐĿ ÐµÑĩ
ĠÐ¢ Ð¸ÑĦ
Ð¸ÑĨ Ð¸Ð¹
ĠÐ¿Ð¾Ð¼ Ð¾ÑĢÑī
ĠÐ¼Ð¾ Ñĳ
ĠÐ·Ð°Ðº ÑĢÑĥÐ¶
ĠÐ½ÑĥÐ¶ Ð´Ð°Ð»ÑģÑı
Ð¾Ð²Ð°Ð½ Ð¸Ñİ
ĠÑĤÐ²Ð¾ ÐµÐ¼
ĠÐ¾ÑģÐ½Ð¾Ð² Ð½ÑĭÑħ
ĠÐ¾ÑĤÐ¿ÑĢÐ°Ð² Ð¸Ð»Ð¸ÑģÑĮ
ĠÐ¿Ð¾ÑħÐ¾Ð¶ Ð¸Ð¼
ĠÐ¿ÑĢÐ¾ÑĢ Ð¾Ñĩ
ĠÐ¾Ð±Ñī ÐµÐ³Ð¾
ĠÐ¿Ð»Ð¾ÑīÐ°Ð´ ÐºÑĥ
ĠÐĴÑģ ÐµÐ»ÐµÐ½Ð½Ð¾Ð¹
ÑĥÐ»Ð¸ ÑĢÐ¾Ð²
ĠÐŀÑĢÐ´ÐµÐ½ Ð¾Ð²
ĠÐĶÐµÑģÐ°Ð½ÑĤÐ½Ð¸Ðº Ð¾Ð²
ĠÐºÐ°Ð¿ÑİÑĪ Ð¾Ð½Ð¾Ð¼
Ð¡Ð»Ð¾Ð² Ð°
ĠÐ¿ ÐµÑĩÐ°ÑĤ
ĠÐ¿ ÑĥÐ»Ñı
ĠÐ´ Ð¾Ð²Ð¾Ð»ÑĮ
ĠÑĤ Ð¸ÑĤ
ĠÑĩ Ð¸Ð½Ð¾Ð²
Ð°Ð»ÑĮ ÑĨÑĭ
ÑĥÐ´ Ð°ÑĢ
Ð½Ð¸Ðº Ð°Ñħ
ÑĢÐ¸ Ð¸Ð¼
ĠÐ¿Ð¾Ð· Ð°Ð±Ð¾ÑĤ
ĠÐ»Ð¸ÑĨ Ð°Ñħ
ĠÑģÐ¾Ð· Ð´Ð°Ð»
ĠÐ¾ÑĤÐ¿ ÑĥÑģÑĤÐ¸Ð»
ĠÐ²ÐµÐ´ ÑĥÑĤ
ĠÑģÑĥÐ´ Ð¾ÑĢÐ¾Ð³
ĠÑĥÐ´Ð¸Ð² Ð»ÐµÐ½Ð¸Ñİ
ĠÐ²ÑģÑĤÑĢÐµÑĤ Ð¸Ð»Ð¸
ĠÐ²Ð¾Ð¾ÑĢÑĥÐ¶ ÐµÐ½Ð¸Ñı
Ð½Ð¾Ðº ÑĢÐ¾Ð²
ÑģÐ² ÐµÐ¹Ð½
ĠÐ»Ð°Ð·Ð³ Ð°Ð½Ð¾Ð²
Ð¸ ÑĢÐ°Ð²
ĠÑģ ÑĨÐµÐ¿
ĠÐ² ÑĥÐ»ÐºÐ°Ð½
Ñĩ ÐµÐ»Ð¾Ð²ÐµÑĩÐµÑģÐº
ĠÐ¸ ÑĢÐ¾Ð½
ĠÐľ Ð¸Ðº
ĠÐĵ ÐµÑģÑģ
ĠÐĳ Ð°Ð³ÑĢÐ¾Ð²
ÑĥÐ± Ð°
ÑĢÐ°Ð¼ Ð¼
ĠÐ·Ð°ÑĤ ÑĥÐ¼Ð°Ð½
ĠÐ¿Ð¾Ð·Ð²Ð¾Ð» ÑıÐµÑĤ
ĠÐ¾ÑĤÐºÑĢÑĭ ÑĤÐ¾Ðµ
ĠÐ´ÐµÑĢÐ¶ Ð°Ð»Ð¸ÑģÑĮ
ĠÐ¾ÑĤÐºÑĢÑĭÑĤ ÑĭÐ¹
ĠÐ½Ð°Ð¿Ð¾Ð»Ð½ Ð¸Ð»ÑģÑı
ĠÐ³Ð²Ð°ÑĢÐ´ÐµÐ¹ ÑĨÐ°
ĠÑĪÐ°Ð½Ñģ Ð¾Ð²
ĠÑĤÐ¾Ð²Ð°ÑĢÐ¸Ñī Ð¸
ĠÐ´Ñĥ ÑĢÐ°Ðº
ĠÐ¾Ð³Ð½ ÐµÐ½Ð½ÑĭÐ¹
ĠÐ¡Ð°ÑĢÐ¿ÐµÐ´ Ð¾Ð½Ð°
ĠÐ½ÐµÐ²ÐµÑĢÐ¾ÑıÑĤ Ð½Ð¾Ð¹
ĠÐĴÐµÐ½ÑĤ ÑĢÐ¸Ñģ
ĠÐ±ÑĥÐ¼ Ð°Ð³Ð¸
ĠÐ²Ð°ÑĢÐ¸ Ð°Ð½ÑĤ
ĠÐ¢Ð°Ð´Ð´Ðµ ÑĥÑĪ
Ð¾Ð³Ð°ÑĢ ÑģÑĤ
ĠÑģ Ð°Ð±
Ð¹ ÑģÑı
ĠÐ¿Ð¾ ÑıÑģÐ½Ð¸Ð»
ĠÐ¿Ð¾Ñģ ÐµÑī
Ð¸ÑĢÐ¾Ð²Ð°Ð½ Ð½ÑĥÑİ
ĠÐ²Ð·Ð³Ð»ÑıÐ´ Ð°Ð¼Ð¸
ĠÑıÑĢ ÐºÐ¸Ð¼
ĠÐºÐ¾ÑĢÐ°Ð±Ð»Ñı Ñħ
ĠÐ²Ð·ÑĢÑĭÐ² Ð¾Ð¼
ĠÐĴÐ°ÑĢ ÐºÐ¾
ĠÑĪÐ¸ÑĢÐ¾Ðº Ð¸Ðµ
ĠÑĥÑĩÐ°ÑģÑĤ Ð¾Ðº
ĠÑĩÐµÐ»Ñİ ÑģÑĤ
ĠÐ½ÐµÐ³ Ð¾Ð´
Ðº ÑĤÐ¾
Ð¼ Ð¸ÑĤ
ĠÐ´ Ð½ÐµÐ²
ĠÑĤ ÑĢÐ°Ð³
ĠÑĥ Ð´ÑĥÑĪ
ĠÐ½Ðµ Ð¾Ð´
Ð¾Ðº Ð¸
ĠÐĶ ÑĥÐ¼
ĠÐĵ Ð°ÑĥÐ½
ĠÐ¾Ð¿ Ð¾ÑĢÑĭ
Ð¸Ð²ÑĪ Ð¸Ð¼Ð¸
ÑĤÐµÑĢ Ð°
ĠÐ¿Ð¾Ð¿ Ð¾Ð»Ð·
ÑĥÑģÐº Ð°Ñı
ĠÐ·Ð°Ð± Ð°Ð²
ĠÐ´ÑĢ Ð°ÑĤÑĮÑģÑı
ĠÐ¸Ð¼Ð¿ÐµÑĢ ÑģÐºÐ¸Ð¹
ĠÐ²ÑģÑĤÑĢÐµÑĩ Ðµ
ĠÑĥÑĢÐ¾Ð² Ð½Ð¸
ĠÐºÐ°Ð½ Ð¾Ð½
ĠÑģÐ¿Ð¾ÐºÐ¾Ð¹ ÑģÑĤÐ²Ð¸Ðµ
ĠÐ¾ÑĤÑĢÑıÐ´ Ð¾Ð²
ĠÐ¼Ð°ÑĢÑĪ ÑĢÑĥ
ĠÐĴÐ· ÑĢÑĭÐ²
ĠÐ¿Ð¾Ð»Ð½Ð¾Ð¼ Ð¾Ñĩ
ĠÑģÐµÐºÑĤÐ¾ÑĢ Ðµ
ĠÑģÑĤÑĥÐ¿ÐµÐ½ ÑıÐ¼
Ð» Ð¸ÑĤÑĮ
ĠÑģ ÐµÐ½
Ð¸ÑĤ ÑĥÑģ
Ð¾ÑĤ Ð¾Ð·Ð²
Ð¸Ð² Ñĭ
ĠÐŃ Ð¼
ĠÐ·Ð°Ðº ÑĥÑĤ
ĠÐ½Ð°Ðº Ð¾Ð½ÐµÑĩ
ĠÑĥÑģ Ð¸Ð»Ð¸ÐµÐ¼
ĠÐ¿Ð»Ð¾ÑĤ ÑĮÑİ
ĠÐ½Ð°ÑģÑĤ Ð¸Ð³
ĠÑħÐ¾ÑĢÐ¾ÑĪ Ð¸Ð¹
ĠÐ¿ÑĢÐ¾Ñģ ÐºÐ¾Ð»ÑĮÐ·
ĠÐ²Ð¾ÑģÐ¿ ÑĢÐ¸ÑıÑĤ
Ð²Ð¸Ð³ Ð°ÑĤÐµÐ»Ð¸
ĠÐ±ÐµÐ³ Ñĥ
ĠÑĤÐ¾Ð»ÑģÑĤ ÑĭÐµ
ĠÐºÐ¾Ð½ÑĤÑĢÐ¾Ð» Ð¸ÑĢÐ¾Ð²Ð°ÑĤÑĮ
ĠÑģÐ²Ð¾Ð´ ÑĩÐ°ÑĤ
ĠÑĢÑĭÑĨÐ°ÑĢ Ñı
ĠÑĦÐ»Ð°Ð³ Ð¼Ð°Ð½Ð°
ĠÑĢÐ¾Ðº ÑĢÐ¸ÑĤ
ĠÐ»Ð¾Ñı Ð»ÑĮ
ĠÑĩÐ¸ÑģÐ»ÐµÐ½ Ð½Ð¾ÑģÑĤÑĮ
ĠÐ½ÐµÐ·Ð°Ð¼ ÐµÑĩ
k ing
Ġ 7
Ñģ Ð°Ð»Ð¸
ĠÑģ Ð½Ð¾Ð²
Ð² ÑıÑĤ
Ð¸Ð» Ð¸ÑĤ
ÐĴ Ð¾Ð»
ÑĢÐ°Ð½ Ð°
Ð¢ ÑĥÑĤ
ĠÐºÐ¾Ð» Ð¾Ð´
ĠÐ¿ÑĢÐ°Ð² Ñĭ
ĠÑĪÐ¸ÑĢ Ðµ
Ð¾Ð±ÑĢÐ°Ð· Ð¸ÑĤÑĮ
ĠÐ±ÐµÐ¶ ÐµÐ½ÑĨÐµÐ²
ĠÑģÑĤÑĢÐµÐ» ÑıÐ»
ĠÐ²Ð¾Ð·Ð²ÑĢÐ°Ñī Ð°ÑĤÑĮÑģÑı
ĠÐ¾ÑĢÐ±Ð¸ÑĤ Ð°Ð»ÑĮÐ½Ð¾Ð¹
ĠÐ¿Ð¾Ð¸Ñģ ÐºÐ¸
ĠÐ²ÐµÑĢÐ¾ÑıÑĤ Ð½Ð¾ÑģÑĤÑĮ
ĠÐ¿ÑĢÐµÑĤ ÐµÐ½Ð´
ĠÐ²Ð¿ÑĢÐ°Ð² Ð¾
Ð² Ð°ÑģÑĤ
ĠÑĥ ÑĪÐµÐ¹
ĠÐ¿Ð¾Ð´ Ð°Ð²Ð¸Ð»
ĠÐŁ Ð»Ð°Ð¼
ĠÑħ Ð¾ÑħÐ¾ÑĤ
ĠÐľ Ð°ÑĤ
ĠÐľ ÐµÑģÑĤ
ÐŁ ÐµÑĢÑĤÑĥÑĢÐ°Ð±Ð¾
Ñį ÑĤÐ¾
ÑĥÑģÑĤ Ð¸Ð²
ĠÐ¿ÑĢÐ¸Ñģ Ð»Ð¾Ð½
ÐŁÑĢ Ð¾Ð´Ð¾Ð»Ð¶
ÐµÐ¿ÑĤ Ð°Ð»Ð°
ĠÑĥÑģÐ¿ ÐµÐ»Ð°
ĠÐ¿Ð¾ÑĤÐµÑĢ ÑıÑĤÑĮ
ĠÐ¶Ð¸Ð·Ð½ ÐµÐ½Ð½Ð¾
ĠÐ¿ÑĢÐ¾Ð¿ Ð¸ÑĤÐ°Ð½
ĠÑĢÐ°Ð·Ð²ÐµÑĢ Ð½ÑĥÐ»Ð°ÑģÑĮ
ĠÐ·Ð°Ñħ Ð¾ÑĤÐµÐ»
ĠÐ´ÑĢÐ¾Ð¶ Ð°Ð»
Ð¾Ð¼Ð°Ð½Ð´ Ð¾Ð²Ð°Ð»
ĠÐ¿Ð¾ÑģÐ¿ÐµÑĪ Ð¸Ð»
ĠÐ¶Ð°Ð¶ Ð´Ñĥ
ĠÐŃÐ¹Ð´ Ð¾Ð»Ð¾Ð½
ĠÐºÐ¾Ð½Ð² ÑĥÐ»ÑĮÑģ
ĠÐ· Ð»Ð°
Ð¾Ð½ Ð°Ð¼Ð¸
Ð¾Ðº Ð¸Ð¹
ĠÐ²Ñĭ ÑĢÐ°ÑģÑĤ
ĠÐ¿Ð¾Ð´ ÑģÑĤÑĥÐ¿
ĠÐ¿Ð¾Ð» ÑĥÐ´
ÐĴ Ð¾Ð¹
ÐĿ Ðĺ
Ðĵ ÑĢÐ¸Ð¼
ĠÐ¸ÑģÐº ÑĥÐ¿
ĠÐ·Ð°Ð² Ð¾Ð¿Ð¸Ð»
ĠÐ½ÐµÐ´ Ð¾Ð»Ð³Ð¾
ĠÐ¿ÑĥÑģÑĤ ÑĭÐµ
ĠÐ´Ð°Ð² Ð°Ð»Ð¸
ĠÑĢÐ°Ð´ Ð¾ÑģÑĤÑĮ
ĠÐ±Ð¾Ð»ÑĤÐµÑĢ Ð¾Ð¼
ĠÑĥÑĤ ÑĢÐ¾Ð¼
ĠÐ¼ÑĢÐ°Ñĩ Ð½Ð¾Ð¹
ĠÐ´ÑĭÑħ Ð°Ð½Ð¸Ñı
ÐĴÐ¾ Ð¸Ð½Ñĭ
ĠÐ²ÐµÑĩ Ð½Ð¾ÑģÑĤÑĮ
ĠÑģÐ¾Ð¿ÑĢÐ¾ÑĤÐ¸Ð² Ð»ÑıÑĤÑĮÑģÑı
ĠÑĥÐ±ÐµÐ´ Ð¸ÑĤÑĮ
ĠÑģÐ¾ÑĢÐ² Ð°Ð»
ĠÑĢÐ°Ð·Ð¼ÑĭÑĪ Ð»ÑıÐ»
ĠÑĩÐµÑģÑĤ ÑĮÑİ
ĠÐ½ÐµÑĥÐ´Ð° Ñĩ
ĠÐ¿ÑĢÐµÐ´ÑĥÐ¿ÑĢÐµÐ¶Ð´ ÐµÐ½Ð¸Ñı
ĠÐĳÑĥÑĢÐ¸ Ð°Ñģ
ĠÐ¢Ð°Ð½Ðº ÑĢÐµÐ´
Ðµ ÐµÐ²
Ñī Ð¸Ðµ
ĠÐ¿Ð¾Ð´ Ð¾Ð¹ÑĤÐ¸
ĠÐ¶ ÐµÐ·
ĠÐºÑĢ Ð°ÐµÐ¼
ĠÑģÐ¿ ÑĢÑĭÐ³Ð½ÑĥÐ»
Ðļ ÑĥÐ´Ð°
ĠÐ¥ Ð°Ð½
ĠÐ¿ÑĢÐ¾ÑģÑĤ ÑĭÐ¼
ĠÐ½ÐµÐ¿ Ð¾Ð²
ĠÑģÐ´ÐµÐ» Ð°Ñİ
ĠÐ¶Ð¸Ð² Ñĭ
ĠÐ´Ð²Ð¸Ð¶ ÐµÑĤÑģÑı
ĠÐ¿Ð¾Ð¿ÑĭÑĤ Ð°Ð»Ð°ÑģÑĮ
ĠÐ´Ð»Ð¸Ð½ Ð½Ð¾Ð¹
ĠÑģÐ¼ÐµÑĢÑĤ Ð½Ð¾Ð³Ð¾
ĠÐ´Ð¾Ð»Ð³ Ð¸Ð¹
Ð¸Ð³Ñĥ ÑĢÐ°
ĠÐ¿ÐµÑĢÐµÐº ÑĢÑĭÐ²
ĠÑģÐ½Ð°ÑĢÑıÐ´ Ð°Ð¼Ð¸
ĠÐºÑĢÐ¸Ðº Ð°Ð¼Ð¸
ĠÑģÐ»ÐµÐ´ÑĥÑİÑī ÑĥÑİ
Ġd e
ĠÑģÐ¾Ð´ÐµÑĢÐ¶ Ð¸Ð¼Ð¾Ðµ
ÐĿÐ¸Ðº Ð°Ðº
ĠÑĢÐ¾Ð² Ð½Ð¾
ĠÐ¾ÑĤÑĤÐµÐ½ Ð¾Ðº
ĠÑĪÐºÐ² Ð°Ð»
ĠÐ²ÑĭÐ½ÑĥÐ¶Ð´ ÐµÐ½Ñĭ
Ð» ÑĭÐ¼Ð¸
Ðº Ð°Ð¿
ĠÐ¼ Ð¸ÑĪ
Ð½Ð¾ ÑĢÐ¸ÑĢÑĥ
ÐµÐ² Ð¾Ð·
ÐµÑĩ Ð½Ð¾Ð¹
ÐµÐ³ Ð¸
ĠÐĶ ÐµÑĢÐ¶
ĠÐ¾Ñģ Ð½Ð°
ĠÐ²ÑĢÐ°Ð³ Ð°Ð¼
ĠÐ½Ð°Ðº ÑĢÐµÐ½
ĠÐ²ÑģÑĤÑĢ ÑıÑħ
Ð°Ñī Ð¸Ð¼Ð¸
ĠÐ²ÐµÐ´ Ð¾Ð¼
ĠÐ·Ð°Ñģ ÐµÐº
Ð¸ÑĦ Ð¸Ðº
ĠÑĢÐ°ÑģÑĤ ÐµÐº
ĠÐºÑĢÐ¸Ðº Ð¾Ð¼
ĠÐ¿Ð¾Ð´Ð¾ÑĪ Ð»Ð°
ÑģÑĤÐ²ÑĥÑİÑī Ð¸Ð¹
ĠÐ½Ð°Ð¿Ð°Ð´ ÐµÐ½Ð¸Ðµ
ĠÐºÑĢÐ¸Ñĩ Ð°Ð»Ð¸
ÐŁÐ¾Ð» ÐºÐ¾Ð²Ð½Ð¸Ðº
ĠÐ¿ÑĢÐ¾Ð½ÐµÑģ ÑģÑı
ĠÐĶÐµÑģÑı ÑĤ
Ð¾Ð² Ð°Ð»Ð°ÑģÑĮ
ÐµÑĤ Ñĩ
Ð¾ÑĤ ÑĢÐ¾ÑĪ
ĠÐĴ Ð¿ÐµÑĢÐµÐ´Ð¸
ĠÐ¿ÐµÑĢ ÐµÑĩ
ĠÐĲ Ñħ
ĠÐ²ÐµÑĢ ÐµÐ½
ÑıÑī ÐµÐ³Ð¾ÑģÑı
ĠÐ§ ÐµÑĤÑĭÑĢÐµ
ĠÐ¿Ð¾ÑĢ Ð¾Ð¹
Ð»Ð¾Ð½ Ð°
ĠÑıÑĢ ÐºÐ¸Ð¹
ĠÑĥÐ¶Ð°Ñģ Ð½Ð¾
ĠÐ¼ÐµÑĤÐ°Ð»Ð»Ð¸ÑĩÐµÑģÐº Ð¸Ð¼
ĠÐļÐ°Ð» ÑĤ
ĠÐ¿Ð¾ÐºÐ°Ñĩ Ð°Ð»Ð°
ĠÐ¸Ð³ ÑĢÑĥÑĪ
ĠÐ¶Ð´ ÑĥÑĤ
ÑĢÐ¸Ð² ÐµÑĤ
Ð¸Ð¸Ð» ÐµÑĢ
ĠÐ·Ð°Ð½ÑıÑĤ Ñĭ
ĠÑĤÐµÑĢÑĢÐ¸ÑĤÐ¾ÑĢ Ð¸Ñİ
ĠÐĴÐµÐ» ÑĥÐ½Ð´
ĠÐ³Ð¸Ð´ ÑĢÐ°Ð²
ĠÐ¡Ð°ÑħÐ° Ð°Ð»
Ð·Ð°Ð¼ÐµÑĤ Ð¸Ð»
i g
Ð¾ ÑĨ
Ð¸Ð¹ ÑĨÐ°
ĠÐŀ Ð»Ð»
ĠÐĵ ÐµÐºÐ°
ĠÐ²Ð· Ð²Ð¾Ð»Ð½Ð¾Ð²
ÑĢÑı Ð²
ÑıÑī ÐµÐ¼Ñĥ
ĠÐ¿ÐµÑĢÐµÐ´ Ð²Ð¸Ð¶
ĠÑģÐ»ÐµÐ´ Ð¸ÑĤÑĮ
ĠÑģÐ²ÐµÑĤ Ñĥ
ĠÐ¿ÑĢÐµÐ´ÑģÑĤÐ°Ð² Ð»ÐµÐ½Ð¸Ñı
ÑıÐ³ Ñĩ
ĠÐ¿ÐµÑĢÐµÐ² Ð¾Ð´
ĠÐ±ÐµÐ» ÑĭÐ¼
ĠÐºÐ°ÑĢ ÑĮ
ĠÑģÑĤÑĢÑĥ Ð¸
ĠÐ¿ÐµÑģ ÑĩÐ°Ð½
ĠÐºÑĢÐµÑģÑĤ Ð¾Ð²ÑĭÐ¹
il l
us t
ĠÐ½ÐµÐ¿ÑĢÐµÑĢÑĭÐ² Ð½Ð¾
ĠÐ¿ÑĢÐµÐ´Ð°Ð½ Ð½Ð¾ÑģÑĤÑĮ
ÐļÐ°Ð¶Ð´ ÑĭÐ¹
Ð½ Ð°Ñİ
Ð¶ ÐµÐ»
ĠÐ¾ÑĤ ÑģÑĤÑĢÐµÐ»
ĠÐ¾Ð± ÑĢÐ°Ð¼
ÑĦ Ð¸ÐºÑģ
ĠÑĪ ÐµÑĢ
ĠÐĽ Ð¾Ð³
Ð¡ Ð¾Ð±
Ðľ ÐµÐ´
ĠÑĩÐµÑĢ Ð½Ð°Ñı
ÑĥÑī Ð¸Ð¼Ð¸
ĠÑģÑĤÐ°ÑĢ Ð°Ð»Ð¸ÑģÑĮ
ĠÐ´Ð¾Ð» Ð¸Ð½Ñĭ
ĠÑģÐµÑĢÐ´ Ð¸ÑĤÐ¾
ĠÐºÑĢÑĭ Ð»Ð°ÑĤ
ĠÐ¢ÐµÐ¼ Ð½Ð¾Ð³Ð¾
ĠÐ·Ð°Ð¿Ð°Ñħ Ð¾Ð¼
ĠÐ¼Ð¾Ð·Ð³ Ñĥ
ĠÐ³ÐµÐ½ÐµÑĢ Ð°ÑĤÐ¾ÑĢ
ĠÐ·Ð°Ð´Ð°Ñĩ ÐµÐ¹
ĠÐ¸Ð·Ð³ Ð½
ĠÐ²ÑĨÐµÐ¿ Ð¸Ð»ÑģÑı
ĠÐ´Ð¶ÑĥÐ½Ð³ Ð»ÐµÐ¹
Ð´ Ð¸ÑĤÐµ
ĠÐ¸ Ð½Ð¾Ðµ
ĠÐº Ð»Ð°Ð²
ĠÑĤ ÑĥÑĩÐ¸
ĠÑĥ Ð¿ÐµÑĢ
ĠÐļ Ð¾ÑĢÐ´
ĠÐ²Ð¾ ÑĨÐ°ÑĢ
Ð°Ð½ÑĤ Ð¸Ð½
Ðľ Ð°Ð»ÑĮ
ÐĽ Ðŀ
Ð»Ð¸Ð² Ð°Ñı
ĠÑģÑĢÐ°Ð¶ Ð°ÑıÑģÑĮ
ĠÐ¸ÑģÑĤ Ð¸Ð½Ð°
ĠÐ»ÑĥÑĩ ÑĪÐ¸Ð¼
ÐĿÐµ ÑĥÐ¶ÐµÐ»Ð¸
ĠÐ¸ÑģÐ¿Ð¾Ð»ÑĮÐ· ÑĥÐµÐ¼
ĠÑĥÑĤ ÑĢÐ°Ñĩ
ĠÑĥÑģÑĤÑĢ Ð°Ð½
ĠÐ¸Ð´ ÐµÐ¼
Ð²Ð¾ ÐµÐ¼Ñĥ
ĠÐĶÑĢÑĥÐ³ Ð¾Ð¹
ĠÐ¼Ð¾Ð½ÑģÑĤÑĢ Ð¾Ð²
ĠÐ²Ð¾ÑģÑĮ Ð¼Ð¸
ĠÑĪÑĤÑĥÑĢÐ¼Ð¾Ð² Ð¸ÐºÐ¾Ð²
ĠÐ¡Ð¸Ð»ÑĮÐ²ÐµÑĢÑģÑĤ Ð°Ð¹Ð½
u e
Ð°Ð½ ÐµÐµ
Ñį Ð»Ñİ
ĠÐ¼ÐµÑģÑĤ Ð¾Ð¿Ð¾Ð»Ð¾Ð¶
ĠÐ¿ÑĢÐ¸Ð² ÐµÐ»Ð°
ĠÑĢÐµÐ· Ð¾Ð½
ĠÐļÐ°Ðº Ð¾Ð¹
ĠÐ²Ð´ Ð¾ÑħÐ½ÑĥÐ»
ĠÐ¿ÑĢÑıÐ¼ Ð¾Ð¹
ĠÑīÐ¸ÑĤ Ð°
ĠÐºÐ¾ÑĢÐ¿ÑĥÑģ Ñĥ
ĠÐ¾Ð±ÑıÐ· Ð°ÑĤÐµÐ»ÑĮÐ½Ð¾
ĠÐľÐµÑĢ ÐºÑĥ
ĠÐ¿ÑĢÐ¸Ð½ÐµÑģ Ð»Ð¸
ĠÐ¿ÑĢÐµÐ´Ð¿Ð¾Ñĩ ÐµÐ»
ĠÑĤÑĢÐµÑĤÑĮ ÐµÐ³Ð¾
ĠÐļÐ¾Ð¼ Ð¼Ð¾ÑĢ
ĠÐ»ÐµÐ³ÐµÐ½ Ð´Ð°ÑĢ
Ð¾Ð»Ñİ Ð±
ĠÐ²Ð»Ð¸Ñı Ð½Ð¸Ðµ
ĠÐ»Ð°Ð³ÐµÑĢ Ñı
ĠÐĽÐ¸Ð³ ÐµÐ¹
Ð½Ð° ÐµÑĪÑĮ
ĠÐ²ÐµÑĢ Ð½ÑĥÐ»
ĠÐ¨ Ð»ÐµÐ¼
ÐŁÑĢ ÐµÐº
ĠÑĪÐ°Ð³ Ð°Ð¼Ð¸
ĠÑĢÐ°Ð·Ð²ÐµÑĢ Ð½ÑĥÐ»Ð¸ÑģÑĮ
Ð°ÑĤÐµÐ»Ñı Ð¼
ĠÐ¿Ð¾ÐºÑĢÑĭÐ² Ð°Ð»Ð°
ĠÐºÐ¾Ð¼Ð°Ð½Ð´Ð¸ÑĢ Ð¾Ð¼
ĠÐºÐ»ÐµÑĤ ÐºÑĥ
ĠÐ¾ÑĤÐ²ÐµÑĢÑģÑĤ Ð¸Ðµ
ĠÑĢÐ°Ð·ÑĢÑı Ð´Ñĭ
Ð½ Ð¸ÑĤÑĮ
ĠÐ¾ÑĤ ÑģÑĤÑĢÐ°Ð½
ĠÐĴ ÐµÑĤÐµÑĢ
ĠÑĢÐ°Ð· Ð¼ÐµÑģÑĤ
ĠÐĺ ÐµÑĢÐµÐ¼
ĠÑĢÑĥ Ð½Ð°Ð¼Ð¸
ĠÑĩÐµÑĢ Ð½Ð¾Ð¼
ĠÐ²Ð¾Ðº ÑģÐµ
Ðĳ ÑĥÐ´
ĠÐ¾ÑĤÐºÑĢÑĭ Ð»Ð°
ĠÑģÐµÑĢÐ¶Ð°Ð½ÑĤ Ñĥ
ĠÑģÑħÐ²Ð°ÑĤ Ð¸ÑĤÑĮ
ĠÑģÑĤÐ°Ð½Ð¾Ð² ÑıÑĤÑģÑı
ĠÑĩÐ¸ÑģÑĤ Ð¾Ð¹
ĠÐ±ÐµÐ·Ð¾Ð¿Ð°Ñģ Ð½Ð¾ÑģÑĤÑĮ
ĠÐ±ÑĭÐ² Ð°ÐµÑĤ
ĠÑģÐ»ÑĥÑĪ Ð°ÑĤÑĮ
ĠÐľÐ¸ÑĢ Ð¸Ñı
ĠÐ¾Ð±ÑģÑĤÐ¾ÑıÑĤÐµÐ»ÑĮ ÑģÑĤÐ²Ð°
Ð¼Ð¾ÑĤÑĢ Ð¸ÑĤÐµ
ĠÐºÐ²Ð°ÑĢ ÑĤ
ĠÐľÐ°ÑĢÐº Ð²Ð¾Ð»
ĠÐ´ÐµÑı Ð½Ð¸Ñı
Ð¸ Ð°Ð´
Ð°ÑĤ ÑĭÑħ
ÐĴ Ð°Ñģ
ĠÐĵ Ð°Ð²Ð°Ð»
Ð²ÐµÑĢ Ñģ
ĠÑĦ Ð°Ð»ÑĮ
ÐĶ ÐµÐ¼Ð¾Ð½
ĠÐ¿ÑĢÐ¸Ðº ÑĢÑĭ
ĠÐ±Ð¾ ÐµÐ¼
ĠÐ¾ÑĤÐ² ÐµÑģ
ĠÐ´ÑĥÐ¼ Ð°Ð»Ð°
ĠÑģÐ¸Ð»ÑĮ Ð½ÑĭÐµ
ĠÐ»Ð°Ð· Ð¿
ĠÑģÑĥÐ´ Ð¾ÑĢÐ¾Ð¶Ð½Ð¾
ĠÐ¿Ð¾Ð´Ð´ÐµÑĢÐ¶ ÐºÑĥ
ĠÐ¶ÐµÐ»ÐµÐ· Ð½Ð¾Ð¹
ĠÐ¸Ð³ ÑĢÑĭ
ĠÐ¿Ð¾Ð´ÑĤÐ²ÐµÑĢ Ð¶
ĠÐ½ÐµÐ½Ð°Ð²Ð¸ÑģÑĤ ÑĮÑİ
ĠÑģÐ¾Ð¶ Ð¶
ĠÑĢÐ°Ð·Ð²ÐµÐ´ ÑĭÐ²
ĠÐĿÐµÐ¼ Ð¸Ð¸Ð»
ĠÐ±ÑĭÑģÑĤÑĢÑĭ Ð¼
ĠÐ¿ÑĢÐ¾Ñħ ÑĢÐ¸Ð¿ÐµÐ»
ĠÐ´Ð¸ÑģÑĤÐ°Ð½ ÑĨÐ¸Ñİ
ĠÑĢÐ¸ÑģÐºÐ¾Ð² Ð°ÑĤÑĮ
ĠÐĵÐ°Ð¼ Ð¼Ð°Ð´
Ð¾ ÑİÑģÑĮ
Ñģ Ð¾Ð³Ð»Ð°Ñģ
Ð» ÑĥÐ¿
Ð» ÐµÑģÐºÐ¸
ĠÐº ÑĢÐ°Ð´
ĠÑĤ Ð¸ÑĢ
ÑĢÑĥ ÑĩÐ¸Ð²
ĠÑģÐº ÐµÐ»ÐµÑĤ
Ð°Ð¶ ÐµÑĤ
ĠÐľ Ð½Ð¾Ð³Ð¾
ĠÐĽ Ð°
ĠÑģÑĤÐ¾ ÑıÑĤ
ĠÐ±Ð¾Ð»ÑĮ Ð½Ð¾
ĠÐ±Ð¾Ð» ÑĤÑĭ
ĠÐ¿ÑĢÐ¾Ð± Ð¸Ð²
ĠÐ»ÑĥÑĩ Ð°Ð¼Ð¸
ĠÐļÐ°Ðº Ð¾Ðµ
ĠÐ»ÐµÐ³ ÐµÐ½Ð´
ĠÐ¿ÑĢÐ¾Ð¸ÑģÑħÐ¾Ð´ ÑıÑīÐµÐµ
ĠÐ²Ð¾Ð¾ÑĢÑĥÐ¶ ÐµÐ½Ñĭ
ĠÑģÐ¾Ð·Ð´ Ð°Ð»Ð¸
ĠÐ·Ð°Ð³Ð¾Ð²Ð¾ÑĢ Ð¸ÑĤÑĮ
ĠÐ¿Ð¾ÑĤÐ¾Ð» ÐºÐ¾Ð¼
ĠÐļÐ¾Ð³ ÑĤÐµÐ¹
ĠÑĤÐ°Ð» Ð°Ð½ÑĤ
ĠÐ²Ð¾ÑĢÐ² Ð°Ð»ÑģÑı
ĠÐ¿ÑĢÐ¾Ð¸Ð³Ð½Ð¾ÑĢ Ð¸ÑĢÐ¾Ð²Ð°Ð»
ĠÐ¿Ð¾Ð´ÑĩÐµÑĢ Ðº
k ed
Ġ W
Ñģ Ð¸
Ð» Ð°Ñħ
ĠÐº Ð¾Ð´Ð°
Ð¾Ð´ ÐµÑĢ
Ð°ÑĢ ÐµÑĤ
ÐµÐ¹ Ð½Ð°
ÑģÐº Ð°Ðº
Ð¸Ð´ Ð¾ÑĢ
ĠÐ¿Ð¾Ðº Ð°Ð·Ð°Ð»Ð¸ÑģÑĮ
ĠÐ¿Ð¾Ð¿ Ð°Ð»Ð°
ĠÐ¿ÑĢÐ°Ð² Ð¾Ð³Ð¾
ĠÐ½ÐµÐ² ÑĢÐµÐ´
ĠÑĢÐ°ÑģÐº ÑĢÑĭÐ²
ĠÑģÐ± Ð¸Ð»
ĠÐ²ÐµÑĤ ÑĢÐ¾Ð¼
ĠÑģÐµÑĢÐ² Ð¸ÑĤÐ¾
ĠÐĵÐ¾ÑĢ Ð¾Ð´
ĠÐ²Ð½ÐµÑĪ Ð½ÐµÐ¹
ĠÐºÐ»ÑıÑĤ Ð²Ñĭ
ĠÐŀÐ³ÑĢÐ¾Ð¼ Ð½ÑĭÐµ
ĠÐ¿ÑĢÐ¾Ð¸Ð·Ð¾ÑĪ ÐµÐ´
Ð± Ð°ÑĢ
Ð¾ÑģÑĤ Ð¾Ð²ÐµÑĢ
ĠÐ¢ ÑĢÐ¸Ð½
ĠÐľ Ð¾
ĠÑģÐ¿ Ð°Ð·
ĠÐ¿Ð¾Ð¿ ÑıÑĤ
ÑĨÐ° ÑĢÐ°Ð¿
ĠÐ¿Ð¾Ð·Ð²Ð¾Ð» Ð¸ÑĤ
ĠÑģÐ¾Ð»Ð´Ð°ÑĤ Ð°Ð¼
ĠÐĽÐµÐ³Ð¸Ð¾Ð½ Ñĥ
ĠÐ°Ð´ Ð¼Ð¸ÑĢÐ°Ð»
ĠÐ²Ð·ÑĢÑĭÐ² ÑĩÐ°ÑĤ
ĠÐ¢ÐµÐ¼ Ð¿
ĠÐ¿ÑĢÐ¾ÑħÐ¾Ð´ Ð¸Ð»
ĠÐºÑĥÐ»Ð°Ðº Ð°Ð¼Ð¸
ĠÐ²ÑģÑĤÑĢÐµÑĩ Ñĥ
ĠÑĪÑĤÑĥÑĢÐ¼ Ð¾Ð²ÑĭÑħ
ĠÑĥÐ»Ð¸ ÑĨÐ°Ñħ
ĠÐ±ÑĢÐ¾Ð½Ð¸ÑĢÐ¾Ð²Ð°Ð½ Ð½ÑĭÐ¹
ĠÐ¸Ð·ÑĥÐ¼ ÑĢÑĥÐ´
ĠÑĢÐ°Ð·Ð¼Ð°Ñħ Ð¸Ð²Ð°Ñı
Ð¥Ð¸Ð¼ ÐµÑĢÑĭ
ĠÐ¸ÑģÐºÑĢÐµÐ½ Ð½Ðµ
ĠÐ°ÐºÐ²Ð¸Ð» Ñĭ
ĠÐ²Ñĭ Ð²ÐµÐ»
Ð»Ñı Ð¶
ĠÐ¡ ÐµÐ±
ĠÐŁ ÐµÐ»
ĠÐŁ Ð¸ÑĢ
ĠÐĿ Ð¸Ñĩ
ĠÐ¿Ð¾Ð² ÑģÑĤÐ°Ð½
Ð°Ð²ÑĪ Ð¸Ð¼Ð¸ÑģÑı
ĠÑĪÐ°Ð³ Ð°
ĠÐ¿Ð¾ÑģÑĤ Ð¾ÑĢÐ¾Ð½
ĠÐ±Ð¾Ð³ Ð¾Ð¼
ĠÐ²ÑģÑı ÐºÐ¾Ð¼
ĠÐ³Ð¸Ð³Ð°Ð½ÑĤ ÑģÐºÐ¸Ñħ
ĠÐ°ÑĢÑħ Ð¸Ð¼
ĠÐ¾ÑħÐ¾ÑĤ Ð½Ð¸Ðº
Ð¸ÑĢÑĥÑİÑī Ð¸Ðµ
ĠÐ²ÑĤÐ¾ÑĢÐ¶ ÐµÐ½Ð¸Ðµ
ĠÐ¿ÑĢÐµÐ¾Ð´Ð¾Ð» ÐµÑĤÑĮ
ĠÐ½ÐµÑĥÐºÐ»Ñİ Ð¶Ðµ
ĠÐ±ÑĢÐ¾Ð² ÑĮ
ĠÐŃÐ»Ð¸ ÑĢÐ°
ĠÑĪÐ»Ñİ Ð·
ĠÐ¸Ð´Ð¸ Ð¾ÑĤ
ĠÑģÐµÑĢÐµÐ´ Ð¸Ð½Ðµ
ĠÐ¿ÐµÑĢÐµÑģÐ¿ ÑĢÐ¾ÑģÐ¸Ð»
o od
ĠÐ¸ Ð½Ð¾Ð¹
Ð°ÑĤ Ð¸Ð»Ð¸ÑģÑĮ
ÐµÑĩ Ð½ÑĭÐ¹
ĠÐľ ÐµÑĦÐ¸ÑģÑĤ
ĠÐºÑĢ Ð°ÑĤÐµÑĢ
ĠÐ²Ð¾ ÐµÐ½Ð½ÑĭÐµ
Ð¸ÑģÑĤ ÐµÑĢ
Ð¡ Ð°ÑĢÐ¿ÐµÐ´
Ðľ ÐµÑĩ
ĠÐĹ Ð°Ð¼
ĠÑģÐµÑĢ Ð¾Ð¹
ĠÐºÑĢÐ¾Ð² Ð°ÑĤÐ¸
ĠÑĥÑĤ Ð¾Ð¼
ĠÑģÑĥÐ¼ Ð°Ñģ
ĠÑĤÐµÑħÐ½Ð¾Ð¶ÑĢÐµÑĨ Ñĭ
ĠÑĩÐµÑĤÐ²ÐµÑĢ Ð¾
ĠÐĲÐ¿ Ð¾ÑĤÐµÐºÐ°ÑĢÐ¸Ð¹
ĠÐłÑĭ ÑĨÐ°ÑĢÐ¸
ĠÐ½ÐµÐ¿ÑĢÐ°Ð² Ð¸Ð»ÑĮ
ĠÑģÑĤÐ¾Ð»ÐµÑĤ Ð¸Ñı
ĠÐ£ÑĢÐ¸ ÑįÐ»Ñı
ĠÐº ÑĥÐº
ĠÐ½Ð° Ð¸Ð²
ĠÐµ Ð¶
ÐµÐ¹ Ð»Ð°
ĠÐ²Ñĭ Ð¼
ĠÐ¡ ÐµÐ³Ð¾Ð´Ð½Ñı
ĠÐĶ Ð¾ÑģÐ¿ÐµÑħ
Ð¾Ñĩ ÐµÑĤ
ÐŁ Ð¾ÑĤÐ¾Ð¼
Ð½Ð¾Ð² ÐµÐ½Ð¸Ðµ
ĠÐ¤ Ð°Ð´Ð´ÐµÐ¹
ĠÐ·Ð°Ð½ Ð°Ð²
ĠÐ¿Ð¾Ð¿ÑĭÑĤ ÐºÐ°
ĠÐºÐ¾ÑĢÐ¸Ð´ Ð¾ÑĢÑĭ
ÑĥÑİÑĤ ÑģÑı
ĠÐ¿Ð¾ÑħÐ¾Ð´ Ð¸Ð»
ĠÐľÐ°Ð» Ð»Ðµ
ĠÑģÑĤÑĥÐ¿ ÐµÐ½ÑĮ
ĠÐ¿ÐµÑħ Ð¾ÑĤÐ¸Ð½
ĠÑģÐ¸ÑĢ ÐµÐ½Ñĭ
ĠÐ½ÐµÐ´Ð¾ Ð¾ÑĨÐµÐ½
ĠÑĨÐµÑĢÐµÐ¼Ð¾Ð½ Ð¸
ĠÐºÑĢÐ¸ÑģÑĤÐ°Ð» Ð»Ð¸ÑĩÐµÑģÐº
ĠÐ³Ð»Ñı Ð´ÐµÐ»
ĠÑģÐ³Ð¾ÑĢ Ð±
h a
ĠÑĤ ÐºÐ½ÑĥÐ»
ĠÑĢ ÐµÐ¹Ð´
ĠÐ¡ ÑĥÐ»
ĠÐ¡ ÐµÐ»ÐµÐ¼
ĠÑģÐ» Ð¾Ð¸
ĠÑħ Ð»Ð°Ð´
ÐĿ Ð°Ð¿
Ð¡ Ð½Ð°ÑĩÐ°Ð»Ð°
Ð½ÑĥÑĤ ÑĭÐ¼
ĠÑģÑĤÐ°ÑĢ ÑĭÐ¼
ĠÐ½Ð¸Ñĩ ÑĤÐ¾Ð¶
ĠÐ¶ÐµÐ» ÑĥÐ´
ĠÐ±ÑĢÐ¾Ñģ Ð¸Ð»Ð°
ĠÑĢÐ°Ð·Ð² Ð°Ð»Ð¸Ð½Ñĭ
ĠÐ´Ð°Ð² Ð°Ð»
ĠÐ´Ð²Ð¸Ð¶ ÐµÐ½Ð¸Ð¸
ĠÐ¿ÑıÑĤ Ð½Ð°Ð´ÑĨÐ°ÑĤÑĮ
ĠÐ¿Ð¾ÑħÐ¾Ð¶ Ð¸Ñħ
ĠÐ¾Ð±ÑĭÑĩ Ð½Ð¾Ð¹
ĠÑĥÐ·Ð½ Ð°Ð»Ð¸
ĠÐ¶ÐµÑĢÑĤÐ² Ð¾Ð¹
ĠÐ¿ÑĢÐ¾ÐºÐ»ÑıÑĤ Ð¸Ðµ
ĠÐ¼ÑĭÑĪ ÑĨ
Ð°Ð²Ð°Ð» ÐµÑĢ
ĠÑģÐ¾ÑİÐ· Ð½Ð¸ÐºÐ¾Ð²
ÑģÑĤÑĢÐ¾Ð¹ ÐºÐ¸
ĠÐ³Ð°Ð» ÐµÑĢ
ĠÑģÐ¾Ð¾ÑĢÑĥÐ¶ ÐµÐ½Ð¸Ñı
ĠÑĢÐ¶Ð°Ð² Ñĩ
ĠÑĤ ÑĥÐ»Ð¾Ð²
Ð°Ð· Ð°
ĠÐ¾Ð± ÑĢÑĥÐ±
ÐµÐº ÑĤÑĭ
ĠÑģÑĤ ÑĥÑĩ
ĠÐ¢ ÑįÐ¹Ð´
ĠÑĦ Ð¸Ð»
Ð¢ Ð¾ÑĢ
Ð½ÑĥÑĤ ÑĭÐ¼Ð¸
ĠÑģÐ½ ÐµÑģ
ĠÐļÐ°ÑĢ Ðº
ĠÑĢÐ°Ð·Ð¾ÑĢÐ² Ð°ÑĤÑĮ
ĠÐ²Ð¾Ð¾ÑĢÑĥÐ¶ ÐµÐ½Ð¸Ðµ
ĠÐ²Ð»Ð°ÑģÑĤ ÑĮÑİ
ĠÐ¸Ð½ÑģÑĤÑĢÑĥÐ¼ÐµÐ½ÑĤ Ñĭ
ĠÐ¾ÑĩÐ¸ÑģÑĤ Ð¸ÑĤÑĮ
ĠÐ½ÐµÐ·Ð°Ð¼ÐµÑĤ Ð½Ð¾
! âĢĿ
Ġ B
Ð» Ð¸Ð½Ð°
ĠÐ² Ð¸ÑĢÑĥÑģ
Ð¸ÑĤ Ð¾Ð¼
Ð± ÑĢ
ĠÐ½Ðµ Ð¸ÑģÑĤ
ĠÐ» Ð¾ÑĪ
Ð¾Ð¶ Ð°Ð´
ĠÐ¶ ÐµÑĢÑĤÐ²Ð°
ĠÐŃ Ð»ÑĮÐ´Ð°ÑĢ
ĠÑģÐ¸Ð» ÐµÐ½
ÑĥÑģÑĤ Ð¸Ð»Ð¸
ÑĢÐ¾Ð² Ð¾Ð¹
ĠÐķ ÑīÑĳ
ĠÐ±Ð¾ ÐµÐ³Ð¾
Ð¾Ð¶Ðµ ÑģÑĤÐ²Ð¾
ĠÑĥÐ¼ ÐµÐ»
Ð£ Ð·
ĠÑĤÑıÐ¶ ÐµÑģÑĤÑĮ
Ð»Ð°Ñģ Ð¸Ð»
ĠÐ¡ÑĤ ÐµÐ½
ĠÐ²ÑĤÐ¾ÑĢ Ð³
ĠÑī ÐµÐºÐµ
Ġc l
ĠÐ²Ð°Ð¶ Ð½Ð¾Ðµ
ĠÐ¿Ð° ÑĢÐ°Ð·
ĠÐ¾ÑĤÐºÑĢÑĭÑĤ ÑĭÐ¼
ĠÐ½Ð°ÑĩÐ¸Ð½ Ð°ÑİÑĤ
Ð»ÑıÑİÑī Ð¸Ð¹
ĠÐºÑĢÑĥÐ¿ Ð½ÑĭÐµ
ĠÐºÑĢÑĥÐ¿ Ð½ÑĭÑħ
ĠÐ¿ÐµÑĢÑĩÐ°ÑĤ ÐºÐµ
ĠÑģÑĤÑĢÐ°Ð¶ Ð¸
ĠÑģÐ½Ñı ÑĤÑĮ
ĠÐ²ÑĭÑĪ Ð»Ð¾
ĠÑģÑĥÑīÐµÑģÑĤÐ²Ð¾Ð² Ð°Ð»Ð¾
ĠÐ¼Ð¾Ð½Ð¾ ÑĤÐ¾Ð½
Ñģ Ð°ÑĢ
ĠÐº Ð¾Ðº
Ð°ÑĢ Ð½Ð¾Ð¹
ÐµÐ² Ð¾Ð³Ð¾
ĠÑģÑĤ Ð¾Ð¿
ĠÐ¿Ð¾Ð´ ÑģÑĤÐ°Ð²
Ð¾Ð¿ Ð¾ÑģÑĤÐ°Ð²
Ð¸Ð³ ÑĢÐ¸Ð¼
ĠÑĢÑĥ Ð¸Ð½
ĠÑģÑĤÐ¾ Ð»Ð¾Ð²
ĠÐ²ÐµÑĢ Ð½ÑĭÑħ
ĠÐ¸Ð½ Ð¸ÑĨÐ¸
ĠÐ²Ð·Ð³Ð»Ñı Ð½ÑĥÐ»Ð°
ĠÐ¿ÑĢÐ¾Ð± Ð¾
ĠÐ¿ÐµÑĢÐ² Ð¾Ð½Ð°Ñĩ
ĠÐ¢Ð°Ðº Ð¸Ðµ
ĠÐ¸Ð·Ð²ÐµÑģÑĤ Ð½Ñĭ
on e
ĠÐºÐ¾Ð»Ð¾Ð½ Ð½Ñĥ
ĠÑĥÐ¼ÐµÑĢ Ð»Ð¸
ĠÑĢÐ¸Ñģ ÑĥÐ½
ĠÑĤÐ¸ÑĪ Ð¸Ð½Ñĥ
ĠÑģÐ»ÑĥÐ³ Ð°
ĠÐ¾ÑĤÐ´ÐµÐ»ÑĮ Ð½ÑĭÐµ
ĠÐºÐ¾Ð½ÑĨÐµÐ½ÑĤ ÑĢÐ°
ÑĤ Ð¸ÑģÑĮ
ĠÑģ ÑĥÑĤÐ¸
ÐµÐ´ ÑĢ
ĠÐ» ÐµÐº
ĠÐ·Ð° ÑĤÐ¾
ĠÐ½Ð°Ð¿ Ð¸ÑĤ
ĠÐ½Ð°Ð´ Ð·
ÐĶ ÐµÐ»
ÑĤÐ¾Ð² Ð°Ð»
Ð°ÑĤÐµÐ»ÑĮ Ð½Ð¾Ðµ
ĠÐ¿ÑĢÐ°Ð² Ð´Ð¾Ð¹
ĠÑĥÐ¶Ð°Ñģ Ð½ÑĭÐµ
ĠÐ»ÐµÐ³ ÐºÐ¸Ð¼
ĠÑģÐ½Ð°ÑĢ ÑıÐ´Ð°
ĠÑģÑĥÐ¼ ÐµÐ»Ð¸
ĠÑģÐµÐ¼ ÑĮÐ¸
ĠÑĤÑĥÐ½Ð½ ÐµÐ»Ð¸
al l
ĠÑĥÑģÑĤÐ°Ð² Ð¸Ð»Ð¸ÑģÑĮ
ĠÐ²ÐµÐ» ÐµÐ»
ĠÐ¾Ð±Ð»ÐµÐ³Ñĩ ÐµÐ½Ð¸ÐµÐ¼
ĠÐ¿ÑĢÐ¾ÑĤÐ¸Ð²Ð¾Ð¿Ð¾Ð»Ð¾Ð¶ Ð½Ð¾Ð¹
ĠÐ½ÐµÑģÐ¿ Ð¾ÑģÐ¾Ð±
Ð· ÐµÐº
ĠÑĥ Ð½ÐµÑģ
ĠÐ½Ðµ Ñĥ
ĠÐ½Ðµ ÑģÑı
ÑĤÐ¾ÑĢ Ð¾Ð¼
ĠÐŁ ÑįÐ¹ÑĪ
ĠÐł Ð°
ÑĢÐ¾Ñģ Ñģ
Ðľ ÑģÑĤ
ĠÐ¾Ð¿ ÑĤÐ¸Ð¼
ĠÐ·Ð² Ð°Ð½Ð¸Ðµ
Ð§ ÐµÐ¼
ĠÑģÐµÐº ÑĢÐµÑĤÑĭ
ÐŁÑĢ Ð¾ÑĪÑĥ
ĠÐ³Ð¾ÑĤÐ¾Ð² Ð°
Ġs c
ĠÐ³ÑĢÐ¾Ð¼ Ð°
ĠÐ¿Ð°Ð´ Ð°ÑĤÑĮ
ĠÐĽÑİ Ð±
ĠÐ¢Ð°Ð» Ð¾ÑģÐ°
ĠÐ½ÐµÐ¾Ð¶Ð¸Ð´ Ð°Ð½
ĠÐ´Ð¾Ð³ Ð¾Ð²Ð¾ÑĢ
ĠÐ²ÑģÑĤÑĥÐ¿ Ð¸Ð»Ð¸
ĠÑĤÐµÑħÐ½Ð¾Ð¶ÑĢÐµÑĨ Ð°
ĠÐ·Ð°Ð¼ÐµÑĩ Ð°Ð»
ĠÐĲÑĤ ÑħÐ°ÑĢ
ĠÐ°Ð¼ ÑĦ
ĠÐ¿ÑĢÐ¸ÑıÑĤ Ð½Ð¾
ĠÐļÐ°Ð¿ ÐµÐ»Ð»Ð°Ð½
ĠÑĨÐµÐ»Ñı ÑģÑĮ
ĠÐ²Ð¾Ð·Ð¼Ñĥ Ñī
Ġ D
Ð¾Ð» Ñĭ
ÑĢÑĥ Ð¼
Ð¾Ñĩ Ð°Ð¹
ĠÐ±ÑĢ Ñİ
Ð½Ð¸ Ð½Ñĭ
ÐĶ ÐĲ
ĠÐ£ ÑĤ
ĠÐ³Ð¾ÑĢ Ð»Ð°
ĠÐ²Ð¾Ð·Ð² ÑĢÐ°ÑĤ
ĠÐºÐ¾Ð³Ð¾ ÑĤÑĮ
ĠÐºÑĢÐ¾Ð²Ð°Ð² ÑĭÐ¹
ĠÐ¿ÐµÑĢÐµÐ¿ Ð¾Ð»Ð½
ĠÐ²ÑĭÑģÑĤÑĥÐ¿ Ð¸Ð»
ĠÐ¿ÐµÑĢÐµÑĢ ÐµÐ·
ĠÑģÐ¿Ð¸Ñģ Ð¾Ðº
ĠÐ¼Ð°Ð³Ð¾ ÑģÐ°
ĠÐ¸Ð½ÑĤÐµÐ½ ÑģÐ¸Ð²
Ð´ Ð¸Ð»
Ð¿ Ð¾Ñģ
ĠÑģÑĤ Ð°Ð»ÑĮÐ½Ð¾Ð¹
ÐµÑģÑĤ ÑĮÑİ
ÐµÑģÑĤ ÑĢÑĭÐ¹
ĠÐŁ Ð¾ÑģÑĤ
ĠÐł ÐµÐ²
Ð¸Ð¿ Ð»Ð¾Ð¼
Ðĳ ÑĢÐ¾Ð½
ĠÐ·Ð°Ð´ Ð½ÐµÐ¹
ÑĢÐµÐ½ Ð°Ð»
ĠÑĢÐ°ÑģÑģ Ð»ÐµÐ´Ð¾Ð²
ÑĢÐ°ÑĪ ÐµÑĢ
Ð¾Ð²Ð°Ð½ Ð¸Ð¹
ĠÐ»ÐµÐ³ ÐºÐ¾Ð¹
ĠÐ¿ÑĢÐµÐ´ÑģÑĤÐ°Ð² Ð»ÐµÐ½Ð¸Ðµ
ĠÐ²Ð°ÑĪ Ñĥ
ĠÑĤÐ¾Ñĩ Ð½Ð¾ÑģÑĤÐ¸
ĠÐĸÐµÐ»ÐµÐ· Ð½Ð¾Ð³Ð¾
ĠÐ²ÑģÑı ÐºÐ¸Ñħ
ĠÐ¾Ð±ÑĢÑĥÑĪ Ð¸Ð»Ð°ÑģÑĮ
ĠÐ¸Ð´Ðµ Ð°Ð»ÑĮÐ½Ð¾
ĠÐ¼Ð°Ð»ÑĮ ÑĩÐ¸ÐºÐ°
Ð¾Ð»Ð¾Ð´ Ð¾Ð¹
ĠÑĢÐ°ÑģÑģÐºÐ°Ð·ÑĭÐ² Ð°Ð»
ĠÐ¸ÑģÐºÐ°Ð» ÐµÑĩ
ĠÐĵÐ°Ð»ÑĮ Ð±Ð°
ĠÑĢÐ°ÑģÐºÐ° ÑĩÐ¸Ð²
ĠÑģ ÑİÑĢ
Ñĩ Ð¸ÑĪ
ĠÐ¾ ÐºÑĥ
ĠÐ¸ Ð´ÐµÐ½
ĠÐ¼ Ð°Ð¹Ð¾ÑĢ
Ð½Ð¾ ÑĤ
ĠÐ¿Ð¾Ð´ ÑĤÑı
ÐŁ ÑıÑĤÑĮ
Ð¾Ðµ ÑĨ
ÐĲ ÑĤ
ĠÐ´Ð¾ÑģÑĤ Ð°ÑĤÑĮ
ĠÐ½Ð°Ð· Ð²Ð°Ð»
ĠÐ²ÑĭÑģ Ñĥ
ĠÐĲÑĢ ÐºÐ°Ð½
ĠÑģÑĤÐ°ÑĢ Ð¸Ð½
ĠÐ¼Ð¾Ð» Ð¾ÑĤÐ°
ĠÐ»ÑİÐ± Ð¸Ð»
ĠÑģÐ»ÑĥÐ¶ ÐµÐ±
ĠÑģÑĩÐ¸ÑĤ Ð°Ñı
ĠÐ¿Ð° ÑĢÐ°Ð¿
ĠÐ²ÐµÑĢÑħ Ð½Ð¸Ðµ
ĠÐ½Ð¸Ð· ÐºÐ¸Ð¼
ĠÐ¿ÑĢÐ¾Ð¼ ÐµÐ¶
ĠÐ¿Ð¾Ð´ÑħÐ¾Ð´ Ð¸ÑĤ
ĠÐ·Ð½Ð°ÐºÐ¾Ð¼ ÑĭÐ¹
ĠÐ½Ð°Ð¼ÐµÑĢ ÐµÐ½Ð¸Ñı
ĠÑįÐ½ÐµÑĢÐ³ÐµÑĤ Ð¸ÑĩÐµÑģÐºÐ¸Ðµ
ĠÐ¾ÑģÐ²Ð¾Ð±Ð¾Ð´ Ð¸ÑĤÑĮ
ĠÐŁÐ°Ð´ Ð°Ð»ÑĮÑīÐ¸Ðº
ĠÐ¸Ð½Ð¶ ÐµÐ½ÐµÑĢ
ĠÐ¿ÑĢÐ¾Ð½Ð¾Ñģ Ð¸Ð»Ð¸ÑģÑĮ
Ġ Kais
ÑĤ Ð¸Ð²
Ñĩ ÐµÑģÐº
Ð°Ð» Ñİ
Ð¼ Ñı
ĠÐ´ ÑĥÐ»Ð¾
Ð½Ñĭ ÑĢ
Ð¸ÑĤ Ð¾Ð¹
ĠÑĥ Ð½Ñĭ
ĠÐ½Ðµ ÑĥÑģÑĤ
ĠÑĢ Ð¾ÑĤÑĥ
ĠÑį Ð»Ð¸ÑĤ
ĠÐ²Ñĭ Ð²ÐµÑģÑĤÐ¸
ĠÑģÐ² Ð¸Ð½
Ð¸Ð´ ÑĭÐ²Ð°Ñı
Ð¸Ð· Ð¼Ð°
ĠÐ¡ Ð°ÑĢÑĤ
ÐµÐ»ÑĮ Ð½Ð¾Ð³Ð¾
ĠÐ·Ð° ÑĦÐ¸ÐºÑģ
ÐµÑĩ Ð½ÑĭÐµ
ĠÐ¤ Ð°ÑĢ
ĠÐ½ÐµÐ² Ð°Ð¶Ð½Ð¾
Ġa b
ĠÑĨÐµÐ» Ð¾Ðµ
ĠÐºÑĢÐµÐ¿ ÑĩÐµ
ĠÐ½Ð¸Ð¶ Ð½ÐµÐ¹
ĠÐ»ÐµÐ² ÑĭÐ¹
ĠÐ¾ÑħÑĢÐ°Ð½ Ñĭ
ĠÐĳÐµÐ» Ð°ÑĤ
Ġl e
ĠÐ¾ÑĤÐ¾ÑĢ Ð²Ð°Ð»
ĠÐ¼Ð°ÑĢÑĪ ÑĢÑĥÑĤ
ĠÑįÑģÐº Ð¾ÑĢÑĤ
ĠÐ³ÑĢÐ°Ð´ Ð¾Ð¼
ĠÐľÐ¾Ð¶ Ð½Ð¾
ĠÐ¿ ÑĮÑı
ĠÐ¼ ÑĥÑħ
ĠÐ¿ÑĢ Ð¾Ð»Ð¾Ð¶
ĠÐ¾Ð± ÑĢÐ°Ð±Ð¾ÑĤ
ĠÐ²Ñģ Ð¼Ð°ÑĤÑĢÐ¸Ð²
ĠÐ¿Ð» Ð°Ðº
ĠÐ²Ð¾ Ð¾Ð´ÑĥÑĪÐµÐ²
Ðļ Ð¾Ð½
Ð°ÑĤÐµÐ»ÑĮ Ð½ÑĥÑİ
ĠÑĤÐµÐ¼ Ð¿
ĠÑĥÐ´Ð°ÑĢ Ð¸Ð»ÑģÑı
ĠÐĲÑĢ ÑĢÑĥÐ½
ĠÐ¨ ÐµÑģÑĤ
ĠÐ´ÑĥÐ¼ Ð°Ñı
ĠÐ²ÑĭÐ± ÑĢÐ°Ð»ÑģÑı
ĠÐļÐ°Ðº Ð°Ñı
ĠÐ½ÐµÐ¹ ÑĤÑĢ
ĠÑģÑĩÐ¸ÑĤ Ð°ÐµÑĤ
ĠÐ¾ÑģÐ½Ð¾Ð² Ð½ÑĭÐµ
ĠÐ´Ð»Ð¸Ð½ Ð½ÑĭÑħ
ĠÑģÐ¾Ð³Ð»Ð°Ñģ ÐµÐ½
ĠÐ¶ÐµÐ»ÐµÐ· Ð¾
ĠÑĤÐ¸Ñħ Ð¸Ð¼
ĠÑĩÐ¸Ñģ Ð»Ðµ
ĠÑĥÐ»Ð¸ ÑĨÐ°Ð¼
ĠÐ¿ÑĥÑĪ ÐºÐ°
ĠÐ¿Ð¾Ð»Ð°Ð³ Ð°Ð»
ĠÐ³ÐµÐ½ÐµÑĤ Ð¸ÑĩÐµÑģÐºÐ¸
ĠÑģÐºÐ°Ð¶ ÐµÑĪÑĮ
Ð¡Ð»Ð¾Ð² Ð½Ð¾
ĠÐ²ÑĭÑģÐº Ð¾Ð»ÑĮÐ·
ĠÐ²ÑĭÑħ Ð»Ð¾Ð¿
ÐµÐ¼ Ñı
ÐµÑģ Ð¸
Ñĳ ÑĪÑĮ
ĠÐĵ Ñĥ
ĠÐ²Ð· ÑıÐ»Ð°
ĠÐ¿Ð¾Ð² ÑıÐ·
ĠÑģÑĤÐ¾ ÑıÐ»Ð¾
ĠÑĩÐµÑĢ Ð½Ð¾Ðµ
ĠÐ±ÐµÐ· Ð³
ĠÐ¿Ð¾Ð²ÐµÑĢ Ð½ÑĥÐ»Ð¸ÑģÑĮ
ĠÑıÑĢ ÑĩÐµ
ĠÐ¿Ð¾Ð·Ð²Ð¾Ð» ÑıÐ»
ĠÐ°Ð´ Ð¼Ð¸Ð½Ð¸ÑģÑĤÑĢ
ĠÑģÑĩÐ¸ÑĤ Ð°ÐµÑĪÑĮ
on g
Ð°ÑĤÐµÑĢ Ð¸
ĠÑĢÐ°Ð·Ð³ ÑĢÐ¾Ð¼
ĠÐ¿ÑĢÐ¾Ð½Ð· Ð¸ÑĤÐµÐ»ÑĮÐ½ÑĭÐ¹
ĠÑĢÐ°Ð·Ð³Ð¾Ð²Ð¾ÑĢ Ð°
ĠÑģÐ¾Ð¾ÑĤÐ²ÐµÑĤ ÑģÑĤÐ²Ð¸Ð¸
ĠÐ¿ÑĢÐ¾ÑĢÐ² Ð°ÑĤÑĮÑģÑı
ĠÐ½ÐµÐ» ÐµÐ¿
ĠÐ¸Ð·Ð¼ ÑĥÑĩ
ĠÑĥÐºÑĢÑĭ ÑĤÑĮÑģÑı
ĠÐ¤Ð°Ð± Ð¸Ð¹
ĠÐ°Ð³ÑĢÐµÑģÑģ Ð¸Ð²
Ð¾Ð²ÐµÑĢÑĪÐµÐ½ ÑģÑĤÐ²Ð¾Ð²
ĠÐ½ÐµÐ¾ÑħÐ¾ÑĤ Ð½Ð¾
Ð¾ÑĢ ÐµÐµ
Ð¾Ð± Ð¾ÑĢÐ¾ÑĤ
Ð¸Ð¹ Ð³
ĠÐļ Ð²Ð¸Ð½
ÐµÐ»ÑĮ Ð½Ð¾Ð¹
ĠÑĪ Ð²ÑĭÑĢ
ÑĥÑĩ Ð¸ÑĤÑĮ
ÐŁ Ð¾Ð·Ð°Ð´Ð¸
ĠÐł ÑįÐ²ÐµÐ½
ÑıÑī ÐµÐ¼
ĠÐºÐ¾Ð» Ð¾Ðº
ÐĽ Ðĺ
ĠÐ»ÐµÐ³Ð¸Ð¾Ð½ Ñĥ
ĠÑħÐ¾Ð» Ð¼Ð°
ĠÐ·Ð°ÑīÐ¸ÑĤ Ð¾Ð¹
ĠÐ¿ÑıÑĤ Ð½Ð°Ð¼Ð¸
ĠÑĥÐ¿ÑĢÐ°Ð² Ð»ÐµÐ½Ð¸Ðµ
ĠÐ´ÑĥÑħ Ð¾Ð¼
ĠÐ²ÑĢÐ°Ð¶ÐµÑģÐº Ð¾Ð¹
ĠÐ¾ÑĢÑĥÐ´Ð¸Ð¹ Ð½ÑĭÐµ
ĠÐ¾ÑĪÐ¸Ð± ÐºÐ¸
ĠÑĥÐ´Ð° Ñĩ
ĠÑģÐ¼ÐµÑĢÑĤÐµÐ»ÑĮ Ð½ÑĭÐ¹
Ð¡Ð¿ ÑĥÑģÑĤÑı
ĠÑĢÐ°Ð¹ Ð¾Ð½Ðµ
ĠÐ²Ð¸Ð½ÑĤÐ¾Ð² ÐºÐ¸
ĠÐĽÑĥÐ¿ÐµÑĢ ÐºÐ°Ð»
ĠÐ»Ð°Ð³ ÐµÑĢÑĮ
ĠÐĳÐ¸Ðº Ð²Ð¸Ð½
ĠÐľÐ°Ð»Ð»Ðµ ÑĥÑģ
ĠÑģ ÑĥÐµÑĤ
Ð¿ Ð¾Ð»Ð¾Ð¶
Ð¾Ð´ ÑĢ
ÐµÐ· ÐµÐ¼
ĠÑı ÑĢÑĥÑģ
Ð»ÐµÐ½ Ð½Ð¾Ð¼Ñĥ
ĠÐ¸Ð¼ ÐµÑı
ÑĢÐ¸ Ð°Ð½
ĠÑĢÐµÐ· Ð½Ð¸
ĠÐ¼Ð¸Ð½ Ð¸Ð°ÑĤ
ĠÐ¿Ð¾Ð±ÐµÐ´ Ðµ
ĠÑģÑħÐ²Ð°ÑĤ Ð¸Ð»ÑģÑı
ĠÐ¾Ð±ÑĢÐ°Ñī Ð°Ð»
ĠÐ¿Ð¾ÑĤÐ¾Ð» ÐºÐµ
ĠÐ±Ð°Ð· Ð¸Ð»
ĠÑģÑĤÑĢÐµÐ»ÑĮ Ð±Ñĥ
ÐĹÐ°Ð² Ð¾ÐµÐ²
ĠÑģÐ¾Ð¿ÑĢÐ¾Ð²Ð¾Ð¶ Ð´Ð°ÐµÐ¼
Ġ L
Ġ âĢ
Ġ up
Ð¾Ð· Ñĭ
ÐŃ ÑĢÐµÐ±
ĠÑģÑĤÐ°ÑĢ Ð¸ÐºÐ°
ĠÐ¼Ð°Ñģ Ðº
ĠÐ°Ð´ ÑĬÑİÑĤ
ĠÐ½Ð¾Ñģ Ñĥ
ĠÐ¢Ð°Ðº Ð¸Ð¼
ĠÑģÐ¾ÑģÑĤÐ¾Ñı Ð½Ð¸Ñı
ĠÐ¼Ð¾Ð½ Ð°ÑģÑĤÑĭ
ĠÐ¼ÑĢÐ°Ñĩ Ð½ÑĭÐµ
ĠÐ£Ð»ÑĮÑĤÑĢÐ°Ð¼Ð°ÑĢ Ð¸Ð½Ñĭ
ÑĪÑĤ ÑĥÑĢÐ¼
ĠÐ²Ð¾ÑģÐ¿Ð¾Ð»ÑĮÐ·Ð¾Ð² Ð°Ð»ÑģÑı
ĠÐŁÐ¾ÑĤ Ð¾Ð¼Ñĥ
ĠÐ¿Ð¾ÐºÑĢÑĭ ÑĤÐ°
ĠÐŀÑģÐ² Ð¾Ð±
ĠÐ½ÐµÐ½Ð°Ð´ Ð¾Ð»Ð³Ð¾
ĠÑģÐ³Ð»Ð¾ÑĤ Ð½ÑĥÐ»
Ð¡Ð°ÑĢÐ¿ÐµÐ´ Ð¾Ð½
c t
ĠÐŀ Ð±ÑĭÑĩÐ½Ð¾
Ð´Ð° ÑİÑĤÑģÑı
ĠÐ¡ Ð»Ð°
ĠÑĪ ÑĳÐ»
ĠÐ¿Ð¾Ð» Ð½ÑĭÐµ
Ð¸Ð»Ð¸ ÑģÑĤ
ĠÐ²Ð·Ð³Ð»Ñı Ð½ÑĥÐ²
ĠÐ¿Ð°ÑĢ Ðµ
ĠÑģÑĩÐ¸ÑĤ Ð°Ñİ
ĠÑģÐ½ Ð¸Ð·
ĠÐºÐ¾ÑģÑĤ ÑİÐ¼
ĠÐ¸Ð¼Ðµ ÐµÑĪÑĮ
ĠÐĴÐµÑĢ Ð¾ÑıÑĤÐ½Ð¾
ĠÐ¼Ð°ÑģÑĤÐµÑĢ ÑģÑĤÐ²Ð¾
ĠÑģÑĦ ÐµÑĢÑĭ
ĠÐĲÑĤ ÑĤÐ¸Ðº
ĠÐ¾ÑĤÐ²ÑĢÐ°Ñī ÐµÐ½Ð¸Ñı
ĠÐ°Ð³ ÐµÐ½ÑĤ
ĠÑĤÐ¾ÑĢÑĩ Ð°Ð»Ð¸
ÐŀÐ³ ÑĢÐ¾Ð¼
ĠÐ²ÐµÐ· Ð´Ðµ
ÐĲÑģÑĤ Ð°ÑĢÑĤÐµÑģ
ĠÐ¡Ð°Ñħ Ð¸Ð¸Ð»
Ð¾ÑģÐ»ÐµÐ´ ÑģÑĤÐ²Ð¸Ð¸
ĠÑĢÐ°Ð·Ð¾ÑĪ Ð»Ð¸ÑģÑĮ
Ðµ ÐµÐ¼
ÑĤ ÑİÑĢ
Ð°Ð» Ð¸Ð±ÐµÑĢ
ĠÐ± Ð¾ÑĢÐ¼
Ð°ÑĢ Ð¸Ñİ
ĠÐ¡ ÐºÐ°
ĠÐ¢ ÑĮ
ĠÐľ ÐµÐ½
ÐµÐ³ Ð½ÑĥÐ»
ĠÑģÐ¿ Ð¾Ð»Ð·
Ð»Ñİ Ð·
ĠÐ¾Ð³ ÑĢÑĭÐ·
ĠÐ·Ð°ÑĤ ÑĢÑĥÐ´
ĠÐ¿ÑĢÐ°Ð² Ð¸Ð»
Ð§ ÐµÐ³Ð¾
Ð»Ð¸Ð² Ð¾Ð¹
ĠÐ¸ÑģÐº ÑĢÐ¸Ð²
ÑĥÑİÑī ÐµÐ¹
ĠÑĢÐµÑĪ Ð¸Ð¼Ð¾ÑģÑĤÐ¸
ÑĢÐµÑĤ Ð¸Ð¹
ĠÐ¼Ð¾Ñī Ð½ÑĭÑħ
ĠÐ²Ð¾Ð·Ð¼Ð¾Ð¶ Ð½Ð¾ÑģÑĤÐµÐ¹
ĠÑģÐ¸Ð¼Ð²Ð¾Ð» Ð¾Ð¼
ĠÐ¶Ð¸Ð²Ð¾ÑĤ Ðµ
ĠÐ¼Ð¾Ð´ Ð¸ÑĦÐ¸ÑĨ
ĠÐ¸Ð½ÑĤÐµÑĢÐµÑģ Ð½Ð¾
ĠÐ¿ÑĢÐ¸Ð±Ð»Ð¸Ð· Ð¸Ð»Ð¸ÑģÑĮ
ĠÐ¼ÐµÑģÑı ÑĨÐ°
ĠÑĤÐ¸ÑĢÐ°Ð½Ð¸Ð´ Ñĭ
ĠÐ´Ðµ ÑĦÐ¾ÑĢÐ¼
ĠÐ¾Ð±Ð»ÐµÐ³Ñĩ ÐµÐ½Ð¸Ðµ
ĠÑĢÐ°Ð¹ Ð¾Ð½
ĠÐ¾ÑģÐ¼ÐµÐ» Ð¸Ð»ÑģÑı
Ð² Ð·
ĠÐº Ð¾Ð¹
Ð¾Ð½ ÑĮ
ĠÐĴ ÐµÐ»Ð¸
ĠÐ¿Ð¾Ð´ Ð°Ð»
ÑĢÑĭ Ñħ
ĠÐł Ð°ÑģÑģ
Ð´Ñĥ Ð»
ĠÐ¥ ÑĢÐ¾Ð¼
ĠÐ¾ÑĢ Ð»Ð°
ĠÐ¿Ð¾Ð¿ Ð¾Ð»Ð½
ĠÐ¿Ð¾Ð·Ð²Ð¾Ð» Ð¸Ð»Ð°
ĠÑģÐ¾ÑĤ Ð½Ñİ
ĠÐ¿ÑĢÐ¸Ð±Ð»Ð¸Ð¶ ÐµÐ½Ð¸Ðµ
ĠÐ¾ÑīÑĥÑĤ Ð¸Ð»Ð°
ĠÐ±ÑĢÐ¾Ð½Ð¸ÑĢÐ¾Ð²Ð°Ð½ Ð½Ð¾Ð¹
ÐµÐºÑĤÐ¾ÑĢ Ð¾Ð²
ĠÐ¾ÑĤÐ½Ð¾ÑĪ ÐµÐ½Ð¸Ñı
ĠÐ¾Ð±ÐµÐ· ÑĥÐ¼
ĠÐ¿ÑĢÐµÐ´ÑĥÐ¿ÑĢÐµÐ´ Ð¸ÑĤÑĮ
ĠÐ½ÐµÑģÐ»Ð¸ ÑģÑĮ
ÐĴÑģ Ñĳ
ĠÐ²Ð¼ ÑıÑĤ
ĠÐ³Ð°Ð»ÐµÑĢÐµ Ð¸
ĠÐ¿ Ð°Ð¿
ĠÑģ Ð³Ð¾
ĠÑģ ÐµÐ´ÑĮ
Ñī ÑĥÐ¿
ĠÑģÐº Ð°Ð¶Ð¸
ÐºÐ° ÑįÐ»
ĠÑĥÐ´ Ð¾ÑģÑĤÐ¾
ĠÐ¿ÑĢÐ°Ð² Ð¸ÑĤÐµÐ»ÑĮ
ĠÐĲÑĢ Ðº
ĠÐ¿ÑĢÐ¾Ð² Ð¾Ð·Ð³
ĠÐ±Ð¾Ð»ÑĤÐµÑĢ Ð½ÑĭÑħ
ĠÐŀÐ´ Ð½Ð¾
ĠÐ¼ÐµÑĢÑĤÐ² ÑĭÐµ
ĠÐ¶ÐµÑģÑĤ Ð¾ÐºÐ¾Ð¹
ĠÐ§ÐµÑĢ Ð½Ð¾Ð³Ð¾
ĠÐ¿Ð°Ð½ ÐµÐ»ÑĮ
ĠÐ·Ð°Ð²ÐµÑĢ Ð¸Ð»
ĠÑģÐ¾Ñĩ ÐµÑĤ
ĠÐ¼Ð°ÑģÑģÐ¸Ð² Ð½ÑĭÐµ
ĠÐ¼ÐµÐ»ÑĮ ÐºÐ¾Ð¼
ĠÑĪÐµÑģÑĤ ÐµÑĢÐµÐ½
ĠÐ·Ð²ÑĥÑĩ Ð°Ð»Ð¸
Ġn e
ĠÐ±ÑĭÑģÑĤÑĢÑĭ Ð¹
Ð¾Ð½ÑıÑĤ Ð½Ð¾
ÐŀÑģÑĤ Ð°Ð»ÑĮÐ½ÑĭÐµ
ĠÐ±Ð¾ÑĤÐ¸Ð½ Ð¾Ðº
ĠÐ°ÑģÑĤÐµÑĢÐ¾ Ð¸Ð´
ĠÐ¾Ð±Ð¾ÑĢÑĥÐ´Ð¾Ð² Ð°Ð½Ð¸Ðµ
Ð½ ÐºÑĥ
Ñı ÑīÐµ
ĠÑģ ÑĥÐ·
ÐµÐ½ Ð°Ð²
Ð°Ñģ Ð¾Ð²
ÐµÐº ÑĤÐ¾Ð²
ĠÑįÑĤ Ð°Ð¿
Ð²ÐµÑĢ ÐµÐ½
ĠÐ¿Ð¾Ð· Ð°Ð±
ĠÐ§ ÑĳÑĢ
Ðł ÑıÐ´Ð¾Ð¼
ĠÐ¿ÑĢÐ¸Ð½ Ð¸Ð¼Ð°Ñı
ĠÐĺÐ½ Ð²
ĠÐºÐ¾Ð¼Ð½ Ð°ÑĤ
ĠÑĤÐ¾Ð½ ÐºÐ¸Ð¹
ĠÑĥÑĢÐ¾Ð² Ð½ÐµÐ¹
ĠÐºÑĢÐ¾Ð²Ð°Ð² ÑĥÑİ
ĠÐ´Ð¾Ð¿ ÑĥÑģÑĤÐ¸ÑĤÑĮ
ĠÐ½ÐµÐ±Ð¾Ð»ÑĮÑĪ Ð°Ñı
ĠÐ½ÐµÐ±Ð¾Ð»ÑĮÑĪ Ð¾Ðµ
ĠÐ¿ÐµÑī ÐµÑĢÐµ
ĠÑģÐ¾Ð·Ð´Ð°Ð½ Ð¸Ð¹
ĠÑĢÐ°Ð±Ð¾Ñĩ Ð¸Ðµ
ĠÑĢÐ°Ð·Ð²Ð°Ð» Ð¸Ð½
ĠÑģÐºÐ¸ÑĤ Ð°ÑĢÐ¸ÐµÐ²
Ð¸Ñģ Ð¸
ĠÑĢ Ð¾Ð¹
ĠÐ¸Ð· Ð³Ð¾
Ð°Ð³ Ð°Ð½
ÐĴ Ð»Ð°Ð´Ñĭ
ĠÐ¿Ð¾ÑĤ ÑĢÐ°ÑĤ
ĠÐ½ÐµÐ¼ Ð°Ð»
ĠÐ·Ð°Ð² Ð»Ð°Ð´
ĠÐ»ÑİÐ± ÐµÐ·
ĠÐ¼ÐµÐ´ Ð¸ÑĤ
ĠÑģÐ»ÑĥÑĩ Ð¸ÑĤÑĮÑģÑı
ĠÐ¿ÑĢÐ¸ÑĪ ÐµÐ´
ĠÑħÐ¾Ð» Ð¾Ð´Ð°
ĠÐ·Ð°ÑĢ Ð°Ð½ÐµÐµ
ĠÐ¿Ð¾Ð¿ÑĭÑĤ Ð°Ð»Ð¸ÑģÑĮ
ĠÐ¿ÑĢÐ¸Ð³ Ð»Ð°ÑĪ
ĠÐºÑģÐµÐ½ Ð¾ÑģÐ°
ÑĪÐ°Ñı ÑģÑı
ĠÐ¿ÐµÑĢÐµÐ³ ÑĢÑĥÐ·
ĠÐ¸ÑģÐ¿Ð¾Ð»Ð½ Ð¸ÑĤÑĮ
ĠÐ²Ð¾ÑĪ Ð»Ð°
ĠÐ£Ð· Ð°Ñģ
ĠÐ¾ÐºÐ°Ð¶ ÑĥÑĤÑģÑı
Ġ im
ĠÐº Ð°
ĠÐº Ð°Ð¶
ĠÐ´ Ð½ÐµÐ¼
Ð¸Ð» Ð»Ñĭ
ĠÐļ ÑģÐ°
ĠÐ¿Ð¾Ð´ ÑĬ
ÑĦ Ð¾ÑĢÑĤ
ÐĿ Ð°Ð²
ĠÐºÐ¾Ð» Ð¾ÑĤ
ĠÐ¿Ð¾Ð¿ ÑĢÐ¸Ð²ÐµÑĤ
ĠÐ¤ Ð°Ð»ÑĮÐº
ĠÐ²ÑĭÑģ ÐµÑĩ
ĠÐ¿Ð¾Ð³ ÑĥÐ±
ĠÐ½ÐµÐ¼ Ð¸Ð½Ñĥ
ĠÐĴÑĭ Ð¿
ĠÑħÐ¾Ñĩ ÐµÑĤÑģÑı
or t
ĠÑĩÐ¸ÑģÑĤ Ð¾
ĠÑĩÑĥÐ¶ Ð¸Ñħ
ĠÑĥÐ¼Ð¸ÑĢ Ð°ÐµÑĤ
ĠÐ½ÐµÐ±Ð¾Ð»ÑĮÑĪ ÑĥÑİ
ĠÐ³Ð¾ÑĢÐ´ Ð¾ÑģÑĤÑĮÑİ
ĠÐ·Ð½Ð°Ð¼ Ñı
ĠÐ¾ÑģÑĤÑĢÑĭ Ð¼Ð¸
ĠÑĤÑĢÐµÑĤÑĮ ÐµÐ¹
ĠÐĴÑĢÐ°Ð³ Ð°
ÐĽÐµÐ³Ð¸Ð¾Ð½ Ð°
ĠÐ²ÑĭÑģÑĤÑĢÐ¾ Ð¸Ð»Ð¸ÑģÑĮ
ĠÑĢÐµÑģÑĥÑĢ ÑģÑĭ
ĠÐ·Ð°Ð³Ð»Ñı Ð½ÑĥÐ»
ĠÐ¿ÐµÑĢÐµÐ· Ð°ÑĢÑıÐ´
ĠÐĲÑģÑĤÑĢÐµ Ð¾Ñģ
ĠÐ¿Ð¾Ð¼ÐµÐ´Ð» Ð¸Ð»
ĠÐ¾ÑģÐ½Ð° Ñī
Ð½ Ð¾Ð¶
Ñħ Ð¸
ĠÐ¸ ÐµÑĢ
ĠÐ´ Ð°ÑģÑĤ
Ð°ÑĢ Ð´Ð¸
ÐµÐ² ÑĪÐ¸Ð¼
ĠÐ²Ñĭ Ð»ÐµÐ·
ĠÐĴ Ð½ÑĥÑĤÑĢÐµÐ½
ĠÐĿ ÐµÑģÑĤ
ĠÑģÐº Ð»ÐµÐ¿
Ð¸ÑĨ Ð°Ð¼Ð¸
ÑĢÐ°Ð¶ ÐµÑģÐº
ĠÐ£ Ð²Ð¸Ð´
ÑĥÑī Ñĥ
Ðĵ Ð½ÐµÐ²
ÐºÐ¾Ð¼ Ð°Ð½Ð´
ĠÐ½Ð°ÑĪ Ð»Ð°
ĠÐ½Ð¸Ðº ÑĥÐ´Ð°
ĠÐ²ÐµÐ´ ÐµÐ½Ð¸Ñı
ĠÐ¿Ð¾Ð´Ð½Ð¸Ð¼ Ð°ÐµÑĤÑģÑı
ĠÐ½ÐµÐ¾Ð± ÑĬ
ĠÑģÑĭ Ð³ÑĢ
ĠÐ¼ÐµÑĤÐ°Ð»Ð»Ð¸ÑĩÐµÑģÐº ÑĥÑİ
ĠÐ±Ð°ÑĪ Ð½Ñı
ĠÐ¾ÑĤÐºÑĢÑĭÑĤ ÑĥÑİ
ĠÐ¼ÐµÐ» ÐºÐ¸Ñħ
ĠÐ¡Ð¾Ð» Ð´Ð°ÑĤÑĭ
ĠÑĢÐ¸Ñģ ÐºÐ½ÑĥÐ»
ĠÑģÐ¼Ð¾Ð¶ ÐµÑĤÐµ
ĠI t
ĠÐ·Ð»Ð¾Ð± Ð½Ð¾
ĠÐ¾ÑĤÑĪ Ð²ÑĭÑĢÐ½ÑĥÐ»
ĠÑĢÐ°Ð·Ð¼ÑĭÑĪ Ð»ÐµÐ½Ð¸Ñı
ÑĥÐ¹ ÑĤÐµ
ĠÑĩÐµÑģÑĤ Ð½Ð¾
ĠÐ±Ð¾Ð¼Ð±Ð°ÑĢÐ´Ð¸ÑĢÐ¾Ð² ÐºÐ¸
ĠÐ¿ÐµÑĢÐµÑĪ ÐµÐ»
ĠÑģÑĤÐ°Ð± Ð¸Ð»Ð¸Ð·
ĠÑįÑģÐºÐ°Ð´ ÑĢ
ĠÐ¼Ð°Ð³Ð°Ð· Ð¸Ð½
ÑģÐ°Ð¹Ðº ÐµÑĢ
ĠÐ²Ð°ÐºÑĥ ÑĥÐ¼
ĠÐ¿ Ð¾Ð¹Ð´ÐµÑĤ
ĠÐ¿ ÐµÐ¹Ð·
Ðº Ð½ÑĥÐ»Ð¸
ĠÐ¢ ÑģÑĥ
ĠÐĶ ÐµÑĨ
ÐĴ Ð½ÑĥÑĤÑĢÐ¸
ĠÐĵ Ð»Ð¾
ĠÐ¿Ð¾Ðº ÑĢÐ°Ñģ
ĠÐł ÑĥÐºÐ°
ÐĶ ÐµÐ¹ÑģÑĤÐ²
ĠÐ¿ÑĢÐ¸ Ð¾Ð±ÑĢ
ĠÑĢÐ°ÑģÐº Ð°ÑĤ
ĠÐ¿Ð»Ð°Ð½ÐµÑĤ Ð¾Ð¹
ĠÐ¿ÑĢÐ¾Ð²Ð¾Ð´ Ð¸Ð»
ĠÐ½Ð°ÑĤ Ð¸Ñģ
ĠÐºÐ¾Ð»Ð¸Ñĩ ÐµÑģÑĤÐ²Ð°
ĠÐļÑģ Ð°ÑĢÐ»
ĠÑĢÐµÐ°Ðº ÑĤÐ¾ÑĢÐ°
ĠÐ¿Ð¾Ð´Ð¾Ð·ÑĢ ÐµÐ½Ð¸Ñı
ĠÐ¼ÑĥÑģ Ð¾ÑĢÐ°
ĠÑĢÑı Ð±
ĠÑĤ ÑĢÑıÑħ
ĠÐ· Ð¼ÐµÑı
ĠÐ½Ðµ Ð¾Ð±Ñĭ
ĠÑĢ ÐµÐ¹
ĠÐ¸Ð· ÑĭÑģÐº
ĠÐ¿Ð¾Ð´ Ð½ÐµÑģ
ĠÐ¢ ÑĢÐ°
ÑĦ ÐµÐ¹
ĠÐĲ ÑĦ
ĠÐ¿Ð¾Ð» Ð¾Ð¼
ĠÐĵ Ð¸ÑĨ
ĠÐ²Ð¾Ð· Ð½
ĠÑĦ Ð¸Ð»ÑĮÑĤ
Ð¸ÑĢÐ¾Ð² ÐºÑĥ
ĠÐ½Ð°Ð¿ ÑĢÐ¸Ð¼ÐµÑĢ
Ð¥ Ð°Ð»
ĠÐ¿ÑĢÐ¾Ð² ÐµÐ»Ð¸
ÑĳÐ½ Ð½Ð¾Ðµ
ĠÐ²Ð´ Ð²Ð¾Ðµ
ĠÐ¿ÑĢÐ¾Ðº Ð»Ð¸Ð½
ĠÐ¿ÑĢÐ¸Ñĩ Ð¸Ð½Ñĥ
ĠÐľÐ°ÑĢ Ñģ
ĠÑĢÐ°Ð·ÑĢÑĥÑĪ Ð¸ÑĤÑĮ
ÑıÐ½ Ð¸Ñı
ĠÐ¿ÑĢÐ¾ÑĢ ÑĥÐ±
ĠÑģÑĤÐ°Ð½Ð¾Ð² Ð¸Ð»Ð°ÑģÑĮ
ĠÐ²Ð¾Ð·Ð½Ð¸Ðº Ð»Ð¸
ĠÐ¼Ð¸Ð»Ð»Ð¸ Ð°ÑĢÐ´
ĠÐ³ÐµÑĢ Ð¼ÐµÑĤ
ĠÐļÑĢÐ°Ñģ Ð½ÑĭÐ¹
ĠÑĢÐ¾ÑģÑĤ Ð¾Ð¼
ĠÐ¾ ÑĢÐ¸
ÐµÐ» Ð»Ð¸Ð½
Ð³ Ð°Ð»
ÐµÑģ ÐµÐ´
ĠÐ¡ ÐµÑĢÐ²Ð¸ÑĤÐ¾ÑĢ
ĠÐŁ Ð°Ð²
ÑĥÐ¶ Ð´Ð°ÑĤÑĮ
ĠÑĦ Ð°Ð½ÑĤ
ÑĥÐ» ÐµÐ¹
ĠÑĥÐ´ Ð¾ÑģÑĤÐ¾Ð²ÐµÑĢ
ĠÐ±ÐµÐ· Ð·Ð°ÑīÐ¸ÑĤ
ÑģÐ» ÑĭÑĪ
ĠÐ·Ð°Ð± ÑĢÑĭÐ·Ð³
ĠÐºÐ°Ð¼ ÐµÑĢÑĥ
ÑĳÐ½ Ð¾ÐºÐ¾Ð¶
ĠÐ¾ÑĩÐµÑĢÐµÐ´ Ð½Ð¾Ð³Ð¾
ĠÐłÐ°Ð· Ð´Ð°Ð»ÑģÑı
ĠÑıÐ²Ð»Ñı Ð»Ð¸ÑģÑĮ
ĠÐ½Ð°ÑģÑĤÐ¾ÑıÑī ÐµÐ¹
ĠÑģÐ´ÐµÑĢÐ¶ Ð¸Ð²Ð°ÑĤÑĮ
ĠÐ²Ð¸Ñģ ÐµÐ»Ð°
ĠÐ±Ð»Ð¸Ð¶Ð°Ð¹ ÑĪÐµÐ¹
ĠÐ²Ð½ÐµÑĪ Ð½Ð¸Ñħ
ĠÐ²ÑĭÐ³Ð»ÑıÐ´ ÐµÑĤÑĮ
ĠÐ¡Ð¾Ð» Ð¾Ð¼
ĠÐ±Ð»ÐµÑģÑĤ ÐµÐ»Ð¸
ĠÐ´ÐµÑģÐ°Ð½ÑĤ Ð½ÑĭÑħ
ĠÑĢÑĭÑĩ Ð°Ð½Ð¸Ðµ
ÐĽÑİ Ð´Ð¸
ĠÑģÐºÑĢÐµÐ¶ ÐµÑĤÐ¾Ð¼
ĠÐ¾ÑĤÐ²ÐµÑĢÑģÑĤ Ð¸Ñı
ĠÐ¨ÑĢÐ°Ð¼ Ð¾Ð²
ĠÐ¿Ð¾Ð¼ÐµÑĪ Ð°ÑĤÑĮ
ĠÑĦÑĢÐ°Ð³Ð¼ÐµÐ½ÑĤ Ñĭ
ĠÐ½ÐµÐ¿Ð¾ÑģÑĢÐµÐ´ ÑģÑĤÐ²ÐµÐ½Ð½Ð¾
ĠÑģÐ²ÑıÑĤÐ¸Ð»Ð¸ ÑīÐµ
ĠÑĤÑĢÐ°ÑĤ Ð¸ÑĤÑĮ
Ñģ ÐµÑģ
Ñĥ Ð½Ñĭ
ĠÐ² ÑıÐ·
ĠÐļ ÐµÐ»Ð»
ÐµÐ³ Ð°Ð»Ð¸
ÐĿ Ð°ÑģÑĤ
ĠÐĵ ÑĢÐ¸ÑĦ
Ð¸ÑģÑĤ Ð°Ñı
ĠÐ²Ð· Ð¼Ñĭ
ĠÐ¾Ð¿ ÑĥÑħ
ĠÐ¸ÑģÐ¿ Ð¾Ð²ÐµÐ´
ĠÐ±ÑĢÐ¾Ñģ Ð¸Ð»Ð°ÑģÑĮ
ĠÐ´Ð²ÐµÑĢ ÑıÐ¼
ĠÐ¡Ðº Ð°ÑĢ
ĠÐ¸ÑģÐ¿ÑĭÑĤ Ð°Ð»
ĠÐ¾Ð±ÑĭÑĩ Ð½ÑĭÐµ
ĠÐ·Ð°ÐºÐ¾Ð½Ñĩ Ð¸Ð»Ð¾ÑģÑĮ
ĠÐ¿ÑĭÐ»ÑĮ Ñİ
ĠÐ²ÑģÑĤÑĥÐ¿ Ð¸Ð»
ĠÐ½ÐµÑĢÐ² Ð½Ð¾
ĠÐ¿Ð¾Ð½Ð°Ð´Ð¾Ð± Ð¸Ð»Ð¾ÑģÑĮ
om e
ĠÐ»Ð¸Ð´ ÐµÑĢ
ĠÑįÐºÑģÐ¿ÐµÐ´ Ð¸ÑĨÐ¸Ð¾Ð½
Ð´ Ð¾Ð±
ĠÐ¸ ÑīÐ°
ÐµÑĢ ÐµÑĤ
ĠÐ´ Ð½Ðµ
ĠÐ· Ð¾Ð½
ĠÐ½Ð° ÑĢÑĥÑĩ
Ð± Ð¸ÑĢ
ÐµÐ´ Ð½ÐµÐ²
ĠÐµ Ñħ
ĠÑģÐº Ð°Ð»ÑĮ
ĠÐ¿Ð¾Ð» ÐµÐ¹
Ð½Ð¾Ð² ÐµÐ½Ð¸Ñı
Ð°ÑĤÐµÐ»ÑĮ Ð½Ð°Ñı
ĠÐ¿ÑĢÐ¾ÑģÑĤ ÑĭÑħ
ĠÐ»ÑĥÑĩ ÑĪÐµÐ¼
ĠÐ²ÐµÐ´ ÑĥÑīÐ¸Ð¹
ĠÐ·Ð°ÑīÐ¸ÑĤ Ð½Ð¸ÐºÐ¸
ĠÑģÐ¼ÐµÑĢÑĤ Ð½ÑĭÐ¹
ĠÐºÐ°Ð± Ð¸Ð½Ñĥ
ĠÐ¿ÑĥÑģÑĤÑĭ Ð½Ð¸
ĠÐ´Ð¶ÑĥÐ½ Ð³Ð»Ð¸
Ð³ÐµÐ½ÐµÑĢ Ð°Ð»
ĠÐ½ÐµÐ¿Ð»Ð¾Ñħ Ð¾
ĠÑģÑĤÐ°Ð· Ð¸Ñģ
i re
ĠÑģÐº ÑĥÑĩ
ĠÑĪ Ð¸Ð½
ÑģÐ» ÐµÐ¶
ĠÐ½ÐµÐ¿ ÑĢÐ¸Ðº
ĠÐ¸ÑģÑĤ ÐµÑĢÐ·
ĠÐ½ÐµÐ´ ÐµÐ»Ñİ
ĠÐ½Ð°Ð±Ð»Ñİ Ð´Ð°ÑĤ
ĠÐ¶ÐµÐ»ÐµÐ· Ð½ÑĭÐµ
ĠÐ½Ð¾Ð¶ ÐµÐ½
ĠÐ¾Ð±Ñī ÐµÐ¹
ĠÑģÑĢÐ°Ð²Ð½ Ð¸ÑĤÑĮÑģÑı
ĠÐ¾ÑĤÐ²ÐµÑĩ Ð°ÑĤÑĮ
ĠÑģÑĢÐµÐ´ ÑģÑĤÐ²Ð°
ĠÐ¤ÐµÑĢ ÑĢÑĥÑģÐ°
ĠÐ¿ÑĢÐ¸ÑĢ Ð¾Ð´
ĠÑĩÐµÐ» Ð½
ĠÐ¾ÑĤÑĢÐµÐ· Ð°Ð»
ĠÐ±ÐµÑĢÐµÐ³ Ñĥ
ĠÐĲÑĢÐ¼Ð°Ð³ÐµÐ´ Ð´Ð¾Ð½
ĠÐ²Ð¾ÐµÐ½ Ð°ÑĩÐ°Ð»ÑĮ
Ġ ro
ĠÐ¿ ÑĥÐ»ÑĮÑĤ
ĠÐ² Ð¸
Ð² Ð¸Ð»
ĠÐ¼ Ð°ÑĤÑĮ
ÑĨ Ð¸Ð°Ð½
ÐµÐ¹ ÑĢ
Ð¸Ñģ ÑģÐ°
ĠÐ¢ Ð¸ÑĤÐ°Ð½Ð°
Ð¸ÑĤÐµÐ»ÑĮ Ð½Ñĭ
ĠÑĩÐµÑĢ ÐµÐ´
Ðĵ ÑĢ
Ð½ÑĥÑĤ Ð°
ĠÑģÑĤÐ°ÑĢ ÑĪÐ¸Ñħ
Ð¾Ð²Ð°Ð½ Ð½ÑĭÐ¼
ĠÑĨÐµÐ» ÑĭÐ¼
ĠÐ¾Ð· ÐµÑĢÐ°
ĠÑĪÑĤÑĥÑĢÐ¼ Ð¾Ð²ÑĭÐµ
ĠÐ³Ð¸Ð³Ð°Ð½ÑĤ ÑģÐºÐ¸Ðµ
ĠÐ´Ð¾Ð¿ ÑĥÑģÐº
ĠÐ·Ð°Ð½Ð¸Ð¼ Ð°Ð»Ð¸
ĠÐ·Ð°Ð»Ð¿ Ñĭ
ĠÐ¸Ð·ÑĥÑĩ Ð°Ñı
ĠÐļÐ¸ÑĢ Ð¸Ð¾Ð½
ĠÐ²ÑĭÑĤ Ð°ÑģÐº
ĠÐĹÐµÐ¼ Ð»Ð¸
ĠÐ¿Ð°ÑĤÑĢÑĥ Ð»ÑĮ
ĠÐ»ÐµÐ³ÐµÐ½ Ð´Ñĭ
ĠÑįÐ²Ð°ÐºÑĥ Ð°ÑĨÐ¸Ð¸
ĠÑģÐ¾Ð¿ÐµÑĢ Ð½Ð¸Ñĩ
ĠÐĹÐ¸Ð½Ð´ÐµÑĢÐ¼Ð°Ð½ Ð½
Ð» ÐµÑĨ
ĠÐ¸ Ð½Ð¾Ð³Ð¾
Ð¸Ñģ ÑħÐ¾Ð´
Ð°Ð· Ñĭ
ĠÐ¶ ÐµÐ½
Ð°Ð»ÑĮ Ð½Ð¾ÑģÑĤÐ¸
ĠÐĶ Ð°Ð¹
ĠÐĳ ÑĢÐ¸ÑįÐ»ÑĮ
ĠÐ¸Ð¼ Ð¼Ð°ÑĤÐµÑĢ
Ð¡ Ð»Ð¸ÑĪÐºÐ¾Ð¼
ÑĭÑĪ ÐºÐ°
ÑģÑĤÐ²ÐµÐ½ Ð½Ð°Ñı
ĠÑģÐ´ÐµÐ» Ð°Ð²
ĠÐ¿Ð°ÑĢ Ð¸ÑĢÐ¾Ð²Ð°Ð»
ĠÑģÐ± Ð¾ÐºÑĥ
ÐŀÑĤ ÐºÑĥÐ´Ð°
Ð¾Ð¹Ð´ ÐµÐ¼
ĠÐ»Ð¸Ñĩ Ð½Ð¾ÑģÑĤÐ¸
ĠÑģÐ¾ÑģÑĤÐ¾Ñı Ð»Ð°
ĠÐ½ÐµÐ¾Ð±ÑħÐ¾Ð´Ð¸Ð¼ ÑĭÐµ
ĠÐ¶Ð¸Ð²Ð¾ÑĤ Ð½Ð¾Ðµ
ĠÐ²Ð¾Ð·Ð²ÑĭÑĪ Ð°Ð»Ð¸ÑģÑĮ
ĠÑģÐ¼ÐµÑĢÑĤÐµÐ»ÑĮ Ð½Ð¾
ĠÐ²Ð¾Ð½Ð· Ð¸Ð»
ÐĴÐ°ÑĢ Ñģ
ĠÐ½Ñĭ Ð½Ðµ
p p
ĠÐ½ Ð°Ð½Ð¾
Ð¸Ð½ Ð³
ĠÑĢ Ð¸Ð½ÑĥÐ»Ð¸ÑģÑĮ
ĠÐ¡ Ð½Ð°ÑĢÑıÐ´
ĠÐ¢ Ð°Ð»Ð°
Ð¾Ñĩ Ð½ÑĥÑİ
Ð°ÑģÑĤ ÑĥÑİ
ĠÐ²Ð¾Ð· Ð½ÐµÑģ
âĢ¦ Â»
ÐĲ Ð±
Ð¸Ñī ÐµÐ¼
ĠÐ¿ÑĢÐ¸Ð² ÐµÐ·
ÑĥÐ³ Ð°Ð´
ĠÐ¾Ð· Ð°Ð´Ð°Ñĩ
ĠÑģÑĭ Ð½Ñĭ
ĠÐ»Ð¸Ñĩ Ð½Ð¾Ð¹
ĠÑģÐ¾Ð¾Ð±Ñī Ð¸ÑĤÑĮ
ĠÑĥÑħ Ð¾
ĠÑģÐµÐºÑĥÐ½Ð´ Ð¾Ð¹
ĠÐ½Ð°ÑģÑĤÐ¾ÑıÑī ÐµÐ³Ð¾
ĠÐ¾ÑĢÑĥÐ´Ð¸Ð¹ Ð½ÑĭÑħ
ĠÐ¾ÑĪÐ¸Ð± ÐºÐ°
ĠÐ¸ÑģÑĤÐ¾Ñĩ Ð½Ð¸ÐºÐ¾Ð¼
ĠÑĢÐµÐ± ÑĢÐ°
ĠÐ¾ÑĢÐ³Ð°Ð½Ð¸Ð· Ð°ÑĨÐ¸Ð¸
ĠÑģÐ¾ÑģÑĢÐµÐ´Ð¾ÑĤÐ¾Ñĩ Ð¸Ð»ÑģÑı
ĠÐ³Ð¾ÑĢÑıÑī ÐµÐ³Ð¾
ĠÐ±ÐµÑģÑĩÐ¸Ñģ Ð»ÐµÐ½Ð½ÑĭÐµ
ĠÐĵÐ¸Ð´ ÐµÐ¾Ð½
ĠÑĤÑĢÐ¾ÑĦ ÐµÐ¹
ĠÐ½ÐµÑĥÐ´ Ð¾Ð±
ÑģÐ¾ Ð¾Ð±Ñī
ĠÐ¿ÑĢÐµÐ½ÐµÐ± ÑĢÐµÐ¶
ĠÐ¢ÐµÐ¼Ð¿ ÐµÑģÑĤ
ÑĢ Ð¸Ð¹
ĠÐº Ð¾ÑĤ
ĠÐ¼ Ð¾ÑĤÐ¸Ð²
ĠÐ´ Ð¸Ð¿Ð»Ð¾Ð¼
ĠÐ» Ð¸ÑĤÐ°Ð½
ĠÐºÐ¾ Ñĩ
ĠÐ¢ Ð²Ð¾Ð¹
ĠÐ¿Ð¾Ð· Ð¾ÑĢ
ĠÑĥÐ± Ð¸Ð²Ð°Ñı
ĠÐºÑĢÐ¾Ð² Ð¾Ð¶Ð°Ð´
ÑıÐ² ÑĪÐ¸Ð¹
ĠÑģÑĤÐ¾ÑĢ Ð¾Ð¶
ĠÑģÐ²ÐµÑĤ Ð¸Ð»Ð¸ÑģÑĮ
ĠÐ½Ð°Ðº Ð¸Ð´
ĠÐ¿ÑĢÐµÐ´ÑģÑĤÐ°Ð² Ð¸Ð»
ĠÐ¸Ð·Ð¼ÐµÐ½ Ð¸Ð»
er s
ĠÐ³Ð»Ð°Ð² Ð½Ð¾Ðµ
ĠÐ¶ÐµÐ»ÐµÐ· Ð½ÑĭÑħ
ĠÐºÐ°ÑĢ Ðº
Ð¸ÐºÑģ Ð¾Ñģ
ĠÐ½Ð°Ð¿Ð¾Ð¼Ð¸Ð½ Ð°Ð»Ð¾
ĠÐºÐ¾Ð»Ð¸Ñĩ ÐµÑģÑĤÐ²Ð¾Ð¼
ĠÑģÐ¾Ð¼Ð½ÐµÐ² Ð°ÑĤÑĮÑģÑı
ĠÑģÐ¼ÐµÑħ Ð¾Ð¼
ĠÐ³ÑĢÑĥÐ·Ð¾Ð² Ð¸Ðº
ĠÑĢÐ°Ð·ÑĢÐµÑĪ ÐµÐ½Ð¸Ñı
ĠÐ¿ÐµÑĢÐµÐ´Ð°Ñĩ Ð¸
ĠÐ¿Ð°ÑģÑģÐ°Ð¶ Ð¸ÑĢ
ĠÐ¿Ð¾Ð²ÑĢÐµÐ¶ Ð´ÐµÐ½
ĠÐ°Ð¼ÑĦ Ð¸ÑĤÐµ
ĠÐ½ÐµÐ¼Ð¸Ð½Ñĥ ÐµÐ¼
Ð¸ ÑĢÐ°Ð¹
Ñĭ ÑĪÐµ
Ð¾Ð½ Ð¸
Ð¾Ð½ Ð¸Ð¹
Ð°Ð² ÑĪÐµÐµÑģÑı
ĠÐļ ÑĥÐ´Ð°
ĠÐ²Ñģ ÐµÐ»ÐµÐ½
ĠÑĢÐ°Ð· Ð¾Ð³
ĠÐĶ Ðµ
ĠÑģÑĤÐ¾ ÑıÑīÐµÐ³Ð¾
ÑĥÑī Ð¸ÐµÑģÑı
ĠÐ³Ð¾ÑĤÐ¾Ð² Ð½Ð¾ÑģÑĤÑĮ
ĠÑĢÐ°ÑģÐº ÑĢÑĭ
ĠÑĪÐ»ÐµÐ¼ Ð¾Ð²
ĠÑĩÐµÑĢÐµÐ¿ Ð¾Ð²
ĠÑĤÑĢÑĥÐ¿ Ð°Ð¼Ð¸
Ð°ÑĨÐ¸Ð¾Ð½ Ð½Ð¾Ð¹
ĠÑĢÐ°Ð·Ð¾ÑĢÐ² Ð°Ð»Ð¸
Ð¡Ðº Ð°Ð¶Ð¸
ĠÐ±Ð»Ð¸Ð¶Ð°Ð¹ ÑĪÐ¸Ñħ
ĠÐĵÐ°ÑĢ Ð³
ĠÐ½ÐµÐ¸Ð·Ð²ÐµÑģÑĤ Ð½Ð¾
ĠÑĤÑĥÑģÐº Ð»Ð¾
ĠÑĥÐ¿Ð¾ÑĢ Ð½Ð¾
ĠÐ±ÐµÐ·Ð¼Ð¾Ð»Ð² Ð½Ð¾
ĠÐ´Ð¶ÑĥÐ½ Ð³Ð»Ñı
ÐļÐ¾ ÑĢÐ°ÐºÑģ
ĠÐ£Ð»ÑĮÑĤÑĢÐ°Ð´ÐµÑģÐ°Ð½ÑĤÐ½Ð¸Ðº Ð¾Ð²
ĠÑĦÑĢÐ¾Ð½ ÑĤ
ĠÐ²Ð¾ÑĢÐ² Ð°Ð»Ð¸ÑģÑĮ
ĠÑģÐ¸Ð³Ð½ Ð°Ð»Ð°
ÑİÐ¶ Ð¸Ð½Ñĭ
ĠÐ±ÐµÐ·Ð·Ð² ÑĥÑĩÐ½Ð¾
ÐĲÐ¿ Ð¾ÑĤÐµÐºÐ°ÑĢÐ¸Ð¹
ÐµÐ½ Ð´Ð°ÑĢ
ĠÑĥ ÑĢÐ¾Ð¶
ÐµÐ² ÑĭÐ¼
ĠÑģÑĤ Ð°Ð»ÑĮÐ½ÑĭÐµ
ĠÐŁ Ð¾Ð·
ĠÐ¢ ÐµÑħ
ĠÐľ ÐµÑĢÑĤÐ²
Ðŀ Ñħ
Ð°ÑģÑĤ Ð¸ÑģÑĮ
Ð¸ÑĤÐµÐ»ÑĮ Ð½Ð¾ÑģÑĤÑĮÑİ
Ð¡ ÐµÑĢ
Ð¡ ÑĤÑĢ
Ð¡ ÐµÐ¿ÑĤÐ¸Ð¼
Ð¾Ñħ Ð½ÑĥÑĤÑĮ
ĠÐ¿ÐµÑĢÐµÐ´ Ð¾
Ðĳ ÑĭÐ»Ð¾
ĠÐ³Ð¾Ð²Ð¾ÑĢ Ð¸ÑĤÐµ
ĠÐºÐ¾Ð¼Ð°Ð½Ð´ Ð¾Ð²Ð°Ð»
ĠÐ¿ÑĭÑĤ Ð°ÑİÑĤÑģÑı
Ð¾Ð±ÑĢÐ°Ð¶ ÐµÐ½Ð¸Ðµ
ĠÐ¦ ÐµÐ½ÑĤ
ĠÐ´ÐµÑģÑıÑĤ ÐºÐ°
ĠÐ¾ÑģÐºÐ¾Ð» ÐºÐ°Ð¼Ð¸
ĠÐ¾Ð±Ð¾ÑĢÐ¾Ð½ Ðµ
ĠÑĥÑĪ Ð»Ð°
ĠÐ³Ð»ÑĥÐ¿ Ð¾
ĠÐµÑĢÐµÑĤ Ð¸Ðº
ĠÐ³Ð»Ð¾ÑĤ ÐºÑĥ
ĠÐ´Ð¾ÐºÐ°Ð· Ð°ÑĤÑĮ
ĠÑĢÐµÐ¼ ÐµÑģ
ĠÐ²Ð¸Ñħ ÑĢÑĮ
ĠÑĪÑĤÐ¾ÑĢ Ð¼Ð°
Ð¾ÑĤÐ¾Ð·Ð² Ð°Ð»ÑģÑı
Ñĥ ÑĢÐ°Ð¶
ĠÑģ ÑĨ
ĠÐ· ÑĢÐ°Ñĩ
Ð¸Ð² Ð°ÑİÑīÐµÐ¹
ĠÐ¿Ð¾ Ð¸ÑģÐº
ĠÐ²Ñĭ Ð²Ð°Ð»
Ð¾Ð¿ Ð°Ð´
Ð²ÐµÑĢ Ð¸
ĠÐ¿Ð¾Ðº Ð¾Ð¸
ĠÑģÐ»ÐµÐ´ ÑĥÑİÑīÐµÐµ
ĠÐ¿ÐµÑĢÐ² Ð¾Ð¼
ĠÐ¶ÐµÐ» Ð°Ð½Ð¸ÐµÐ¼
Ð¾Ð²Ð°Ð½ Ð¸Ð¸
Ð¾Ð²Ð°Ð½ Ð½Ð°Ñı
Ð½ÐµÐ¼ ÑģÑı
ĠÐ¿ÑĢÐ¸ÐºÐ°Ð· Ð°Ð¼
ĠÐ±Ð¾Ð¹ Ð½Ð¸
ĠÐ³ÑĢÑĥÐ¿Ð¿ Ð¾Ð¹
ĠÐ½Ð°Ð¿ÑĢÑı Ð¼
ĠÐ½Ð¾Ð¶ Ð°
ĠÐŁÐµÑĢÐ² Ð¾Ð¹
ĠÐ½Ð°ÑĩÐ¸Ð½ Ð°Ñı
ĠÐ½Ð°Ð» ÐµÐ²Ð¾
ĠÐµÑĢÐµÑĤ Ð¸ÐºÐ¸
ĠÐ±Ð°Ð· Ñĥ
ĠÐĳÑĭ ÑĤÑĮ
ĠÐ¾ÑħÐ²Ð°ÑĤ Ð¸Ð»Ð¾
ĠÐĲÐ± Ð°Ð´Ð´Ð¾Ð½Ð°
ĠÐ·Ð°ÑģÐ»ÑĥÐ¶ Ð¸Ð»
ĠÐ±ÐµÐ·Ð´ Ð½Ñĥ
ĠÑģÐ¾Ð¾ÑĢÑĥÐ¶ ÐµÐ½Ð¸Ðµ
ĠÐ¿ÑĢÐ¾Ð´Ð²Ð¸Ð³ Ð°Ð»Ð¸ÑģÑĮ
ec t
ĠÐĺÑģÑĤÐ²Ð° Ð°Ð½Ð°
ĠÐĺÑģÑĤÐ²Ð° Ð°Ð½Ðµ
ĠÑįÐ»ÑĮ Ð´Ð°ÑĢÐ°
ĠÐºÐ¸ÑĢ Ð¿
ĠÐļÐ°ÑĢÐº Ð°Ð·Ð¸
o c
Ð¿ ÑĢÐ¾Ð²
Ð°ÑĢ ÑıÐ¶
Ð¾Ð½ Ð¸Ð¼
Ð¸Ð² Ð°ÐµÑĪÑĮ
Ð¸Ñģ Ð¾Ð²
ĠÐļ Ð¸Ð±
ĠÐŁ ÑĢÐ°Ð¹
ÐĿ Ð°Ð·
ÐĿ Ð°ÑĪ
Ð°Ð¹ Ð¼
Ð¸Ð²ÑĪ Ð¸Ð¼Ð¸ÑģÑı
ĠÑģÑĤÐ°ÑĢ ÑĪÐµÐ³Ð¾
ĠÐ¿Ð¾Ñħ Ð²Ð°Ð»
ĠÐ±Ð¾Ð»ÑĤÐµÑĢ Ð½Ð¾Ð³Ð¾
ĠÑĢÐ°Ð·ÑĢÑĥÑĪ ÐµÐ½Ð¸Ðµ
ĠÐ»ÐµÐ¶ Ð°Ð»Ð¾
ĠÐ¿ÐµÑĢÐµÐº Ð°ÑĤÐ¸Ð»ÑģÑı
ĠÐ¥Ð¾ÑĢÑĥÑģ Ð¾Ð¼
ĠÐ·Ð¾Ð»Ð¾ÑĤ ÑĭÑħ
ĠÑĥÐºÑĢÐ°ÑĪ Ð°Ð»Ð¸
ĠÐ²ÐµÑĤÐµÑĢ Ð°Ð½Ð¾Ð²
ĠÐ·Ð°Ð¼ÐµÑĢ Ð»Ð¸
ĠÐ·Ð°Ð²Ð¸Ñģ Ð¸ÑĤ
ĠÑĩÐ¸ÑģÐ»ÐµÐ½ Ð½Ð¾ÑģÑĤÐ¸
ĠÐ¿Ð¾ÐºÐ¾Ð½Ñĩ Ð¸ÑĤÑĮ
ĠÐ¾ÑĤÐ²ÐµÑĤÑģÑĤÐ²ÐµÐ½ Ð½Ð¾ÑģÑĤÑĮ
ĠÑĩÐµÐ»Ð½ Ð¾ÐºÐ°
ĠÐ¿ÑĢ Ð¾Ð¶Ð¸Ð»
ĠÐ¿Ð¾Ð´ ÐµÑĢÐ³
ĠÐ¡ Ð°Ð»
ĠÐ¿Ð¾Ð» Ð¾Ð½
ĠÑģÐ¼ ÐµÑģÑĮ
ĠÐĲÑĢ Ð¸ÐºÑģ
ĠÑĢÐ°ÑģÑģ ÑĢÐµÐ´Ð¾ÑĤÐ¾Ñĩ
ĠÐ·Ð°Ð³ Ð°Ð´
ĠÐ²ÑĭÑģÐ¾Ðº Ð¸Ð¼Ð¸
ĠÐ¼ÐµÑħÐ°Ð½ Ð¸ÐºÑĥÐ¼
ĠÐ¸ÑģÐ¿ÑĭÑĤ Ð°Ð½Ð¸Ñı
ĠÐ¾ÑĤÑĩÐ°Ñı Ð½Ð¸Ðµ
ĠÐ¾Ð±Ð¾ÑĢ ÑĥÐ´
ĠÐ´ÐµÐ¹ ÑģÑĤÐ²Ð¾Ð²Ð°Ð»Ð¸
ĠÐ½ÐµÐ±ÐµÑģ Ð°Ñħ
ĠÐ´ÑĭÑĪ Ð°
ĠÐ´Ð¾Ð±ÑĭÑĩ Ð¸
ĠÐ·Ð°Ð¿Ð°Ñģ Ñĭ
ĠÐ¼Ð¾Ð»ÑĩÐ°Ð» Ð¸Ð²
ĠÐ·Ð°Ð¿Ð»Ð°ÑĤ Ð¸ÑĤÑĮ
ĠÑģÐ¾ÑĤÑĢÑĥÐ´ Ð½Ð¸Ñĩ
] .
ĠÐº Ð°ÑĤÐµÑĢ
ĠÐ´ Ð¾Ð±Ñĭ
Ð¾Ð± ÑħÐ¾Ð´
Ð¸Ñģ Ñĥ
Ð¸Ð· Ð°Ð½
ÐĴ Ð¾Ð¿
ĠÐĽ ÑĥÑĩÑĪÐµ
Ðļ Ð°Ð¶ÐµÑĤÑģÑı
Ð¢ ÐµÑħÐ½
ĠÐŃ Ð±
ĠÑģÑĤÐ¾ Ð½
Ðľ Ð°ÑĪÐ¸Ð½Ñĭ
ĠÐºÐ°Ð¿ ÐµÐ»ÑĮ
ÐŃ ÑĤÐ¾Ð³Ð¾
Ðĳ ÑĢÐ°ÑĤÑĮÑı
ĠÐºÐ°Ð¼ ÐµÑĢÐµ
Ð°Ñī ÑĥÑİ
ĠÐ·Ð°Ð½ ÐµÑģ
ĠÐ¾Ð±ÑĢÐ°ÑĤ Ð¸ÑĤÑĮ
ĠÐ²ÑĭÐ· ÑĭÐ²Ð°ÐµÑĤ
ĠÐ¿ÑĢÐµÐ²ÑĢÐ°ÑĤ Ð¸Ð»Ð¸
ĠÐ³Ð½ÐµÐ² Ð¾Ð¼
ĠÐºÐ¾Ð³Ð¾ ÑĢ
ĠÑģÑĥÐ´ÑĮ Ð±Ðµ
Ð³Ð¾Ð» ÑĥÐ±
ĠÑģÐ¾Ðº ÑĢÐ°Ñī
ĠÐŁÐ¾Ð²ÐµÐ» Ð¸ÑĤÐµÐ»Ð¸
ĠÐĴÐ¾Ð¹ Ð½Ð°
ĠÐ²Ð°Ð» ÑıÐ»Ð¸ÑģÑĮ
ĠÐ¾ÑģÐ¾Ð·Ð½ Ð°ÑĤÑĮ
ÑĥÑĦ ÑĢÐ°ÑĤ
ĠÐ¡ÐµÐ²ÐµÑĢ Ð¸Ð°Ð½
ĠÐ¼Ð¾Ð»Ð½Ð¸ ÐµÐ½Ð¾Ñģ
ÐĴÑĤÐ¾ÑĢ Ð¾Ð¹
ĠÐ½Ð°Ð²Ñĭ ÐºÐ¸
ĠÐ²ÑĭÑģÐ² Ð¾Ð±Ð¾Ð´
ĠÐ½ÐµÐ»ÐµÐ³ ÐºÐ¾
ĠÐ¿ÑĢÐ¾ÑĦÐµÑģÑģ Ð¸Ð¾Ð½
ĠÐº Ð¸Ð±ÐµÑĢ
Ñİ Ðº
Ð¶ ÐµÑĤ
ĠÐŁ Ð¾Ð»Ð°Ð³Ð°Ñİ
ĠÑĤÐ°Ðº Ð¾Ð¼Ñĥ
ÐĴ Ð¾Ð»Ñĩ
Ðļ ÑĢÐ¾Ð¼Ðµ
Ð¢ Ð¬
ĠÐ±Ð» ÐµÑģ
ĠÑĥÐ± ÑĢÐ°ÑĤÑĮÑģÑı
ÑĤÑĥ Ð·Ð¸
ĠÐ¿Ð¾Ð´Ð¾Ð± Ð½ÑĭÐ¹
ĠÑģÑĥÑīÐµ ÑģÑĤÐ²Ð¾Ð¼
ĠÐ±ÑĢÐ¾Ñģ Ð¸Ð»Ð¸
ĠÐ²Ð¾Ñģ ÑħÐ¾Ð´
ĠÐ°Ð´ ÑĢÐµÐ½Ð°Ð»
ĠÑĥÐ´Ð¸Ð² Ð»ÐµÐ½Ð¸Ñı
ĠÐ¿Ð°Ð»ÑĥÐ± Ð°Ñħ
ĠÑģÐ¿Ð°Ñģ ÐµÐ½Ð¸Ñı
ĠÐ¼Ð°Ð»ÐµÐ½ÑĮ ÐºÐ°Ñı
ĠÐ¾Ð±Ñī ÐµÐ¼
ĠÑģÐ¿ÑĢÐ°Ð² ÐµÐ´Ð»Ð¸Ð²
ĠÐ²ÑĭÐ·Ð² Ð°Ð»Ð¸
ĠÐ³Ð¾ÑģÐ¿Ð¾Ð´ Ð¸Ð½Ð°
ĠÑĢÐ¸ÑĤÑĥ Ð°Ð»Ñĭ
ĠÑįÐ½ÐµÑĢÐ³ÐµÑĤ Ð¸ÑĩÐµÑģÐºÐ¸Ð¹
ĠÐºÑĢÐ°ÑĤ ÐºÐ¸Ð¹
ĠÐ°Ð¼ Ð°Ñģ
ĠÐ²ÑĭÑĤÑı Ð½ÑĥÐ»
ĠÐ·Ð°Ð· Ð²
ĠÑĢÐµÐ³ ÑĥÐ»ÑıÑĢ
ĠÐ·Ð°Ð³Ð¾ ÑĢÐµÐ»
ÐľÐ°Ð³ Ð¸ÑģÑĤÑĢ
ĠÐ²ÑĭÐ¸Ð³ ÑĢÐ°ÑĤÑĮ
ĠÑģÑĤÑĭ Ð´
Ð» ÑĥÑİ
ĠÑģ ÑĢÐ¾Ðº
Ñĩ ÐµÑģÑĤ
Ð¿ Ð¸Ð¾Ð½Ð°
ĠÐ¾ÑĤ Ð³Ð¾Ð»Ð¾Ñģ
ĠÐļ ÐµÐ½Ð´ÐµÐ»
ĠÑĢÐ°Ð· Ð½
ĠÐĿ Ð°Ð·
ÑĥÑĩ Ð¸Ð¹
Ðļ Ð°Ð·Ð°Ð»Ð¾ÑģÑĮ
ĠÑĤÑĢ Ð¾Ð¸Ñħ
ĠÐ±ÐµÐ· Ð½Ð°Ð´ÐµÐ¶
ĠÑĤÐµÐ¼ Ð½ÑĭÐ¼Ð¸
ĠÐ¾ÑģÑĤÐ°Ð² Ð»ÑıÐ»Ð¸
ĠÑģÑĤÐ°ÑĢ ÑĪÐµ
ĠÑģÑĤÑĢ Ð¾Ð³Ð¾
ĠÑģÑĢÐ°Ð¶ ÐµÐ½Ð¸ÑıÑħ
ĠÐ¿ÑĢÐ¸Ñģ Ð»
ĠÐ¾Ð³ÑĢÐ¾Ð¼ Ð½Ð¾Ð¼
Ð¿ÑĢ Ð¾Ð±
ĠÐ»ÑĥÑĩ ÑĪÐ¸Ð¹
ĠÑĥÑĤ Ð¾Ð¿
ĠÐ·ÐµÐ»ÐµÐ½ ÑĭÐµ
ĠÐ¼ÑĭÑģ Ð»ÑıÑħ
ĠÑģÑĤÐ¾Ð»Ðº Ð½ÑĥÐ»ÑģÑı
ĠÐ²ÑĭÑĤÐ°Ñī Ð¸ÑĤÑĮ
ĠÐ¿ÑĢÐ¸Ð·ÑĢÐ°Ðº Ð¸
ĠÐ¿ÑĢÐµÐ¿ Ð¾Ð´
ĠÐĴÐ°ÑĢÑģ Ð°Ð²
ĠÑĥÐ±Ð»ÑİÐ´ Ð¾Ðº
ĠÐ¡ÑĤÑĢ Ð¸Ð±
ĠÐ±Ð¾Ð»ÑĮÑĪÐ¸Ð½ ÑģÑĤÐ²Ðµ
ĠÐ¥Ð°Ðº Ð¾Ð½
ĠÐ±Ð»Ð°Ð³Ð¾Ð³Ð¾Ð² ÐµÐ¹
ĠÐ¼Ð°Ð½Ð¸Ð¿ ÑĥÐ»Ñı
Ð¾ÑģÑĤÑĢÐ°Ð¼ Ð¾
ÐĴÐ°ÑĢÑģ Ð°Ð²Ð°
ĠÐ¸ ÑĤÐµÑĢ
ĠÐ± Ð¸Ð»Ð¸
Ð°ÑĤ ÐµÐ»Ñİ
Ð± ÑĢÐ°Ð½
ĠÐĵ Ð¸Ð³Ð°Ð½ÑĤ
Ð°Ð½ÑĤ Ð¸
Ð¸ÑģÑĤ ÑĥÑİ
Ð¡ Ð²ÐµÑĤ
ĠÐ²ÐµÑĢ Ð½ÑĭÐ¹
ĠÐ·Ð°Ð¼ Ð°Ð½
ĠÐ¿ÑĥÑģÑĤ ÑĭÐ¼Ð¸
ĠÐ¿ÑĥÑģÑĤ Ð¾ÑĤÑĭ
ĠÑĢÐ°Ð·Ð´ Ð°Ð»Ð¸ÑģÑĮ
ÑĳÐ½ Ð½Ð°Ñı
ĠÐ¿Ð¾ÑıÐ² Ð»ÑıÐ»Ð¸ÑģÑĮ
ĠÐ½Ð°ÑģÑĤ Ð¾Ð¹ÑĩÐ¸Ð²
ĠÐĴÑĭ ÑģÑĤÑĢÐµÐ»
ĠÐ¾ÑĢÑĥÐ´ Ð¸ÑıÐ¼Ð¸
ĠÐ¼ÐµÑĢÑĤÐ² ÑĭÐ¼
ĠÑĤÐ¾Ð½ ÐºÐ¾Ð¹
ĠÐ¦ Ð¸ÑĤÐ°Ð´
ĠÐ¿Ð°Ð»ÑĥÐ± Ð°
ĠÑģÐ¾Ñģ ÐºÐ¾Ð»ÑĮÐ·
ĠÑĩÐ°ÑģÐ¾Ð² Ð½Ð¸
Ð¸Ð³Ð¾ Ð½
ĠÑĥÐ»Ð¸ ÑĨ
ĠÑģÐ²ÑıÑĤ Ð¾Ð³Ð¾
ÑĳÑģ ÑģÑı
ĠÐ¸ÑģÑĤÑĢÐµÐ± Ð¸ÑĤÐµÐ»ÐµÐ¹
ĠÑģÐºÐ¾Ð¿ Ð»ÐµÐ½Ð¸Ñı
ĠÐ²Ð¸Ð± ÑĢÐ°
ĠÐ¿Ð»Ð°Ð·Ð¼ÐµÐ½ Ð½Ð¾Ð³Ð¾
ĠÐ² Ð¸Ð½Ñĭ
ÐµÐ» Ð¸ÑģÑĮ
Ð¾Ð¹ ÑĩÐ¸Ð²Ð¾
Ð¸Ð² Ð°ÑİÑīÐµÐ³Ð¾
ĠÐ» Ð°Ðº
Ð°Ð¶ Ð°
ĠÑĪ ÑĢÐ°Ð¿
ÑģÑĤÑĢ ÐµÐµ
Ð¾Ñĩ Ð½Ð¾Ðµ
Ð¡ Ð°Ð½Ð³Ð²Ð¸Ð½
ĠÑģÐ¾Ð± Ð¾ÑĢÐ°
ÐµÐ½ÑĮ Ð¾ÑĢ
ĠÐ·Ð°Ð¼ Ðº
ĠÑĥÐ± ÑĮÐµÑĤ
ĠÐ³ÑĢ Ð¸Ð±
Ð¾Ð²Ð°Ð½ Ð½Ð¾Ðµ
ĠÐ»Ð¸Ð½ Ðº
ĠÐĽÑİ ÐºÐ¾
ĠÐ·Ð» Ð¾Ð±Ñĭ
ĠÐ¿ÐµÑĢÐµÐ¼ ÐµÑģÑĤ
ĠÑħÐ° Ð¾ÑģÐ°
ĠÐ²Ð»Ð°Ð´ ÐµÐ»ÑĮ
ĠÑģÑĤÑĢÐ°Ð¶ ÐµÐ¹
ĠÑĢÐ°Ð·Ð´ÑĢÐ°Ð¶ ÐµÐ½Ð½Ð¾
ĠÑĢÐ°ÑģÐ¿Ð¾Ð»Ð°Ð³ Ð°Ð»ÑģÑı
ĠÑĤÑĭÑģÑıÑĩÐµÐ»ÐµÑĤ Ð¸Ð¹
ĠÐłÑĭÑĨÐ°ÑĢ ÑĮ
ĠÐ¡Ð¾Ð² ÐµÑĤ
ĠÐ¶Ð°Ð¶ Ð´Ð°
ĠÐ´ÑĮÑıÐ² Ð¾Ð»ÑĮ
ÑĢ ÐµÑģÑģ
ĠÐ¾ ÐºÐ°
ĠÐº Ð°ÑģÑĤ
ĠÐ± Ð¸Ð»Ð¸ÑģÑĮ
Ð¾Ð´ ÐµÐ¹ÑģÑĤÐ²
Ð¾Ð± Ð½Ð¾Ð²
ĠÐ³ ÑĢÐµÐ¼
ĠÐ¿Ð¾ ÑĢÐ°Ð±Ð¾ÑĤ
ĠÐļ Ð¸Ð¸Ð»ÐµÑĢ
ÐĿ ÐµÐ±
ĠÑģÐ¼ ÑıÐ³Ñĩ
ĠÐĽ ÐµÐºÐµ
ĠÐ¸Ð½ ÐµÑĢ
ĠÐ¨ ÐµÑģÑĤÑĮ
ĠÐ¼ÐµÑĤÐ°Ð» Ð»Ð¾Ð¼
ĠÐ¿Ð°ÑĢ Ð°Ð»Ð¸Ð·
ĠÐļÐ°Ðº Ð¸Ðµ
ĠÑĥÑģÐ¿ ÐµÑĪÐ½Ð¾
ĠÐ¼Ð¾Ð¼ÐµÐ½ÑĤ Ñĭ
ĠÐ¿Ð¾ÑıÐ² Ð¸ÑĤÑģÑı
ÐĴÑĭ Ñģ
ĠÐ´Ð»Ð¸Ð½ Ð½ÑĭÐ¼
ĠÑģÐ¼ÐµÑĢÑĤ Ð½ÑĭÐµ
ĠÐ¾ÑģÐ¾Ð± Ð¾Ð³Ð¾
at e
ĠÑĪÐ¸Ð¿ Ð°Ð¼Ð¸
ÑĢÐ¾Ðº Ð»Ð°Ñĥ
ĠÑıÐ·Ñĭ ÐºÐ¾Ð¼
ĠÐ¿ÑĢÐ¾ÑĨ Ð²ÐµÑĤ
ĠÐ¿ÑĢÐ¾ÑĨ ÐµÐ½ÑĤÐ¾Ð²
ĠÑģÑĤÑĥÐ¿ ÐµÐ½Ð¸
ĠÐŁÐ¾Ð¶ Ð°Ð»ÑĥÐ¹ÑģÑĤÐ°
ĠÐ²ÑģÑĤÐ°Ð² Ð¸Ð»
ĠÐ½Ð°Ð¼ÐµÑĢÐµÐ² Ð°Ð»ÑģÑı
ĠÑĢÐ°Ð·Ð½Ð¾ ÑĨÐ²ÐµÑĤ
ĠÐ½ÐµÐ½Ð°Ð²Ð¸Ð´ ÐµÐ»
Ð°ÑĦÑĦ ÑĢÐ°Ð½
ĠÐ¾ÑĨÐµÐ¿ ÐµÐ½
ĠÐ¼Ð¸Ð½Ð¸Ð°ÑĤ ÑİÑĢ
ÑĤÑĥÐ·Ð¸ Ð°Ð·
Ð½ ÐµÑĢ
ÑĢ Ð¾Ð·Ð½
ĠÐ± Ð¸Ð¾
ÐµÐ» Ðº
ĠÐ½Ð° ÑīÑĥÐ¿
ĠÐ¾ÑĤ ÑĢÐ¾Ð´
Ð¸Ð´ ÐµÑĢ
ĠÑģÐ» Ð¾Ñı
ĠÐľ Ð¸ÑĤÐ°
ĠÐ¿Ð¾Ð» ÑıÑħ
ĠÑĢÐ°Ñģ ÑģÑĤÑĥÐ¿
Ðļ Ð°ÑĢÐ°
ÑĢÐ¾Ñģ Ð¸Ð»Ð¸
ĠÐ¾Ð¿ Ð¾Ð»Ñĩ
ĠÐ±ÐµÐ· Ð»Ð¸Ðº
ĠÐ¾ÑĤÐ´ÐµÐ» ÐµÐ½Ð¸ÐµÐ¼
ĠÐ²Ð¾Ð·Ð² ÐµÐ´
ĠÐ»Ð¸Ð½ ÐµÐ¹
ĠÑģÐ¸Ð´ ÐµÑĤÑĮ
ĠÐ¿Ð¸ÑģÑĤÐ¾Ð»ÐµÑĤ Ð¾Ð¼
Ð¸Ð±Ð»Ð¸ Ð°ÑĢÐ¸Ð¹
ĠÐľÐ°Ð» ÐºÐ°Ð´Ð¾ÑĢ
ĠÑģÐ¾Ñĩ ÑĥÐ²
ĠÑĥÑĩÐ°ÑģÑĤ ÐºÐ¸
ĠÐ²Ð¾ÑĢÐ¾ÑĤ Ð°Ð¼
ver y
ĠÐ¼Ð°Ð½ÑĤ Ð¸Ñİ
ĠÐ¡ÐµÑģÑĤ ÑĢÐ°
ĠÑĢÐ°ÑģÑģÑĩÐ¸ÑĤ ÑĭÐ²Ð°ÑĤÑĮ
ĠÑģÑĥ ÐµÐ²ÐµÑĢ
ĠÐ¿ÑĢÐ¾Ð¼ÐµÑĤ Ð¸Ñı
Ġal l
ÐµÑĥ ÑģÑĤÑĢÐµÐ¼
ĠÐ±Ð¾ÑĢÐ¾Ð» ÑģÑı
ÑĢ Ð¸Ð·
ĠÐ½ Ð¸ÑĤÐ¸
ĠÐ» ÐµÐ½
ĠÑĢ Ð¾Ð¶
ĠÐ¸Ð· Ð¾Ð»Ñı
Ð¸Ñĩ Ð½Ð¾Ðµ
ĠÑģÐº Ð¾Ð¼Ð°Ð½Ð´Ð¾Ð²Ð°Ð»
ĠÐ¢ ÐµÑĤÑĥ
ĠÐľ Ð¸ÑĢÐ°
ĠÑĪ ÐµÑĢÐµÐ½
Ð°Ð³ Ð½Ð¸ÑĤ
ĠÑģÐ¿ Ð¸ÑĢÐ°Ð»Ð¸
Ð¸ÑģÑĤ Ð¸Ð½Ðµ
ĠÐ¿ÑĢÐµÐ´ ÑģÑĤÐ¾ÑıÑī
ÑĢÐ°Ð· ÑĥÐ¼
ÐĶ ÑĥÐ¼
ÐĲ Ñħ
ĠÐ½Ð°Ñĩ Ð°Ð»ÑģÑı
ĠÐ¿ÑĢÐ°Ð² ÑĭÐ¹
ĠÑĤÐµÐ» ÐµÐ¶
ĠÑģÐ¾ÑĤ Ð½ÑıÐ¼Ð¸
ĠÐ¾ÑĤÐ´ÐµÐ» ÐµÐ½Ð¸Ñİ
ĠÑī ÐµÐºÐ¸
ĠÐºÑĢÑĭ Ð»Ð¾
ĠÑģÐ¾Ð±Ð¸ÑĢ Ð°ÑİÑĤÑģÑı
ĠÐ»Ð¸ÑĪ Ð¸Ð»ÑģÑı
ĠÐ¸ÑģÐ¿ÑĭÑĤ ÑĭÐ²Ð°ÑĤÑĮ
Ð¾ÑĤÐ²ÐµÑĤ Ð¸Ð»Ð°
ĠÐ¾ÑĤÐºÑĢÑĭÑĤ Ð¾Ð¼
ĠÐ¿Ð¾ÐºÐ°Ð· Ð°ÑĤÑĮÑģÑı
ĠÑģÐ¸Ñı Ð½Ð¸ÐµÐ¼
ĠÐ¼Ð¾Ð´ ÐµÐ»Ð¸
ĠÐ¼Ð°ÑĤÐµÑĢÐ¸ Ð°Ð»Ð°
ĠÐ¿Ð¾ÑģÐ»ÐµÐ´Ð¾Ð² Ð°ÑĤÐµÐ»ÐµÐ¹
ĠÑĤÐµÐ½ ÑĮÑİ
ĠÑģÐ¿ÑĢÑıÑĤ Ð°ÑĤÑĮÑģÑı
ĠÑħÐ»Ñĭ Ð½ÑĥÐ»Ð¸
ĠÑĨÐ¸ÑĤÐ°Ð´ ÐµÐ»ÑĮ
ĠÐ´Ð¾Ð½Ð¾Ñģ Ð¸Ð»Ð¸ÑģÑĮ
ĠÐ±ÑĢÐ¾Ð² Ð¸
ĠÐĴÐµÐ½ Ð°Ð»Ð¸
ĠÐ§ÐµÑĢÐµÐ¿ Ð¾Ð²
ĠÐ³Ð¸Ð»ÑĮ Ð´
ĠXV II
Ñģ Ð¸Ð³
ÑĤÐ¾ Ð½Ð¸
ĠÑĥ Ð»Ð¾Ð¶
Ð°Ð¼ Ð°
ĠÐ¾ÑĤ ÑĤÐ°Ð»Ðº
Ð°Ð² ÐµÐ½
ĠÐ» Ð¶Ð¸
ĠÐļ Ð¾Ðµ
ĠÐĴ Ð¾Ð·Ð½ÐµÑģ
Ñĳ ÑģÑĤ
ĠÐ¿Ð¾Ð» Ð¾ÑĤ
ĠÐĶ Ð¾Ðº
ĠÐ·Ð°Ð¿ ÑĢÐ¾Ðº
ĠÐ·Ð°Ð´ Ð¾Ð»Ð³Ð¾
ĠÐ²ÑĭÐ¿ Ð»ÐµÑģ
ĠÐ²ÑģÐ¿ Ð»ÐµÑģÐº
Ð¥ Ð°
ĠÐºÐ¸Ð² Ð°ÐµÑĤ
ĠÐ½Ð°Ð¿ÑĢÐ°Ð² Ð¾
ĠÑĥÐ· ÐµÐ»
ĠÐ¾ÑĤÐ¿ ÑĢÑı
ĠÐ·Ð°Ð³ ÑĥÐ´
ĠÑħÐ¾ÑĢÐ¾ÑĪ ÐµÐ³Ð¾
ĠÐ¿Ð¾Ð¼Ð¾Ñī Ð½Ð¸ÐºÐ°
ĠÑĨÐµÐ» ÐµÑĥÑģÑĤÑĢÐµÐ¼
ĠÐ´ÐµÐ¼Ð¾Ð½ Ð°Ð¼Ð¸
ĠÑĥÐ³ÑĢ ÑİÐ¼
ĠÐ±Ð»Ð¸Ð· Ð¾ÑģÑĤÐ¸
ĠÑĢÑĭ ÑĨÐ°ÑĢÐ¸
ĠÐ³ÑĢÑıÐ· ÑĮÑİ
ĠÑĩÑĥÐ¶ Ð°Ðº
ĠÐļÑħ Ð¾ÑĢÐ½Ð°
ĠÐ¾ÑħÑĢÐ°Ð½ Ð½Ð¸ÐºÐ¾Ð²
ĠÐ½Ð°Ð¿Ð¾Ð»Ð½ Ð¸Ð»
ĠÐ±ÐµÑĢ ÑģÐµÑĢ
ĠÐ´ÐµÑģÐ°Ð½ÑĤ Ð½ÑĭÐµ
ĠÐ¨ÑĤ ÐµÐ»Ñı
ĠÐ°Ð±ÑģÐ¾Ð»ÑİÑĤ Ð½Ð¾Ð¹
ĠÐ¡Ð¸Ð» Ñĭ
ĠÐŀÑĩ ÐµÐ²Ð¸Ð´Ð½Ð¾
ĠÐ´Ð¸ÑģÑĤÐ°Ð½ ÑĨÐ¸Ð¸
ĠÑĤÐ¾Ð¿Ð»Ð¸Ð² Ð°
ĠÐ¡Ð¾ÑĤ Ð½Ð¸
ĠÐ¡Ð»Ð° Ð°Ð½
ĠÐº Ð»ÐµÐ¹
ĠÐ½Ð° ÐµÐ¼
ĠÑĥ Ð³Ð¾Ð»ÑĮ
Ð°ÑĢ Ð¸ÐµÐ¼
Ð¸ÑĢ Ð°ÑİÑĤ
ĠÐ¡ ÐµÐ³Ð¼ÐµÐ½ÑĤ
ÐĴ Ð¿ÑĢÐ¾ÑĩÐµÐ¼
ĠÐĳ Ð°Ð¹
ĠÐ²Ð¾Ð· ÑĮÐ¼Ð¸
ĠÑĦ Ð¸ÐºÑģ
ÑĢÐ¾Ñģ Ð¾Ð²
ÑĢÐ°Ðº Ð¸
ĠÑĢÐ°ÑģÐ¿ Ð¾Ð»Ð·
ĠÑĢÐµÑĪ Ð¸ÑĤÑĮ
Ð¿ÑĢ Ð¾Ðº
ĠÐºÐ¸Ð² ÐºÐ¾Ð¼
ÑĢÐ°Ð¹ Ð´
ĠÑģÐ¾Ð² ÐµÑī
ĠÑĩÐµÐ»Ð¾Ð²ÐµÑĩ ÐµÑģÐºÐ¾Ðµ
ÐļÐ°Ðº Ð¾Ð¹
ĠÑĦÐ»Ð¾ÑĤ Ñĥ
ÑįÑĢ ÑĢÐ¾Ñĥ
ĠÐ´ÐµÑĢ Ð½ÑĥÐ»ÑģÑı
ĠÑģÐµÐ¼ ÐµÐ¹
ĠÐĴÐµÑĢ Ð¸ÑĤÐ¸
ĠÐ²ÑģÐ¿ÑĭÑĪ ÐºÑĥ
ĠÐ±ÐµÑģÐº Ð¾Ð½ÐµÑĩÐ½Ð¾
ĠÐ¾ÐºÐ¾Ð½Ñĩ Ð°Ð½Ð¸Ñı
ĠÐ¿ÑĢÐ¸ÑĢ Ð¾Ð´Ðµ
ĠX III
ĠÐĶÐ²Ð¾ÑĢ ÐµÑĨ
ĠÐ¿Ð»Ð°Ð·Ð¼ ÐµÐ½Ð½ÑĭÐ¹
ĠÐ³Ð¾ÑĢÐ¸Ð·Ð¾Ð½ ÑĤÐµ
ĠÑĤÑĢÐ°Ð½ÑģÐ¿Ð¾ÑĢ ÑĤÐ¾Ð²
Ð¿ÑĢÐ¾ÑĪ ÐµÐ¿ÑĤÐ°Ð»
ĠÐºÑĥÐ² ÑĭÑĢ
ĠÐ±ÐµÑģÑĪ ÑĥÐ¼Ð½Ð¾
ĠÑħÐ»Ð°Ð´ Ð½Ð¾ÐºÑĢÐ¾Ð²
ĠÐ¼ Ð¾Ð»ÑĮ
Ð°ÑĢ Ð¾Ð¼
Ð¸Ð¼ Ð¾ÑģÑĤÑĮÑİ
Ð°Ñģ ÑĪÑĤÐ°Ð±
ĠÐ» Ð¾Ñħ
ĠÐĴ Ð°Ð½Ð´
ĠÐ¡ Ð´ÐµÐ»
ĠÐ¡ Ð°Ð½ÑĤÐ°ÑĢ
ĠÐ¢ ÐµÐ½
ÐĿ ÐµÐ²
ÐĿ Ðķ
ĠÑĢÐ°Ñģ Ñī
ĠÐŃ Ð¿
ĠÐŁÑĢ Ð¾Ð±
ĠÐºÐ¾Ð¼Ð°Ð½Ð´ Ð¾ÑĢÐ°
ĠÑĥÐ»ÑĭÐ± ÐºÐµ
ĠÐ·Ð°Ð½ ÑıÑĤÑĮÑģÑı
ĠÐļÐ¾ÑĢ Ð¾Ð»ÑĮ
ĠÐ½Ð¾Ñģ Ð¸ÑĤÑĮ
ĠÐ±ÐµÐ» ÑĭÑħ
ĠÑģÐ¾Ð»Ð½ ÑĨÐµÐ¼
ĠÐºÑĥÑĢ ÑģÐ°
ĠÐ·Ð°ÑħÐ²Ð°ÑĤ Ð¸Ð»Ð¸
ĠÐ²ÑģÐ¿ÑĭÑĪ ÐºÐ°Ð¼Ð¸
ĠÐ¾ÑĤÐ²ÐµÑĩ Ð°Ð»
ĠÑĪÐµÑģÑĤ ÐµÑĢ
ĠÑģÐµÐ³Ð¾Ð´Ð½Ñı ÑĪ
ĠÐ²Ð¾ÑģÑħ Ð¸ÑĤ
ĠÐ²Ð¾Ð»Ð¾Ñģ Ð°Ð¼Ð¸
ÑħÐ¾ÑĤ ÐµÐ¿
ĠÐĹÐ² ÑĥÐº
ĠÐ½Ð°Ð¼ÐµÑĢÐµÐ² Ð°ÑıÑģÑĮ
ĠÐ³Ð¾ÑģÑĤ ÐµÐ¹
ĠÐ¾Ð±ÑģÑĤÐ°Ð½Ð¾Ð² ÐºÑĥ
ĠÐ¿ÑĢÐµÐ´Ð¾ÑĤÐ² ÑĢÐ°ÑĤÐ¸ÑĤÑĮ
ĠÐľÑĥ Ð½Ð¸
i es
Ñĥ ÐºÐ¾Ð²
ĠÐ² ÑĤÐ¾ÑĢÑĥÑİ
ĠÐ² Ð´Ð°Ð»ÐµÐºÐµ
Ð¾ÑĤ ÑĢÐµÐ±
ÐµÐ¹ ÑĤÐµ
ĠÑĢ ÐµÑĩ
ĠÐ¿Ð¾Ð´ ÑĢÑĭÐ²
ÐµÐ¶ ÑĥÑĢ
ĠÐĵ Ð¾ÑģÐ¿
Ñį Ð»Ð»
ÑģÑĤÐ²ÐµÐ½ Ð½ÑĥÑİ
ĠÐ¿Ð¾Ð· Ð½
ĠÑĤÐµÐ¼ Ð½Ð¾Ðµ
ĠÐ¿ÑĢÐ°Ð² Ð¸Ð»Ð¾
ĠÑĥÐ²Ð¸Ð´ Ð¸ÑĤ
ĠÐ±ÐµÑģ ÑĦÐ¾ÑĢÐ¼
ĠÑĢÐ°ÑģÐ¿ Ð°Ð´
ĠÐ¿ÑĢÐ¸ Ð¾Ð±ÑĢÐµÑĤ
ĠÐ¶Ð¸Ð² ÑĭÐ¼Ð¸
ĠÐ¾ÑĤÐ² ÐµÑģÑĤÐ¸
ĠÐ½Ð°Ð¿ÑĢÐ°Ð² Ð¸ÑĤÑĮ
ĠÐ¿Ð¾Ð»ÑĥÑĩ ÐµÐ½Ð½ÑĭÐµ
ĠÐ¾Ñħ Ð¾ÑĤÑĭ
ĠÐ»ÑĥÑĩÑĪÐµ Ðµ
ou t
ĠÑĤÐ¸Ñħ Ð¸Ð¹
ĠÐ¼ÐµÐ» Ð¾Ð´
ĠÑıÐ·Ñĭ ÐºÐ°
ÐłÐ°Ð· ÑĥÐ¼ÐµÐµÑĤÑģÑı
ĠÐ²ÐµÑģ ÐµÐ»
ĠÐ±Ð°Ð» Ð°Ð½Ñģ
ĠÐ¿ÑĢÐ¾ÑĪÐ» Ð¾Ðµ
ĠÐŃÑĢÐµÐ± Ð°
ĠÑĢÐ°Ð²Ð½ Ð¾Ð´ÑĥÑĪ
ĠÑĩÑĢÐµÐ· Ð¼ÐµÑĢ
ĠÐ¸ÑģÐ¿ÐµÐ¿ ÐµÐ»
Ð¾ Ð¾ÑĢÑĥÐ¶
ÐµÐ Ľ
ĠÐ° ÐºÑĥ
ĠÐ¾ÑģÑĤ Ð¾Ð²
ÐĴ ÑģÐµÐ¼
ĠÐĽ Ð¸Ñģ
ĠÐ¿ÑĢÐµÐ´ Ð¼
Ð¡ ÐµÐº
ĠÐ¥ ÑĢÐ°Ð½
ĠÑĤÑĢ ÑĳÑħ
Ðľ Ð¾ÑĢ
Ðľ Ð¾Ñı
ĠÐºÐ¾Ð½ ÑĨÐµÐ½ÑĤÑĢ
ĠÐ¾ÑĤÐ²ÐµÑĤ Ð¾Ð¼
ĠÐ¸ÑģÐº Ð°Ð»Ð¸
ĠÐ·Ð°Ð± ÑĢÐ°Ð»Ð¸
ĠÐ¿ÑĭÑĤ Ð°ÑĤÑĮÑģÑı
ĠÑįÐº ÑģÑĤ
ĠÐ²ÑĭÐ± ÑĢÐ°Ð½
Ð¾Ð²Ð°Ð½ Ð½ÑĭÐ¼Ð¸
ĠÐ·Ð°Ð³ ÑĢÑıÐ·
ĠÐ¿ÑĢÐ¸Ð´ ÑĳÑĤÑģÑı
ÑĩÐ¸Ð² ÑĭÐ¼
ĠÐ¾Ð¿ÑĥÑģÑĤ Ð¸Ð»Ð¸ÑģÑĮ
ĠÐ»Ð¸Ð½ Ð¸Ñı
ĠÐºÐ°Ð± Ð¸Ð½Ðµ
ĠÐ¿ÑģÐ¸Ñħ Ð¸ÑĩÐµÑģÐºÐ¾Ð³Ð¾
ĠÐ±Ð¾Ðº Ð°Ð¼
ĠÐ¿ÐµÑĢÐµÐ¼ ÐµÐ½
ÑĢÐ¸Ð½ Ð½Ð³
ĠÐ¼Ð¾Ð´ ÐµÑĢ
ĠÐ±Ð°Ð» Ðº
ĠÐ½Ð°ÑĢÑĥÑĪ Ð¸Ð»
ĠÐ²ÑĭÐ³ ÑĢÐ°Ð²
ĠÐŀÑģ Ð¾Ð±
ĠÐ±Ð¾ÑĢÑĮ Ð±Ñĭ
ĠÑħÑĢÐµÐ± ÐµÑĤ
ĠÐ¿Ð¾ÑģÐµÐ» ÐµÐ½Ð¸Ñı
ĠÐ²Ð¾ÑģÑģ Ð¾ÐµÐ´Ð¸Ð½
ĠÐ¿ÐµÑĢÐµÐ³Ð¾Ð²Ð¾ÑĢ Ñĭ
Ġ j
ĠÐ± Ð°ÑĢÑħ
ĠÐľ Ð¾Ñī
ĠÐºÑĢ Ð¸ÐºÐ¾Ð²
ÐĴ Ð¾Ñģ
ĠÐĵ ÑĥÐ´
ĠÑĢÐ°Ñģ ÑĨ
ĠÑĩÐµÑĢ Ð½
ĠÐ²ÐµÑĢ ÐµÐ²
ÐĽ Ð°Ð´Ð½Ð¾
ĠÐ³Ð¾Ð²Ð¾ÑĢ Ð¸Ð»Ð¾
ĠÐ²ÑĭÐ¿ Ð»ÑİÐ½ÑĥÐ»
ĠÐ¿ÑĢÐ¸Ð² Ð»ÐµÑĩÑĮ
ĠÐ±ÑĢÐ¾Ñģ Ð¸Ð²
ÑĤÑĢ Ð¸Ð³
ĠÑĥÐ¶Ð°Ñģ Ð½ÑĭÐ¹
ĠÐ²Ð¾Ñģ ÐµÐ¼
Ġo r
ĠÐ¿Ð¾Ð´Ð½Ð¸Ð¼ Ð°ÐµÑĤ
ĠÐ³Ð»Ð°Ð² Ð½ÑĭÑħ
ÑĤÐµÑĢÐµÑģ Ð½Ð¾
ĠÐ³Ð¸Ð³Ð°Ð½ÑĤ ÑģÐºÐ¾Ð³Ð¾
ĠÐ¿ÐµÑĢÐµÐ¿ Ð¾Ð»Ð½Ñı
ĠÐ¿ÑĢÐ¾Ð¼ Ð°Ñħ
ĠÐ¿ÐµÑĢÐµÑģ Ð¾Ñħ
ĠÐ¡Ð² ÑıÑĤÐ¾Ð¹
ĠÐ·Ð°Ð¶ Ð¸Ð³
ĠÐĳÐµÐ· Ð¼Ð¾Ð»Ð²
ĠÑģÐ¾ÑĢÐ² Ð°Ð»ÑģÑı
ĠÐ±ÐµÐ·Ð´ Ð½Ñĭ
ĠÐ´Ð¾Ð³Ð°Ð´ Ð°Ð»ÑģÑı
ĠÑĤÐµÐ»ÐµÐ¿ Ð°ÑĤ
ĠÑħÑĢÐµÐ± ÑĤÐ°
ĠÐŁÑĢÐ°Ð² Ð´Ð°
Ġli ke
ĠÐ¿Ð¾Ð´Ð¶ Ð¸Ð´
ĠÐ³ÐµÐ½Ð¾ÑģÐµÐ¼ Ñı
ĠÐ½ÐµÐ¿ÑĢÐµÐº Ð»Ð¾Ð½
ÐµÐ½ Ð½Ð¾ÑģÑĤÑĮÑİ
ĠÐ¿ÑĢ Ð¾ÑģÐ¼
Ð³ ÐµÑĢ
ĠÐ¾ÑĤ ÑģÐ»ÐµÐ¶
Ð¾ÑģÑĤ Ð°Ð½Ð¾Ð²
ĠÑĢÐ°Ð· Ð»Ð°Ð³
ĠÑģÐº Ð²Ð¾Ð·
ĠÑģÐ¿ Ð°ÑģÑĤÐ¸ÑģÑĮ
Ðŀ Ð³Ð¾Ð½ÑĮ
ĠÐĳ ÐµÑģÐ¿
ĠÐ·Ð°Ð¼ ÑĭÑģÐ»Ð¾Ð²
Ð°ÑĤÐµÐ»ÑĮ ÑģÑĤÐ²
Ð£ Ð´Ð°ÑĢ
ĠÐ¿Ð¾Ð½Ð¸Ð¼ Ð°Ð»Ð°
ĠÑįÐ½ ÑĤÑĥÐ·Ð¸Ð°Ð·
Ð°ÑĤÑĥ ÑĢÑĥ
ĠÐ±Ð»Ð¸Ð¶ Ð½ÐµÐ³Ð¾
ÐŀÑĤ Ð»Ð¸ÑĩÐ½Ð¾
ĠÐ±Ð¾Ñı Ñħ
ĠÐ¸Ð·Ð²ÐµÑģÑĤ ÐµÐ½
ĠÐ¾Ð±ÑĢÐ°Ñī Ð°ÑĤÑĮ
ĠÐ·Ð¾Ð»Ð¾ÑĤ ÑĭÐµ
Ð»ÑıÑİÑī ÐµÐ¹
ĠÐ¿Ð¾Ð±ÐµÐ¶ Ð´
ĠÐºÑĢÐ°Ñı Ð¼
ĠÐ¾ÑĤÑĪ Ð²ÑĭÑĢ
ĠÐ²Ð¼ÐµÑĪ Ð°Ð»ÑģÑı
ĠÐ³Ð¾ÑĢÐ¸Ð·Ð¾Ð½ ÑĤÐ°
ĠÐ¿ÑĢÐ¸ÐºÐ¾Ð½Ñĩ Ð¸ÑĤÑĮ
ĠÑĢÐµÐºÑĢÑĥ ÑĤÐ¾Ð²
Ð°Ð» Ð¸Ñģ
Ð°Ñģ Ñĭ
ĠÐ¡ Ð°ÑĦ
ĠÐ¢ ÐµÐ»Ð»
ĠÐľ Ð¸Ð»
ÐŁ Ð¾Ð³
ĠÐ²Ð· ÑĢÐ¾Ñģ
Ð¡ Ð°ÑĢ
Ð¢ Ðµ
Ð°ÑĪ Ð¸Ð½
ĠÐĺÐ¼ Ð¼Ð°ÑĤÐµÑĢ
ÐºÐ² Ð¸
ĠÐºÐ¸Ð² Ð½ÑĥÐ²
ĠÐ½ÐµÐ´ Ð°Ð»ÐµÐºÐ¾
ĠÐ¿Ð¾Ð½Ð¸Ð¼ Ð°ÐµÑĤÐµ
ĠÐ°Ð´ Ð¼Ð¸ÑĢ
ĠÐ¾Ð¿ÑĥÑģÑĤ Ð¸Ð²
ÑĤÐ¾Ñĩ ÐºÐ¸
ĠÐ¿ÑĢÐµÐ²ÑĢÐ°ÑĤ Ð¸Ð»
ĠÑģÑĥÐ¼ ÐµÑĢ
ĠÑĤÑĢÐµÐ± Ð¾Ð²Ð°Ð»
ĠÐľÐ°Ð» Ð¾Ð³Ð°ÑĢÑģÑĤ
ĠÐ»ÐµÐ² Ð¾Ð³Ð¾
ĠÑĥÐ¼Ð¸ÑĢ Ð°ÑİÑīÐ¸Ñħ
ĠÑģÐ¾ÑģÑĤÐ°Ð² Ðµ
ĠÑĥÑħÐ¾Ð´ Ð¸Ð»Ð¸
ĠÐºÑĢÐ¸Ñĩ Ð¸ÑĤ
ĠÐ¿Ð¾Ð´ÑĢÐ°Ð·Ð´ÐµÐ» ÐµÐ½Ð¸Ðµ
ĠÐ¿ÑĢÐµÐ´Ð»Ð¾Ð¶ Ð¸ÑĤÑĮ
ĠÐ¼Ð°ÑĤÐµÑĢÐ¸ Ð°Ð»
ĠÐ³ÐµÑĢ Ð¾ÐµÐ²
ĠÐ¼Ð¾Ð»Ð½ Ð¸Ñı
ĠÐºÐ°Ð· Ð°ÑĤÑĮÑģÑı
ĠÐ½ÐµÐ¶ ÐµÐ»
ĠÐ¿ÑĢÐ¾Ð¸Ð·Ð½ ÐµÑģÑĤÐ¸
ĠÐ½Ð°ÑģÐ»Ð°Ð¶Ð´ Ð°ÑıÑģÑĮ
ĠÐ°ÑĢÐ±Ð¸ÑĤ ÑĢÐ°
ĠÑįÐºÑģÐ¿ÐµÐ´ Ð¸ÑĨÐ¸Ð¸
ĠÐ¿Ð¾Ð»ÑĮÐ·Ð¾Ð² Ð°ÑĤÑĮÑģÑı
ĠÑĢÐµÐ±ÐµÐ½ ÐºÐ°
a g
ÑĤ Ð°Ñı
Ñĥ ÐºÐ¾Ð¼
Ñı Ð½Ð¾ÑģÑĤ
ÑĮ ÑĤÐµÑģÑĮ
ĠÑģ Ð½Ñĭ
ÐµÐ½ Ð¸ÑĤ
Ð¸Ñħ Ð¸Ðº
ĠÐĿ Ð°ÑĪÐ°
ĠÐ¿Ð¾Ð» Ð´
ĠÐ¿Ð¾Ðº Ð°Ð·Ð°Ð»Ð°ÑģÑĮ
ĠÑģÐ°Ð¼ Ñĥ
ÑĥÑĢ Ð¾Ð²
ĠÐ¾Ð¿ Ð¾Ð·
ĠÑĥÐº ÑĢÐ°Ð´
ĠÐ½Ð°Ð· ÑĭÐ²Ð°ÑĤÑĮ
ĠÐ¿ÑĢÐ¸Ð¼ ÐµÑĢ
Ð¾Ð¶Ð´ ÐµÐ½Ð½Ð¾Ð³Ð¾
ĠÐºÑĢÐ°Ñģ Ð½Ð¾Ðµ
Ð¾ÑĢÐ³ Ð°Ð½
ĠÐ¿Ð¾Ð¿ÑĭÑĤ ÐºÑĥ
Ġo ut
ĠÐ¿Ð¾ÑĩÑĥÐ² ÑģÑĤÐ²Ð¾Ð²Ð°ÑĤÑĮ
ĠÑĥÐ´Ð¸Ð² Ð»ÐµÐ½Ð½Ð¾
ĠÐ²ÑĭÐ´ ÐµÑĢÐ½ÑĥÐ»
ĠÐ¼Ð¾ÑĢ Ð¾Ð·
ĠÐļÐ°Ð¶Ð´ Ð¾Ðµ
ĠÑĪÑĢÐ°Ð¼ Ð¾Ð²
ĠÐ¾Ð±Ñģ ÑĥÐ¶Ð´
ĠÑģÑĤÐ¾ÑıÐ² ÑĪÐ¸Ð¹
ĠÐ·ÐµÐ» ÑĳÐ½Ð¾ÐºÐ¾Ð¶
ĠÐ·Ð°ÐºÑĢÐ¸Ñĩ Ð°Ð»Ð°
ĠÐ±ÑĮÑİ Ñī
ĠÐºÐ½Ð¾Ð¿ ÐºÑĥ
ĠÐŀÐ±ÑĬ ÐµÐ´Ð¸Ð½
ĠÐ·Ð¾Ð» Ð¾ÑĤÐ°
ĠÐ¼Ð¸Ð¼ Ð¾Ð»ÐµÑĤ
Ðº Ð»ÑİÑĩ
ÐµÐ½ ÐµÐ³
Ð¸Ð» Ð¸Ð¹
ĠÑĤ Ð¸
Ð°Ðº ÑģÐ°
ĠÐļ Ð»
ĠÐļ Ð¾Ð»ÑĮ
ĠÑģÑĤ ÑĭÑĩ
ĠÐŀ ÑĢÑĥÐ´
ĠÐĿ Ð¾ÐºÑģ
ÐµÑĪ Ð¸
ĠÐ¿Ð» Ð°ÑĤÑĮ
ÐĿ Ð°Ñĩ
ĠÐĵ Ð²Ð¾Ð·
ĠÑģÐ¼ ÑĢÐ°Ð´
ÑĥÑĢ Ð¾Ð¹
ĠÐ¼Ð¾ Ð¸Ð¼Ð¸
ÐµÑĢÑĮ ÐµÐ·
ĠÐ½Ð°Ð² ÐµÐ´
ĠÐ¿ÑĥÑģÑĤ Ð¾ÑĤÐ°
ĠÑģÐ¸Ð»ÑĮ Ð½ÐµÐ¹
ĠÑģÐ¿Ð¾ÑģÐ¾Ð± Ð½ÑĭÐµ
ĠÑģÐ¾Ð¿ ÑĢÐ¸Ðº
ÐºÐ°Ð½ ÑĮÐµ
ĠÐ±Ð¾Ð³ Ð°ÑĤÐ¾
Ð°ÑģÑģ Ð°Ð½
ĠÐ²ÑģÑĤ Ð°Ð»Ð°
ĠÑĢÑĭ Ðº
ĠÐ²ÑģÑĤÑĢÐµÑĩ Ð°Ð»Ð¸ÑģÑĮ
ÐĵÑĢÐ¾Ð¼ Ð¾Ð²ÑĭÑħ
ĠÑĩÐ¸ÑĤ Ð°Ð»
ĠÐ¾ÑģÐ¼Ð¾ÑĤ ÑĢ
ĠÐ³Ð°Ð· Ð°
ĠÑģÑĤÐ°Ð± Ð¸Ð»ÑĮ
ĠÐ°Ð¿Ð¿Ð°ÑĢ Ð°ÑĤ
ĠÐ½ÐµÐ¿ÑĢÐ°Ð² Ð¸Ð»ÑĮÐ½Ð¾
ĠÐ¤Ð¸ÑĪ Ð¸Ð³
ÐµÐĽ Ð¸Ð½Ð´Ð¸
Ð² Ð¾ÑģÐº
Ð°ÑĤ Ð°Ñı
ĠÐ¸Ð· ÑĢÐ°Ð½
ĠÑģÐ¿ Ð»Ð°Ð²
ÐĶ ÑĢÐ°Ðº
ÐµÐ½ÑĮ ÐºÐ¾
ĠÐ³Ð»Ð°Ð· Ð½Ð¸ÑĨ
ĠÐŁÑĢ Ð¾Ð´Ð¾Ð»Ð¶
ĠÐ¿ÑĢÐ¸Ñģ Ð»ÑĥÐ¶
ĠÑģÑĥÑīÐµ ÑģÑĤÐ²Ð¾Ð²Ð°ÑĤÑĮ
ĠÐ¿ÑĢÐ¾Ñģ Ð¸Ð»
ĠÑĨÐµÐ» ÑĭÑħ
ĠÑģÐ¶ Ð°Ð»Ð¸ÑģÑĮ
ĠÐ³ÑĢÐ°Ð½ Ð´
ĠÐ¿Ð¾ÑħÐ¾Ð¶ Ð¸Ð¼Ð¸
ÑĩÐ¸Ñģ Ð»ÐµÐ½Ð½ÑĭÐµ
Ð½Ð¾ÑĪ Ð°
ĠÑģÐ¾ÑħÑĢÐ°Ð½ ÑıÑĤÑĮ
ĠÑĢÐ¾ÑĤ Ðµ
ĠÐ³ÑĢÑĥÐ± Ð¾Ð¹
ĠÐ¿ÑĢÐµÐ²ÑĢÐ°Ñī Ð°Ñı
ĠÐ¿Ð¾ÑģÐ»ÐµÐ´Ð¾Ð² Ð°Ð»Ð¾
ĠÐĴÐ°Ð» Ð¸Ð½Ð¾Ð²
ĠÐ³ÐµÑĢ Ð¾Ñı
ĠÐ¼Ð¸ÑģÑģ Ð¸Ñİ
ĠÐ¡Ð°Ð¹ ÑĢÐ¸Ð¾Ð½
ĠÑģÐ¼ÑĥÑĤ Ð½Ð¾
ĠÐ·Ð°Ð¹ Ð¼
ÐŁÐ¾Ð¶ Ð°Ð»ÑĥÐ¹ÑģÑĤÐ°
ĠÐŁÐ¾ÑģÐ»ÑĥÑĪ Ð½Ð¸Ðº
ÐļÐ°Ð¿ ÐµÐ»Ð»Ð°Ð½
ÑĥÐ¶Ñĩ Ð¸Ð½Ð°
ĠÐĿÑĥÑĢÐ³ Ð»Ð°
ÑģÐ¾Ð³Ð»Ð°Ñģ Ð¸Ð»ÑģÑı
ÑĢ Ð¾ÑģÑĤÐ¸
Ðº ÑĢÐµÐ¿
ÐµÐ» Ð¾ÑģÑĮ
Ð°Ð½ Ð½Ð°
ĠÐ¼ ÐµÐ³
ĠÐ¿ÑĢ Ð¾ÑģÐ¿
ĠÐ³ Ð°
ĠÐ²Ñĭ Ð´Ð°ÑİÑī
ĠÑĢÐ°Ð· ÑĭÑģÐº
ĠÑĢÐ°Ð· ÑĢÐ¾Ð·Ð½
Ð½Ð° ÐµÑĤ
ÐĴ Ð°Ð¼
ÑģÐ¿ Ð¾ÐºÐ¾Ð¹
ĠÑĤÑĢ Ð¾Ð½Ñĥ
ĠÑģÐµÑĢ ÑĭÐµ
ĠÐ¼ÐµÑĤ Ðµ
ĠÐ¼ÐµÑĤ Ð½ÑĥÐ»ÑģÑı
ĠÐŁÑĢ Ð¸ÑĪ
ĠÐ¾Ð±ÑĢÐ°ÑĤ Ð¸Ð»Ð¸ÑģÑĮ
ĠÐ·Ð°Ñģ ÑĭÐ¿
ĠÑģÐ¾Ð² Ð¼ÐµÑģÑĤ
ĠÑģÐµÑĢÐ´ ÑĨÐµÐ¼
ĠÐ´Ð»Ð¸Ð½ Ð¾Ð¹
ĠÐ½ÐµÐ´Ð¾ÑģÑĤ Ð¾Ð¹
ĠÑĢÐ¸Ñģ ÐºÑĥ
ĠÐ³Ð°Ð»Ð°ÐºÑĤ Ð¸ÐºÑĥ
ĠÐ²Ð¾ÑģÐ¿Ð¾Ð¼Ð¸Ð½ Ð°Ð½Ð¸Ðµ
ĠÐºÐ°Ð· Ð°ÑĢ
ĠÐļÐ° Ð¸Ð½Ð°
ĠÑĥÑĨÐµÐ» ÐµÐ²ÑĪÐ¸Ñħ
ĠÐĹÐ² ÐµÐ·Ð´
ĠÐ²ÑĭÑģÐºÐ¾Ñĩ Ð¸Ð»
ĠÐ½ÐµÐ±Ð¾Ð»ÑĮ ÑĪÐ¸Ñħ
ĠÐŀÐºÑĤÐ°Ð² Ð¸Ñı
ĠÐ¿Ð¾Ð´ Ð³Ð¾
ĠÐĿ Ð¾ÑģÑĤÑĢÐ°Ð¼Ð¾
ĠÑģÐº Ð°Ð»Ðµ
ĠÑĪ Ðµ
ÐĴ ÐµÐ½ÑĤ
ĠÑĢÑĥ ÑĪ
ÐŁ Ð¾Ð»Ð°Ð³Ð°Ñİ
ÑĢÐ°Ð² Ð¸ÑĤ
ĠÐĹ Ð°Ð´
ÑıÑī Ð¸Ð¼Ð¸ÑģÑı
ĠÐ¿ÑĢÐ¾ÑĤ ÑıÐ¶
ĠÐ§ ÑĥÐ´Ð¾Ð²
ĠÐºÐ°Ð¿ Ð¸ÑĤÐ°Ð½Ð¾Ð²
ĠÐ²ÑĭÑģ Ð¾ÑĤÐ¾Ð¹
ĠÐ¿ÑĢÐ¸Ð± Ð¾ÑĢ
ĠÑĩÑĥÐ² ÑģÑĤÐ²Ð¾Ð²Ð°Ð»Ð¸
ÑĥÑİÑī Ð°Ñı
ĠÐ¿Ð¾Ð¶ Ð°Ð»Ð°
ĠÐ¼Ð¾Ñī Ð½ÑĭÐ¼Ð¸
ĠÐ¼Ð¾Ñī Ð½Ð¾ÑģÑĤÐ¸
ĠÐ¿Ð¾ÑģÑĤ Ñĭ
ĠÑĢÐ°Ð² Ð½Ð¸Ð½Ñĭ
ĠÑģÐ½ ÐµÐ³Ð°
ĠÐ¼ÐµÑĤÐ°Ð»Ð»Ð¸ÑĩÐµÑģÐº Ð¸Ð¼Ð¸
ĠÐ°Ð² ÑĤÐ¾
ĠÐļÐ°Ð» ÑĤÐµ
ĠÐ¿Ð¾Ð¿Ð°Ð´ Ð°Ð½Ð¸Ð¹
ĠÑĥÐ²Ð°Ð¶ ÐµÐ½Ð¸ÐµÐ¼
ĠÐ½Ð°ÑĢ Ð¾Ð´Ð°
ĠÐ±ÐµÐ·Ð¶Ð°Ð»Ð¾ÑģÑĤ Ð½Ð¾
ĠÑģÑĤÐ¾Ð»ÐµÑĤ Ð¸Ð¹
ĠÐ½ÐµÑĥÐ´ ÐµÑĢÐ¶
ĠÐ±Ð°ÑĢÑĢÐ¸Ðº Ð°Ð´Ñĭ
ĠÐ·Ð°Ð·ÑĥÐ± ÑĢ
ÐľÐµÑĢ Ð¾Ñģ
Ð¾ÑģÑĤ Ð¸Ð¶
ĠÐĿ ÐµÐ»ÑĮÐ·Ñı
ĠÐ²Ð¾ ÐµÐ½Ð½ÑĭÐ¹
ÐºÐ° ÐµÑĤ
ĠÐĳ Ð»Ð°Ð³Ð¾ÑģÐ»Ð¾Ð²
ĠÐ¿ÑĢÐµÐ´ Ð°Ð»
Ð¾Ñı Ñģ
Ð»Ðµ Ñī
ĠÐ·Ð°Ð¼ Ð¾Ðº
ĠÐ·Ð°Ð¼ Ð°Ñħ
Ð¿ÑĢ Ð¾ÑģÑĤÑĢÐ°Ð½
ĠÐ¾ÑĤÐ² ÐµÐ´
ĠÐ¸Ð·Ð² Ð¸Ð»Ð¸ÑģÑĤ
ĠÐ¿ÑĢÐ¾Ð½ Ð¸ÑĨ
er e
ĠÑĥÐ´Ð¸Ð² Ð»ÐµÐ½
ĠÐ°ÑĤÐ¼Ð¾ÑģÑĦ ÐµÑĢ
ĠÑĨÐµÐ½ Ñĥ
ĠÐ¿ÑĥÑģÑĤÑĭ Ð½Ðµ
ĠÐ¿ÑĢÐ¾Ð½ÐµÑģ Ð»Ð¸ÑģÑĮ
ĠÐ±Ð¾ÑĤÐ¸Ð½ ÐºÐ¸
ĠÐ¿Ð¾Ð·Ð²Ð¾Ð½Ð¾Ñĩ Ð½Ð¸Ðº
ĠÑĨÐ¸Ð²Ð¸Ð»Ð¸Ð· Ð°ÑĨÐ¸Ð¸
ĠÐ¿Ð¾Ð¾Ð±ÐµÑī Ð°Ð»
ĠÑĤÐ¸ÑĤ ÑĥÐ»
Ð¾Ð» ÑĤ
ĠÐ¾ÑĤ ÑĤÐ¾Ð»Ðº
ĠÐ» Ð¸ÑĤ
ĠÐ¸Ð· Ð»Ð¾Ð¼
Ð»Ñı ÐµÐ¼ÑģÑı
ĠÑĪ ÐºÐ°
Ð¸ÑģÑĤ Ð¾Ð»ÐµÑĤÑĭ
ĠÐ·Ð°Ð¿ ÐµÐº
ĠÐ¾Ñĩ ÑĥÑĤ
ÐĽ Ð¾ÑĢ
ĠÐ²ÑĭÐ¿ Ð¾ÑĤÑĢÐ¾ÑĪ
ĠÐ¿Ð¾Ð± Ð»ÐµÐ´
ĠÐ¿Ð°ÑĢ Ð°Ð»Ð»
ĠÐ¾ÑĤÑģ Ð°Ð»Ñİ
ĠÐ·Ð°ÑīÐ¸ÑĤ Ð°
ĠÐ±Ð°ÑĢ Ð¶
ĠÑģÐ¿ÑĥÑģÑĤ Ð¸Ð»Ð¸ÑģÑĮ
ĠÐ¸Ð¼ÐµÐ» Ð¸ÑģÑĮ
ĠÑĢÐ°ÑģÐ¿Ð¾Ð»Ð¾Ð¶ ÐµÐ½Ð¸Ðµ
ĠÐ»Ð°Ð´Ð¾Ð½ ÑĮÑİ
ĠÐ»ÐµÐ¹ÑĤÐµÐ½Ð°Ð½ÑĤ Ð°
ÐĵÑĢÐ¾Ð· Ð¾Ð²Ð¾Ð¹
ĠÑīÑĥÐ¿ Ð°Ð»ÑĮ
ĠÑģÐ¾ÑĪ Ð»Ð¸ÑģÑĮ
ĠÐĳÐ¸ÑĤ Ð²Ñĭ
Ñĩ Ð¸ÑĤÐ°Ð½
ĠÐ¾ ÑģÐ¿
Ð¾Ð³ Ð¾Ð¼
ÐµÐ² ÑĪÐ¸Ð¼Ð¸
ĠÐ¾Ð± ÑħÐ²Ð°ÑĤ
Ð¸Ð´ Ð¸Ð°Ð½
ĠÑģÐº ÑĢÑĭÐ»ÑģÑı
ĠÐľ Ð°Ð¹Ð¾ÑĢ
Ð»Ñİ ÑģÑĮ
ĠÐ²Ð¸Ð´ ÑıÑĤ
Ð°ÑĤÐ¾ÑĢ Ð¸
Ðĵ Ðŀ
Ð°ÑĤÐ¾ Ð½
ĠÐ±Ð¾ÐµÐ² Ð¾Ð¼
ĠÐºÐ°Ð¼ Ð½ÐµÐ¼
ĠÐ½Ð°Ð² ÐµÐºÐ¸
ĠÐ¼Ð¾Ð» Ð¾ÑĤÐ¾Ð¼
ĠÑģÑĥÑīÐµ ÑģÑĤÐ²Ñĥ
ĠÐ²Ð¿ Ð¸ÑĤ
ĠÑĤÑıÐ¶ÐµÐ» ÑĥÑİ
ĠÐ²Ð°ÑĪ ÐµÐ¼
ĠÐ§ÐµÑĢ Ð½ÑĭÐµ
ĠÐ¿Ð¾Ð´Ð¾ÑĪ ÑĳÐ»
ĠÐ½Ð°ÑĩÐ¸Ð½ Ð°Ð»Ð¸
ĠÑģÐ»ÐµÐ´ÑĥÑİÑī Ð¸Ðµ
ĠÐ¶Ð´ Ð°Ð»Ð°
ĠÑģÐ¿ÑĥÑģÐº Ð°Ð»Ð¸ÑģÑĮ
ĠÐ¿ÑĥÑĪ ÐºÑĥ
ĠÐ¿ÑĢÐ¸Ð½Ð°Ð´Ð»ÐµÐ¶ Ð°Ð»Ð¸
ĠÐĳÐ¾Ð³ Ñĥ
ĠÐºÐ¾Ð½ÑĤÑĢÐ¾Ð» ÐµÐ¼
ĠÐ¿Ð¾Ð¹Ð¼ Ð°ÑĤÑĮ
ĠÐ´Ð¾Ð±ÑĭÑĩ ÐµÐ¹
ĠÐ¾ÑĤÐ²ÑĢÐ°Ñī ÐµÐ½Ð¸ÐµÐ¼
ĠÑĥÑĢÐ¾Ð²Ð½Ñı Ñħ
ĠÑĤÑĢÐ°Ð´ Ð¸ÑĨÐ¸Ð¾Ð½
ĠÐ±Ð°Ð½Ð´ Ñĭ
ĠÐºÐ¾ÑģÐ¼Ð¾Ð¿ Ð¾ÑĢÑĤÐ°
ĠÑĢÑĭÐ² ÐºÐ¾Ð¼
ĠÐ¸Ð½ÐºÐ²Ð¸Ð· Ð¸ÑĤÐ¾ÑĢÑĥ
ĠÐ¼ÐµÑģ Ð¸Ð²Ð¾
ĠÐ½Ð°Ð¿ÑĢÑıÐ¼ ÑĥÑİ
i ght
ĠÑĢ Ð¾
ĠÑĢ ÐµÑĤÐ¸Ð½
ÑĦ Ñĭ
ĠÐ¿Ð¾Ð» ÑĥÐ±
Ð¸Ð³ Ð´Ðµ
ĠÐĳ ÑĭÐ»Ð¸
ĠÐ¾Ð³ Ð½ÐµÐ¹
ÑĤÐµÑĢ Ð¾Ð²
ĠÐºÐ¾Ð» ÑĭÑħ
ĠÐ¿ÑĢÐ¾Ð´ ÑĥÐº
ÐĽ ÐµÐ²
ĠÐ¶Ð¸Ð² ÑĭÐµ
ĠÐ¿Ð¾Ð»ÑĥÑĩ Ð¸Ð²
ĠÑĥÐ½Ð¸ÑĩÑĤÐ¾Ð¶ Ð°ÑĤÑĮ
ĠÑģÐ²ÑıÐ· Ð°Ð½Ñĭ
ĠÐ¿ÑĢÐ¾Ð¿ Ð¸ÑĤ
Ð»ÑıÐ´ Ñı
ĠÐ¾ÑĤÐ»Ð¸Ñĩ Ð°Ð»Ð¸ÑģÑĮ
ĠÐ¿Ð¾ÐºÑĢÑĭÑĤ Ð¾Ð¹
ĠÑģÑĤÑĢÐ¾ ÐµÐ½Ð¸Ñı
ĠÐ°Ð¿Ð¾ÑĤÐµÐº Ð°ÑĢÐ¸Ð¾Ð½
ĠÑģÐ¼ÐµÑĢÑĤÐµÐ»ÑĮ Ð½Ð¾Ð¹
ĠÐ¼Ð°Ð»ÑĮ ÑĩÐ¸ÑĪ
ĠÑģÑħ ÐµÐ¼
ĠÑĥÑģÐ»Ð¾Ð² Ð¸Ñı
ĠÐ±Ð¾Ð»ÐµÐ·Ð½ ÐµÐ½Ð½Ð¾
ÐŁÑĢÐ¸ Ð°Ð´
ĠÐĶÑĢÐ°Ðº Ð¾
ĠÐºÑĥÑĩ Ñĥ
ĠÑĢÐ°Ð·ÑĥÐ¼Ðµ ÐµÑĤÑģÑı
Ð»Ð°Ð¹ ÑĤÐ¾Ð½
** *
ĠÐĿÐ°ÑĤ Ð°Ð½Ð¸
ĠÐ³ÑĢÐ¾Ñħ Ð¾Ñĩ
ÑĤ Ð°Ð½Ð°
ÐµÑĤ Ð°Ð»Ð¸
Ð¸ÑĤ Ð°Ñģ
Ð¸Ð½ ÑĮ
ÐµÐ² Ð°Ð»Ð°
ĠÐ·Ð° ÑĪÐµÐ»
Ð¸ÑģÑĤ ÑĢÑĥ
ĠÑĦ Ð°Ð±
ĠÐ³Ð¾ÑĢ Ð»Ñĥ
ĠÐºÐ¾Ð¼Ð°Ð½Ð´ Ð¾Ð²Ð°ÑĤÑĮ
ĠÐ½Ð¾Ð³ Ð°Ð¼
ĠÐ½Ð¾Ð² Ð¸Ñĩ
ĠÐ´Ð²Ð¸Ð³ Ð°ÑĤÐµÐ»ÑıÐ¼Ð¸
ĠÐ´Ð¾Ð± ÑĢ
ĠÐ¿Ð°Ð» Ð¾Ð¼
ĠÐ¼Ð½Ð¾Ð³ Ð¸Ð¼
ĠÐ¿ÑĢÐ¸Ñĩ ÐµÐ¼
ĠÐ±Ð¾Ð³ Ð°Ð¼
ĠÐ¸Ð½ÐºÐ²Ð¸Ð·Ð¸ÑĤÐ¾ÑĢ Ð¾Ð¼
ĠÐ§ÐµÑĢ Ð½Ð¾Ðµ
ĠÐ¿ÑĢÐ¾Ð¼ ÐµÐ»ÑĮ
ĠÐ¾ÑĢÐ±Ð¸ÑĤ Ð°Ð»ÑĮÐ½ÑĭÑħ
ĠÐ³Ð¾ÑģÐ¿ Ð¸ÑĤ
ĠÐ²Ð½ÐµÑĪ Ð½Ð¸Ð¹
ĠÐºÐ¾Ð¼Ð°Ð½Ð´Ð¸ÑĢ Ñĭ
ĠÐ¿Ð¾ÑģÑĤÐ°Ð² Ð¸ÑĤÑĮ
ĠÐĹÐµÐ¼ Ð»Ñı
ĠÐ¿Ð¾Ð´ÑĤÐ²ÐµÑĢÐ¶Ð´ ÐµÐ½Ð¸Ðµ
ĠÐłÐ¾Ð³ Ð°Ð»
ĠÐ³Ð»Ñı Ð½ÑĥÐ»
ĠÑģÑĤÐ¸Ñģ Ð½ÑĥÐ»
ÐķÐ´ Ð²Ð°
ĠÐ±ÐµÐ·ÑĢÐ°Ð· Ð»Ð¸Ñĩ
Ð¿ÑĢÐ¾ÑĢ ÑĭÑĩÐ°Ð»
ÐµÐ²Ð¾Ð· Ð¼Ð¾Ð¶
Ñĩ ÑĥÐ¶
Ð¿ Ð»ÐµÐº
Ð¾ÑĢ Ð¾Ð½Ð°
ĠÐµ ÑĢÐµÑģÑĮ
Ð¸Ñģ Ð¿Ð¾Ð´
ÐµÐ² ÑĪÐ¸ÑģÑĮ
Ð¾Ð»ÑĮ Ð´
ĠÑı Ð¼Ñĭ
Ð»ÐµÐ½ Ð½Ð¾ÑģÑĤÑĮ
ĠÐĵ Ð¸Ð±
ĠÐ¿Ð¾ÑĤ ÑĥÑģÐº
ĠÐ¿ÑĢÐ¾ÑĪ ÐµÐ¿ÑĤÐ°Ð»Ð°
ĠÐ¿Ð¾Ð´Ð¾Ð± ÑĢÐ°Ð»
Ġa c
ÐŁÑĢ Ð¸Ð·
ĠÐ²Ð¿ Ð¾ÑģÐ»ÐµÐ´ÑģÑĤÐ²Ð¸Ð¸
ĠÐ´ÐµÐ¹ÑģÑĤÐ² Ð¸ÑĤÐµÐ»ÑĮÐ½Ð¾ÑģÑĤÐ¸
ĠÐ¿ÑĢÐ¾Ñģ Ð°ÑĩÐ¸Ð²
ĠÐ¿Ð°Ð»ÑĮ ÑĨÐ°
ĠÑģÐ¾Ð±Ð¸ÑĢ Ð°Ð»Ð°ÑģÑĮ
ĠÐ¾ÑģÐ² ÑıÑī
ĠÐ¿ÑĢÐ¾Ð³ Ð»Ð¾ÑĤ
ĠÐºÐ¾Ð¼Ð¿ ÐµÐ½Ñģ
ĠÐ°ÑĢÐ¼ Ð¸Ð¹
el f
ĠÐ·Ð»Ð¾Ð² Ðµ
ĠÑĤÐµÑĢÐ¿ ÐµÐ½Ð¸Ðµ
ĠÐ°ÑĥÑģÐ¿ Ð¸ÐºÐ°
ĠÑĥÑģÑĤÐ°Ð» Ð¾ÑģÑĤÐ¸
ĠÐ±ÑĥÐ½Ðº ÐµÑĢÐ°
ĠÐ¡ÐµÑģÑĤ ÑĢÑĭ
ĠÑĥÑī ÐµÑĢÐ±
ĠÐ»Ð°Ð¼Ð¿ Ñĭ
ĠÑĢÐµÐ·ÐµÑĢÐ² Ñĥ
ĠÑĤÐ°ÑĢ ÐµÐ»
ÐľÐ¸Ð» Ð¾ÑĢÐ´
o nd
ĠÐ² Ð»Ð°Ð³
Ð¾Ð² Ð°ÑĤÐ¾
ĠÐ¼ ÑĥÐ½Ð´
Ð³ Ð°ÑĢÐ°
Ð¸Ð½ Ñģ
ĠÑį Ñģ
ĠÐ¿Ð¾Ð´ Ð²Ð¾Ð´
ĠÐľ Ð°Ñģ
ĠÐŃ ÑĦÐ¾Ð½
ĠÐ¯ ÐºÐ¾Ð²
ĠÑģÐ¾Ð± Ð»Ð°Ð·
ĠÑĥÐ² Ð»ÐµÐº
ĠÐ¼ÐµÑģÑĤ Ð½ÑĭÐµ
ĠÐ¿Ð¾ÑģÐ»ÐµÐ´ Ð½ÐµÐ¼
Ð£ ÑĢÐ¸
Ð¥ Ð¾ÑĢÐ¾ÑĪ
ĠÐ¿Ð¾Ð·Ð²Ð¾Ð» ÑıÐ»Ð¾
ĠÐŀÑĤ ÐºÑĥÐ´Ð°
ĠÐ»Ð¸Ñĩ Ð½Ð¾Ð³Ð¾
ĠÐ²Ð°Ð¶ Ð½ÐµÐµ
ĠÑĥÐ´ÐµÑĢÐ¶ Ð¸Ð²
ĠÐ¿Ð¾ÑĪ Ð»Ð¾
ÐĵÑĢÐ¾Ð¼ Ð¾Ð²ÑĭÐµ
ĠÐ¿Ð°ÑĤ ÑĢÐ¾Ð½
ĠÑĢÐ°Ð·Ð±Ð¸ÑĤ Ð¾Ð³Ð¾
ĠÐ¶Ð¸Ð´Ðº Ð¾ÑģÑĤÑĮÑİ
ĠÑģÐµÑģÑĤ ÐµÑĢ
ĠÐ¿Ð¾Ð´Ð¿ ÑĢÑĭÐ³
ĠÑĢÐ¾ÑģÑĤ Ð°
ĠÑĤÐ¸ÑĤÐ°Ð½ Ñĭ
ĠÐ¾ÑĢÐ³ Ð°Ð½Ð¾Ð²
Ñģ Ð°Ð»
ĠÐ² ÐµÐ½Ñĭ
Ð¾Ð² Ð°Ð²
Ð¾Ð» ÐµÐ¹
ĠÐ½Ð° ÑĥÑĪ
ĠÑĢÐ°Ð· ÑĢÐ°ÑģÑĤ
ĠÐºÐ°Ðº Ð¾Ð¼Ñĥ
ĠÐŁ ÑĢÐ°ÐºÑģ
Ð¸ÑĨ Ð¸Ñİ
ĠÑĢÑĥ Ð»ÐµÐ²
Ð¸ÑģÑĤ Ð¸Ð½Ñĥ
ÐºÐ° ÑĪ
ĠÐ½Ð°Ð´ Ð»ÐµÐ¶
ĠÐ³Ð¾ÑĢ Ð´Ð¾
ĠÐ·Ð°Ð¿ ÑıÑĤ
ĠÐ¿Ð»Ð°Ð½ Ñĥ
ĠÐ°ÑĢ ÐµÐ½Ñĭ
ĠÑĥÐ¿ Ð¾Ð¼
ÑĥÐ³ Ð°
ĠÑĢÐ°Ð±Ð¾ÑĤ Ð°ÑİÑĤ
ĠÐ¾ÑĤÑģÑĤÑĥÐ¿ Ð°Ð»Ð¸
ĠÑĢÐ°Ð·Ð¼ ÐµÑĢÐ°
ĠÐłÐ°Ð· ÑĢÑĥÑĪ
ĠÐºÐ» Ð°Ð½Ð¾Ð²
ĠÐ¿Ð¾Ð»Ð¾Ð¶ ÐµÐ½Ð¸Ñı
ĠÑİ ÑģÑĤ
ĠÐļÑĢ Ð¸Ð´
ĠÐľÐ°Ð» ÐºÐ°Ð´
ĠÐ¿ÑĢÐ¸Ð¿ Ð¸Ñģ
ĠÐºÑĢÐ¸Ñĩ Ð°ÑĤÑĮ
ĠÐ¿Ð¾ÑĤÑı Ð½ÑĥÐ»
ĠÐ¼Ð¾Ð³ÑĥÑĩ Ð¸Ð¹
ĠÐ¾ÑĤÐºÐ»ÑİÑĩ Ð¸Ð»
ĠÑĥÐ³ÑĢÐ¾Ð¶ Ð°ÑİÑīÐµ
ĠÐ°ÐºÐºÑĥ ÑĢÐ°ÑĤ
ÐĲÐ½Ð³ ÑĢÐ¾Ð½
ĠÐ½Ð°ÑģÑĤÐ° Ð¸Ð²Ð°Ð»
ÑĢ ÐµÐ½Ð¸Ñı
ĠÑģ ÑĥÑĤ
Ñĩ ÐµÑĢÐ°
Ðº Ð½Ð¾Ð²
ĠÐ¸ ÐºÐ¾Ð½
ĠÐ´ ÑĳÑĢ
Ñİ Ñģ
ĠÐ¿Ð¾ ÐµÐ·Ð´
ĠÐŀ Ñħ
ĠÐ° Ð½Ð¾Ð¼
ĠÐ° ÑĤÐ¾Ð¼
ĠÐ¿Ð¾Ð´ ÑħÐ²Ð°ÑĤÐ¸Ð»
ĠÑĢÐ°Ð· Ð´ÑĥÐ²
ĠÐºÐ°Ðº Ð¾ÑĦÐ¾Ð½
ĠÐ¿ÑĢÐ¾ ÑīÐµ
ÑĭÐ² Ð°ÑİÑīÐµÐ¹
Ðŀ Ð±Ð°
ĠÐĵ Ð°
ĠÐĳ Ð¾Ð»ÑĤÐµÑĢ
ĠÐ·Ð°Ð¿ Ð¾Ð»
Ðĳ Ð¾Ð»ÑĮÑĪÐµ
ĠÐ²ÑĭÑģ Ð°Ð¶
ĠÐ²Ð¾Ð¹ Ð´
Ð¾Ð¶Ð´ ÐµÐ½Ð¸Ð¸
ĠÐ¼Ð°Ñģ Ð»Ð°
ĠÐ²ÑĭÐ· ÑĭÐ²Ð°Ð»Ð¾
er ed
ĠÐ²ÑĭÐ¶ Ð¸Ð´
ĠÐ¿Ð° ÑĥÐ·Ð°
ĠÑĪÐ¸ÑĢÐ¾Ðº ÑĥÑİ
Ð½Ð¾Ðº Ð¾Ð¼Ð°Ð½Ð´
ĠÑĢÑĥÐ± ÐµÐ¶
ĠÐ¼Ð¾Ð³ÑĥÑĩ Ð¸Ðµ
ĠÐ·Ð½Ð°Ð¼ ÐµÐ½Ð°
ĠÑģÐ²Ð¸Ð´ÐµÑĤ ÐµÐ»ÐµÐ¼
ĠÐ¿Ð¾ÐºÐ°Ð·ÑĭÐ² Ð°Ð»
ĠÐ³ÐµÐ½ÐµÑĤ Ð¸ÑĩÐµÑģÐºÐ¾Ð³Ð¾
Ð»Ð°Ð½ÑĤ Ð¸
ĠÐĵÐ°ÑĢ Ð»Ð¾Ð½
ĠÑĤÑĥÐ¼Ð°Ð½ Ðµ
ĠÑģÐ¿ÑĥÑĤ Ð½Ð¸ÐºÐ¾Ð²
ĠÐ°ÑĥÑģÐ¿ ÐµÐºÑģ
ĠÐ¿Ð°ÑĤÑĢÑĥ Ð»Ð¸ÑĢÐ¾Ð²
ÑįÐº ÑĢÐ°Ð½
ĠÐ´Ð¸Ð² Ð¸Ð·
ĠÐĲÑĢÐ¼Ð°Ð³ÐµÐ´Ð´ Ð¾Ð½Ð°
ĠÐ¿Ð¾Ð¼Ð¾ÑĢÑī Ð¸Ð»ÑģÑı
ĠÑģÑİÑĢ Ð¿ÑĢÐ¸Ð·
ĠÑģ ÑĢÐ°Ð²
ĠÐº Ñģ
ĠÐ´ Ð¾ÑĪÐ»Ð¾
ĠÐ½Ð° ÑĢÐ¸Ñģ
Ð½Ñĥ ÑĤÐ¾
Ð¸Ñĩ Ð½Ð°Ñı
Ð¾Ñĩ Ð½Ð°Ñı
ĠÐ³Ð» Ð°Ñģ
ÑĢÑı Ð´Ñĭ
ĠÐ¿Ð¾Ð² Ð¾ÑĢÐ°Ñĩ
ĠÐ¿Ð¾Ð¿ ÑĢÐ¾ÑģÑĤ
ĠÐ°ÑĤÐ°Ðº ÑĥÑİÑīÐ¸Ñħ
ĠÑĥÑģÐ¿ ÐµÑĪ
ĠÑģÑĤÐ¾Ð» Ð¿
ĠÐ¿ÐµÑĢÐµÐ² ÑıÐ·
ĠÐºÐ» Ð°Ð½Ð°
ĠÐ·ÑĥÐ± ÑĮÑı
ĠÐ¿ÑģÐ°Ð¹Ðº ÐµÑĢÑĭ
ĠÐ¾ÐºÐ°Ð· Ð°Ð²ÑĪÐ¸ÑģÑĮ
ĠÑĢÐ°Ð·Ð±Ð¸ÑĤ ÑĭÑħ
ĠÑģÐºÑĢÑĭ ÑĤÑĮÑģÑı
ĠÐ¿ÑĤ Ð¸ÑĨÐ°
ĠÑĪÐµÑģÑĤÑĮ Ð´ÐµÑģÑıÑĤ
id e
ĠÐ¿ÑĢÐµÐ´Ð¿Ð¾Ð»Ð°Ð³ Ð°Ð»
ĠÑĥÑī ÐµÐ»ÑĮÑı
ĠÑĤÑĢÐ°Ð´ Ð¸ÑĨÐ¸Ð¸
ĠÐ´Ð¾Ð½Ð¾Ñģ Ð¸Ð»ÑģÑı
ĠÑĢÐ°ÑģÑģÑĭÐ¿ Ð°Ð»Ð¸ÑģÑĮ
ĠÐ±ÐµÑĪ ÐµÐ½Ð¾
ĠÐ½ÐµÐ±ÑĢÐµÐ¶ Ð½Ð¾
ĠÐĳÐ»Ð°Ð½ÑĪ Ð¾
Ð¸ ÑĤÐ¾Ðµ
Ñģ Ð¸Ñħ
ĠÐ± Ð¸ÑĤÑĮÑģÑı
Ð°ÑĤ ÑĭÐ¼Ð¸
Ð³ Ð»Ð°Ñģ
ĠÐ¢ ÑıÐ¶ÐµÐ»
ĠÐĺ Ð±
ĠÐľ Ð³Ð½Ð¾Ð²
ĠÑģÐ¿ Ð¾ÑĤÐº
Ð¡ ÑĢÐµÐ´Ð¸
ĠÐ½Ð°Ñĩ Ð½ÐµÑĤÑģÑı
Ð½ÑĥÑĤ Ð¾Ð¼
Ð¥ Ð¸Ñī
ĠÑĥÐ½Ð¸ÑĩÑĤÐ¾Ð¶ Ð°Ñı
ĠÑĤÐµÑĢ ÑĢÐ°Ñģ
ĠÑģÐ¼Ð¾ÑĤ ÑĢÑı
ĠÑĥÐ»ÑĭÐ± Ð°Ð»ÑģÑı
ĠÐ¿ÑĢÐ¾Ñģ Ð½ÑĥÐ»ÑģÑı
ĠÑĥÐ³ Ð»Ð°
ĠÑģÐ¼Ð¾ÑĤÑĢ ÑıÑĤ
ĠÐ¿ÑĢÐ¸Ð³ Ð½ÑĥÐ»ÑģÑı
ĠÐ·Ð°ÐºÐ¾Ð½Ñĩ Ð¸Ð»Ð°ÑģÑĮ
ĠÐ½Ð¸Ð¶ Ð½Ð¸Ðµ
ĠÐ¼Ð°Ð»ÐµÐ½ÑĮ ÐºÐ¸Ñħ
ÐĲÑĢ Ðº
ĠÐ»ÐµÐ·Ð² Ð¸ÐµÐ¼
ĠÑĥÑģÑĤÑĢÐ¾Ð¹ ÑģÑĤÐ²
ĠÑĦÐ¸Ð· Ð¸ÑĩÐµÑģÐºÐ¸
ĠÐľÐ¾ÑĢ ÑĢ
ĠÐºÑĢÐ°ÑĤ ÐµÑĢÐ°
ĠÐ¼ÑĥÑĤÐ°Ð½ÑĤ Ð°
ĠÐ¾ÑĤÐ½Ð¾ÑĪ ÐµÐ½Ð¸Ð¸
ĠÐ²Ð¾Ð»Ð½ Ð°Ð¼Ð¸
ĠÐļÑĢÐµÑģÑĤ Ð¾Ð²ÑĭÐ¹
ĠÑĢÐ°ÑģÑģÑĩÐ¸ÑĤ ÑĭÐ²Ð°Ð»
ĠÐ³Ð»ÑĥÑħ Ð¸Ð¼
ĠÐ¸Ð½ÑĦÐ¾Ð¿Ð»Ð°Ð½ÑĪ ÐµÑĤ
ĠÐķÐ² Ð¼ÐµÐ½
ĠÐºÐ¾Ð½ÑģÐ¾Ð» Ð¸
ĠÐ¼ Ð¾ÑĤ
ĠÐ³ Ð¸Ð¼
Ð¸ÑĢ Ð°ÐµÑĤÑģÑı
Ð¾Ð¿ Ð¾Ðº
ĠÑģÐ¿ Ð¸Ð½
ĠÑĢÑĥ Ð¸Ð½Ð°Ñħ
ĠÐ²Ð¾Ð· Ð¾Ð±Ð½Ð¾Ð²
ÑĥÑĢ ÑĤ
ÐµÑĤÑĮ ÑģÑı
ĠÐ´ÐµÐ» Ð°Ð»Ð¾
Ð»Ð¾ÑĤ Ð½ÑĥÑİ
ĠÐºÐ°Ð¼ ÐµÐ½
ĠÐºÐ°Ð¼ Ð½Ðµ
ĠÑĤÑĭÑģÑıÑĩ Ð°Ð¼Ð¸
re at
ĠÐ´Ð¾Ð»Ð³ Ð¾Ð¹
ĠÐ±Ð»Ð¸Ð· Ð¾Ðº
ĠÐ´Ð¾ÑĢÐ¾Ð³ Ð°
ĠÐ¿Ð¾ÐºÑĢÑĭÑĤ ÑĭÑħ
ic e
ÐĿÐ°Ð´ ÐµÑİÑģÑĮ
ĠÐĴÐ°ÑĢÐ¿ Ð°
ÑģÐ²ÑıÐ· Ð¸
ĠÐľÐ°Ð¹ Ð»Ð¾
ĠÐ½ÐµÑĤÐµÑĢÐ¿ÐµÐ» Ð¸Ð²Ð¾
ĠÐ¿ÑĢÐµÐ´Ð¼ ÐµÑĤÑĭ
ĠÐ¿Ð¾Ð¿ÑĢÐ¾ÑģÑĤ Ñĥ
I V
ÑģÑĤ Ð°Ð½Ð¾Ð²
Ð¸Ð² Ð¾Ð¹
Ð°Ð´ ÑĥÑĤ
ĠÐ¿Ð¾ Ð¸ÑģÑĤÐ¸Ð½Ðµ
ĠÐĿ Ð°Ð³Ð°ÑģÐµÐ½Ð°
ĠÐĺ Ð´
ĠÐĲ ÑģÑĤÑĢÐ¾Ð¿
ĠÑģÐµÑĢ Ð¾Ð³Ð¾
ĠÐ½ÐµÐ¼ ÐµÐ´
Ð½ÑĥÐ² ÑĪÐ¸Ð¹
ĠÐ¶ÐµÐ» Ð°ÐµÑĤ
ĠÑĥÐ½Ð¸ÑĩÑĤÐ¾Ð¶ ÐµÐ½Ð°
ÐļÐ°Ðº Ð¾Ðµ
ĠÐºÑĢÐµÐ¿ Ð¾ÑģÑĤ
ĠÐ±Ð»Ð°Ð³ Ð¾Ð²
ĠÑģÐ¾ÑģÑĤÐ¾Ñı Ð»
ĠÐ¿ÑĢÐµ ÑĥÑģÐ¿
ĠÐ¼Ð°ÑģÑģ Ð¾Ð¹
ĠÑıÑģ Ð½Ð¾Ð²Ð¸Ð´
ĠÑĢÐµÐ°Ðº ÑĤÐ¾ÑĢ
ĠÑĩÑĥÐ´ Ð¾Ð¼
ĠÑĢÑĭÑĨÐ°ÑĢ ÑĮ
ĠÑıÑī Ð¸Ðº
ĠÑįÑĦÑĦÐµÐºÑĤÐ¸Ð² Ð½Ð¾
ÐļÐ¾ÑĢ Ð°ÑĢÐ¸Ð½
ĠÑģÐºÐ¾Ð¿ Ð»ÐµÐ½Ð¸Ðµ
ĠÐľÐ¾ÑĢÑĤÐ°ÑĢÐ¸Ð¾Ð½ Ð°
ĠÐ¿Ð¾Ð´Ð¾Ð¶Ð´ Ð°ÑĤÑĮ
ÐµÐ¹ÑĢ ÑĤÑĥ
Ð¾ ÑĢÐ°Ð¶
Ð³ Ð°Ð½Ð°
ĠÐ¾ÑĤ ÑģÐºÐ°Ðº
ĠÐ²Ñĭ Ð½ÐµÑģ
ĠÐ¢ ÐµÐ½ÑĮ
ÐĴ Ð°Ð»
Ðļ Ð°Ð¼
Ðļ Ð°ÑģÑĤ
ĠÐ¿Ð¾Ð· Ð¾Ð»Ð¾Ñĩ
ĠÐ·Ð°Ðº Ð¾Ð»
ĠÐ½Ð°Ð· ÑĭÐ²Ð°Ð»
ÐĹ Ð°ÑĤ
ĠÐ²Ð¾Ð» Ð¾Ðº
ÑĥÐº ÑĢÐ°ÑĪ
ĠÐ¸Ð·Ð² Ð»ÐµÑĩ
ĠÑģÐ¿Ð¾ÑģÐ¾Ð± Ð½Ð°
ĠÐ²ÐµÐ´ Ñı
ĠÑģÐ± ÑĢÐ¾ÑģÐ¸Ð»
ĠÐ²ÑĤÐ¾ÑĢ Ð¾Ðµ
ĠÑĥÐ³ Ð°Ð´
ĠÐ²Ð½ÑĥÑĤÑĢÐµÐ½ Ð½Ð¸Ð¼
ĠÑĪÐµÐ» ÐµÑģÑĤ
Ð¸ÑĢÑĥÑİÑī Ð¸Ñħ
ĠÐ¼Ð°ÑģÑģÐ¸Ð² Ð½ÑĭÐ¹
ÐµÐ½ÐµÑĢ Ð°Ð»
ĠÐ²ÑĭÐ¿ÑĥÑģÐº Ð°Ñı
ÑĢÐ¾Ð¸Ð· Ð²
ĠÐ¡Ð¸Ð³Ð¸Ð· Ð¼ÑĥÐ½Ð´
ÑĮ ÐµÐ¹
Ð¼ Ð¾Ð·
ĠÐ¼ ÑģÑĤ
ĠÐ¼ Ð¾ÑĢÐ´
Ð¶ ÐµÐ½Ð¸Ðµ
ĠÑģÑĤ ÑĥÐ»
ĠÐĴ Ð°Ð»ÑĮÐ´
ĠÐ²Ñģ ÐµÐ¿
Ð¾Ð¿ Ð¾ÑĢ
ÐµÑĩ Ð½Ð¾Ð³Ð¾
ĠÐ¢ ÑĢÐ°Ð¹
ĠÑģÐ¿ ÐµÐº
ĠÑģÐ¿ Ð¸Ð½Ð°Ð¼Ð¸
ĠÐ¿Ð¾Ñģ Ð²ÑıÑĤ
ĠÐ¿Ð¾Ðº Ð¸Ð½ÑĥÑĤ
ĠÐł Ð°Ð±
ĠÐĹ Ð¼Ðµ
ĠÐ·Ð°Ðº ÑĢÑĭÑĤÑĮ
ĠÐ½Ð¾Ð³ Ðµ
ĠÐ»ÐµÐ³Ð¸Ð¾Ð½ Ðµ
ÑĮÑı Ð½
ĠÐ¿Ð¾ÑĩÑĥÐ² ÑģÑĤÐ²Ð¾Ð²Ð°Ð²
ĠÐ²ÑģÐº ÑĢÐ¸ÐºÐ½ÑĥÐ»
ĠÑħÐ²Ð°ÑĤ ÐºÑĥ
ĠÐ²ÑĭÑħÐ¾Ð´ Ð¸Ð»Ð¸
ĠÐ¸Ð³ Ð½Ð¾ÑĢÐ¸ÑĢÑĥ
ĠÐ¿Ð»Ð° ÑīÐ°
ĠÑĢÐ°Ð·Ð¼ÐµÑĢ Ñĭ
ĠÐ¾Ð³Ð»ÑĥÑĪ Ð¸ÑĤÐµÐ»ÑĮÐ½ÑĭÐ¹
ÐĿÐ°Ð´ Ð¾
ĠÐ¾ÑģÐºÐ¾ÑĢÐ± Ð»ÐµÐ½Ð¸Ðµ
ĠÐ¿Ð¾Ð¼Ð½ Ð¸ÑĤÑĮ
ĠÐºÐ¾Ð½ÑĤÐ¸Ð½ ÐµÐ½ÑĤ
ĠÑģÐ½Ð°ÑĢÑıÐ¶ ÐµÐ½Ð¸Ðµ
ĠÑĪÑĤÑĥÑĢ Ð¼Ð°
ĠÐ²ÐµÐ½ÑĤÐ¸Ð»Ñı ÑĨÐ¸Ð¾Ð½
Ð¾ Ñĥ
ĠÐ´ ÐµÐ¶ÑĥÑĢ
ĠÐ½Ð° Ð¾Ð±Ð¾ÑĢÐ¾ÑĤ
ÐµÐ¹ Ð¼
Ð¾ÑģÑĤ Ð¾Ð¹
ÐµÐ· Ð°
ĠÐ¡ ÐµÐ´
ĠÐ¢ ÐµÐ¹ÑĢÑĤÑĥ
ÑĦ Ð°Ð±ÑĢÐ¸Ðº
ÑĥÑĩ Ð¸Ðµ
ÐĴ ÑĢÐ°Ð³
ĠÐĳ ÑĢÐ¾ÐºÐ»Ð°Ñĥ
ĠÐ²Ð¾Ð· Ð»ÑİÐ±
ĠÐ¾Ð¿ ÑĥÑī
ĠÐ²ÐµÑĢ Ð½ÑĭÐ¼
Ðĺ ÑģÐº
ĠÐ¼ÐµÑģÑĤ Ð¾Ð½Ð°Ñħ
ĠÐ¤ Ð°Ð¹
ÐĽ ÐµÐ½Ð´
ĠÑģÑĤÐ°ÑĢ ÐµÐ¹
ĠÑĥÐ· ÐºÐ¸Ð¹
ÐŁÑĢ Ð¾ÑģÑĤÐ¸ÑĤÐµ
ĠÐ¿Ð°ÑĢ Ð¾Ð¹
ĠÐ´Ð°Ð² Ð°Ð¹
ĠÐ³ÑĢÐ¾Ð¼ ÐºÐ¸Ð¹
ĠÑģÐ± Ð¸ÑĤÑĮ
ĠÐ¸ÑģÐ¿Ð¾Ð»ÑĮÐ· Ð¾Ð²Ð°Ð½Ð¸Ñı
ĠÐ²ÐµÐ»Ð¸Ðº Ð¸Ðµ
ĠÐºÐ°Ð± Ð¸Ð½
ĠÑĩÑĥÐ´Ð¾Ð²Ð¸Ñī Ð½Ð¾Ð¹
ÑģÐºÐ°Ð· ÑĥÐµÐ¼
ĠÑģÐ¸Ð¼Ð²Ð¾Ð» Ð°Ð¼Ð¸
ĠÑĪÐ°Ñħ ÑĤ
ĠÐ´ÑĭÑĪ Ð°Ð»
ĠÐ¡Ð°Ð± ÑĤÐ°Ñħ
ĠÐ¡Ð°ÑĢ Ð³Ð°
ĠÐ¿ÑĢÐ¾Ð»ÐµÑĤ ÐµÐ»
ĠÑģÐµÐ½Ñģ Ð¾ÑĢÑĭ
ĠÐ¿ÑĢÐµÐ´Ð¾ÑģÑĤÐ°Ð² Ð¸ÑĤÑĮ
ĠÐ²Ð¸ÑģÑı Ñī
ĠÐĳÐµÐ»Ð»Ð°ÑĤÐ¾Ð½ Ð¸Ñģ
Ð¸Ð¹Ð³ Ð»ÐµÑĢ
ÐºÐ°ÑįÐ» Ð»Ð¾Ð½
p l
ÐµÑģ Ð¾Ð¼
Ð¾Ðº ÑģÐ°
ĠÐļ Ð¸
ÑĦ Ð¸Ñģ
ĠÐľ Ð°ÑĪÐ¸Ð½Ð°
ĠÐ¿Ð¾Ð» ÑĥÑģ
ĠÐ¿Ð¾Ð» ÑĥÐ¿
ĠÐ¿ÑĢÐ¾ ÑıÑģÐ½
Ðļ Ð°Ð»
ĠÐ²Ð¾Ð·Ð´ÑĥÑħ Ñĥ
ĠÐ½Ð°Ðº Ð¾Ð¿
ĠÐ¼ÐµÐ´ Ð»
Ð°Ñī Ð¸Ð»
ĠÑħÐ¾Ð» Ð¼
ĠÐĿÐµÑģ Ð¾Ð¼Ð½ÐµÐ½Ð½Ð¾
ĠÐ´Ð¾Ðº ÑĥÐ¼
ĠÐ·Ð°Ñī Ð¸ÑĤÐµ
ĠÐ¿ÐµÑĢÐµÐ¿ ÑĢÑĭÐ³
ĠÐ¿ÐµÑĢÐµÑħ Ð¾Ð´Ð°
ĠÐ±Ð°Ð» Ð°Ñħ
ĠÑģÑĤÑĢÐµÐ»ÑĮ Ð±Ð°
ĠÑģÐºÐ¸ÑĤ Ð°Ð»ÑĮÑĨÐ°
ĠÐ´Ð¾Ð±ÑĭÑĩ Ð°
ĠÐ¾Ð±ÐµÑī Ð°Ð»
ĠÐºÑĢÐµÐ¹Ñģ ÐµÑĢÐ¾Ð²
ĠÐĶÐ°Ð² Ð°Ð¹
ĠÐĲÐ² Ð³ÑĥÑģÑĤ
Ð»ÐµÐ³ Ð°Ð½ÑĤ
ĠÑģÐ¸ÑĢ ÐµÐ½
ĠÐ¿ÐµÑĢÐµÐ½ ÐµÑģ
ĠÐ¾ÑĢÐ¾ÑĩÑĮ Ð¸Ñħ
ĠÐĿÐ¸Ñĩ ÑĤÐ¾
Ġ is
Ð½ ÐµÐ»Ð°
Ðº Ð¾Ð»ÑĮÐºÑĥ
ĠÐ´ Ð°Ð»Ð°
ÑĢÑĥ Ð»ÐµÐº
Ð¸Ðº Ð°ÑĤ
Ð°Ñı Ð½
ĠÐºÑĢ Ð¾ÑħÐ¾ÑĤ
ĠÐĵ Ð»ÑĥÐ±
Ð¸Ð± ÑĢ
ĠÑĦ Ð°Ñģ
ĠÐ¿Ð¾Ð²ÐµÑĢ Ð½ÑĥÐ²ÑĪÐ¸ÑģÑĮ
ÑĢÐµÐ² Ð¾Ð¶
ĠÐ»ÑİÐ± ÑĭÐ¼
ĠÐ»ÑİÐ± Ð¾Ð¼Ñĥ
ĠÐ¿ÑĥÑģÑĤ ÑĭÐ¼
ĠÐ±ÑĢÐ¾Ñģ Ð°Ñı
ĠÐ²Ð¿ Ð»Ð¾ÑĤÐ½ÑĥÑİ
ÑıÑģ Ð½Ð¸Ð¼
ĠÐ²ÑģÐº ÑĢÐ¸Ðº
ĠÑĥÐ¿ÑĢÐ°Ð² Ð»ÑıÐµÐ¼
ĠÐ³ÑĥÐ± Ð°Ð¼Ð¸
ĠÐ¿ÑĢÐ¸ÑģÑĤ ÐµÐ³
ÑĢÐµÑģ ÐºÐ¸
ĠÑģÐºÑĢÑĭÐ² Ð°Ð»
Ġd is
ÐŀÐ´ Ð½Ð°
ĠÐ·Ð²ÐµÐ·Ð´ Ð½Ð¾Ð³Ð¾
ĠÐ¿ÑĢÐ¾Ð½Ð¸Ðº Ð»Ð¸
ĠÐ¼ÐµÐ»ÑĮ ÐºÐ°Ð»Ð¸
Ð»Ð¸Ð· Ð¸
ĠÐ¼Ð¾Ð³ÑĥÑĩ Ð¸Ñħ
ĠÐ´Ð°ÑĢ Ð¾Ð¼
ĠÐ¾ÑģÐ¼Ð¾ÑĤ ÑĢÐµÑĤÑĮ
ĠÑĪÐ¿ Ð¸Ð»Ñı
ĠÑĢÑĥÐºÐ¾Ð²Ð¾Ð´ ÑģÑĤÐ²Ð¾Ð¼
ĠÐŁÐ¾ÑģÐ»ÐµÐ´ Ð½Ð¸Ð¹
ĠÐļÐ°Ð¼ Ð¸Ð½
ĠÐ¿Ð¾Ð´ÐºÑĢÐµÐ¿ Ð»ÐµÐ½Ð¸Ðµ
ĠÑħÑĢÐ°Ð½Ð¸Ð»Ð¸ ÑīÐ°
ĠÐ¸Ð·Ð´ ÐµÐ²
ĠÐĿÑĥÐ¼ ÐµÐ¾Ð½
ĠÐ½Ð°Ð·Ð²Ð°Ð½ Ð¸ÐµÐ¼
ÑĥÐ±ÐµÑĢÐ½Ð° ÑĤÐ¾ÑĢ
ĠÐ½Ð°Ð½Ð¾ ÑģÑı
Ð¡Ð°Ð½Ð³Ð²Ð¸Ð½ Ð¸Ð¹
Ñģ ÐµÐº
Ð´ Ð¶
Ð¾Ð´ Ð½Ð¾
ĠÐ³ ÑĥÑīÐµ
ĠÐł Ð°Ð´Ð¸
ĠÐ´Ð² ÐµÑģÑĤÐ¸
ĠÐ¾ÑĢ Ð¾Ñĩ
ĠÑĥÐ± Ð¸Ð²Ð°Ð»Ð¸
Ðĳ Ð°ÑĢ
ĠÐŁÑĢ Ð¾Ð³
ĠÐ¿ÑĢÐ°Ð² Ð´Ñĭ
Ð¥ Ð²Ð°ÑĤÐ¸ÑĤ
ĠÑıÐ² Ð»ÑıÐ»Ð¾ÑģÑĮ
ÑĳÐ½ Ð½ÑĭÐ¼Ð¸
ĠÐ±Ð¾Ð»ÑĤÐµÑĢ Ð°Ð¼Ð¸
ĠÐ·Ð°Ñģ Ð°Ð´Ñĭ
ĠÑģÐ»ÑĥÐ¶ Ð¸ÑĤ
ĠÑĢÐ°Ð² Ð½Ð¾Ð¹
ĠÑĨÐµÐ» Ð¾Ð¹
ĠÐ²Ð¾Ð·Ð¼Ð¾Ð¶ Ð½ÑĭÐ¼
ĠÑģÐ¶ Ð°Ð²
ÑĩÐ°ÑĤ ÑĭÑħ
ĠÐºÐ¾Ð¼Ð¿ Ð°Ð½Ð¸Ð¸
ĠÐ¿Ð¾ÑģÑĤÑĥÐ¿ Ð¸ÑĤÑĮ
ĠÐ¿ÑĢÐ¾Ð²ÐµÑĢ ÑıÑı
ĠÐ²Ð½ÐµÑĪ Ð½Ð¸Ðµ
ÑĥÐ½Ð´ Ð°Ð¼ÐµÐ½ÑĤ
Ð»Ð°Ð¼ ÐµÐ½
ÐĿÐ¸Ðº Ð¾Ð³Ð´Ð°
ĠÐ¡Ð°Ð»Ð°Ð¼Ð°Ð½Ð´ ÑĢÑĭ
ĠÐ¸Ð·Ð´Ð°Ð» ÐµÐºÐ°
ĠÐ±Ð¾ÑĢÑĮ Ð±Ðµ
ĠÐ´ÐµÑģÑıÑĤÐ¸Ð»ÐµÑĤ Ð¸Ð¹
ĠÐ±Ð°ÑĢÑĢÐ¸Ðº Ð°Ð´
ĠÐ¸Ð·Ð²Ð¸Ð½ ÐµÐ½Ð¸Ñı
ĠÑģÑĥÐ¼Ð°Ñģ ÑĪÐµÐ´
Ð¸ Ð¾Ð»Ð¾Ð³
ÑĤ Ð¸Ñģ
ÐµÑĢ ÐµÐ²
Ð°Ð½ ÑĨÐµÐ²
ĠÐ¿ÑĢ Ð¾Ð¹Ð´
ĠÐ´ ÑĢÐµÐ¼
Ð¾Ð¼ Ð½Ð¸
ÐµÐ´ Ð¸Ð½Ð¾
Ð½Ñĥ ÑĢ
Ð¾Ð± ÐµÑģÐ¿
ĠÐĴ Ð°ÑĪ
ĠÐŀ ÐºÐ¾
ĠÐĶ Ñİ
ĠÐĶ ÐµÐ¹ÑģÑĤÐ²
ĠÐ¿Ð» Ð¾Ð´
ĠÐ²Ð¾ ÐµÐ´Ð¸Ð½Ð¾
ÐŁ ÑĢÐ¾Ð²
ĠÑĤÑĢ Ð¸Ð½
ĠÐ½Ð°Ð¿ Ð°ÑģÑĤÑĮ
Ð¾ÑĪ ÐµÑĤ
ÑĥÐ² ÐµÐ»Ð¸Ñĩ
ĠÐ§ ÐµÐ³Ð¾
ÐĹ Ð°Ð±
ÑİÑī Ð¸Ð¼Ð¸
ÑĬ ÑıÐ²
ĠÐ·Ð°Ð± Ð»Ð¾Ðº
ĠÑĥÑģ Ð¾Ð²ÐµÑĢÑĪÐµÐ½ÑģÑĤÐ²Ð¾Ð²
ĠÐ²Ð¿ ÑĥÑģÑĤ
ĠÐ¿Ð¾Ð¶ Ð°Ð»ÑĥÐ¹
ĠÐ¸Ð¼Ð¿ÐµÑĢ ÑģÐºÐ¸Ð¼
ĠÐ¿ÑĢÐ¾ÑħÐ¾Ð´ Ð¸ÑĤ
ĠÐ¿Ð»Ð°Ð½ÐµÑĤ Ð°Ñħ
ĠÐ²ÑģÑĤÑĢÐµÑĩ Ð°Ð»
Ð²ÐµÑĢÑħ Ñĥ
ĠÐ±ÐµÐ³ ÑģÑĤÐ²Ð¾
ĠÐ·Ð²ÐµÐ·Ð´ Ð¾Ð»ÐµÑĤ
ĠÐ·Ð°Ð½Ð¸Ð¼ Ð°Ð»ÑģÑı
ĠÑįÐºÑĢÐ°Ð½ Ð°
ĠÐ¾ÐºÐ°Ð· Ð°ÑĤÑĮ
ĠÑĥÐ±ÐµÐ¶ Ð¸ÑīÐ°
ĠÐ±ÐµÐ´ ÑĢÐµ
Ð´Ð°ÑİÑī Ð¸Ðµ
ĠÑģÑĤÐ²Ð¾Ð» Ð¾Ð²
ĠÐ´ÐµÐ¹ ÑģÑĤÐ²Ð¾Ð²Ð°Ð»
ĠÐ½ÐµÑĢÐ² Ñĭ
ĠÐ·Ð°Ð²Ð¸Ñģ Ð¸Ð¼Ð¾ÑģÑĤÐ¸
ĠÐ¾Ð³Ð»ÑıÐ´ ÑĭÐ²Ð°ÑıÑģÑĮ
Ð°ÑİÑīÐµÐ¼Ñĥ ÑģÑı
ĠÐļÑĥÐ» Ð»Ð¸Ð½
ĠÐ³ÑĢÑĥ Ð´Ñĥ
ĠÐ±ÑĢÐ¸ÑĤ Ð²
ĠÐ½ÐµÐ·Ð°Ð²Ð¸Ñģ Ð¸Ð¼Ð¾
ÐŁÐ¾Ñĩ ÑĤÐ¸
. >
Ðº Ð¾ÑģÐ¼
ĠÐ± Ð¸Ð»ÑģÑı
Ð¾Ð» Ð»
Ð± ÐµÑĢÐ³
ĠÐ¾ÑĤ ÑĨÐ¾Ð¼
[...]
