{"<s>":0,"</s>":1,"<unk>":2,"!":3,"\"":4,"#":5,"$":6,"%":7,"&":8,"'":9,"(":10,")":11,"*":12,"+":13,",":14,"-":15,".":16,"/":17,"0":18,"1":19,"2":20,"3":21,"4":22,"5":23,"6":24,"7":25,"8":26,"9":27,":":28,";":29,"<":30,"=":31,">":32,"?":33,"@":34,"A":35,"B":36,"C":37,"D":38,"E":39,"F":40,"G":41,"H":42,"I":43,"J":44,"K":45,"L":46,"M":47,"N":48,"O":49,"P":50,"Q":51,"R":52,"S":53,"T":54,"U":55,"V":56,"W":57,"X":58,"Y":59,"Z":60,"[":61,"\\":62,"]":63,"^":64,"_":65,"`":66,"a":67,"b":68,"c":69,"d":70,"e":71,"f":72,"g":73,"h":74,"i":75,"j":76,"k":77,"l":78,"m":79,"n":80,"o":81,"p":82,"q":83,"r":84,"s":85,"t":86,"u":87,"v":88,"w":89,"x":90,"y":91,"z":92,"{":93,"|":94,"}":95,"~":96,"¡":97,"¢":98,"£":99,"¤":100,"¥":101,"¦":102,"§":103,"¨":104,"©":105,"ª":106,"«":107,"¬":108,"®":109,"¯":110,"°":111,"±":112,"²":113,"³":114,"´":115,"µ":116,"¶":117,"·":118,"¸":119,"¹":120,"º":121,"»":122,"¼":123,"½":124,"¾":125,"¿":126,"À":127,"Á":128,"Â":129,"Ã":130,"Ä":131,"Å":132,"Æ":133,"Ç":134,"È":135,"É":136,"Ê":137,"Ë":138,"Ì":139,"Í":140,"Î":141,"Ï":142,"Ð":143,"Ñ":144,"Ò":145,"Ó":146,"Ô":147,"Õ":148,"Ö":149,"×":150,"Ø":151,"Ù":152,"Ú":153,"Û":154,"Ü":155,"Ý":156,"Þ":157,"ß":158,"à":159,"á":160,"â":161,"ã":162,"ä":163,"å":164,"æ":165,"ç":166,"è":167,"é":168,"ê":169,"ë":170,"ì":171,"í":172,"î":173,"ï":174,"ð":175,"ñ":176,"ò":177,"ó":178,"ô":179,"õ":180,"ö":181,"÷":182,"ø":183,"ù":184,"ú":185,"û":186,"ü":187,"ý":188,"þ":189,"ÿ":190,"Ā":191,"ā":192,"Ă":193,"ă":194,"Ą":195,"ą":196,"Ć":197,"ć":198,"Ĉ":199,"ĉ":200,"Ċ":201,"ċ":202,"Č":203,"č":204,"Ď":205,"ď":206,"Đ":207,"đ":208,"Ē":209,"ē":210,"Ĕ":211,"ĕ":212,"Ė":213,"ė":214,"Ę":215,"ę":216,"Ě":217,"ě":218,"Ĝ":219,"ĝ":220,"Ğ":221,"ğ":222,"Ġ":223,"ġ":224,"Ģ":225,"ģ":226,"Ĥ":227,"ĥ":228,"Ħ":229,"ħ":230,"Ĩ":231,"ĩ":232,"Ī":233,"ī":234,"Ĭ":235,"ĭ":236,"Į":237,"į":238,"İ":239,"ı":240,"Ĳ":241,"ĳ":242,"Ĵ":243,"ĵ":244,"Ķ":245,"ķ":246,"ĸ":247,"Ĺ":248,"ĺ":249,"Ļ":250,"ļ":251,"Ľ":252,"ľ":253,"Ŀ":254,"ŀ":255,"Ł":256,"ł":257,"Ń":258,"ĠÐ":259,"Ð¾":260,"Ð°":261,"Ðµ":262,"Ð¸":263,"ÑĤ":264,"Ñģ":265,"Ð½":266,"ÑĢ":267,"Ð»":268,"Ð¾Ð":269,"Ñĥ":270,"Ð°Ð":271,"Ñĭ":272,"ÐµÐ":273,"Ñı":274,"ÑĮ":275,"ĠÐ¿":276,"ĠÑģ":277,"Ð¸Ð":278,"ĠÐ²":279,"ĠÐ½":280,"Ñĩ":281,"Ðº":282,"Ð²":283,"ĠÐ¾":284,"ÑģÑĤ":285,"Ð´":286,"Ñħ":287,"ĠÐ¸":288,"Ð°Ð»":289,"ÐµÐ½":290,"ĠÐº":291,"Ð¾Ð²":292,"Ð¼":293,"ÑĤÐ¾":294,"ÐµÑĢ":295,"ÑĪ":296,"³Ð¾":297,"ĠÐ±":298,"ÐµÐ»":299,"Ð°Ð½":300,"ĠÐ¼":301,"Ð¿":302,"ĠÐ¿ÑĢ":303,"Ð¾Ð»":304,"ĠÐ´":305,"Ð¸Ð»":306,"Ñİ":307,"Ð¾Ð¼":308,"Ð½Ñĭ":309,"ĠÑĤ":310,"ÐµÑĤ":311,"Ð°ÑĤ":312,"Ð½Ð¾":313,"ĠÐ·":314,"ÑģÑı":315,"ÑĢÐ°Ð":316,"ĠÑĩ":317,"Ñī":318,"Ð¸ÑĤ":319,"ĠÐ½Ð°":320,"Ð¾Ð¹":321,"ÐµÐ¼":322,"Ð·":323,"ĠÑĥ":324,"Ð¾ÑĢ":325,"Ð¾Ð´":326,"Ð±":327,"Ð¾Ñģ":328,"Ð°Ðº":329,"Ð°ÑĢ":330,"ÑĨ":331,"Ð¾Ð½":332,"Ð¶":333,"Ð³":334,"ĠÐ½Ðµ":335,"Ð¸Ð½":336,"Ð°Ð¼":337,"ÐµÐ´":338,"ÑĢÑĥ":339,"ĠÐµ":340,"Ð¾ÑĤ":341,"Ð¸Ð¼":342,"Ð°Ñģ":343,"Ð¸Ðº":344,"Ð»Ð¸":345,"Ð¸Ð²":346,"ÐµÑģ":347,"ĠÐ±Ñĭ":348,"Ð¸Ðµ":349,"ĠÐ¾ÑĤ":350,"Ð¾Ð³":351,"ĠÑ":352,"Ð°Ð²":353,"Ð½Ñĥ":354,"Ð¾Ð±":355,"ĠÐ»":356,"Ð¾Ð³Ð¾":357,"Ð¾Ðº":358,"ÐµÐ¹":359,"ĠÐ³":360,"Ð¸Ñģ":361,"Ð°Ñı":362,"ÑĤÐ¾ÑĢ":363,"ĠÑĢ":364,"Ð¹":365,"Ð°Ð·":366,"Ð¾Ð¶":367,"Ð¸Ñı":368,"ĠÑį":369,"ĠÐ¾Ð½":370,"Ð³Ð¾":371,"Ð°ÑĤÑĮ":372,"Ð°Ð´":373,"Ð¸Ñħ":374,"ĠÑĩÑĤÐ¾":375,"ÑģÑĤÐ²":376,"ĠÐ¿Ð¾":377,"ÐµÐ²":378,"ĠÐ¸Ð·":379,"ĠÐ²Ñĭ":380,"Ð¾Ð·":381,"ĠÑĢÐ°Ð":382,"Ð»Ñı":383,"Âł":384,"Ð¸Ð¹":385,"ĠÐ¾Ð±":386,"ĠÐļ":387,"ÐµÐº":388,"Ð¾ÑģÑĤ":389,"ÐµÐ·":390,"ÑģÐº":391,"ĠÑģÑĤ":392,"ĠÐ±ÑĭÐ»":393,"ĠÐĴ":394,"ĠÑģÐ²":395,"Ð¸ÑĢ":396,"ĠÐŀ":397,"ĠÐµÐ³Ð¾":398,"Ð´Ð°":399,"Ð¸Ð´":400,"ĠÐ°":401,"ĠÐ¿Ð¾Ð´":402,"Ð¸ÑĤÑĮ":403,"ĠÐ¶":404,"Ð¸Ñĩ":405,"ĠÐ²Ñģ":406,"Ð¸Ð·":407,"âĢ":408,"Ð¾Ð»ÑĮ":409,"ĠÐ¡":410,"ĠÑĢÐ°Ð·":411,"Ð½ÑĭÐµ":412,"ĠÑģÐ»":413,"ÐµÐ»ÑĮ":414,"ÐµÐ¿":415,"ĠÐºÐ¾":416,"Ð°Ð»Ð¸":417,"ÐµÐ³Ð¾":418,"ĠÐºÐ°Ðº":419,"Ð°Ñİ":420,"Ð°Ð¿":421,"Ð½ÑĭÐ¼":422,"ÐµÑģÑĤ":423,"Ð¸ÑģÑĮ":424,"ĠÑı":425,"ĠÐŁ":426,"ĠÐ·Ð°":427,"Ð½ÑĥÐ»":428,"Ð½Ð¾Ð¹":429,"Ð»ÑĮ":430,"ÑĢÑĭ":431,"Ð°Ð¼Ð¸":432,"Ð¾Ð¿":433,"ÐµÐ±":434,"ĠÐĿ":435,"Ð½ÑĭÐ¹":436,"ÐµÑĩ":437,"ĠÑģÐº":438,"ĠÐ³Ð¾":439,"ÑĤÑĮ":440,"Ð½ÑĭÑħ":441,"ÐºÐ¾":442,"Ð°Ð¶":443,"ĠÑĤÐ¾":444,"ĠÐ¢":445,"Ð°Ñħ":446,"Ð½Ð¾Ð³Ð¾":447,"ÐºÐ¸":448,"ÑĦ":449,"ĠÐ¿ÐµÑĢ":450,"ĠÑħ":451,"ĠÐĺ":452,"Ð°Ð»ÑĮ":453,"ĠÐľ":454,"ĠÑĪ":455,"Ð¸Ð¸":456,"ÑĥÐ¼":457,"Ð½Ð°":458,"ÑĥÑĤ":459,"Ð»ÐµÐ½":460,"ÑĥÐ´":461,"Ð½Ð¸Ðº":462,"Ð°Ð³":463,"ĠÐ½Ð¾":464,"ÑģÑĤÑĢ":465,"ĠÐĲ":466,"ÐµÐ¶":467,"ÐµÐ³":468,"ÑĭÐµ":469,"ĠÑįÑĤÐ¾":470,"ÑīÐµ":471,"Ð½Ð¾ÑģÑĤ":472,"ĠÐºÑĢ":473,"ĠÐºÐ¾ÑĤÐ¾ÑĢ":474,"Ñĳ":475,"ĠÑĤÐ°Ðº":476,"Ð¸ÑĨ":477,"ÐµÑģÐº":478,"Ð¾Ð³Ð´Ð°":479,"ĠÑģÐ²Ð¾":480,"Ð»Ð°":481,"ĠÑįÑĤ":482,"ÐµÑħ":483,"ÑĥÑİ":484,"ĠÐ¿Ð¾Ð»":485,"ĠÑģÐ¿":486,"ÐµÐ½Ð¸Ñı":487,"Ð¿ÐµÑĢ":488,"ÑĭÐ¹":489,"ĠÐĶ":490,"ĠÐŀÐ½":491,"ÑĢÐ°":492,"Ð°Ð»ÑģÑı":493,"ÐµÐ½Ð¸Ðµ":494,"Ð°Ð»Ð°":495,"Ð¸Ð³":496,"ÐµÑĪ":497,"ÑĭÐ¼":498,"Ð¾ÑģÑĮ":499,"ĠÐ¾Ð´":500,"ÑĭÑħ":501,"ĠÐ¿Ð»":502,"ÑĥÑĩ":503,"ÑĥÑģ":504,"ĠÐ¿ÑĢÐ¾":505,"ÑĭÐ²":506,"ĠÐ¿Ð¾Ñģ":507,"Ðŀ":508,"ÑģÑĮ":509,"Ð°Ð±":510,"ÑĢÑĥÐ³":511,"ĠÐ¸Ñħ":512,"ĠÐ¾ÑģÑĤ":513,"ÐĴ":514,"Ð°ÑģÑĮ":515,"ÐĿ":516,"ĠÐĵ":517,"ĠÑģÐ¼":518,"ĠÐ±ÑĭÐ»Ð¾":519,"ÑħÐ¾Ð´":520,"Ð¾Ñĩ":521,"ÑĥÐ¶":522,"ÑıÑĤ":523,"ĠÐ²Ð¾":524,"Ð¸Ð»ÑģÑı":525,"Ð²ÐµÑĢ":526,"Ð¸Ð±":527,"ĠÐ±ÑĢ":528,"Ð¾Ð±Ñĭ":529,"ĠÑĢÐ°Ñģ":530,"ÑĢÐ°Ð½":531,"Ð½Ðµ":532,"ĠÑĢÑĥ":533,"Ð¸Ð»Ð¸":534,"ÐºÑĥ":535,"âĢĶ":536,"ÐŁ":537,"Ð°Ð¹":538,"Ð°Ð½ÑĤ":539,"Ð¸ÑģÑĤ":540,"ĠÐ²Ð·":541,"Ð°Ð·Ð°Ð»":542,"ÐºÐ°":543,"Ð½Ð¾Ð²":544,"Ð°ÐµÑĤ":545,"Â»":546,"Â«":547,"ĠÐ²ÑģÐµ":548,"ĠÐ¿Ð¾Ðº":549,"Ð°ÑģÑĤ":550,"Ð½Ñı":551,"ĠÐĳ":552,"Ð°ÑİÑī":553,"Ð¾Ð¼Ñĥ":554,"ĠÐ³Ð»":555,"ĠÐĽ":556,"ĠÐ¿ÑĢÐµÐ´":557,"ĠÐł":558,"ÑĢÐ°Ð²":559,"ÑĪÐµ":560,"Ðļ":561,"ĠÐ²Ð¾Ð·":562,"Ð¸ÑĤÐµÐ»ÑĮ":563,"ÑģÐ¿":564,"Ð´Ñĥ":565,"ĠÑĩÑĤ":566,"Ð½Ð¾Ðµ":567,"Ð¾Ðµ":568,"ĠÐ³Ð¾Ð»":569,"ĠÑĦ":570,"ÐµÐ»Ð¸":571,"Ð¸ÑĢÐ¾Ð²":572,"Ð¸ÑĪ":573,"ĠÐ¸Ð¼":574,"Ð¡":575,"ĠÑĨ":576,"ĠÑĩÑĤÐ¾Ð±Ñĭ":577,"ÑĢÑı":578,"ĠÐ¾Ð½Ð¸":579,"ÑĢÐµÐ¼":580,"ÑĢÐ°Ð¶":581,"ÐµÐ½Ð¸":582,"ĠÐ´Ð²":583,"ÑĥÐ¿":584,"Ð°Ð»Ð¸ÑģÑĮ":585,"ÑĤÐ¸":586,"ĠÐ¼Ð¾Ð³":587,"Ð²ÐµÑĤ":588,"ÑĥÐ±":589,"ĠÐ¼Ñĭ":590,"ÑĥÐ»":591,"Ð¢":592,"ĠÂ«":593,"ĠÐ¿Ð¾Ð²":594,"Ñį":595,"ĠÐŃ":596,"Ð¸ÑĩÐµÑģÐº":597,"ÑĮÑİ":598,"ĠÑģÐ°Ð¼":599,"Ð¸Ð¼Ð¸":600,"ÑĥÑĢ":601,"Ð¸Ð¾Ð½":602,"ÐµÑĢÐ¶":603,"Ð½Ð°Ñı":604,"ĠÑĥÐ´":605,"ĠÑĥÐ¶":606,"ĠÐ±ÑĭÐ»Ð¸":607,"Ð»Ñİ":608,"ĠÐºÐ¾Ð³Ð´Ð°":609,"Ð°ÑĤÑĮÑģÑı":610,"ÐµÐ½ÑĤ":611,"Ð´ÐµÐ»":612,"ĠÐ¥":613,"Ð»Ð¾":614,"ĠÑģÐ¸Ð»":615,"ÑĢÐ¾Ñģ":616,"Ð´Ðµ":617,"ĠÐ¾Ðº":618,"ÑĢÐ°Ð±":619,"ÑĥÑģÑĤ":620,"ĠÑģÑĤÐ¾":621,"ĠÐ¶Ðµ":622,"Ð¸Ð¶":623,"ĠÐ¿Ð¾ÑĤ":624,"ÑģÐ»Ð¸":625,"ĠÑĤÑĢ":626,"Ð°ÑĪ":627,"ĠÐĺÐ¼":628,"Ð½ÑĭÐ¼Ð¸":629,"ĠÑĤÑĭ":630,"Ð½ÑĥÑİ":631,"ĠÐ½Ð°Ð¿":632,"Ð»ÐµÐ´":633,"ĠÐ´ÑĢÑĥÐ³":634,"Ðľ":635,"ĠÑģÐ¾":636,"Ð¾Ñı":637,"ĠÐ¯":638,"Ð¸Ð»Ð°":639,"ÑĢÐ¾Ð²":640,"ĠÐ²Ð¸Ð´":641,"Ð¾Ð»Ð¶":642,"âĢ¦":643,"ĠÐ´Ð»Ñı":644,"ĠÐ±ÑĥÐ´":645,"ÑĥÑĪ":646,"Ð½Ð¸":647,"ĠÐķ":648,"ĠÐ¾Ð³":649,"ÑĢÐ¾Ð¼":650,"ÐµÐ¼Ñĥ":651,"ÑĢÐ°ÑĤ":652,"ĠÑģÐ»Ð¾Ð²":653,"ĠÑĩÐµÑĢ":654,"Ð¼Ñĥ":655,"Ð°Ð»Ð¾":656,"ĠÐĺÐ¼Ð¿ÐµÑĢ":657,"ĠÐ¾Ñģ":658,"ĠÑģÐ¾Ð±":659,"ĠÐ¾Ð¿":660,"ÑĢÐ°Ð·":661,"ÑĭÑĪ":662,"ĠÐ¼ÐµÐ½":663,"Ð¼Ð¸":664,"Ð¸Ð»Ð¸ÑģÑĮ":665,"ÑĢÐµÐ´":666,"ÑĢÑĥÐ¶":667,"Ð°Ð²ÑĪ":668,"ĠÐ½Ð°Ð´":669,"ĠÐºÐ¾Ð½":670,"ĠÐ±Ð¾Ð»ÑĮ":671,"ĠÐµÑīÐµ":672,"ÐµÐµ":673,"ĠÐ±Ð¾Ð»":674,"Ð¾ÑĪ":675,"ĠÐ²ÑĢÐµÐ¼":676,"ÐĶ":677,"ĠÐ»Ñİ":678,"ÑĭÑĤ":679,"ĠÐ·Ð½":680,"ĠÐ±ÐµÐ·":681,"ĠÐºÐ¾Ð¼":682,"ÑģÑĤÐ²ÐµÐ½":683,"Ð°Ð½Ð¸Ñı":684,"ĠÐĹ":685,"Ð°ÑĤÐ¾ÑĢ":686,"ĠÐ²ÐµÑĢ":687,"ĠĊ":688,"Ð¾Ð»ÑĮÐºÐ¾":689,"Ð³Ð»Ñı":690,"Ð¾Ð²Ð¾ÑĢ":691,"Ð½Ð¾ÑģÑĤÐ¸":692,"ÐºÐ¾Ð²":693,"ÐµÐ»Ð¾Ð²":694,"ĠÐ£":695,"Ð°Ð½Ð´":696,"Ðĺ":697,"Ð¯":698,"ÐµÑĨ":699,"ÑĢÑĭÐ²":700,"ÑģÑĤÐ²Ð¾":701,"ÑıÐ»":702,"Ð½Ð¾Ð¼":703,"ĠÐ½Ð°Ñģ":704,"Ð¸Ð¿":705,"Ð°Ð½Ð¸Ðµ":706,"ÐĲ":707,"ĠÐ´Ð¾":708,"ÐµÐ±Ñı":709,"Ð½ÑĥÐ»ÑģÑı":710,"ÐµÑģÑĮ":711,"Ð»ÑĮÐºÐ¾":712,"ÑĥÐ½":713,"ÑĢÐ¸":714,"ĠÑĥÐ¶Ðµ":715,"ĠÐ±Ð»":716,"ÐµÐ½ÑĮ":717,"ĠÑĩÐµÐ¼":718,"Ð»Ðµ":719,"ÑĥÑī":720,"ĠÐ¿Ð¾Ð½":721,"Ð¸Ð½Ñĭ":722,"Ð¸Ð·Ð½":723,"ÑıÐ´":724,"ÑĥÐ²":725,"ÐµÑĢÑĤ":726,"ĠÑĤÐ¾Ð»ÑĮÐºÐ¾":727,"ĠÐ¿Ð¾Ð¼":728,"ÐµÐ½Ð½Ð¾":729,"ÐµÐ»Ð°":730,"Ð¸Ð²ÑĪ":731,"ÑģÑĤÐ°Ð²":732,"ĠÐ·Ð°Ð¼":733,"Ð¾Ñħ":734,"Ð°ÑİÑĤ":735,"ÑĢÐ°Ð¼":736,"ĠÐ³Ð»Ð°Ð·":737,"ĠÐ¿Ð¾Ñĩ":738,"ĠÐ¸Ð½":739,"Ð½Ð¾ÑģÑĤÑĮ":740,"ĠÐ¿Ð¾Ð·":741,"ĠÐ³Ð¾Ð»Ð¾Ð²":742,"ĠÐ¾ÑĤÐ²ÐµÑĤ":743,"Ð¸Ð½Ð°":744,"Ð°Ð¶Ðµ":745,"ĠÐ¾Ð½Ð°":746,"ĠÐ¼Ð¾Ð¶":747,"ÑıÑĤÑĮ":748,"ÑĤÐ¾Ð²":749,"ĠÐ¼Ð¾":750,"Ð°Ð½Ð¾Ð²":751,"ĠÐ±ÑĭÐ»Ð°":752,"ĠÐ·Ð°Ðº":753,"ĠÐ³Ð¾ÑĢ":754,"Ð°Ñĩ":755,"ĠÐºÐ¾ÑĢÐ°Ð±":756,"ÑıÑī":757,"ĠÐ·Ð°Ð¿":758,"ĠÐµÐµ":759,"ĠÐ¼ÐµÐ½Ñı":760,"Ð¸ÑĤÑĮÑģÑı":761,"ĠÐ½Ð°Ñĩ":762,"ĠÐ¿ÑĢÐ¾ÑĤ":763,"Ðĵ":764,"Ð°Ð¶Ð´":765,"ĠÑģÐµÑĢ":766,"ĠÐ¾ÑĢ":767,"Ð°Ð½Ð°":768,"Ð¸ÑĪÑĮ":769,"ÐºÐ¾Ð¼":770,"ĠÐ¾ÑĤÐº":771,"Ð½Ð¸Ð¼":772,"ÑģÑĤÐ²Ð¾Ð²":773,"ĠÑĥÐ±":774,"ĠÐºÑĢÐ¾Ð²":775,"Ð½ÑĥÑĤ":776,"Ð¸Ñİ":777,"ÐµÑī":778,"ĠÑĥÐ²":779,"ĠÐ¸Ð»Ð¸":780,"ÑģÑĤÐ²Ð°":781,"ÑĢÑĥÐ´":782,"ĠÐ½ÐµÐ³Ð¾":783,"ÐºÐµ":784,"Ð°ÑĨ":785,"ĠÐ»Ð¸ÑĨ":786,"ĠÐ§":787,"Ð¼Ð¾ÑĤ":788,"Ð°ÑıÑģÑĮ":789,"ĠÐµÐ¼Ñĥ":790,"ÐµÑĤÑĮ":791,"ĠÐ¿ÐµÑĢÐµÐ´":792,"ĠÑģÐºÐ°Ð·Ð°Ð»":793,"Ð½Ð°ÑĢ":794,"Ð°Ð»Ð¾ÑģÑĮ":795,"Ð½Ð°Ñĩ":796,"ÐµÐ»Ñı":797,"ÑĤÐµÑĢ":798,"Ð°ÑĤÐµÐ»ÑĮ":799,"ĠÐºÐ¾Ð»":800,"ÐµÑĪÑĮ":801,"ĠÐ¼ÐµÑģÑĤ":802,"ĠÐ¿ÑĢÐ¾ÑģÑĤ":803,"ĠÑĤÐµÐ¼":804,"ÐµÐ½Ð°":805,"ÐµÑĤÑģÑı":806,"ÑģÐ»":807,"ĠÐºÐ°Ð¿":808,"ÐµÐ½Ñĭ":809,"ÐµÐ³Ð¸Ð¾Ð½":810,"ĠÐ½Ð°ÑĪ":811,"ÑģÑĤÑĥÐ¿":812,"ÐµÐ»Ð¾":813,"ĠÐ¿ÑĢÐ¸Ðº":814,"Ð¸Ð½Ñĥ":815,"ĠÑħÐ¾ÑĤ":816,"ÑĤÐ°":817,"Ð²Ð°ÑĤ":818,"Ġ-":819,"ĠÐ¿Ð¾Ð¿":820,"ÑĢÐ¾":821,"ĠÐ½Ð¸Ñħ":822,"ÐµÐ±Ðµ":823,"ĠÐ¸ÑģÐ¿":824,"Ð¾ÑģÐ¿":825,"ĠÐ½Ð¸Ðº":826,"ĠÐ±Ð¾":827,"ÐµÑģÐ°Ð½ÑĤ":828,"Ð¾Ð»Ð½":829,"Ð»Ð¸ÑģÑĮ":830,"ĠÐ´Ð¾ÑģÑĤ":831,"ĠÐ¤":832,"Ðł":833,"Ð¼Ð¾Ð¶":834,"ÐµÑĢÑĮ":835,"ĠÑĩÐµÐ»Ð¾Ð²":836,"ĠÐ·Ð´":837,"ĠÐĿÐ¾":838,"ÐºÐ¾Ð¹":839,"ĠÐ´Ð°Ð¶Ðµ":840,"ĠÑĥÐ´Ð°ÑĢ":841,"ÑıÐ²":842,"ĠÐ´Ð¾Ð»Ð¶":843,"Ð¾ÑģÑĤÐ¸":844,"ĠÑģÑĤÐ¾ÑĢ":845,"Ð¸Ñī":846,"Ð²Ð°ÑĢ":847,"ĠÐ¼Ð½Ðµ":848,"ĠÐ¾Ñĩ":849,"ĠÑĤÐ¾Ð³Ð¾":850,"ĠÐºÐ¾ÑĢ":851,"ÑĢÐ°Ð³":852,"ĠÐ¼ÐµÑĤ":853,"Ð°Ð»Ð°ÑģÑĮ":854,"ĠÐ¿Ð¾ÑĢ":855,"ÑĢÐ°Ðº":856,"Ð¸Ð»Ð°ÑģÑĮ":857,"Ð»Ð¸Ð½":858,"ÐŃ":859,"ĠÐ¿Ð¾ÑģÐ»ÐµÐ´":860,"ĠÑģÐ»Ð¾Ð²Ð½Ð¾":861,"ÑĭÐ¼Ð¸":862,"ĠÐ²Ð·Ð³Ð»Ñı":863,"ĠÐ·Ð²":864,"ÑģÐ°":865,"ÐŀÐ½":866,"ĠÐ²ÑĢÐµÐ¼Ñı":867,"ĠÐŃÑĤÐ¾":868,"ÑıÐ·":869,"Ð»Ð°Ð´":870,"ĠÐºÐ¾ÑĤÐ¾ÑĢÑĭÐµ":871,"Ð¾ÑģÐ¼":872,"Ð¾Ð¶Ðµ":873,"ÑĥÑīÐµ":874,"ĠÑĥÐº":875,"ÑģÐµ":876,"Ðķ":877,"ĠÑĩÐ°ÑģÑĤ":878,"ĠÐ²Ð¾Ðº":879,"ĠÐ¿ÑĢÐ¾Ð´":880,"ĠÐµÑģÐ»Ð¸":881,"ĠÐ½Ð°Ð·":882,"ÐµÐ½Ð½ÑĭÐµ":883,"ÑıÐ¶":884,"Ðĳ":885,"ĠÐ·Ð°ÑĤ":886,"ÑĢÐ¾Ð½":887,"ÑĩÐ½Ð¾":888,"Ð¸Ð»Ð¾":889,"ĠÐ½Ð¸":890,"ĠÐ½ÐµÑģÐº":891,"ÑĥÑħ":892,"ÐĽ":893,"ĠÐ½ÐµÐ¿":894,"ÐµÐ¿ÐµÑĢÑĮ":895,"ÐµÐ½Ð½ÑĭÐ¹":896,"Ð¸Ð»Ð¾ÑģÑĮ":897,"Ð½ÐµÐ¹":898,"ĠÐ¿Ð»Ð°Ð½":899,"ĠÐŁÑĢ":900,"ÑĨÐ°":901,"ĠÐ¿Ð¾Ð²ÐµÑĢ":902,"Ð»Ñĭ":903,"Ð°ÑĢÑħ":904,"Ð¸ÑĤÐ°Ð½":905,"ĠÐŀÐ½Ð¸":906,"ĠÑģÐ»ÐµÐ´":907,"ĠÐ¾Ð´Ð¸Ð½":908,"ĠÐ²ÑĭÑģ":909,"Ð²Ð¾Ð»":910,"ÑĢÐµÐ»":911,"ÑĥÐ»ÑĮ":912,"ĠÐ¿ÑĢÐ¾ÑĤÐ¸Ð²":913,"ĠÑįÑĤÐ¾Ð³Ð¾":914,"ĠÐ·Ð°Ð´":915,"ĠÑģÐµÐ±Ñı":916,"Ð°ÑĢÑĤ":917,"ĠÐ¾ÑĢÑĥÐ¶":918,"ĠÐ¿ÑĢÐ°Ð²":919,"ĠÑģÐ´ÐµÐ»":920,"ĠÑĥÐ²Ð¸Ð´":921,"ÑģÑĤÑĢÐ¾":922,"ĠÐ°ÑĢ":923,"ĠÐ³Ð¾Ð»Ð¾Ñģ":924,"ĠÐĺÐ¼Ð¿ÐµÑĢÐ°ÑĤÐ¾ÑĢ":925,"ĠÐ¿Ð¾Ð³":926,"Ð¾Ð»ÑĮÐ·":927,"ÐµÑģÐ°Ð½ÑĤÐ½Ð¸Ðº":928,"ĠÐ±ÑĢÐ¾Ð½":929,"Ð¾Ð²ÐµÑĢ":930,"ĠÐ»ÑİÐ´":931,"ÑĢÑĥÑĪ":932,"ĠÐ»Ð¸ÑĪÑĮ":933,"ÑĥÑģÐº":934,"ÑĢÑĭÑĤ":935,"Ð°ÐµÑĤÑģÑı":936,"ĠÑģÐ²ÐµÑĤ":937,"ĠÑĥÐ¼":938,"ĠÐ³Ð¾Ð²Ð¾ÑĢ":939,"ĠÐ¿ÑĢÐ¸Ð½":940,"ĠÑĥÐ¿":941,"Ð»Ð¾Ð²":942,"ĠÐ¿ÑĢÐ¸Ð¼":943,"Ð»Ð¾Ð½":944,"ÐºÐ²":945,"ÐĹ":946,"ÑĢÐ°Ñī":947,"ĠÐ±ÐµÑģ":948,"ĠÑĢÐ°ÑģÐ¿":949,"ÑİÑī":950,"Ð¸ÐµÐ¼":951,"ÑĢÐ°Ð´":952,"Ð°ÑĤÐ¾":953,"ĠÐºÐ¾ÑĤÐ¾ÑĢÑĭÐ¹":954,"ĠÐ¾ÑģÑĤÐ°Ð²":955,"ĠÑĤÐµÑħ":956,"Ð½ÑĥÑĤÑĮ":957,"Ð¾ÑģÑĤÑĮ":958,"Ð¾ÑĢÐ¼":959,"ÑĬ":960,"ĠÐºÐ°Ð¶Ð´":961,"ĠÐ½Ð°Ð¼":962,"ÑĢÐ¾ÑģÐ¸Ð»":963,"ĠÐµÐ´":964,"ÑĢÑĥÐ¿":965,"Ð»Ð¸Ñĩ":966,"ÐµÑģÑı":967,"ĠÐ½Ð¸Ð¼":968,"ĠÐ±Ð¾Ð»ÑĮÑĪÐµ":969,"Ð§":970,"ĠÑĢÐ°Ð±":971,"ĠÑĩÐµÑĢÐµÐ·":972,"Ð»Ð¸Ð²":973,"ÐºÐ°Ð¼Ð¸":974,"ĠÐ²Ð¾Ð¹":975,"ĠÐ²Ð½":976,"Ð¾Ð½Ð°":977,"ĠÐ¸ÑģÐº":978,"Ġt":979,"ĠÐºÑĤÐ¾":980,"ĠÐ³Ð´Ðµ":981,"ÂłÂł":982,"Ð°ÐµÐ¼":983,"ÐµÐ½Ð¸ÐµÐ¼":984,"Ð¸ÑĢÐ¾Ð²Ð°Ð½":985,"ĠÐ¿ÑĢÐ¾Ð±":986,"Ð»ÐµÐ¼":987,"ÐµÐ½Ð½ÑĭÑħ":988,"ĠÐĲÑĢ":989,"ĠÐ¿ÑĢÐ¸Ð±":990,"ĠÐ¿ÐµÑĢÐ²":991,"ĠÐ¿Ð¾Ð´Ð½Ñı":992,"ĠÐ½ÐµÐ¼":993,"ĠÐ¼Ð¸ÑĢ":994,"Ð¾Ð¶Ð´":995,"ÑĤÐ°Ðº":996,"ĠÐºÐ¾Ð¼Ð°Ð½Ð´":997,"Ð½ÑĥÐ²":998,"ĠÑĢÐ°Ð½":999,"ÑģÑĤÑĮ":1000,"ĠÐ²Ð¾Ð»":1001,"ĠÐ½Ð¾Ð³":1002,"Ð¾Ñī":1003,"ĠÐ±ÑĥÐ´ÐµÑĤ":1004,"ÐµÐ»ÐµÐ¹":1005,"ĠÐ·Ð´ÐµÑģÑĮ":1006,"ÑĢÐ°Ñģ":1007,"ĠÑĩÑĥÐ²":1008,"ÑĤÐµ":1009,"ĠÑģÑĤÐ°ÑĢ":1010,"ĠÐ±ÑĭÑĤÑĮ":1011,"Ð£":1012,"Ð½Ð¾Ð²Ð°":1013,"Ð¸ÑĤÑģÑı":1014,"ĠÐ´ÐµÐ»":1015,"Ð»ÑİÑĩ":1016,"ÐµÑĤÑĭ":1017,"ÑĥÑİÑī":1018,"ĠÐ·Ð°Ð²":1019,"ĠÐ±Ð¾ÐµÐ²":1020,"Ð¸ÑĤÐµ":1021,"ĠÐ¿Ð¾ÐºÐ°":1022,"Ð²Ð°":1023,"Ð³ÑĢ":1024,"ĠÐ²Ð¾Ð¸Ð½":1025,"Ð»Ð¾ÑĤ":1026,"Ð¾Ð¼Ð½":1027,"ÑĤÑĥ":1028,"ĠÑģÐµÐº":1029,"ÑıÐ¼":1030,"Ð¾ÑĢÐ²":1031,"Ð½Ð¾Ð¼Ñĥ":1032,"ĠÐ½ÐµÐ²":1033,"Ð»ÐµÑĤ":1034,"Ð¸ÑĤÐ¾ÑĢ":1035,"ĠÐ²ÑĭÐ¿":1036,"ĠÐ¿ÑĢÐ¸Ð²":1037,"ĠÐ·Ð°Ð±":1038,"ÑĨÑĭ":1039,"ĠÐ½ÐµÑģÐºÐ¾Ð»ÑĮÐºÐ¾":1040,"ĠÐ½Ð¸Ñĩ":1041,"Ð¸ÑĤÐµÐ»ÑĮÐ½Ð¾":1042,"ÐµÐ½Ð¸Ð¸":1043,"ÑĥÐ³":1044,"ĠÑģÐ½Ð¾Ð²Ð°":1045,"ĠÐ»Ð¸":1046,"ÐµÐºÐ¾":1047,"ĠÐ²ÑĢÐ°Ð³":1048,"ÑħÐ²Ð°ÑĤ":1049,"ĠÑģÑĤÐ¾ÑĢÐ¾Ð½":1050,"Ð½Ð³":1051,"ĠÐ¿ÑĢÐ¸":1052,"ĠÐºÐ°Ð¼":1053,"ĠÐ±Ð¾Ð»ÐµÐµ":1054,"ĠÑģÑĤÑĢ":1055,"ÑģÑĤÐ¾Ñı":1056,"Ð¾Ð½Ñĭ":1057,"he":1058,"ĠÐ½Ð°Ð²":1059,"ÐµÑĢÐ°":1060,"ĠÐ¿Ð¾Ð±":1061,"ÐµÐ»Ð¸Ðº":1062,"ÑĥÐº":1063,"ĠÐĿÐ°":1064,"Ð¾ÑĢÐ´":1065,"ĠÐ¼Ð¾Ð»":1066,"ĠÐ²Ð¿ÐµÑĢ":1067,"ĠÑįÑĤÐ¾Ð¼":1068,"ĠÑģÑĢÐ°Ð¶":1069,"Â».":1070,"Ð´ÑĥÑħ":1071,"ĠÐ²Ð·Ð³Ð»ÑıÐ´":1072,"ÑĩÐ°Ñģ":1073,"ĠÐ¿ÑĢÐ¸Ñģ":1074,"ĠÑĩÐµÐ»Ð¾Ð²ÐµÐº":1075,"Â»,":1076,"ĠÐķÐ³Ð¾":1077,"ĠÐ¾ÑĤÐ²ÐµÑĤÐ¸Ð»":1078,"ÑĢÐµÐ²":1079,"Ð½Ð¸Ñĩ":1080,"ÑīÐ¸ÑĤ":1081,"ÐµÐ½Ð¸Ð¹":1082,"ĠÐ½Ð¾Ð²":1083,"ĠÑįÑĤÐ¾ÑĤ":1084,"in":1085,"ĠÐ±Ð¾Ð»ÑĮÑĪ":1086,"ĠÐ±ÑĢÐ°ÑĤ":1087,"ĠÑģÐ¾Ð·":1088,"Ð½Ð¸ÐºÐ°":1089,"ĠÐ¿ÑĢÐ¾Ð´Ð¾Ð»Ð¶":1090,"ĠÐ¿ÑĢÐ¾ÑĪ":1091,"ĠÐĸ":1092,"ĠÐ¸ÑģÑĤ":1093,"ÑİÑĤ":1094,"ĠÐ³Ð»Ð°Ð·Ð°":1095,"ĠÑıÑĢ":1096,"ĠÐ¼Ð°ÑĪ":1097,"Ð¸ÑĥÐ¼":1098,"Ð¼ÐµÑģÑĤ":1099,"ĠÐ´Ð¾Ð»":1100,"ÑĢÐµ":1101,"ĠÐ¾Ð³ÑĢÐ¾Ð¼":1102,"ĠÐ¶ÐµÐ»":1103,"ĠÐ²Ð½ÑĥÑĤ":1104,"ĠÐ»ÑİÐ±":1105,"Ð»Ð¸ÑĪ":1106,"ĠÐºÐ¾ÑģÐ¼":1107,"ĠÑĢÐµÑĪ":1108,"ÐµÐ½Ð½Ð¾Ð¹":1109,"ÑĩÐ¸ÑĤ":1110,"ÑĥÐ´Ð°":1111,"ÐµÑĢÐ³":1112,"ÐµÑĢÑĤÐ²":1113,"ÐµÐ¹ÑĩÐ°Ñģ":1114,"ĠÐ¿Ð¾Ð´Ð¾Ð±":1115,"ĠÐľÑĭ":1116,"Ð½Ð¾ÑģÑĤÑĮÑİ":1117,"Ð°ÑĢÐ¿":1118,"ĠÐ¼Ð¾Ð¶ÐµÑĤ":1119,"Ð¼Ð¾Ð¶Ð½Ð¾":1120,"ĠÐ¼Ð½":1121,"ĠÐ¿ÑĢÐ¾ÑģÑĤÐ¾":1122,"Ð¸ÐºÐ¸":1123,"ĠÐ¼ÐµÑĩ":1124,"Ð¿ÑĢ":1125,"Ð°ÐºÑĤ":1126,"ĠÐ²Ð¾Ð¿":1127,"Ġa":1128,"Ð°ÑĢÐ°":1129,"ĠÐ²Ð¾Ð·Ð´ÑĥÑħ":1130,"ĠÑģÐ¼ÐµÑĢ":1131,"ÑĨÐµ":1132,"ĠÐ²ÑģÐ¿":1133,"ĠÑĤÑıÐ¶":1134,"ĠÐ»ÑĥÑĩ":1135,"ÐŃÑĤÐ¾":1136,"Ð¸ÐºÐ°":1137,"ÐµÑĢÐ²":1138,"Ð¾ÑģÐ¿ÐµÑħ":1139,"Ð»Ð¸ÑĪÐºÐ¾Ð¼":1140,"ĠÐ½Ð°Ðº":1141,"Ð¥":1142,"ĠÐºÐ¸Ð²":1143,"ĠÑģÑĥÑīÐµ":1144,"ĠÐ½ÐµÐ±":1145,"ĠÐ½ÐµÐ´":1146,"ĠÐ¿ÑĭÑĤ":1147,"Ð½Ð¾Ñģ":1148,"ĠÑĤÐµÐ±Ñı":1149,"ĠÑĤÐµÐ¿ÐµÑĢÑĮ":1150,"Ð»ÐµÐº":1151,"ÐµÑģÑĤÐ¸":1152,"Ð»ÐµÐ½Ð¸Ñı":1153,"ĠÐ²ÑģÐµÑħ":1154,"ĠÐ½ÐµÑĤ":1155,"Ð½ÐµÐµ":1156,"âĢĵ":1157,"ĠÐ¶Ð¸Ð²":1158,"ÑĢÐµÐ½":1159,"Ð°Ð³Ð¾":1160,"Ð¾Ð´Ð°":1161,"ĠÑĤÐ²":1162,"Ð½Ð¸Ðµ":1163,"Ð¶Ðµ":1164,"Ð¼ÐµÐ½":1165,"Ð»Ð¾Ð¼":1166,"ĠÑĢÑıÐ´":1167,"ĠÑĢÐµÐ·":1168,"ĠÐ»ÐµÐ³Ð¸Ð¾Ð½":1169,"Ð¸Ð·Ð½ÐµÑģ":1170,"ĠÐ¾ÑĤÐ²":1171,"ÑĭÑĩ":1172,"Ð¸Ð»ÑĮ":1173,"ĠÐ½Ð°Ð¿ÑĢÐ°Ð²":1174,"ĠÐ´Ð²Ð¸Ð³":1175,"ĠÐ¿ÑĥÑģÑĤ":1176,"ĠÐ´Ð¾ÑģÐ¿ÐµÑħ":1177,"ÐµÐ¹ÑģÑĤÐ²":1178,"ĠÑĥÐ·":1179,"Ð¸ÑħÑģÑı":1180,"ĠÐ·Ð°Ð¼ÐµÑĤ":1181,"ÑģÑĤÐ²Ð¾Ð²Ð°Ð»":1182,"ĠÐ¿ÑĢÐµÐ²":1183,"ĠÐ¨":1184,"ĠÐ½Ð°Ð±":1185,"ĠÐ·ÐµÐ¼":1186,"ĠÐĺÐ¼Ð¿ÐµÑĢÐ°ÑĤÐ¾ÑĢÐ°":1187,"ĠÐ½ÑĥÐ¶":1188,"ĠÐĴÐ¾":1189,"ĠÑĢÐ°ÑģÑģ":1190,"ĠÐ½Ð°ÑħÐ¾Ð´":1191,"ĠÐ¸Ñģ":1192,"Ð´Ñĭ":1193,"ÑĮÑı":1194,"ĠÐ´Ð¾Ð±":1195,"ĠÑģÑĤÐµÐ½":1196,"ĠÐ¿Ð¾ÑģÐ»Ðµ":1197,"ĠÑģÐ²Ð¾Ð¸Ñħ":1198,"ĠÐ²Ð¾ÐºÑĢÑĥÐ³":1199,"ĠÑĥÑģ":1200,"Ð½ÑĥÐ»Ð°":1201,"ĠÐ¼ÐµÑĢ":1202,"ĠÑģÐ»Ð¸ÑĪÐºÐ¾Ð¼":1203,"ÐŁÑĢ":1204,"ĠÐ¼ÐµÐ´":1205,"Ð»Ð°Ð½":1206,"ĠÑģÐ»ÑĥÑĩ":1207,"ÐµÐ¼Ð¾Ð½":1208,"ĠÐ¿ÑĢÐ¾Ð²":1209,"ĠÐ¢Ñĭ":1210,"ĠÐ±ÑĢÐ¾Ñģ":1211,"ĠÐ¼ÐµÑĤÐ°Ð»":1212,"ĠÐ¼Ð°Ñģ":1213,"ÑĤÐ¾Ð¶":1214,"ĠÐĿÐµ":1215,"ĠÑĤÐ¾ÑĤ":1216,"ÑĨÐµÐ²":1217,"ĠÐ³ÑĢ":1218,"Ð³Ð¾Ð½":1219,"ĠÑģÐµÐ±Ðµ":1220,"Ð°Ð·Ð°Ð»Ð¾ÑģÑĮ":1221,"ĠÐ¿Ð¾ÑĩÑĤÐ¸":1222,"ĠÐ¿ÑĢÐ¸ÑĪ":1223,"Ð¸Ð½Ðµ":1224,"Ð¼Ñĭ":1225,"ĠÐ·Ð°Ð»":1226,"ĠÐ½Ð¸ÑĩÐµÐ³Ð¾":1227,"ÐºÐ²Ð¸Ð·":1228,"Ð½ÐµÐ²":1229,"ĠÑĪÐ°Ð³":1230,"ÑĥÑģÐ°":1231,"Ð¸Ð²Ð°Ñı":1232,"Ð¾ÑģÐ°":1233,"ĠÑįÐº":1234,"ĠÐ»ÐµÑĤ":1235,"Ð¾ÑģÐ¾Ð±":1236,"ÑĢÐ°ÑĪ":1237,"Ð¾ÑĢÐ°":1238,"ÐºÐ°Ñħ":1239,"Ð¸ÑĢÑĥ":1240,"ĠÐ´ÑĥÐ¼":1241,"ÑģÑĤÑĢÐµÐ»":1242,"Ð¾Ð»ÐµÑĤ":1243,"Ð½Ð¸ÐºÐ¾Ð²":1244,"ĠÐ¿Ð»ÐµÑĩ":1245,"ĠÐ¾Ñī":1246,"Ð¾ÑĢÑĤ":1247,"ĠÐ°ÑĤÐ°Ðº":1248,"ĠÐ¸Ð·Ð²":1249,"Ð´ÐµÑĢÐ¶":1250,"ĠÐ²ÑĭÐ±":1251,"ĠÑģÐ¿ÑĢÐ¾ÑģÐ¸Ð»":1252,"Ð´Ð°ÑĤ":1253,"ĠÑĤÐ¾Ð¼":1254,"ĠÑģÐºÐ¾ÑĢ":1255,"ĠÐ½ÐµÑģ":1256,"Ð½Ð¸ÑĩÑĤÐ¾Ð¶":1257,"ÑģÑıÑĩ":1258,"Ð»ÐµÐ½Ð½Ð¾":1259,"ĠÐ¿Ð¾Ñħ":1260,"Ð»Ð°Ñģ":1261,"Ð²Ð¾Ð·":1262,"ĠÑģÐ»ÑĭÑĪ":1263,"Ð¾Ð²Ð°Ð½":1264,"ÐµÐ¶Ð´Ñĥ":1265,"ĠÑĢÐ°Ð·Ð²":1266,"ĠÐ´Ð²ÐµÑĢ":1267,"Ð¢Ñĭ":1268,"Ð¸ÐµÑģÑı":1269,"ÑĥÐ´ÑĮ":1270,"ĠÑĢÐ°Ð±Ð¾ÑĤ":1271,"ĠÐ¿Ð°ÑĢ":1272,"ĠÐ¼Ð½Ð¾Ð³Ð¾":1273,"ÑĤÑĢ":1274,"ÑĥÑĤÑĮ":1275,"ÐµÑĢÐ¶Ð°Ð½ÑĤ":1276,"Ð½Ð°Ðº":1277,"Ð¼ÐµÑĢ":1278,"ĠÐ²Ð¿ÐµÑĢÐµÐ´":1279,"ĠÑģÐ²Ð¾ÐµÐ³Ð¾":1280,"ĠÐ¿Ð¾Ð½Ð¸Ð¼":1281,"ĠÑıÐ²":1282,"ĠÐ¿ÑĢÐ¸Ð¼Ð°ÑĢÑħ":1283,"ĠÐ¾ÑĤÐ¿":1284,"ĠÐ²Ð¸Ð´ÐµÐ»":1285,"ĠÐļÐ°Ðº":1286,"ÐµÐ¿ÑĤ":1287,"ĠÑĥÐ¶Ð°Ñģ":1288,"ĠÐ³Ð»ÑĥÐ±":1289,"Ð»ÐµÐ½Ð¸Ðµ":1290,"ĠÑģÐºÐ°Ð·":1291,"ĠÐ»ÐµÐ³":1292,"Ð¾ÑĢÐ¾ÑĪ":1293,"Ð·Ð°":1294,"ĠÑģÐ¸Ð»ÑĮ":1295,"ĠÐ¿Ð°Ð»":1296,"ĠÐ²Ð¾Ñģ":1297,"ĠÐ²ÑģÐµÐ³Ð¾":1298,"Ð°ÑĦ":1299,"ĠÐ¿Ð¾Ð»ÑĥÑĩ":1300,"Ð½Ð°Ð»":1301,"ĠÑĥÐ½Ð¸ÑĩÑĤÐ¾Ð¶":1302,"ĠÑĢÐ°Ð·Ð´":1303,"ÐµÐ´Ð¸Ð½":1304,"ĠÑģÐµÐ¹ÑĩÐ°Ñģ":1305,"Ð°Ð·ÑĭÐ²":1306,"ĠÐ²ÑģÑĤÑĢ":1307,"ĠÑĤÐµÑĢ":1308,"Ð²Ð°ÑĢÐ´":1309,"ĠÑĥÐ²Ð¸Ð´ÐµÐ»":1310,"Ð½Ð¸ÑĨ":1311,"ÑĦÐ¾ÑĢÐ¼":1312,"ÐµÐ»ÐµÐ½":1313,"ĠÑĤÐ°Ð¼":1314,"ĠÑģÐ¾Ð»":1315,"ĠÐ¿Ð¾Ð´Ð½ÑıÐ»":1316,"ÑıÐ¼Ð¸":1317,"ĠÐ·Ð½Ð°Ð»":1318,"ÐºÐ¸Ð¹":1319,"Ð¸Ð¼Ð¾":1320,"ĠÐŀÐ½Ð°":1321,"ĠÐ¾Ð¶":1322,"ĠÐ¿Ð»Ð¾ÑĤ":1323,"ĠÑģÐ²Ð¾ÐµÐ¹":1324,"Ð¾ÐºÐ¾":1325,"ÐµÑĢÐµÐ´":1326,"ĠÐ³Ð¾ÑĤÐ¾Ð²":1327,"ÑĳÐ½":1328,"ĠÐ¿ÑĢÐ¾Ð¸Ð·Ð½ÐµÑģ":1329,"ĠÐ²Ð¼ÐµÑģÑĤ":1330,"ĠÑģÐ¼Ð¾ÑĤ":1331,"Ð³Ð½Ð¾Ð²":1332,"Ð´Ð°Ð»":1333,"ĠÐ´Ð°Ð²":1334,"Ð½ÐµÐ¼":1335,"ÐµÐºÐ¾ÑĤÐ¾ÑĢ":1336,"Ð°Ñī":1337,"ÑĪÐ¸Ñħ":1338,"ĠÐ¿Ð¾Ð·Ð²Ð¾Ð»":1339,"ÐµÑĢÑĭ":1340,"ĠÐĲÐ½Ð³":1341,"ÑĢÐ¸Ðº":1342,"Ð»ÑĭÐ±":1343,"ĠÑĢÑĥÐºÐ¸":1344,"ĠÐ·Ð°ÑĤÐµÐ¼":1345,"ĠÑħÐ¾ÑĤÑı":1346,"ÐµÐ½Ð½Ð¾Ð³Ð¾":1347,"Ð»Ð°Ð²":1348,"Ð²Ñĭ":1349,"ÑĤÑĭ":1350,"Ð¾Ð²Ð¾Ð¹":1351,"ĠÑģÐ²Ð¾Ñİ":1352,"ĠÐĴÐ¾Ð»":1353,"ĠÐ½Ð°Ð·Ð°Ð´":1354,"ĠÐŀÑĢ":1355,"ĠÐķÑģÐ»Ð¸":1356,"ÑĢÐµÐ´Ð¸":1357,"ĠÐ·Ð°Ð³":1358,"Ð±Ð¸ÑĤ":1359,"ÑĢÐµÐ·":1360,"ĠÐ¿ÑĢÐµÐ´ÑģÑĤÐ°Ð²":1361,"ÐµÑħÐ°Ð½":1362,"ĠÐ¾ÑģÑĤÐ°Ð»ÑĮ":1363,"Ð¾Ð½Ñĩ":1364,"ĠÐ²Ð¿":1365,"ÑĪÐ¸Ð¹":1366,"ĠÐ½Ð¸ÐºÐ¾Ð³Ð´Ð°":1367,"ĠÑĥÑģÐ¿":1368,"Ð¾Ð¼ÐµÐ½ÑĤ":1369,"ÑĢÑĥÐ·":1370,"ĠÐ¾ÑĢÑĥÐ¶Ð¸Ðµ":1371,"ĠÑģÐ¾ÑģÑĤ":1372,"ĠÑĤÐ¾Ð»":1373,"Ð½Ð¸ÐºÐ¸":1374,"ÐµÐ½Ð¾":1375,"ĠÑĥÑģÐ»":1376,"ĠÑģÐµÐºÑĥÐ½":1377,"ĠÑĥÐ»ÑĭÐ±":1378,"ĠÑģÐ²Ð¾Ð¹":1379,"ĠÑģÐ¾Ð±Ð¾Ð¹":1380,"ĠÐ¼Ð¾Ð¼ÐµÐ½ÑĤ":1381,"ĠÐºÑĢÐ°Ñģ":1382,"ĠÐ´ÐµÐ¹ÑģÑĤÐ²":1383,"ÑĢÐµÐ¶":1384,"ĠÐ¼Ð³Ð½Ð¾Ð²":1385,"ĠÐ¥Ð¾ÑĢ":1386,"ÑĢÐµÑĤ":1387,"ĠÑįÐ½":1388,"ĠÐ¼Ð¾Ð¶Ð½Ð¾":1389,"Ð°ÑĢÐ¸":1390,"Ð»ÐµÐ¹":1391,"ĠÑģÐ¸ÑģÑĤ":1392,"ĠÐµÑģÑĤÑĮ":1393,"ĠÐºÐ¸Ð²Ð½ÑĥÐ»":1394,"ÑıÐ»Ð¸":1395,"ĠÐ·Ð°Ð½":1396,"ĠÑĤÐµÐ»":1397,"ÑĢÐµÐ±":1398,"ÐĿÐ¾":1399,"ÐµÐ½Ð½ÑĭÐ¼":1400,"ĠÑģÐ¿Ð¾ÑģÐ¾Ð±":1401,"ÐµÐ¶Ð´Ðµ":1402,"ÑĭÐ»":1403,"Ð°Ð´Ð¸":1404,"ĠÐ²Ð°ÑĢÐ¿":1405,"ĠÐ»Ð¸ÑĨÐ¾":1406,"ĠÐ²Ð´":1407,"ĠÑĢÐ°ÑģÐº":1408,"ĠÐ¿Ð¾ÑıÐ²":1409,"ĠÐºÐ°Ð¿Ð¸ÑĤÐ°Ð½":1410,"ĠÑĥÐ²ÐµÑĢ":1411,"ĠÐ±ÑĢÐ°ÑĤÑĮ":1412,"ĠÐ¿ÑĢÐ¸ÐºÐ°Ð·":1413,"ĠÑĢÐ°Ð´":1414,"ĠÐ³Ð¾Ð»Ð¾Ð²Ñĥ":1415,"ÑĢÐ°Ð¹":1416,"ĠÑģÐ²Ð¾Ð¸":1417,"ĠÑģÐ¾Ð±ÑģÑĤÐ²ÐµÐ½":1418,"ÐµÐ½Ð¸Ñİ":1419,"ĠÐ¾Ð±ÑĢÐ°Ð·":1420,"ĠÐŀÑĤ":1421,"ÑĥÐ·":1422,"ÐĿÐµ":1423,"ĠÐ¿ÑĢÐ¾Ð½":1424,"Ð¼Ð°":1425,"ĠÑģÐ¼Ð¾Ð³":1426,"ĠÐ¾Ð±ÑĢÐ°ÑĤ":1427,"ĠÑģÐ²ÑıÐ·":1428,"ĠÐ¿Ñģ":1429,"Ð°ÑĨÐ¸Ð¸":1430,"ÑıÑģ":1431,"ĠÑĢÑĥÐºÑĥ":1432,"ÑĪÐ¸Ðµ":1433,"ĠÑģÐ¾Ð»Ð´Ð°ÑĤ":1434,"ĠÐ»ÑİÐ´ÐµÐ¹":1435,"ĠÐ¼ÐµÐ¶Ð´Ñĥ":1436,"Ð³Ð¾Ð½ÑĮ":1437,"ĠÐ¼Ð¸Ð½":1438,"Ð°ÑĤÐ¾ÑĩÐ½Ð¾":1439,"ĠÐ²Ð½Ð¸Ð¼":1440,"ĠÑģÑĤÐ¾ÑĢÐ¾Ð½Ñĥ":1441,"Ð²Ð¾Ð·ÑĮ":1442,"Ð¾ÑĢÐ³":1443,"ĠÐ¿Ð¾Ð²ÐµÑĢÑħ":1444,"..":1445,"Ð¾Ð¼Ð¸Ð½":1446,"Ð¸ÑĩÐµÑģ":1447,"ĠÐ±Ð¾Ð»ÑĤÐµÑĢ":1448,"ĠÐ²ÐµÐ´":1449,"ĠÐ²ÑĢÐµÐ¼ÐµÐ½Ð¸":1450,"ĠÐ¿ÑĢÐ¾Ð¸Ð·":1451,"ÑĢÐµÐ¿":1452,"ĠÐ±Ð¾ÑĢ":1453,"Ð°ÑİÑĤÑģÑı":1454,"ĠÐ¾Ñħ":1455,"ĠÐĲÑģÑĤ":1456,"ĠÐ¿Ð¾ÑģÐ¼Ð¾ÑĤ":1457,"ÑĢÐ¾Ð´":1458,"ĠÐ·Ð°Ñģ":1459,"ÐµÑĤÐµ":1460,"ÑīÑĳ":1461,"ĠÐ¿ÑĥÑĤ":1462,"ĠÑįÑĤÐ¾Ð¹":1463,"ÐºÐ¸Ñħ":1464,"ĠÐŁÐ¾":1465,"ÐľÑĭ":1466,"ĠÐ¾ÑĤÑģ":1467,"Ð´Ð°ÑĢ":1468,"ĠÑģÐ²ÐµÑĢ":1469,"Ð¾ÑıÑĤ":1470,"ĠÑįÐ½ÐµÑĢÐ³":1471,"ÐµÐ³Ð´Ð°":1472,"ÑįÐ»ÑĮ":1473,"ÑĪÐµÐ»":1474,"Ð§ÑĤÐ¾":1475,"ÑĢÑĥÐ±":1476,"Ð½Ð¸Ð¹":1477,"ĠÐĺÐ¼Ð¿ÐµÑĢÐ¸ÑĥÐ¼":1478,"ĠÑĤÑĭÑģÑıÑĩ":1479,"ĠÐ¿ÑĢÑıÐ¼":1480,"Ð¾ÑĤÐ°":1481,"Ð¾ÐºÐ¾Ð¹":1482,"Ð°Ð½Ñĭ":1483,"ĠÐºÐ¾ÑĢÐ°Ð±Ð»Ñı":1484,"ĠÐĽÐµÐ³Ð¸Ð¾Ð½":1485,"ÑĥÐ»Ð°Ðº":1486,"ĠÐ¾ÑģÑĤÐ°Ð½Ð¾Ð²":1487,"ĠÐ¾ÑĤÐºÑĢÑĭ":1488,"ÑģÐºÐ¸Ñħ":1489,"Ð»ÑıÐ»":1490,"Ġs":1491,"ĠÐ±ÑĭÑģÑĤÑĢÐ¾":1492,"ĠÐ·Ð½Ð°Ñĩ":1493,"ÐµÑı":1494,"ĠÐ¿ÑĢÐ¸Ð·":1495,"ĠÑĪÐ»ÐµÐ¼":1496,"Ð°Ð³Ð½Ð°ÑĢ":1497,"Ð¾Ð²Ð°Ð»":1498,"ĠÐ¾Ð±ÑĬ":1499,"Ð°Ð´ÑĨ":1500,"ĠÐ¿ÑĢÐ¸Ð±Ð»":1501,"ĠÐ»Ð°Ð·":1502,"ĠÑģÐºÐ²Ð¾Ð·ÑĮ":1503,"ĠÐ´Ð°Ð»ÑĮ":1504,"Ð°ÑİÑīÐ¸Ð¹":1505,"Ð¾Ð²ÐµÑĢÑĪ":1506,"ed":1507,"ÐºÐ²Ð¸Ð·Ð¸ÑĤÐ¾ÑĢ":1508,"ĠÐ½Ð°ÑģÑĤ":1509,"ĠÑĢÐ°Ð·ÑĥÐ¼":1510,"ĠÐ´ÐµÑĢÐ¶":1511,"ĠÐ¡ÑĤ":1512,"ĠÑģÑĤÐ°Ð»":1513,"Ð¸Ð½Ð¾Ð¹":1514,"ĠÐ¿Ð¾ÑĤÐµÑĢ":1515,"ĠÑģÐ»ÑĥÐ¶":1516,"ĠÐ¿Ð¾Ð¶":1517,"ĠÐ³ÑĢÐ¾Ð¼":1518,"Ð°ÑĢÑĤÐµÑģ":1519,"Ð¾ÐºÐ°":1520,"ĠÑĥÑģÑĤ":1521,"Ġthe":1522,"ĠÐ²Ð°Ñģ":1523,"ĠÑģÐ¾ÑĤ":1524,"Ð¸ÑĤÐµÐ»Ñı":1525,"Ð¸Ð²Ð°ÑĤÑĮ":1526,"Ð²Ð¾ÑĢ":1527,"ĠÑĤÐµÐ±Ðµ":1528,"ÑĤÐ¾ÑĢÑĥ":1529,"ĠÐ±ÑĥÐ´ÑĤÐ¾":1530,"ĠÐ½Ð¸Ð¼Ð¸":1531,"ĠÑħÐ¾Ð»":1532,"Ð¾Ð»Ð¾Ð¶":1533,"ĠÑĥÑĩ":1534,"ĠÐ¾Ð³Ð¾Ð½ÑĮ":1535,"ĠÐ¾ÑĤÐ´ÐµÐ»":1536,"ÐµÑĢÐ¾Ð²":1537,"ĠÑģÐ±":1538,"ĠÑģÐ»Ð¾Ð²Ð°":1539,"ĠÐ¿ÑĢÐ¾Ðº":1540,"ĠÐ¼Ð¾Ñī":1541,"ĠÐŀÐ´":1542,"ĠÐ²Ð¾Ð·Ð²":1543,"ÑĦÐ¸ÑĨ":1544,"Ð¸Ð½ÑĥÐ»":1545,"Ð½Ð°ÐºÐ¾":1546,"Ð»ÑĥÑĪ":1547,"ÑģÑĤÐ²Ñĥ":1548,"ĠÐ¸ÑģÐ¿Ð¾Ð»ÑĮÐ·":1549,"ĠÑįÑĤÐ¸":1550,"Ð¾Ð²Ð°ÑĤÑĮ":1551,"ĠÐ´Ð¾Ð»Ð¶ÐµÐ½":1552,"Ð¸Ð²ÑĪÐ¸ÑģÑĮ":1553,"ÑĪÐµÐ³Ð¾":1554,"Ð½Ñİ":1555,"Ð»Ð°ÑģÑĤ":1556,"ÑĢÐ°Ñĩ":1557,"ĠÐ¿ÑĢÐ¸Ð´":1558,"ĠÐĴÑĭ":1559,"ĠÐ¶Ð¸Ð·Ð½":1560,"ĠÑģÐ¾Ð²":1561,"ĠÑģÐ¾Ð¿":1562,"Ð¸ÑĩÐµÑģÐºÐ¸Ðµ":1563,"ĠÑĢÑıÐ´Ð¾Ð¼":1564,"ĠÑģÐ¸ÑģÑĤÐµÐ¼":1565,"ĠÑģÐµÑĢÐ´":1566,"ĠÐ´ÐµÑģÑı":1567,"ĠÐ·Ð°ÑĢ":1568,"Ð¼ÐµÑĤ":1569,"ÑģÐºÐ¾Ð¹":1570,"ĠÐ³Ð¾Ð»Ð¾Ð²Ð¾Ð¹":1571,"ĠÑĢÐµ":1572,"ĠÐºÐ»Ð¸Ð½":1573,"ĠÐ²ÑĭÐ·":1574,"ĠÑĤÐµÐ»Ð¾":1575,"ĠÐ²Ð½Ð¸Ð·":1576,"ĠÑĩÐµÐ»Ð¾Ð²ÐµÑĩ":1577,"âĢĻ":1578,"ĠÐ¥Ð°":1579,"ĠÐ¼Ð¾Ð³Ð»Ð¸":1580,"ĠÐ´Ð°Ð»":1581,"ÐºÑĤ":1582,"Ð¾ÑģÑĤÑĮÑİ":1583,"ĠÐ³ÑĢÑĥÐ´":1584,"ĠÐºÐ¾ÑĤÐ¾ÑĢÑĭÑħ":1585,"ĠÑħÐ¾ÑĢÐ¾ÑĪ":1586,"Ð½Ð°ÑĢÑĥÐ¶":1587,"ÐĶÐ°":1588,"ÐļÐ°Ðº":1589,"ĠÐ±Ð¾Ð¹":1590,"ĠÐ¿ÑĢÐ¾Ñģ":1591,"ÐµÑĩÐ½Ð¾":1592,"ÐºÐ¸Ðµ":1593,"ĠÐ´Ð²Ð¸Ð¶":1594,"ĠÐ¿Ð¾Ð¿ÑĭÑĤ":1595,"ĠÐļÐ¾ÑĢ":1596,"ĠÐ·Ð°ÑģÑĤÐ°Ð²":1597,"Ð¸ÑĩÐµÑģÐºÐ¸Ñħ":1598,"ĠÐ½Ð°ÑĩÐ°Ð»":1599,"ÑĭÐ²Ð°Ñı":1600,"ÐºÐ°Ð½":1601,"ĠÐ±ÐµÑģÐ¿":1602,"ĠÐĴÑģÐµ":1603,"ĠÑģÐ²Ð¾Ð¸Ð¼":1604,"Ġ\"":1605,"Ð¼Ðµ":1606,"ĠÐ·Ð°ÑīÐ¸ÑĤ":1607,"ÑĥÐ´Ð¾Ð²":1608,"ĠÐ¾ÑĢÑĥÐ´":1609,"ĠÐºÑĢÐ¾Ð²Ð¸":1610,"Ð´ÐµÐ½":1611,"ĠÐ¿Ð¾Ð¼Ð¾Ñī":1612,"ĠÐµÑīÑĳ":1613,"ĠÑĩÐ°Ñģ":1614,"Ð½ÑĥÐ»Ð°ÑģÑĮ":1615,"Ð¾Ð·Ð¼Ð¾Ð¶Ð½Ð¾":1616,"ĠÐ¾Ð±Ð»":1617,"Ð°ÑĤÑĥ":1618,"Ð¸ÑģÑģ":1619,"ĠÐĿÐµÑģ":1620,"Ð°ÑİÑīÐ¸Ðµ":1621,"ÑģÑĤÐ²Ðµ":1622,"ĠÐ²ÑĤÐ¾ÑĢ":1623,"Ð°Ð½Ð½ÑĭÐµ":1624,"Ð´Ð¸":1625,"ĠÐ¾ÑĩÐµÐ½ÑĮ":1626,"ĠÐ¿Ð¾ÑģÑĤ":1627,"ĠÐ¼ÐµÑĢÑĤÐ²":1628,"Ð½ÑĥÐ»Ð¸ÑģÑĮ":1629,"ĠÑĦÐ»Ð¾ÑĤ":1630,"ÐµÑģÑĤÑĮ":1631,"ĠÑĤÑıÐ¶ÐµÐ»":1632,"ĠÐ¾Ð¶Ð¸Ð´":1633,"Ð¸Ð²Ð°Ð»":1634,"ĠÑĢÐ°Ð²":1635,"ĠÐ¿Ð°Ð»ÑĮ":1636,"Ð½ÑĥÐ»Ð¸":1637,"ÑĢÐ¾Ð²Ð°Ð²":1638,"Ð¾ÑĤÑĭ":1639,"ĠÐ½ÐµÐ¹":1640,"ĠÐ²ÑģÐµÐ³Ð´Ð°":1641,"ĠÐ´Ð¾ÑģÑĤÐ°ÑĤÐ¾ÑĩÐ½Ð¾":1642,"ÑĨÐ¸Ð¸":1643,"ĠÐĺÐ·":1644,"ÑīÐµÐµ":1645,"ĠÐ¿ÑĢÐµÐ¶Ð´Ðµ":1646,"ĠÑĥÑģÐ»ÑĭÑĪ":1647,"ÑĪÐµÐ¹":1648,"Ð¾Ð³Ð»Ð°Ñģ":1649,"ÑĢÑĥÐ¿Ð¿":1650,"Ð¸Ð²Ð°Ð»Ð¸":1651,"ĠÑĤÐ¾ÑĢ":1652,"Ð´Ð°Ð²":1653,"ĠÑĥÑĤ":1654,"Ð¾ÑĢÐ¾Ð½":1655,"Ð°ÑĤÐµÐ»ÐµÐ¹":1656,"ĠÐ´ÑĭÐ¼":1657,"ĠÑģÐ¾Ð²ÐµÑĢÑĪ":1658,"ĠÑĪÑĤ":1659,"Ð°ÑİÑīÐ¸Ñħ":1660,"ÑĢÑıÐ´":1661,"ÐµÐ·Ð´":1662,"ĠÐ²Ð¾Ð¿ÑĢÐ¾Ñģ":1663,"ĠÑģÑĢÐµÐ´Ð¸":1664,"Ð¾Ð´ÐµÑģÐ°Ð½ÑĤÐ½Ð¸Ðº":1665,"Ð¸Ð½ÑģÑĤÐ²ÐµÐ½":1666,"ĠÐļÐ¾Ð³Ð´Ð°":1667,"Ð¸ÐºÐ¾Ð²":1668,"ĠÐĲÑģÑĤÐ°ÑĢÑĤÐµÑģ":1669,"ĠÑĨÐµÐ¿":1670,"ĠÐ²Ð¼ÐµÑģÑĤÐµ":1671,"ĠÐ¸Ð·Ð¼ÐµÐ½":1672,"ĠÐ¼Ð°Ð»":1673,"ĠÑģÐ¸Ð»Ñĭ":1674,"ĠÑĨÐµÐ»":1675,"ĠÐ¾ÑĤÑĩ":1676,"ĠÑĤÐ¾Ð¶Ðµ":1677,"er":1678,"ÑĩÐ¸Ð²":1679,"ĠÐµÐ´Ð²Ð°":1680,"ĠÐ²Ð¾Ð¸Ð½Ð¾Ð²":1681,"ĠÐ½Ð°Ð±Ð»Ñİ":1682,"ĠÑģÐµÑĢÐ¶Ð°Ð½ÑĤ":1683,"Ð½Ð¾Ð²ÑĮ":1684,"ĠÐ²Ð¾Ð·Ð¼Ð¾Ð¶":1685,"ĠÐ¼Ð½Ð¾Ð³":1686,"ĠÐºÐ¾ÑĢÐ°Ð±Ð»ÑĮ":1687,"ĠÐºÑĢÐ¾Ð²ÑĮ":1688,"Ð¾Ð´Ñĭ":1689,"Ð¾Ð½ÐµÑĨ":1690,"ĠÐ²Ð¾ÑģÐ¿":1691,"ÐĿÐ°":1692,"ÐºÐ¾Ðµ":1693,"ĠÐ²Ð°ÑĪ":1694,"ĠÐ¼ÐµÑģÑĤÐ¾":1695,"ĠÑģÐ»Ð°Ð±":1696,"ĠÑĩÐ°ÑģÑĤÑĮ":1697,"ÑıÑħ":1698,"ĠÐºÑĢÐµÐ¿":1699,"ÑĳÑĢ":1700,"ĠÐ¾ÐºÑĢÑĥÐ¶":1701,"ĠÐ´Ð¾Ð»Ð¶Ð½Ñĭ":1702,"ĠÐ´ÐµÑģÐ°Ð½ÑĤÐ½Ð¸Ðº":1703,"ĠÑī":1704,"ĠÐ²ÐµÑĤ":1705,"ÐµÑĤÐ°":1706,"ĠÐ³ÐµÐ½":1707,"ĠÐµÑĳ":1708,"Ð½Ð¸Ñħ":1709,"ÑĪÐ¸ÑģÑĮ":1710,"ĠÐ¾Ð´Ð½Ð¾Ð³Ð¾":1711,"ÑģÑĤÐ²Ð¾Ð¼":1712,"ĠÐ²ÑģÐµÐ¼":1713,"Ð´Ð°Ð½":1714,"ĠÐ²ÑĭÑģÑĤÑĢÐµÐ»":1715,"Ð¾Ð±Ñī":1716,"ĠÐłÐ°Ð³Ð½Ð°ÑĢ":1717,"ĠÐ°Ð´":1718,"ĠÑģÐ¶":1719,"ĠÐºÐ¾ÑĤÐ¾ÑĢÐ°Ñı":1720,"ĠÐ´ÐµÐ¼Ð¾Ð½":1721,"ÐµÐ·Ð°Ð¿":1722,"ĠÑĤÐ²Ð¾":1723,"Ð¸ÑĦ":1724,"ĠÐ²Ð¾ÐºÑģ":1725,"ĠÐ¿ÑĢÐ¸Ñĩ":1726,"ĠÐ¼Ð¾Ð¹":1727,"ĠÐ±Ð¸ÑĤ":1728,"ĠÑĥÐ³":1729,"ÑįÑĢ":1730,"ĠÐ´ÑĢ":1731,"ĠÑģÑĩÐ¸ÑĤ":1732,"ÑİÐ´Ð°":1733,"ĠÐ²ÐµÐ»Ð¸Ðº":1734,"ĠÑĤÐ°ÐºÐ¾Ð¹":1735,"Ð¸ÑģÑĤÐ¾Ð»ÐµÑĤ":1736,"Ð°ÐµÑĪÑĮ":1737,"ÑıÐ³":1738,"ĠÐ²Ð·ÑĢÑĭÐ²":1739,"Ð°Ð»ÑĮÐ½Ð¾":1740,"ĠÐ½ÐµÐºÐ¾ÑĤÐ¾ÑĢ":1741,"ĠÐºÑĢÑĭ":1742,"ÐŀÐ½Ð¸":1743,"ÑģÐºÐ¾Ð³Ð¾":1744,"ĠÐ±Ð»Ð¸Ð¶":1745,"ĠÐ²Ð½Ð¾Ð²ÑĮ":1746,"ÑıÑģÑĮ":1747,"Ġo":1748,"ĠÑģÐ¾Ð±Ð¸ÑĢ":1749,"Ð°Ð·Ð°Ð»ÑģÑı":1750,"ĠÐ¾Ð¿Ð°Ñģ":1751,"ĠÐ½ÐµÐ¿ÑĢ":1752,"ĠÐ´ÑĥÑĪ":1753,"ĠÐ¾Ð¿ÑĥÑģÑĤ":1754,"ĠÐ¿Ð¾Ð½ÑıÐ»":1755,"ĠÐ¶Ð¸Ð·":1756,"ing":1757,"ĠÐ²ÑĭÐ¶":1758,"ÐºÐ¸Ð¼":1759,"ĠÑģÐ½":1760,"ĠÐ·Ð½Ð°":1761,"Ð²Ð°Ð»":1762,"ĠÐ¶ÐµÑģÑĤ":1763,"ÑĳÐ¼":1764,"ĠÑĥÑģÑĤÑĢ":1765,"Ð»ÑĮÑĤ":1766,"ÑĮÑĪÐµ":1767,"Ð»Ð¾Ð¶":1768,"ĠÑģÑĤÑĢÐ°Ð½":1769,"ĠÐ¿Ð°Ð´":1770,"ÐµÐ»ÐµÐ·":1771,"ĠÐ¿Ð¾ÑĩÑĥÐ²":1772,"ĠÐ¿Ð¾Ð³Ð¸Ð±":1773,"ĠÐ·Ð°Ð¼ÐµÑĤÐ¸Ð»":1774,"Ð¾ÑĢÐ¾Ð¶":1775,"ĠÐ¡Ð»Ð¾Ð²":1776,"ĠÐ¿ÑĢÑıÐ¼Ð¾":1777,"ÐĿÐµÑĤ":1778,"ĠÐĺÐ½":1779,"ĠÑĪÐ¸ÑĢ":1780,"ÑĤÐ¾Ñĩ":1781,"Ð³Ð»ÑıÐ´":1782,"ĠÐ²ÑģÐº":1783,"ĠÑĩÐµÐ³Ð¾":1784,"ĠÐ¾ÑģÐ½Ð¾Ð²":1785,"ĠÐ½Ð¾Ñģ":1786,"re":1787,"ĠÐ¾ÑģÐº":1788,"Ð¸ÑĩÐµÑģÐºÐ¾Ð³Ð¾":1789,"ĠÑģÑĤÐ¾Ð»ÑĮ":1790,"Ð²Ð¸Ð½":1791,"ĠÐ¿Ð¾Ð´Ð½Ð¸Ð¼":1792,"ÑĳÐ»":1793,"ĠÑĨÐµÐ½ÑĤ":1794,"ĠÐ³Ð»Ð°Ð²":1795,"Ð¸ÑĩÐµÑģÐºÐ¸":1796,"ĠÐ§ÑĤÐ¾":1797,"ĠÑħÐ¾ÑĤÐµÐ»":1798,"ĠÐºÐ¾Ð¶":1799,"Ð¸Ð±Ð¾":1800,"Ð»Ð¸ÑĩÐµÑģÐº":1801,"ĠÐ»Ð¸Ð½":1802,"ĠÑĤÐ¾Ñĩ":1803,"ĠÑģÑĤÐ¾ÑĢÐ¾Ð½Ñĭ":1804,"ĠÐ¿ÑıÑĤ":1805,"ĠÐ³Ð¾ÑĢÐ¾Ð´":1806,"ĠÐ´ÐµÑĢ":1807,"ĠÐºÐ¾ÑĤÐ¾ÑĢÐ¾Ð¹":1808,"Ð³Ð°Ð½":1809,"ĠÐ¢Ð°Ðº":1810,"Ð¸ÑĤÑĥ":1811,"ĠÐ¸ÑģÑĩ":1812,"ĠÑģÐ¾Ð¼Ð½":1813,"Ð¾Ð»Ð¾ÑĤ":1814,"ÑģÐµÐ½":1815,"ĠÐ²Ð·Ð´":1816,"ĠÑĤÐµ":1817,"ĠÐ¿ÑĢÐµÐ´Ð¿":1818,"ĠÐ´ÑĢÑĥÐ³Ð¾Ð¹":1819,"ĠÐ¾ÑĤÑģÑĤÑĥÐ¿":1820,"Ð¼Ð¸Ð½":1821,"Ð¸ÑĩÐµÑģÐºÐ¸Ð¹":1822,"Ð±Ñĭ":1823,"ĠÐĶÐ¶":1824,"ÑĥÐ±Ñĭ":1825,"ĠÐ¢ÐµÑĢ":1826,"ĠÑĤÐµÐ»Ð°":1827,"ÑĤÐ¾ÑĢÑĥÑİ":1828,"Ð¸Ð»Ð»":1829,"ĠÐľÐ°ÑĢ":1830,"ÑıÐ»ÑģÑı":1831,"ĠÐ¾ÑĤÐ¿ÑĢÐ°Ð²":1832,"ĠÑĤÑĢÐ°Ð½":1833,"ĠÑģÐ½Ð°ÑĢ":1834,"ĠÐ²ÑģÑĳ":1835,"ÑģÐºÐ¸Ðµ":1836,"Ð¾ÑĢÐµ":1837,"Ð¸ÐµÐ¹":1838,"Ð¸ÑģÑĤÑĢ":1839,"ÑįÑĤ":1840,"ĠÐ½ÐµÐ¾Ð±":1841,"Ð¸Ð½Ð¾Ð²":1842,"Ð²Ð°Ð½":1843,"ÑĩÐ°ÑĤ":1844,"ĠÐ±Ð¾Ð³":1845,"ĠÑĢÐ°Ð·ÑĢÑĥÑĪ":1846,"ĠÐ½Ð¸ÐºÐ°Ðº":1847,"Ð¾ÑĢÑĥÐ¶":1848,"ÑĢÐµÑĨ":1849,"ĠÑģÑĤÐ¾Ð»":1850,"ĠÑģÐµÑĢÐ²":1851,"ÑĢÐ°Ð¼Ð¸":1852,"ĠÑĢÐ°Ð·Ð±":1853,"Ġw":1854,"ĠÑĤÑĥÑĤ":1855,"ÐĴÑĭ":1856,"ÑĢÐ¸Ð¿":1857,"ĠÐ¾Ð·":1858,"ĠÐ³ÑĢÐ°Ð½":1859,"is":1860,"ĠÑģÑĤÐ°Ð½":1861,"ĠÐĵÐ²Ð°ÑĢÐ´":1862,"ĠÐ³ÑĢÑĥÐ¿Ð¿":1863,"ĠÑįÑĤÐ¸Ñħ":1864,"ĠÐ¿ÑĢÐµÐ²ÑĢÐ°ÑĤ":1865,"ĠÐ¡Ðº":1866,"ĠÐŁÐ¾Ñģ":1867,"ĠÑģÐ²Ð¾Ðµ":1868,"ĠÐ¶Ð¸Ð·Ð½Ð¸":1869,"Ð¾Ð·Ð½":1870,"ĠÐºÐ¾ÑĤÐ¾ÑĢÐ¾Ð³Ð¾":1871,"Ð¼Ð°ÑĤ":1872,"ÐŀÑĤ":1873,"ĠÐ»ÐµÐ¶":1874,"ÑıÐ½":1875,"ĠÑģÑĥÐ´":1876,"ÑĥÐ»ÑĮÑĤ":1877,"ĠÐ´ÑĢÐµÐ²":1878,"Ð¸Ð°Ð½":1879,"Ð¾ÑĢÐ¾Ð³":1880,"Ð»ÐµÑĩ":1881,"ĠÐ¸Ð¼Ð¿ÐµÑĢ":1882,"ĠÐºÐ¾ÑĤÐ¾ÑĢÐ¾Ðµ":1883,"Ð°ÑĤÐµÐ»ÑĮÐ½Ð¾":1884,"ĠÑĥÐ´Ð¸Ð²":1885,"ÐµÐ»Ð¸Ñĩ":1886,"ĠÑħÐ¾Ð»Ð¾Ð´":1887,"ĠÐ·Ð½Ð°Ðº":1888,"ĠÐĽÑİ":1889,"Ð°ÑĤÑĭ":1890,"ÐºÐ½ÑĥÐ»":1891,"ÐµÐ½Ð½Ð¾Ðµ":1892,"ĠÐ¸ÑģÑĩÐµÐ·":1893,"ĠÐ²ÑĭÑģÐ¾Ðº":1894,"ĠÐ¿ÑĢÐ¸Ð±Ð»Ð¸Ð¶":1895,"Ð»Ð°Ð³":1896,"Ð°Ð½Ð¾":1897,"ĠÐ½Ð¾Ð³Ð¸":1898,"ĠÐºÐ¾Ð³":1899,"ĠÐ¿Ð»Ð°Ð¼":1900,"ĠÑĤÐ°ÐºÐ¶Ðµ":1901,"ĠÐ¾ÑģÐ²":1902,"ÐµÐºÑĤ":1903,"ĠÑĨÐ²ÐµÑĤ":1904,"ĠÐ±Ð¾Ñı":1905,"Ð¾Ð²Ð¾Ð³Ð¾":1906,"Ð¼Ð¾ÑĤÑĢÑı":1907,"ĠÐ¸Ð½ÐºÐ²Ð¸Ð·Ð¸ÑĤÐ¾ÑĢ":1908,"ĠÐ¾ÑĩÐµÑĢÐµÐ´":1909,"ĠÑĤÐ°Ð½":1910,"ĠÐ¾ÑĦÐ¸ÑĨ":1911,"Ð°ÑİÑīÐµÐ¹":1912,"Ð¾ÑħÐ¾ÑĤ":1913,"ĠÐ´Ð²Ð°":1914,"ĠÐ½Ð°Ð¹":1915,"âĢĿ":1916,"ÑģÑĤÐ²Ð¸Ðµ":1917,"ĠÐ¢ÐµÐ¼":1918,"ĠÑģÑĭ":1919,"ĠÐ¿ÑĢÐ¾Ñĩ":1920,"Ð¾Ð±ÑĢÐ°Ð¶":1921,"nd":1922,"Ð°ÑĤÐµÐ»Ð¸":1923,"Ð¾Ð»ÑĮÑĪ":1924,"ĠÐ¿ÑĢÐµÐº":1925,"ÑģÐºÐ°Ð·Ð°Ð»":1926,"Ð»ÑıÑĤ":1927,"ĠÐ±Ð»Ð°Ð³":1928,"ĠÐ¿Ð¾ÑģÐ¼Ð¾ÑĤÑĢÐµÐ»":1929,"ĠÐ½ÐµÐ·":1930,"Ð¾Ð²ÑĭÐµ":1931,"ĠÐ´Ð»Ð¸Ð½":1932,"Ð°ÑĢÐ¸Ð¹":1933,"Ð¸ÑĢÐ¾Ð²Ð°Ð»":1934,"ĠÐºÐ¾ÑĤÐ¾ÑĢÑĥÑİ":1935,"ĠÐ´ÑĢÑĥÐ³Ð¸Ñħ":1936,"ĠÐ¢Ð°Ð»":1937,"ĠÐ¾ÑĤÐ±":1938,"ĠÐºÐ¾ÑĢÐ¸Ð´":1939,"Ð¾Ð²Ð¾Ð»ÑĮ":1940,"ĠÐ½ÑĥÐ¶Ð½Ð¾":1941,"ĠÐ¼Ð°Ð³":1942,"ĠÑįÑĤÐ¸Ð¼":1943,"ĠÐ¿Ð¾Ð±ÐµÐ´":1944,"ĠÐ¿Ð¾ÑħÐ¾Ð¶":1945,"Ð²Ð¸Ð³":1946,"ĠÐ¾Ð±Ð½Ð°ÑĢÑĥÐ¶":1947,"ĠÐŀÐ±":1948,"Ð¾Ð´Ð°ÑĢ":1949,"ĠÑĥÐ²ÐµÑĢÐµÐ½":1950,"ĠÐ½ÐµÑĩ":1951,"ĠÐ·Ð½Ð°Ñİ":1952,"Ð°ÑģÑģ":1953,"ĠÑĤÐµÑħÐ½":1954,"Ð¾Ð·Ð²":1955,"ĠÐ¾ÑīÑĥÑī":1956,"ĠÐ¼ÐµÐ´Ð»ÐµÐ½Ð½Ð¾":1957,"ĠÑħÐ¾Ñĩ":1958,"ÑĥÑĢÐ¼":1959,"ĠÐ¿ÐµÑĢÐµÐ²":1960,"ĠÑĢÐ°Ð·Ð¼":1961,"Ð¾Ð²Ð°Ð»Ð¸":1962,"Ð¸ÑĢÐ¾Ð²Ð°ÑĤÑĮ":1963,"ĠÑĥÐ³ÑĢ":1964,"ÑģÐºÐ¸Ð¹":1965,"ĠÐºÐ°Ð·Ð°Ð»Ð¾ÑģÑĮ":1966,"ÑĢÐ°ÑĤÑĮ":1967,"Ð½ÑĥÑĤÑĮÑģÑı":1968,"Ġh":1969,"ĠÐ¸Ð·Ð±":1970,"ĠÐ½Ð¾Ñĩ":1971,"ĠÑģÑĤÑĢÐ°Ñħ":1972,"ÑģÑĤÐ¾ÑıÐ½":1973,"ĠÐ¾Ð½Ð¾":1974,"Ð»ÑĮÐ´Ð°ÑĢ":1975,"ĠÐ£Ð»ÑĮÑĤ":1976,"ĠÐ¿ÑĢÐ¾ÑĢ":1977,"ĠÐ¿Ð¾Ð´ÑĥÐ¼":1978,"ĠÐļÐ¾ÑģÐ¼":1979,"Ð¸Ð¼ÑģÑı":1980,"ĠÐ¸Ð¼Ñı":1981,"ÑĳÑĤ":1982,"ĠÐ¿ÑĢÐ¾Ð¿":1983,"Ġc":1984,"ĠÐłÐ°Ð·":1985,"Ð»ÑıÐ´":1986,"ĠÐ¸Ð·Ð²ÐµÑģÑĤ":1987,"ĠÐ½ÐµÐµ":1988,"ÐµÐ½Ð½Ð°Ñı":1989,"ÐµÐ½Ð½ÑĭÐ¼Ð¸":1990,"Ð´Ð°ÑĤÑĮ":1991,"ĠÐ»ÑİÐ´Ð¸":1992,"ĠÑģÐ´ÐµÐ»Ð°ÑĤÑĮ":1993,"ĠÐ¸Ð´":1994,"ĠÐ¼Ð¸Ð½ÑĥÑĤ":1995,"ĠÐ¿Ð¾ÑĤÐ¾Ð¼":1996,"Ð¾Ð¹Ð´":1997,"ĠÐ´Ð¾Ðº":1998,"ĠÑģÐ¼ÐµÑĢÑĤ":1999,"ĠÑĤÑĢÑĥÐ´":2000,"ĠÑģÑĤÐµÐ½Ñĭ":2001,"ĠÐĸÐµÐ»ÐµÐ·":2002,"ĠÐ¼ÐµÑħÐ°Ð½":2003,"Ð°ÑĢÐ´":2004,"ĠÑĢÐ°Ð·Ð²ÐµÑĢ":2005,"ĠÐĲÐ´":2006,"ĠÐļÑĢÐ¾Ð²Ð°Ð²":2007,"ÑĤÐ¾Ð»":2008,"Ð¤":2009,"Ð°Ð½Ð¸Ð¸":2010,"ĠÐ²Ð½ÑĥÑĤÑĢÐ¸":2011,"ÑĭÐ²Ð°Ð»":2012,"ĠÐ»Ð¸Ñĩ":2013,"ĠÑģÐ¾Ð¾Ð±Ñī":2014,"ĠÑģÐ¼Ð¾ÑĤÑĢ":2015,"Ð½ÐµÐ³Ð¾":2016,"ĠÐ³ÑĢÑı":2017,"Ð°ÑİÑīÐµÐ³Ð¾":2018,"ĠÐ¾ÑģÐ¾Ð±":2019,"Ð¾ÑĤÐ¸Ð²":2020,"ĠÑģÑĤÐ°Ð»Ð¸":2021,"Ð²Ð¾Ð´":2022,"Ð´ÐµÐ½Ð°":2023,"Ð°ÑĢÑĢÐ¾":2024,"ĠÐ´Ð¾Ð»Ð³":2025,"ĠÐ¼ÐµÑĤÐ°Ð»Ð»Ð¸ÑĩÐµÑģÐº":2026,"ĠÐ¾Ð´Ð½Ð¾Ð¹":2027,"Ð½Ð¸Ð±":2028,"Ð¸ÑĤÐ°Ð½Ð°":2029,"Ð»Ð¸Ðº":2030,"ĠÐºÑĢÐ°Ð¹":2031,"Ð°ÑĤÐ°":2032,"ÐµÑģÑģ":2033,"ĠÑģÐ´ÐµÐ»Ð°Ð»":2034,"ĠÐ§ÐµÑĢ":2035,"ĠÐ¿ÑĢÐ¸Ð·Ð½":2036,"Ð»ÑıÑĤÑĮ":2037,"ĠÐ»Ð¸ÑĨÐ°":2038,"ÐµÐ½Ñī":2039,"ĠÐ¿ÑĢÐ¾Ð¸Ñģ":2040,"Ð¾Ð²Ð°ÑĢ":2041,"ĠÑĥÑģÐ¸Ð»":2042,"Ð»ÐµÐ½Ð½ÑĭÐµ":2043,"ĠÐ¶Ð¸Ð·Ð½ÑĮ":2044,"ĠÐºÐ¾ÑģÑĤ":2045,"ĠÑģÐ¾ÑģÑĤÐ¾Ñı":2046,"Ð¸ÑĨÐ¸Ð¸":2047,"ĠÐºÐ»":2048,"ĠÑĩÐ°ÑģÑĤÐ¸":2049,"ĠÐºÐ¾Ð¼Ð½":2050,"ĠÑĢÐ°ÑģÑĤ":2051,"Ð¸ÑĤÐµÐ»ÐµÐ¹":2052,"Ð¾Ð²ÑĭÑħ":2053,"ÑĮÐµ":2054,"Ð¸Ð³Ñĥ":2055,"ĠÐ²Ð¾Ð·Ð¼Ð¾Ð¶Ð½Ð¾":2056,"ĠÐ±Ð»Ð¸Ð·":2057,"ĠÐ¼ÐµÑĢÐµ":2058,"ĠÐ¼Ð¾Ð³Ñĥ":2059,"Ð¸ÐºÐµ":2060,"ĠÑģÑħÐ²Ð°ÑĤ":2061,"Ð½Ð¸Ð±ÑĥÐ´ÑĮ":2062,"ĠÑĤÐ¾Ð½":2063,"Ð¾Ð¶ÐµÑĤ":2064,"it":2065,"ĠÐºÑĥÐ´Ð°":2066,"Ð¾Ð»Ð½Ñı":2067,"ĠÐµÐ´Ð¸Ð½ÑģÑĤÐ²ÐµÐ½":2068,"Ð¾Ð¼ÐµÑĤ":2069,"ĠÑĩÑĥÐ´Ð¾Ð²":2070,"ĠÐ¼Ð³Ð½Ð¾Ð²ÐµÐ½Ð¸Ðµ":2071,"ĠÐ¦":2072,"ĠÐ²Ð°Ð¼":2073,"ĠÑģÐ¼ÐµÑĢÑĤÐ¸":2074,"Ð¸Ð¾":2075,"ĠÑĩÐµÐ»Ð¾Ð²ÐµÐºÐ°":2076,"ĠÐ¿ÐµÑĢÐµÐº":2077,"ĠÐ¿ÑĢÐµ":2078,"ÐµÐºÐ°":2079,"Ð¾Ð±Ð¾Ð´":2080,"ĠÑĤÐ¾Ð¼Ñĥ":2081,"ĠÐ½ÐµÐ½":2082,"ĠÐ½ÐµÐ¾Ð±ÑħÐ¾Ð´":2083,"ĠÐ¥Ð°Ð¾ÑģÐ°":2084,"Ð°Ð½Ð½ÑĭÐ¹":2085,"ĠÐºÐ°Ð¶Ð´ÑĭÐ¹":2086,"ĠÑģÐ¾Ð³Ð»Ð°Ñģ":2087,"ĠÐ¿ÑĢÐ¾ÑħÐ¾Ð´":2088,"Ð·Ñĭ":2089,"ÑĢÐ¸Ñĩ":2090,"ĠÐ»ÑĥÑĩÑĪÐµ":2091,"ÑĭÐ²Ð°Ð»Ð¸":2092,"ÐµÑĢÑĥ":2093,"ĠÑģÑĤÐ¾ÑıÐ»":2094,"ÑĥÐµÑĤ":2095,"Ð°Ð½Ð¸Ð¹":2096,"ĠÐ¡Ð»Ð¾Ð²Ð¾":2097,"Ð¸ÑĩÐµÑģÐºÐ¾Ð¹":2098,"ĠÑģÑĥÐ¼":2099,"ĠÐ¿Ð»Ð°Ð½ÐµÑĤÑĭ":2100,"ĠÐ²Ð¾Ð¹Ð½Ñĭ":2101,"ĠÐ½ÐµÐ¼Ñĥ":2102,"ĠÑħÐ¾ÑĢÐ¾ÑĪÐ¾":2103,"ĠÑģÐ¼ÐµÑĢÑĤÑĮ":2104,"Ð´Ð¾":2105,"ĠÐ²ÐµÑģÑĮ":2106,"ĠÐ¿ÑĥÑĤÑĮ":2107,"ĠÑģÐºÐ»Ð¾Ð½":2108,"ĠÐĺÐ¼Ð¿ÐµÑĢÐ¸ÑĥÐ¼Ð°":2109,"Ð¸Ð¹ÑģÑı":2110,"ĠÐºÐ°ÐºÐ¾Ð¹":2111,"ĠÐ¼Ð¾Ð½":2112,"Ð°Ð½Ð½ÑĭÑħ":2113,"ĠÑģÐ°Ð¼Ð¾Ð³Ð¾":2114,"ĠÐ²Ðº":2115,"ĠÐµÐ¹":2116,"ĠÐ¿ÑĢÐ¸Ñħ":2117,"ĠÑĤÐ¾Ð³Ð´Ð°":2118,"ÑĢÑĮ":2119,"Ð¾ÑģÑģ":2120,"ĠÐŁÐ¾Ð´":2121,"ĠÐ´ÑĢÑĥÐ³Ð¸Ðµ":2122,"ĠÑģÐ½Ð°ÑĢÑıÐ´":2123,"ĠÐĹÐ°":2124,"ĠÐľÐ°Ð³":2125,"Ð»Ð¾ÑģÑĮ":2126,"ĠÐ²ÑĭÑĢ":2127,"ĠÐĿÐµÑģÑĥÑī":2128,"ĠÐºÑĥÐ»Ð°Ðº":2129,"ĠÐ¿Ð¾Ð»Ð¾Ð¶":2130,"ĠÐĵÑĢ":2131,"ĠÑĩÐµÑĢÐµÐ¿":2132,"ÑģÐµÐ¼":2133,"Ð°ÑĤÐµÐ»Ñı":2134,"Ð¼ÐµÐ½ÑĤ":2135,"ĠÑĤÐ²Ð°ÑĢ":2136,"ĠÐ²Ð°Ð¶":2137,"Ð°Ð»ÑĮÐ½ÑĭÐµ":2138,"ĠÐ¿Ð¾ÑĤÐ¾Ð¼Ñĥ":2139,"ĠÐ¿ÑĥÑĤÐ¸":2140,"at":2141,"ĠÑģÐºÐ°Ð·Ð°ÑĤÑĮ":2142,"ĠÐĺÑħ":2143,"ĠÑİ":2144,"ÑĭÐ¿":2145,"ĠÑģÐ°Ð¼Ð¾Ð¼":2146,"Ġb":2147,"ĠÐ¿Ð¾ÑĩÑĥÐ²ÑģÑĤÐ²Ð¾Ð²Ð°Ð»":2148,"Ð°ÑĩÐ¸Ð²":2149,"ÐµÑģÐ¿":2150,"on":2151,"ĠÐ¿Ð°":2152,"ĠÐ¿Ð¾Ð´Ð´ÐµÑĢÐ¶":2153,"ĠÑįÐ»ÑĮÐ´Ð°ÑĢ":2154,"Ð°Ð²ÑĪÐ¸Ñħ":2155,"ĠÐ´ÐµÑģÑıÑĤ":2156,"ÑĢÐ³":2157,"ÑģÑĤÑĢÐµÐ±":2158,"ĠÐ»Ð¸ÑĪ":2159,"ĠÑįÑĤÑĥ":2160,"ĠÐ²ÑģÑĤ":2161,"ĠÑħÐ²Ð°ÑĤ":2162,"ĠÐ¼Ð¸Ð»":2163,"ĠÑĤÑĢÐ¸":2164,"Ð¸Ð³Ð°Ð½ÑĤ":2165,"ĠÐºÐ¾ÑĢÐ¿":2166,"ĠÐ¿Ð°Ð»ÑĥÐ±":2167,"ĠÐ½Ð°Ð½":2168,"Ð°Ð¶ÐµÑĤÑģÑı":2169,"Ġf":2170,"Ð°Ð´ÑĨÐ°ÑĤÑĮ":2171,"en":2172,"Ð°ÑĤÐµÑĢ":2173,"ĠÐ²Ð¾Ð´":2174,"ĠÐ¿Ð¾Ð»Ð½Ð¾ÑģÑĤÑĮÑİ":2175,"ĠÑĤÑĢÐµÐ±":2176,"Ð¸ÑĤÐ°":2177,"ÐŀÐ½Ð°":2178,"ÐµÐ·Ð°Ð¿Ð½Ð¾":2179,"ÑĨÐµÐ¿":2180,"ĠÐ°Ð¿":2181,"ĠÑģÐ¾Ñģ":2182,"ĠÐ°Ð²":2183,"Ð¸ÑıÑĤ":2184,"ĠÐ²Ð¾ÑĤ":2185,"âĢľ":2186,"ĠÐ¼Ð¾ÑģÑĤ":2187,"ĠÐ·ÐµÐ»ÐµÐ½":2188,"ÐµÐ»Ñİ":2189,"ĠÐ±ÐµÐ»":2190,"ĠÐ¼ÐµÑģÑĤÐµ":2191,"Ð°Ð·Ð°Ð»Ð¸ÑģÑĮ":2192,"ĠÐ²ÑĢÐ°Ð³Ð°":2193,"ĠÑħÐ¾Ð´":2194,"ĠÐ¿Ñĭ":2195,"Ð°ÑĢÐ½":2196,"ĠÐ¿Ð»Ð°Ð½ÐµÑĤ":2197,"Ð°ÑĤÐµÐ¼":2198,"ĠÑĥÐ¿ÑĢÐ°Ð²":2199,"ĠÐ¼Ð°ÑģÑģ":2200,"ĠÐ½Ð°ÐºÐ¾Ð½ÐµÑĨ":2201,"ÐµÑĩÐ°ÑĤ":2202,"ĠÑģÐ¸Ð´":2203,"ĠÐ¿ÑĢÐ¸Ð³":2204,"ĠÐ¼ÑĭÑģ":2205,"ĠÐ½ÐµÐº":2206,"ÐµÐ»Ð»":2207,"ĠÐ¢ÐµÐ¿ÐµÑĢÑĮ":2208,"ĠÑģÐ»Ð¾Ð¶":2209,"Ð¼Ð°Ð½":2210,"ĠÐ²Ð½ÑĥÑĤÑĢÐµÐ½":2211,"ĠÑĢÐ¾Ð´":2212,"ĠÐ´Ð¾Ð¼":2213,"ĠÐ¸ÑģÐ¿ÑĭÑĤ":2214,"ĠÐ¿ÑĢÐ¸ÑģÑĥÑĤ":2215,"ĠÐ¸Ð¼Ðµ":2216,"ÑģÑĤÑĢÑĥ":2217,"ĠÑīÐ¸ÑĤ":2218,"ÑĢÐµÐ¶Ð´":2219,"ÂŃ":2220,"Ð°Ð»ÑĮÐ½Ð¾Ð¹":2221,"ÑıÑĤÑģÑı":2222,"ĠÐ¼Ð°ÑĪÐ¸Ð½Ñĭ":2223,"ĠÐ¸Ð¼ÐµÐ½Ð½Ð¾":2224,"ĠÑģÑĩ":2225,"Ð¸Ð²Ð°ÐµÑĤ":2226,"Ð²Ð¾":2227,"Ð¾ÑĤÐ²ÐµÑĤ":2228,"ĠÑĤÐ¾Ð¿":2229,"ĠÐ²ÑĭÑħÐ¾Ð´":2230,"ĠÐ±Ð°ÑĪ":2231,"ĠÑĢÐ°Ð·Ð³":2232,"ĠÑĢÑĭ":2233,"ÐµÑģÑĤÐ²ÐµÐ½":2234,"ĠÑģÑĢÐ°Ð·":2235,"ÑĨÐ¾Ð²":2236,"ÑĩÐ¸Ñģ":2237,"ÂłÂłÂłÂł":2238,"ÑģÑĤÐ¾ÑıÑī":2239,"ĠÐ´Ð°Ð»ÑĮÑĪÐµ":2240,"Ð°ÑĨÐ¸Ñı":2241,"ĠÐ¶ÐµÐ»ÐµÐ·":2242,"ĠÐ¿Ð¾ÑĩÐµÐ¼Ñĥ":2243,"ÐµÐ½Ð½ÑĥÑİ":2244,"Ð°Ð¿Ð¸ÑĤÐ°Ð½":2245,"ĠÐ®":2246,"Ð°Ð»Ñĥ":2247,"ĠÐ½ÐµÐ¼Ð½Ð¾Ð³Ð¾":2248,"ĠÐ³Ð½ÐµÐ²":2249,"ĠÐ»Ð¾ÑĢÐ´":2250,"ÑĭÑģ":2251,"ĠÑģÐ¾Ð»Ð½":2252,"Ð¸Ð¼Ð°Ð½":2253,"ĠÐ¿Ð¾ÑĤÐ¾Ðº":2254,"ĠÐļÐ¾":2255,"ĠÐ±ÑĥÐ´ÑĥÑĤ":2256,"ÑĤÐµÑĢÐµÑģ":2257,"ĠÐ²ÑĢÐ°Ð¶":2258,"ĠÑĢÑĥÐº":2259,"ĠÐ±ÐµÐ·ÑĥÐ¼":2260,"ĠÐ¼Ð½Ð¾Ð¹":2261,"Ð¸ÑĤÐµÐ»Ð¸":2262,"ÑĤÐ¾Ð¼":2263,"ĠÑģÐ¸Ð»Ñĥ":2264,"ÑĢÐ°Ð»":2265,"ĠÐĴÐµÐ»Ð¸Ðº":2266,"ĠÐ¾ÑīÑĥÑĤ":2267,"ĠÐ²ÑģÑĤÑĢÐµÑĩ":2268,"ĠÐ¾Ð±ÑĢÐ°Ñī":2269,"ĠÐ´ÑĥÑħ":2270,"ĠÐ¾Ð³Ð½Ñı":2271,"ĠÐ¾Ð±Ð»Ð¾Ð¼":2272,"ÐļÐ¾Ð³Ð´Ð°":2273,"ĠÑĤÐµÐ¼Ð½Ð¾":2274,"ĠÐ¼Ð°ÑĪÐ¸Ð½":2275,"ĠÑĤÑĮ":2276,"ĠÐ½Ð°ÑģÑĤÐ¾Ð»ÑĮÐºÐ¾":2277,"ĠÑĤÑĢÑĥÐ¿":2278,"ÑĤÐ¾ÑĢÐ°":2279,"Ð¾ÐµÐ´Ð¸Ð½":2280,"ÑĪÐµÐµ":2281,"ĠÐ´Ð¾ÑĢÐ¾Ð³":2282,"Ð±Ð°":2283,"ĠÑĥÐ±Ð¸Ð¹":2284,"ĠÑģÐ»ÑĥÑĩÐ°":2285,"Ð²Ð¸Ð¶":2286,"ĠÐ¿ÑĢÐ¾ÑģÑĤÑĢÐ°Ð½":2287,"ÑĩÐµ":2288,"ĠÑĩÑĥÐ²ÑģÑĤÐ²Ð¾Ð²Ð°Ð»":2289,"ĠÐ¿ÑĢÐ¸Ð¼Ð°ÑĢÑħÐ°":2290,"ÑģÑĤÐ²Ð¸Ñı":2291,"ou":2292,"ÑĢÐ¾ÑģÑĤ":2293,"ĠÐ¸Ð½ÑĦÐ¾ÑĢÐ¼":2294,"ĠÐ¾ÑģÑĤÐ°Ð½":2295,"ĠÐ´ÐµÐ²":2296,"ĠÐ½Ð°Ð¿ÑĢÑı":2297,"ĠÐ²ÑģÑĤÑĢÐµÑĤ":2298,"ĠÐ¾Ð´Ð½Ð¾":2299,"ĠÑĨÐµÐ»ÑĮ":2300,"ĠÐºÑĢÐ¾Ð¼":2301,"ĠÐ¿Ð¸ÑģÑĤÐ¾Ð»ÐµÑĤ":2302,"ĠÑģÑĤÐ°Ð½Ð¾Ð²":2303,"ĠÐļÐ°Ð»":2304,"ÑıÐ»Ð°":2305,"ĠÐ¶ÐµÐ½Ñī":2306,"Ð¨":2307,"ÑĤÐ¾Ð½":2308,"ĠÐ²ÑģÑı":2309,"ĠÑģÑĤÐµÐº":2310,"ĠÐ¼ÑĭÑģÐ»Ð¸":2311,"ĠÐ¿Ð°Ð½":2312,"ĠÑģÐ¿Ð°Ñģ":2313,"ĠÐ²Ð¾Ð¸Ð½Ñĭ":2314,"ĠÐ¾Ð¿ÑĢÐµÐ´":2315,"ÑįÑĤÐ¾Ð¼Ñĥ":2316,"ĠÐºÐ°Ð±":2317,"ĠÐ³ÑĥÐ±":2318,"ĠÑģÐ¾Ð·Ð½":2319,"ĠÑĩÐµÐ»Ð¾Ð²ÐµÑĩÐµÑģÐº":2320,"ĠÐºÑĢÐ¸Ðº":2321,"ÑıÑģÐ½":2322,"ĠÐ¿ÑĢÐ¾Ð³":2323,"ĠÑĪÑĤÑĥÑĢÐ¼":2324,"ĠÐ¾Ð±ÑĭÑĩ":2325,"ĠÐ¾ÑĤÐºÑĢÑĭÑĤ":2326,"Ð½ÑĥÐ²ÑĪÐ¸ÑģÑĮ":2327,"Ð¾Ð»Ð¾Ð³":2328,"ĠÐĶÐ°Ð¶Ðµ":2329,"Ð°Ð¹Ðº":2330,"ÑĩÐ¸Ð½":2331,"ĠÐ¾Ð±ÑĢÑĥÑĪ":2332,"Ð¾Ð±ÑĢÐ°Ð·":2333,"ĠÐ±Ð»Ð°Ð³Ð¾":2334,"ÑĢÐ°ÑĤÑĮÑģÑı":2335,"ĠÐºÐ¾Ð³Ð¾":2336,"ĠÐ´ÐµÑĢÐµÐ²":2337,"ĠÐ·Ð°Ñī":2338,"ĠÐºÐ¾ÑģÐ¼Ð¾Ð´ÐµÑģÐ°Ð½ÑĤÐ½Ð¸Ðº":2339,"ĠÐ·ÑĢ":2340,"ĠÑĥÑģÑĤÐ°Ð½Ð¾Ð²":2341,"Ð°Ð»Ð°ÐºÑĤ":2342,"ĠÐ·ÐµÐ¼Ð»Ñİ":2343,"ĠÑģÐ¾Ð´":2344,"ĠÑĩÑĥÐ´Ð¾Ð²Ð¸Ñī":2345,"ÑĢÐ¸Ñģ":2346,"ĠÐ±ÐµÐ¶":2347,"ĠÐ·Ð°Ñħ":2348,"ĠÐ·Ð°ÐºÐ¾Ð½Ñĩ":2349,"Ð°Ð¹ÑĤÐµ":2350,"ÑĩÐ¸Ðº":2351,"ĠÐ³Ð¸Ð³Ð°Ð½ÑĤ":2352,"ÑħÑĢÐ°Ð½":2353,"Ð¾ÑĤÐµÐº":2354,"ÑĥÑİÑĤ":2355,"ĠÐ²ÑħÐ¾Ð´":2356,"ĠÐļÐ°ÑĢ":2357,"ĠÑģÐ¸Ð¼":2358,"ĠÐ³ÑĢÑıÐ·":2359,"ĠÐ¿ÑĢÐ¾Ð¸ÑģÑħÐ¾Ð´":2360,"ĠÐ·Ð°ÑģÑĤ":2361,"ĠÐºÐ¾Ð»Ð¾Ð½":2362,"ĠÑģÐ¸Ð³":2363,"ĠÐ¿Ð¾Ð²ÐµÑĢÐ½ÑĥÐ»ÑģÑı":2364,"ÑĨÐ¸Ñı":2365,"ÑĥÐ¶Ð´":2366,"Ð²Ðµ":2367,"ĠÑģÑĤÑĢÐµÐ¼":2368,"Ð¾ÑĢÐ¾ÑĤ":2369,"ĠÑģÐµÑĢÐ²Ð¸ÑĤÐ¾ÑĢ":2370,"ĠÑģÑİÐ´Ð°":2371,"ĠÐ²ÐµÑĢÑħ":2372,"ÑĭÐ²Ð°ÑĤÑĮ":2373,"ĠÐ¿Ð¾Ð²ÐµÐ»":2374,"ĠÐ²ÑĭÐ´":2375,"ĠÐ½ÐµÑģÐºÐ¾Ð»ÑĮ":2376,"ĠÐ½Ð°Ð²ÐµÑĢ":2377,"or":2378,"Ð¸ÑģÐº":2379,"Ð²ÐµÐ½":2380,"Ð²ÐµÑĢÑħ":2381,"ĠÐ¾Ð³Ð½ÐµÐ¼":2382,"ÑĤÑı":2383,"Ð»ÑıÑı":2384,"Ð°Ð½Ñģ":2385,"ĠÐ¿Ð¾ÑħÐ¾Ð´":2386,"Ð¸Ð±Ð»Ð¸":2387,"Ð°ÑģÑĤÑĮ":2388,"ĠÑĢÐµÐ²":2389,"ĠÑĢÐ°Ð´Ð¸":2390,"ĠÐ¼Ð¸Ð³":2391,"Ðĸ":2392,"ĠÑĦÐ¾ÑĢÐ¼":2393,"ĠÐ¼Ð¾Ð³ÑĥÑĤ":2394,"Ð¾Ð½Ðµ":2395,"ĠÐ¿Ð¾Ð²ÐµÑĢÑħÐ½Ð¾ÑģÑĤÐ¸":2396,"ĠÑģÐµÐ¼":2397,"ĠÐĲÐ»":2398,"ĠÑĢÑĥÐºÐ¾Ð¹":2399,"ÐµÑģÑĤÐ²Ð°":2400,"ĠÐºÑĢÐ¾Ð²ÑĮÑİ":2401,"ĠÐºÐ¾ÑĢÐ°Ð±Ð»ÐµÐ¹":2402,"ÑĤÐµÐ½":2403,"ÑĢÐ¾Ð³":2404,"Ð¾ÑĢÐ½":2405,"ĠÐ½Ð°Ð³":2406,"Ð¾Ð·Ð³":2407,"ĠÐ¾ÑĤÐ»Ð¸Ñĩ":2408,"ÑĪÐ»Ð¸":2409,"ĠÐ²ÑģÐµÐ¹":2410,"ÑģÐµÑĢ":2411,"ĠÑģÑĤÐ°Ð»Ð¾":2412,"ÐĺÐ¼":2413,"Ð°ÑİÑģÑĮ":2414,"):":2415,"ĠÐ¿Ð¾ÐºÐ°Ñĩ":2416,"Ð¾ÑĤÑı":2417,"ÐºÐ¾Ð³Ð¾":2418,"ĠÐ´Ð²ÑĥÑħ":2419,"ĠÐ´Ð°":2420,"ÐºÑĤÐ¸Ð²":2421,"ĠÐ¾Ð±ÑĢÐ°Ð·Ð¾Ð¼":2422,"ĠÐ´ÐµÑĤ":2423,"ĠÐ¼Ð½Ð¾Ð¶Ðµ":2424,"ĠÐ´ÐµÐ»Ð¾":2425,"es":2426,"ĠÑĤÐ¾ÑĩÐ½Ð¾":2427,"ÑģÑĤÐ²Ð¾Ð²Ð°ÑĤÑĮ":2428,"ĠÑĤÐ°ÐºÐ¸Ð¼":2429,"ĠÐ±Ð¾Ð»Ð¸":2430,"ĠÐ´ÐµÐ½ÑĮ":2431,"Ð¾Ð¶Ð¸Ð´":2432,"ÑģÐºÐ°Ð·":2433,"ĠÐ¾ÑĤÑĩÐ°Ñı":2434,"ĠÐ½Ð°ÑĩÐ°Ð»Ð¸":2435,"ÑĥÐºÐ¸":2436,"ĠÑĥÑĢÐ¾Ð²":2437,"ĠÑģÐ²ÐµÑĤÐ°":2438,"ĠÑĥÐ´ÐµÑĢÐ¶":2439,"ĠÐ¾Ð¿ÐµÑĢ":2440,"ĠÐ¿Ð¾ÑģÐ»":2441,"II":2442,"ÐķÑģÐ»Ð¸":2443,"ĠÐļÑĢ":2444,"ĠÐ·Ð°Ð¿Ð°Ñħ":2445,"ĠÐ½Ð¾Ð¶":2446,"ĠÐºÐ°ÑĢÑĤ":2447,"Ð¾Ð¿Ð°Ñģ":2448,"ĠÐ¿ÑĢÐ¸ÑħÐ¾Ð´":2449,"ĠÑģÐµÑĢÐ´ÑĨÐµ":2450,"ÑĨÐ°Ð¼Ð¸":2451,"ĠÐ´Ð²ÐµÑĢÐ¸":2452,"ar":2453,"ĠÑĦÐ¸Ð³Ñĥ":2454,"ĠÐ·Ð»":2455,"Ð»ÐµÐ½Ð½ÑĭÑħ":2456,"ĠÐ¾ÑĤÐ²ÐµÑĢ":2457,"ĠÐ³Ð¾Ð²Ð¾ÑĢÐ¸Ð»":2458,"Ð¢Ð°Ðº":2459,"ĠÑĤÐ°ÐºÐ¾Ðµ":2460,"ĠÐ¿ÑģÐ¸Ñħ":2461,"ĠÑģÐ²Ð¾Ð¸Ð¼Ð¸":2462,"Ð¾Ð»Ð°Ð³":2463,"ĠÑģÐ»ÑĥÑĩÐ°Ðµ":2464,"Ð½Ð¾ÑĪ":2465,"ÑĨÐµÐ½":2466,"ÐºÐ°Ñı":2467,"Ð¾ÑĤÑĥ":2468,"ĠÐ¾Ð´Ð½Ð°ÐºÐ¾":2469,"ĠÐ½Ð°ÑģÑĤÑĥÐ¿":2470,"ĠÑĪÐ¸Ð¿":2471,"ĠÐºÐ°ÑĢ":2472,"ĠÐºÐ¾Ð¼Ð¿":2473,"ĠÐ¿Ð¾Ð»Ñĥ":2474,"ÑĢÐ¾ÑĤÐ¸Ð²":2475,"ĠÐ°ÑĢÐ¼":2476,"ĠÐ¿ÑĢÐ¸ÑģÑĤ":2477,"ĠÐ¥Ð¾ÑĢÑĥÑģ":2478,"ĠÑĤÐ¸Ñħ":2479,"ÑĪÐ¸Ð±":2480,"ĠÑĥÐ¼ÐµÑĢ":2481,"ĠÐ¿ÑĢÐ¾ÑĤÐ¸Ð²Ð½Ð¸ÐºÐ°":2482,"ĠÐºÐ¾Ð¿":2483,"ĠÐŁÐ¾Ð²":2484,"ĠÐ¿Ð¾Ð´Ð¾ÑĪ":2485,"ĠÐ½Ð¸Ð·":2486,"ĠÐ¿Ð¾Ð¼ÐµÑī":2487,"ĠÐ¼Ð°Ð½":2488,"ĠÐ»Ð°Ð·ÐµÑĢ":2489,"ĠÐºÐ°Ð½":2490,"ĠÐ¼Ð¸Ð¼Ð¾":2491,"ĠÐ²ÐµÐ´ÑĮ":2492,"ĠÐ±ÑĢÐ°ÑĤÑĮÐµÐ²":2493,"ĠÐ¾ÑĢÑĥÐ¶Ð¸Ñı":2494,"ĠÑĢÑĥÐºÐ°Ñħ":2495,"ÐµÑĢÐµ":2496,"ĠÐ¾ÐºÐ°Ð·Ð°Ð»ÑģÑı":2497,"Ð¾ÐµÐ²":2498,"ĠÐŁÐµÑĢÐ²":2499,"ĠÑģÐ»ÑĭÑĪÐ°Ð»":2500,"ĠÑĤÑĢÐ°Ð½ÑģÐ¿":2501,"Ð°ÑĢÐ¸Ðº":2502,"ĠÐ¼Ð¸ÑĢÐ°":2503,"Ð°Ð½Ð³":2504,"Ð°Ð½Ð¸ÐµÐ¼":2505,"ĠÐ²Ð¾Ð·Ð´ÑĥÑħÐµ":2506,"ÑĢÑıÑģ":2507,"ĠÐ¼ÐµÐ½ÐµÐµ":2508,"ĠÑģÐ¾ÑħÑĢÐ°Ð½":2509,"Ð½ÐµÑĤ":2510,"ĠÐ¼ÐµÑģÑĤÐ°":2511,"ĠÐ¾Ð±ÐµÑĢ":2512,"...":2513,"ÐºÐ°Ð¼":2514,"ÑĢÑĭÐ»":2515,"ĠÐ¾Ð±ÑĢÐ°ÑĤÐ½Ð¾":2516,"Ð°ÑĨÐ¸Ð¾Ð½":2517,"Ġof":2518,"Ð¾Ð¹ÑĤÐ¸":2519,"Ð»ÐµÐ¶":2520,"Ð»Ð°Ñĩ":2521,"Ð½Ð¾Ð³":2522,"ĠÑĤÐ¾Ð»Ð¿":2523,"ĠÐľÐ°Ð»":2524,"ĠÐ¾ÑģÐ»":2525,"ĠÑģÑĢÐ°Ð·Ñĥ":2526,"Ð¾ÑĢÑĭ":2527,"ĠÐ±Ð¾Ðº":2528,"Ð°Ð²ÑĪÐ¸Ðµ":2529,"Ð¸ÑĢÐ°":2530,"ÐºÐ¸Ð¼Ð¸":2531,"ĠÐĲÐ½Ð³ÐµÐ»":2532,"ÑĦÐ°":2533,"ÑĢÐ°ÑģÑĤ":2534,"ĠÐłÐ°ÑĦ":2535,"ÑĪÐ¸Ð¼":2536,"ĠÐ½Ð°ÑģÐº":2537,"ĠÐ¿Ð¾Ð²ÑĤÐ¾ÑĢ":2538,"ĠÐ¾ÑģÑĤÐ°Ð»Ð¾ÑģÑĮ":2539,"ĠÐ½ÐµÐ½Ð°Ð²":2540,"ĠÐ½Ð¸Ð¶":2541,"Ð³Ð»ÑıÐ´ÐµÐ»":2542,"ĠÐ¼Ð°Ð»ÐµÐ½ÑĮ":2543,"Ð°ÑİÑīÐ¸Ð¼":2544,"ĠÑģÑĤÑĢÐµÐ»":2545,"ÑģÑİ":2546,"ĠÐ²ÑĭÑĢÐ²":2547,"Ð»Ð°Ð·":2548,"ĠÐ²Ð¾Ð¸Ð½Ð°":2549,"ĠÐ¿Ð¾Ð·Ð°Ð´Ð¸":2550,"ÐµÐ»ÐµÐ¼":2551,"ĠÐºÐ¾ÑĤÐ¾ÑĢÑĭÐ¼":2552,"ĠÑģÑįÑĢ":2553,"ĠÑĩÐµÑĤÑĭ":2554,"ĠÐ·Ð¾Ð»Ð¾ÑĤ":2555,"ĠÐ¼ÑĥÐ¶":2556,"ĠÐ¿Ð¾ÐºÑĢÑĭÑĤ":2557,"ĠÐ±Ð¾ÐµÐ²Ð¾Ð¹":2558,"ÑĢÐ¾Ðº":2559,"ĠÐºÐ¾Ð½ÑĨÐµ":2560,"ÐµÐºÑģ":2561,"ĠÐ½Ð°ÑĩÐ¸Ð½":2562,"ĠÐ·Ð²ÐµÑĢ":2563,"ĠÐ½Ð°Ð¼Ð¸":2564,"ĠÐ½Ð¸ÐºÑĤÐ¾":2565,"ĠÑĨÐµÐ»Ð¸":2566,"ĠÐ±Ð»Ð°Ð³Ð¾Ð´Ð°ÑĢ":2567,"ĠÐ¾Ð±Ð»Ð°Ð´":2568,"Ð¾Ð½ÐµÑĩÐ½Ð¾":2569,"ĠÐ±ÐµÐ³":2570,"ĠÐ´Ð¾Ð»Ð³Ð¾":2571,"Ð°Ð½Ð½Ð¾":2572,"ĠÑĤÐ°":2573,"Ð°ÑĨÐ¸Ñİ":2574,"Ð°ÐºÑģ":2575,"Ð¾ÑĩÑĮ":2576,"ĠÑįÑĤÐ°":2577,"ĠÐ¾Ð´Ð½Ð¸Ð¼":2578,"ĠÑģÐ»ÐµÐ´ÑĥÑİÑī":2579,"ĠÑģÐ¸ÑģÑĤÐµÐ¼Ñĭ":2580,"ÑĢÐ°Ð¶ÐµÐ½Ð¸Ðµ":2581,"ĠÐ²ÑģÑİ":2582,"Ð½Ð¸ÐºÐ¾Ð¼":2583,"ĠÑģÐ¿Ð¾ÐºÐ¾Ð¹":2584,"ÐµÐ·Ð²":2585,"ĠÐ°Ð±":2586,"Ð°Ð²Ð¸Ð»":2587,"ĠÐ¸Ð·Ð¾Ð±ÑĢÐ°Ð¶":2588,"ĠÑĢÐ°Ð·Ð¾ÑĢÐ²":2589,"ĠÑĩÐ¸ÑģÑĤ":2590,"ĠÐĲÐ½":2591,"ĠÐ±ÑĥÑĢ":2592,"ĠÑĥÑģÐ»ÑĭÑĪÐ°Ð»":2593,"ĠÑģÐµÐºÑĥÐ½Ð´Ñĥ":2594,"Ð°Ð»ÑĮÐ½ÑĭÐ¹":2595,"ĠÐ·Ð°ÑīÐ¸Ñī":2596,"ĠÐ²Ð¾ÑģÑģÑĤ":2597,"ĠÐ¼Ð¾Ð³Ð»Ð°":2598,"ĠÐ²Ð½Ð¸Ð¼Ð°Ð½Ð¸Ðµ":2599,"ĠÐ¾ÑĢÐ³Ð°Ð½":2600,"ĠÐ±Ð°ÑĢ":2601,"ĠÑĥÐ·Ð½":2602,"Ð¸ÐºÑģ":2603,"ĠÐ¿Ð¾Ð´ÑĥÐ¼Ð°Ð»":2604,"Ð±Ñĥ":2605,"Ð³ÑĢÐ¸Ð¼":2606,"Ð½Ð¸Ñı":2607,"ĠÐ¼Ð¾Ð»Ñĩ":2608,"ÑĢÑĭÐ·":2609,"ĠÐ¿Ð»Ð¾ÑĤÐ¸":2610,"ĠÑĥÑħ":2611,"ÑĨÑĥ":2612,"ĠÐºÑĢÐ¾Ð²Ð°Ð²":2613,"ĠÐ¿ÑĭÑĤÐ°ÑıÑģÑĮ":2614,"Ð°ÐºÐ°":2615,"ĠÐĴÐ°ÑĢ":2616,"ÐµÑģÑĤÐ²Ð¾":2617,"ÑĤÐ²ÐµÑĢ":2618,"ĠÐºÑĢÐ¾Ð¼Ðµ":2619,"ĠÐ¡ÐµÑĢ":2620,"Ð¸ÑĤÐµÐ»ÑĮÐ½ÑĭÐ¹":2621,"ĠÐ³Ð»Ð°Ð·Ð°Ð¼Ð¸":2622,"ÐĴÑģÐµ":2623,"ĠÐĴÐµÑĢ":2624,"ĠÐºÐ¾Ð½ÑĤÑĢ":2625,"as":2626,"ĠÑģÐ¾Ð²ÑģÐµÐ¼":2627,"ÑİÑĤÑģÑı":2628,"ĠÐ²ÑĢÐ°Ð³Ð¾Ð²":2629,"ĠÐ²Ð¾Ð¾ÑĢÑĥÐ¶":2630,"ĠÑĥÐ»ÑĭÐ±Ð½ÑĥÐ»ÑģÑı":2631,"ĠÐ³Ð¸Ð±":2632,"ĠÐ¶ÐµÑĢÑĤÐ²":2633,"ĠÐ²Ð·Ð³Ð»ÑıÐ´Ð¾Ð¼":2634,"ĠÐ´ÑĢÑĥÐ³Ð°":2635,"ĠÑĢÐ°Ð½ÑĮÑĪÐµ":2636,"ĠÐ¾Ð´Ð½Ð°":2637,"ĠÐ¿Ð»Ð°ÑģÑĤ":2638,"ÐŁÐ¾Ñģ":2639,"Ð³Ð¾ÑĤÐ¾Ð²":2640,"ÑĨÐ°ÑĢ":2641,"ĠÑģÐµÐºÑĥÐ½Ð´":2642,"ÑĢÑĭÐ³":2643,"ĠÐ¿ÑĢÐ°ÐºÑĤ":2644,"ĠÐ¸ÑģÑĤÐ¾ÑĢ":2645,"ĠÐ¿ÐµÑĢÐµÐ¿":2646,"ÑĥÐ»Ñı":2647,"ĠÐ³Ð¾ÑĢÑı":2648,"ĠÑĢÑĥÑħ":2649,"Ð¸ÑıÐ¼Ð¸":2650,"ĠÐ¿Ð¾ÑģÑĤÑĥÐ¿":2651,"ÐµÐ³Ð¾ÑģÑı":2652,"ĠÐ°Ð»":2653,"ĠÐºÑĥÑĢ":2654,"Ð»Ñĥ":2655,"ĠÐ±ÐµÐ·Ð¾Ð¿Ð°Ñģ":2656,"ĠÐ¿Ð¾ÑģÐ»ÐµÐ´Ð½Ð¸Ð¹":2657,"ĠÐ´Ð¸Ñģ":2658,"ÑĥÐ»ÑĮÑģ":2659,"Ð»ÐµÐ½Ð½ÑĭÐ¹":2660,"ĠÐ²Ð¾Ð·Ð²ÑĢÐ°Ñī":2661,"ĠÐ½Ð°Ð¿Ð¾Ð¼Ð¸Ð½":2662,"Ð¼Ð¾":2663,"ĠÐ»ÐµÐ²":2664,"ĠÐ»ÐµÐ³Ð¸Ð¾Ð½Ð°":2665,"ÑĨÐ¸Ð¹":2666,"Ð¼Ð¾Ñģ":2667,"ĠÐľÐµÑħÐ°Ð½":2668,"Ġ(":2669,"ĠÑģÐ¿ÑĥÑģÑĤ":2670,"ĠÐ´Ð°Ð²Ð½Ð¾":2671,"ĠÐ²Ð²ÐµÑĢÑħ":2672,"ĠÐ³Ð»Ð°Ð·Ð°Ñħ":2673,"ĠÐºÑģÐµÐ½":2674,"ĠÑĩÑĥÐ¶":2675,"ÐµÑİ":2676,"ÑĢÐµÑģ":2677,"ĠÐ¿ÑĢÐ¸ÐºÐ°Ð·Ð°Ð»":2678,"ĠÐ²Ð¾Ð·Ð½Ð¸Ðº":2679,"ĠÑģÐºÑĢÑĭÐ²":2680,"Ð¸Ð¼Ð°ÑĢÑħ":2681,"ĠÐ²Ð¸Ð·":2682,"ĠÐºÐ°Ñĩ":2683,"Ġd":2684,"ÐµÐ²ÐµÑĢ":2685,"Ð°Ð´ÑĨÐ°ÑĤ":2686,"ĠÐ³Ð²Ð°ÑĢÐ´":2687,"ĠÑĢÑĥÐºÐµ":2688,"ĠÐºÐ¾ÑĢÐ°Ð±Ð»Ð¸":2689,"Ð¾Ð´Ð½Ñı":2690,"Ð¾ÑĢÐ°ÑĩÐ¸Ð²":2691,"ĠÑĥÐ¼Ð¸ÑĢ":2692,"ĠÐ¼Ð¾Ð¸":2693,"ĠÐ¼Ð¾ÑĢ":2694,"Ð¾ÑħÐ½ÑĥÐ»":2695,"ÑĢÐ°Ð¿":2696,"ĠÐ¿Ð¾ÑģÑĤÐ¾ÑıÐ½":2697,"ĠÐ³ÑĢÑĥÐ·":2698,"ÐŀÐ´":2699,"ĠÑĥÐ³ÑĢÐ¾Ð·":2700,"ĠÐºÐ¾Ð½ÑĤ":2701,"ĠÐ¥Ð¾ÑĢÑĥÑģÐ°":2702,"ĠÐ·Ð²ÐµÐ·Ð´":2703,"ĠÐ²ÑĢÐ°Ð¶ÐµÑģÐº":2704,"ĠÐ½ÐµÐ¾Ð±ÑħÐ¾Ð´Ð¸Ð¼":2705,"ĠÐ²ÑĭÐº":2706,"ĠÐ½Ð°ÑĩÐ°Ð»Ð°":2707,"ĠÑģÑĤÑĢÑĥ":2708,"ÑĢÐ°ÐºÑģ":2709,"ĠÑģÐ¸Ð¼Ð²Ð¾Ð»":2710,"ĠÐ¾ÑĤÐºÑĢÑĭÐ»":2711,"ÐĺÐ·":2712,"ĠÐ½ÐµÐ¸Ð·":2713,"ĠÐ·Ð°ÑħÐ²Ð°ÑĤ":2714,"Ð¾Ð½ÑĤ":2715,"Ð¸ÑĥÑģ":2716,"Ġand":2717,"ÑĢÑĥÑĤ":2718,"ĠÐ±Ð¾ÐµÐ²ÑĭÑħ":2719,"ĠÑıÐ²Ð»Ñı":2720,"ĠÑĩÐ¸Ñģ":2721,"ĠÑįÑĦ":2722,"ĠÐ¿Ð¾ÑģÐº":2723,"ĠÐ¿Ð»Ð°ÑĤ":2724,"ÑĤÑĮÑģÑı":2725,"ĠÐ´Ð¾Ð¿":2726,"ĠÑįÑĤÐ¾Ð¼Ñĥ":2727,"ĠÑģÐµÑĢÐµÐ±":2728,"ĠÐ²ÑģÐ¿ÑĭÑĪ":2729,"ÐŁÐ¾":2730,"Ð¾ÑģÑĭ":2731,"ĠÑĢÐµÐ·ÐºÐ¾":2732,"ĠÑģÐ¼Ð¾ÑĤÑĢÐµÐ»":2733,"ĠÐĿÐ¸Ðº":2734,"ĠÐ´ÑĢÐ¾Ð¶":2735,"ĠÐ´ÐµÐ»Ðµ":2736,"ĠÐ¾ÑģÑĤÐ°Ð»ÑĮÐ½ÑĭÐµ":2737,"ĠÐ³Ð¾Ð»Ð¾Ð²Ñĭ":2738,"ĠÐ³Ð¾ÑĢÐ¾Ð´Ð°":2739,"ĠÐ²Ð°ÑĢÐ¿Ð°":2740,"ĠÐ½Ð°Ð´Ð¾":2741,"ĠÐ¼ÐµÐ»":2742,"ÑĥÐ»Ð³ÑĢÐ¸Ð¼":2743,"Ð¿Ð¾Ð´":2744,"ĠÐ¾ÑĤÐ´":2745,"ĠÑģÐ»Ð¾Ð¼":2746,"ĠÐ¿Ð»Ð¾Ñī":2747,"ĠÐĵÐ²Ð°ÑĢÐ´Ð¸Ð¸":2748,"ĠÑĩÐ°ÑģÐ¾Ð²":2749,"Ð¾ÑĢÐ¾Ð²":2750,"Ð»ÐµÐ½Ñĭ":2751,"ĠÐ²Ð¾Ð½":2752,"Ð¸ÑĤÐµÐ»ÑĮÐ½ÑĭÐµ":2753,"ĠÐĽÐµÐ³Ð¸Ð¾Ð½Ð°":2754,"ÐµÑĦ":2755,"Ð¼ÐµÑĪ":2756,"ĠÐ¾ÑģÑĤÐ¾ÑĢÐ¾Ð¶":2757,"ĠÐ´Ð²ÐµÑĢÑĮ":2758,"ĠÐ¿ÑĢÐ¾Ð²ÐµÑĢ":2759,"ĠÐ¸Ð³":2760,"ĠÐ½Ð°ÑģÑĤÐ¾ÑıÑī":2761,"ĠÐ¿ÑĢÐ¾Ð¼":2762,"ÑĢÐ°Ð±Ð¾ÑĤ":2763,"ĠÐºÑĢÑĥÐ³":2764,"ĠÐ¼Ð¾Ð³Ð»Ð¾":2765,"ĠÐ±ÑĢÐ°ÑĤÐ°":2766,"ĠÐºÐ°Ð¿Ð¸ÑĤÐ°Ð½Ð°":2767,"ÐĲÑĢ":2768,"ĠÐĴÐ¾ÑĢ":2769,"ÑĢÐµÐ¹":2770,"ĠÐ´Ð¾ÑģÑĤÐ¸Ð³":2771,"ĠÐ½ÐµÑģÐºÐ¾Ð»ÑĮÐºÐ¸Ñħ":2772,"Ð°Ñį":2773,"Ð¸ÑĨÑĭ":2774,"ĠÐ»Ð¸ÑĨÐµ":2775,"ĠÐ½Ð°Ð¹ÑĤÐ¸":2776,"ĠÑģÑĥÐ´ÑĮ":2777,"ĠÐŁÐ¾Ð»":2778,"ĠÐ³ÑĢÑĥÐ´Ð¸":2779,"ĠÐ±ÑĭÑģÑĤÑĢ":2780,"ÐµÑģÐ°":2781,"ĠÑĤÑĢÐµÐ²":2782,"ĠÐ´Ð°Ð»ÐµÐºÐ¾":2783,"ĠÑĥÐ´Ð°Ð»Ð¾ÑģÑĮ":2784,"ĠÐ¾ÑĢÑĥÐ´Ð¸Ð¹":2785,"ĠÐ½Ð°Ð±Ð»ÑİÐ´":2786,"ĠÐĵÐ¾ÑĢ":2787,"ĠÐ²Ð¾Ð¹ÑģÐº":2788,"ĠÐ¾ÑĪÐ¸Ð±":2789,"ÐµÐ½ÐµÐ¼":2790,"ĠÐ¿ÐµÑĢÐµÑħ":2791,"ĠÐ¿Ð¾Ð»Ðµ":2792,"ĠÐ´Ð¾Ð»Ð¶Ð½Ð¾":2793,"ĠÐ¿ÑĢÐ¾Ð½Ð·":2794,"ĠÐ²ÐµÐ»Ð¸Ñĩ":2795,"ĠÐ¾Ð¿ÑĢÐµÐ´ÐµÐ»":2796,"ĠÑįÐ½ÐµÑĢÐ³Ð¸Ð¸":2797,"ĠÐľÐµÑħÐ°Ð½Ð¸Ðº":2798,"ÑıÑı":2799,"ĠÐ·ÑĥÐ±":2800,"ĠÐ¾ÑĢÐºÐ¾Ð²":2801,"Ð³Ð¾Ð»":2802,"ĠÐ¿ÑĢÐµÐ´ÑĥÐ¿":2803,"ĠÑĪÐ¸ÑĢÐ¾Ðº":2804,"ĠÐ¿Ð¾Ð´ÑħÐ¾Ð´":2805,"ĠÐ·Ð°Ð²ÐµÑĢ":2806,"Ð¸ÐºÑĥ":2807,"ÑĢÐ¸ÑįÐ»ÑĮ":2808,"ĠÐ¿ÑĢÐ¸ÑģÐ¾ÐµÐ´Ð¸Ð½":2809,"ĠÑĢÐ¾ÑĤ":2810,"ÑĥÐ½Ð½":2811,"ĠÐ¿ÐµÑĢÐ²ÑĭÐ¹":2812,"ĠÐĴÐ¾Ð·Ð¼Ð¾Ð¶Ð½Ð¾":2813,"ÑĢÐµÑĤÑĮ":2814,"ĠÐ¿Ð¾ÑĢÑıÐ´":2815,"ĠÐ¿Ð»Ð¾ÑĤÑĮ":2816,"ÑĥÑı":2817,"ĠÐ¶Ð´":2818,"ĠÑģÐ¸Ð»ÑĮÐ½Ð¾":2819,"Ð¾ÑĤÐ¾Ñĩ":2820,"ĠÐļÑħ":2821,"ĠÐºÐ¾Ð½ÐµÑĩ":2822,"ÑĢÐ¸Ð²":2823,"Ð¾Ð»ÑĮÐºÑĥ":2824,"ĠÑģÐ¾Ðº":2825,"ĠÐ¾ÑħÑĢÐ°Ð½":2826,"Ð½Ð¾Ðº":2827,"ĠÐļÐ°Ð¶Ð´":2828,"ĠÐ±ÑĢÐ¾Ð½Ñİ":2829,"ÑģÑıÑĤ":2830,"Ð»Ð¸Ð±Ð¾":2831,"Ð°Ð»Ñĭ":2832,"ÐµÐ²Ð¸Ð´":2833,"ÐµÑĢÐ°Ð¼":2834,"ĠÐºÑĥÑģÐº":2835,"ĠÐ¾ÑĢÐ±Ð¸ÑĤ":2836,"Ð½ÐµÑģ":2837,"ĠÑıÐ·Ñĭ":2838,"Ð¸ÑĢÐ¾Ð²Ð°Ð»Ð¸":2839,"ÑĨÐµÐ»":2840,"ĠÐĲÐ»ÑĮ":2841,"ĠÐ¸ÑģÐºÑĥÑģ":2842,"ĠÐ½ÐµÐ±Ð¾Ð»ÑĮÑĪ":2843,"ĠÑĤÐ°Ð¹":2844,"ÑıÑĤÑĮÑģÑı":2845,"ĠÐ°ÑĢÑħ":2846,"Ð´ÐµÑģÑĮ":2847,"Ġm":2848,"Ð¸Ð³Ð¾":2849,"ĠÐºÐ¾ÑĢÐ¾ÑĤ":2850,"ĠÑıÐ²Ð½Ð¾":2851,"ĠÑıÑģ":2852,"ĠÐºÐ¾ÑĢÐ¿ÑĥÑģ":2853,"ĠÑģÐ¾Ð²ÐµÑĢÑĪÐµÐ½Ð½Ð¾":2854,"Ð¡ÑĤ":2855,"ĠÐĹÐ°ÑĤÐµÐ¼":2856,"ĠÐ²Ð½ÐµÐ·Ð°Ð¿Ð½Ð¾":2857,"ĠÐ¿ÑĢÐ¾ÑĨ":2858,"Ð¸ÑĢÐ°Ð½":2859,"ĠÐĲÐ´ÐµÐ¿ÑĤ":2860,"Ð¾ÑĤÐ¾Ð¼":2861,"ĠÐ¿ÐµÑĢÐµÐ¼":2862,"ÐµÐ¹ÑģÑı":2863,"ĠÑĩÐµÑĤ":2864,"ÑıÐ»Ð¸ÑģÑĮ":2865,"Ð°Ð²ÑĪÐ¸Ð¹":2866,"ĠÑģÐ¿ÑĥÑģÐº":2867,"ĠÑĥÐºÑĢÐ°ÑĪ":2868,"Ð°ÑģÑĤÐ¸":2869,"ĠÐ´Ð²Ð¾ÑĢ":2870,"ĠÑģÐ¾Ð¿ÑĢÐ¾Ð²":2871,"Ð»Ð¸Ð²Ð¾":2872,"ĠÐ³Ð¾ÑģÐ¿":2873,"ĠÐ²ÐµÑĤÐµÑĢ":2874,"ĠÐ²Ð¸Ð´ÐµÑĤÑĮ":2875,"ĠÐ¿ÑģÐ°Ð¹Ðº":2876,"ĠÐĽÐ¾Ðº":2877,"ĠÐ½ÐµÐ¿Ð¾Ð´":2878,"ĠÐ¼Ð¾Ð·Ð³":2879,"ĠÑħÑĢÐ°Ð½":2880,"ĠÑĤÐµÐ½Ð¸":2881,"Ð¸Ð»Ð¾Ð¼ÐµÑĤ":2882,"ĠÐ·Ð°ÐºÐ»ÑİÑĩ":2883,"ÐłÐ°Ð·":2884,"ÑįÐ¹":2885,"ÑĮÐ¸":2886,"ĠÐ¿Ð¾Ð½ÑıÑĤÑĮ":2887,"Ġp":2888,"ĠÑįÐºÐ¸Ð¿":2889,"Ð¾Ð»Ñĩ":2890,"Ð¾ÑĪÐ»Ð¾":2891,"ĠÐ·Ð°Ð´ÑĥÐ¼":2892,"ĠÐ¿Ð¸Ð»":2893,"ĠÐ¿ÑĢÐ¾Ð½Ð¸Ðº":2894,"ĠÐ¼ÐµÑĤÑĢÐ¾Ð²":2895,"ĠÐ¿Ð¾Ð´Ð¾Ð±Ð½Ð¾":2896,"ĠÑģÐ¸Ð»Ð¾Ð¹":2897,"ĠÐ½Ð°Ð»":2898,"ĠÑģÐºÐ°Ð·Ð°Ð»Ð°":2899,"ĠÐ±ÐµÑģÑģ":2900,"ĠÑĢÐ°Ð²Ð½Ð¾":2901,"ÑĥÑİÑģÑı":2902,"ĠÑĥÐ´Ð°":2903,"Ð¾Ð»Ð¾Ð²":2904,"Ð¸Ð²Ð°Ð»Ð¸ÑģÑĮ":2905,"ĠÑĥÐ»Ð¸":2906,"ĠÑģÐ¿Ð¸Ð½Ð¾Ð¹":2907,"ĠÑģÐ¸Ð³Ð½Ð°Ð»":2908,"Ð¸Ð½Ð¾":2909,"Ð»ÑıÑİÑī":2910,"ĠâĢľ":2911,"Ð¸ÑĤÐµÐ»ÑĮÐ½ÑĭÐ¼":2912,"ĠÐ¿ÑĢÐ¸ÑĪÐ»Ð¾ÑģÑĮ":2913,"ĠÐĳÐµÐ»":2914,"ĠÐ½Ð°Ð¿Ð¾Ð»Ð½":2915,"ĠÐ¶Ð¸Ð²Ð¾ÑĤ":2916,"ÑĭÐ²Ð°ÐµÑĤ":2917,"ĠÐ½Ð°ÑģÐºÐ¾Ð»ÑĮÐºÐ¾":2918,"ĠÑģÐ´ÐµÑĢÐ¶":2919,"ÐµÑĩÑĮ":2920,"ĠÑģÐ¾Ð·Ð´":2921,"ĠÐ²ÐµÑī":2922,"Ð¼Ð±":2923,"Ð¼Ð°ÑĢ":2924,"ĠÐ½Ð°ÑĪÐ¸":2925,"ĠÐ¿ÑĥÑĪ":2926,"ĠÐ»ÐµÐ´":2927,"ĠÐ±ÑĢÐ°ÑĤÑĮÑı":2928,"ĠÑģÑĢÐ°Ð¶Ð°ÑĤÑĮÑģÑı":2929,"ĠÑĥÐ¿Ð°Ð»":2930,"ÑĢÐ¸ÑĩÐ°Ð»":2931,"ÑĭÑĢ":2932,"ÐķÐ³Ð¾":2933,"Ð°Ð²ÑĪÐ¸ÑģÑĮ":2934,"ĠÑħÐ¾ÑĤÑĮ":2935,"ĠÐ¿ÐµÑĢÐµÑģ":2936,"Ð¸Ð¶Ñĥ":2937,"ĠÐ¼ÐµÑĢÑĨ":2938,"ĠÑģÐ²ÐµÑĢÑħ":2939,"ĠÐ¼Ð°ÑĢ":2940,"ĠÑħÑĢÐ°Ð¼":2941,"ĠÑģÐ²Ð¾ÐµÐ¼":2942,"ÐµÐ½Ð´":2943,"ĠÑĥÐ²Ð¸Ð´ÐµÑĤÑĮ":2944,"ĠÐ¼Ð°ÑģÑĤ":2945,"Ð»ÑıÐ»Ð¸":2946,"Ð°Ð»ÑĮÐ½ÑĭÑħ":2947,"ĠÐ¿Ð¾ÐºÐ°Ð·":2948,"ĠÐ¾ÑĤÐºÑĢÑĭÐ²":2949,"ĠÐ·Ð°Ð³Ð¾Ð²Ð¾ÑĢ":2950,"ĠÐ¼Ð°ÑĤÐµÑĢ":2951,"ĠÑĤÑĥÐ´Ð°":2952,"ĠÐ¿ÑĢÐ¾Ð´Ð¾Ð»Ð¶Ð°Ð»":2953,"ĠÑĤÐ°ÐºÑĤ":2954,"ĠÐ¾Ð±Ñī":2955,"ĠÐ¾ÑģÐºÐ¾Ð»":2956,"ĠÐ¿ÑĢÑĭ":2957,"Ð¾Ð½ÐµÑĩ":2958,"ĠÐ¾Ð´Ð½Ñĥ":2959,"ĠÐ±Ð¾ÑĢÑĤÑĥ":2960,"Ð»Ð¾Ð¿":2961,"Ð¾Ð±ÑĭÑĤ":2962,"Ð°Ð·Ð°Ð»Ð°ÑģÑĮ":2963,"Ð¸ÑĩÐµÑģÐºÐ¸Ð¼":2964,"ĠÐ²Ð½Ð¸Ð¼Ð°Ð½Ð¸Ñı":2965,"ĠÐ¡Ð¼ÐµÑĢ":2966,"ĠÐľÐ½Ðµ":2967,"ĠÐºÑĢÐ°Ð¹Ð½ÐµÐ¹":2968,"ĠÐ¿ÐµÑĢÐµÑģÑĤ":2969,"ĠÐ½ÐµÑģÐ¼Ð¾ÑĤÑĢÑı":2970,"ĠÐ¿Ð¾ÑįÑĤÐ¾Ð¼Ñĥ":2971,"ĠÐ±ÑĢÐ¾Ð½Ð¸":2972,"ĠÐ¿Ð»Ð°":2973,"ÑĢÐ°Ñħ":2974,"ĠÑĢÐ°Ð·Ð¼ÐµÑĢ":2975,"ĠÐ¼Ð¾Ð¶ÐµÐ¼":2976,"ÑĨÐµÐ¼":2977,"Ð¾Ð±Ð¾Ð¹":2978,"ĠÐ¡Ð²":2979,"Ð°ÑģÐº":2980,"ĠÑģÐ¿ÑĢÐ°Ð²":2981,"ÑĢÑĥÑģ":2982,"ĠÑģÐ¸Ñı":2983,"ĠÐ²Ð·Ð³Ð»ÑıÐ½ÑĥÐ»":2984,"Ð¾ÑıÑĤÐ½Ð¾":2985,"ĠÐ¾ÑħÐ¾ÑĤ":2986,"ĠÐ¿Ð¾ÑĪ":2987,"ĠÐ°ÐºÑĤÐ¸Ð²":2988,"ÐµÐ½Ñģ":2989,"Ð¸Ð·Ð¼":2990,"ĠÑĢÐ°Ð·Ð»Ð¸Ñĩ":2991,"ĠÐ¿Ð¾ÑĤÑĢÐµÐ±":2992,"ĠÐ¿ÑĢÐ¾ÑĤÑı":2993,"ĠÐ³ÑĢÐ¾ÑħÐ¾ÑĤ":2994,"Ð·Ñı":2995,"Ð°ÐºÐ¾Ð²":2996,"ĠÐ·Ð°Ð½Ð¸Ð¼":2997,"Ð°Ð´Ð»ÐµÐ¶":2998,"ĠÐ³Ð»ÑĥÐ±Ð¾Ðº":2999,"ĠÐ±ÑĢÐ¾Ð½Ð¸ÑĢÐ¾Ð²Ð°Ð½":3000,"ĠÐºÐ»Ð¸Ð½Ð¾Ðº":3001,"Ð½Ð¾ÑģÑĤÐµÐ¹":3002,"an":3003,"ĠÐļÑĥÐ»Ð°Ðº":3004,"Ð¾Ð»Ð¸ÑĤ":3005,"ĠÐ±Ð¾Ð»ÑĤ":3006,"Ð´Ð¾Ð½":3007,"ÑĥÐ½Ðº":3008,"ĠÐ±Ð¾Ñİ":3009,"ĠÐ¿Ð¾Ð¼Ð¾Ð³":3010,"ÑģÐ»Ð¾Ð²":3011,"ĠÐ¿ÑĢÐ¸Ð»":3012,"ĠÐ·Ð²ÑĥÐº":3013,"ĠÑĥÐºÑĢÐµÐ¿":3014,"Ð½Ð¸Ð¸":3015,"ĠÑĤÑĥÐ½Ð½":3016,"ÑĨÐ¸Ñİ":3017,"ĠÐ¿Ð¾ÑĤÐ¾Ð»":3018,"ÑĢÐ¾Ð±":3019,"Ð½ÑĥÑģ":3020,"ĠÐ¿Ð¾Ð´Ð½ÑıÐ»ÑģÑı":3021,"Ð¾ÐºÑģ":3022,"ĠÐ²ÑĭÐ³Ð»ÑıÐ´ÐµÐ»":3023,"Ð¸ÑĤÐµÐ»ÑĮÐ½Ð¾Ð¹":3024,"ĠÐ¼ÑĢÐ°Ñĩ":3025,"ĠÑģÐ¾ÑģÑĤÐ°Ð²":3026,"Ð¼Ð°Ñħ":3027,"ĠÐ±Ñĥ":3028,"Ð¸ÑģÐ°":3029,"ĠÑģÑĤÑĥÐ¿":3030,"ĠÐ¿ÑĢÐ¸Ð½Ð°Ð´Ð»ÐµÐ¶":3031,"ĠÐ¿Ð¾ÐºÐ°ÑĩÐ°Ð»":3032,"ĠÐ²ÑĭÑģÑĤÑĥÐ¿":3033,"Ð´ÑĥÑī":3034,"ĠÐ¿ÑĭÑĤÐ°Ð»ÑģÑı":3035,"ÑĢÐ¾ÑģÐ¸Ð»Ð°":3036,"ĠÐ¾ÑīÑĥÑĤÐ¸Ð»":3037,"ĠÐ¸Ð´Ðµ":3038,"Ð¸ÑīÐµ":3039,"ÐµÑĢÐ¾":3040,"ĠÐŀÑģÑĤ":3041,"Ð°ÑİÑīÐ¸Ð¼Ð¸":3042,"ĠÐ±Ð»Ð¸Ð¶Ðµ":3043,"ĠÐ¼ÐµÑĤÐ°Ð»Ð»Ð°":3044,"Ð¼Ð¸Ð½Ð°ÑĤÐ¾ÑĢ":3045,"Ð²ÐµÐ´":3046,"ÐµÐ¼ÑģÑı":3047,"ĠÐĲÐ´ÐµÐ¿ÑĤÑĥÑģ":3048,"ĠÐ»Ð°Ð´":3049,"Ð´Ð¾Ð²":3050,"ĠÐ¿ÑĭÐ»":3051,"ĠÑħÐ°":3052,"ĠÐºÐ°Ð¶ÐµÑĤÑģÑı":3053,"ĠÐ¼Ð°Ð»Ð¾":3054,"ĠÑĢÐµÐ°Ð»ÑĮ":3055,"Ð¾Ð¼Ð°Ð½Ð´":3056,"Ð¾ÑĢÐ¾Ð¼":3057,"ĠÐ¿Ð¾Ð´ÑĤÐ²ÐµÑĢ":3058,"ĠÐºÐ¾Ð³ÑĤ":3059,"ĠÐ¿Ð¾ÑģÐºÐ¾Ð»ÑĮÐºÑĥ":3060,"Ð¸Ð½ÑģÑĤÐ²Ð¾":3061,"Ð°ÑĤÐ¾ÑĢÑĥ":3062,"ĠÐ´Ð¾ÑģÐ¿ÐµÑħÐ¸":3063,"ĠÐ±ÑĢÐ¾ÑģÐ¸Ð»":3064,"ĠÐ¿ÑĢÐ¾ÐºÐ»ÑıÑĤ":3065,"Ð¾ÑĩÐµÐ¼Ñĥ":3066,"ĠÐļÐ¾Ð»":3067,"ĠÑĪÑĥÐ¼":3068,"ĠÐ¿Ð¾Ð´Ð¾Ð·":3069,"ĠÐ²ÐºÐ»ÑİÑĩ":3070,"ÐµÐ¹Ð½":3071,"ĠÑģÐ¸Ð½":3072,"ĠÑģÐ²ÐµÑĢÐº":3073,"ĠÐ³Ð»ÑıÐ´":3074,"ĠÐ¿Ð¾Ð²ÐµÑĢÑħÐ½Ð¾ÑģÑĤÑĮ":3075,"ĠÑĢÑĥÐºÐ°Ð¼Ð¸":3076,"ÑĨÐ¸Ð¿":3077,"Ð½ÑıÑı":3078,"ĠÐ·Ð°ÑĢÑıÐ´":3079,"ĠÐ¢Ð°ÑĢ":3080,"ĠÐ»ÐµÐ·Ð²":3081,"ĠÑģÑĤÐ¾Ð¸ÑĤ":3082,"ÐºÑĥÑİ":3083,"ÑĤÐ¾Ðµ":3084,"ĠÑģÐ»Ð°Ð²":3085,"Ð½Ð¸ÑĨÑĭ":3086,"ĠÐ¿ÑĢÐ¸ÑĨ":3087,"ĠÐ¤ÑĥÐ»Ð³ÑĢÐ¸Ð¼":3088,"ĠÑĥÑģÐ¿ÐµÐ»":3089,"ĠÐ¿Ð¾Ð´ÑĩÐ¸Ð½":3090,"Ð»ÑĥÐ¶":3091,"ĠÑĩÑĥÑĤÑĮ":3092,"ĠÐ¿Ð¾Ð¿Ð°Ð´":3093,"ĠÐĽÐ¾ÑĢÐ³":3094,"ÑĪÐ°Ñı":3095,"Ð½ÑĥÐ»Ð¾":3096,"ÑĥÑĩÐ°Ð»":3097,"ĠÑĤÐ¾Ð²Ð°ÑĢ":3098,"ĠÑĥÑħÐ¾Ð´":3099,"Ð°ÑħÐ°ÑĢÐ¸":3100,"ĠÐ¿Ð¾Ð»Ð°Ð³":3101,"ĠÐ»Ð¸ÑĨÐ¾Ð¼":3102,"ĠÐ¿Ð¾Ð»ÐºÐ¾Ð²":3103,"ĠÐ¿ÐµÑĢÐµÐ±":3104,"ĠÐ¸Ð¼Ð¿":3105,"ĠÐ¿Ð»Ð°Ð·":3106,"ĠÐ´ÑĭÑħ":3107,"ĠÑĤÐ°ÐºÐ¾Ð³Ð¾":3108,"ĠÐ¾ÑĤÑĢÑıÐ´":3109,"ÑĢÐµÐ¼ÐµÐ½Ð½Ð¾":3110,"Ġin":3111,"Ð»ÐµÐ½Ð¸Ð¸":3112,"ĠÐ²ÑģÐ¿ÑĭÑħ":3113,"ĠÐ¿ÑĢÐµÐºÑĢÐ°Ñģ":3114,"Ð½ÐµÐ¼Ñĥ":3115,"Ð¾ÐºÐ¾Ð¶":3116,"Ð»Ð¾Ñī":3117,"ĠÐŀÐ´Ð½Ð°ÐºÐ¾":3118,"Ð¾Ð±ÑīÐµ":3119,"ĠÑģÐ¾Ñĩ":3120,"ĠÐ¼Ð½Ð¾Ð³Ð¸Ðµ":3121,"ĠÐ²Ð¸Ñģ":3122,"ĠÐ²Ð·Ð¾ÑĢÐ²":3123,"ĠÐ·Ð°Ð¼ÐµÑĢ":3124,"ÑģÑĤÐ²ÑĥÑİÑī":3125,"ÐµÐ½Ð¸ÑıÐ¼Ð¸":3126,"ĠÑģÐ°Ð¼Ð¾Ð¹":3127,"ĠÑĢÐµÑĪÐ¸Ð»":3128,"ĠÐ³Ð²Ð°ÑĢÐ´ÐµÐ¹":3129,"ĠÐ¿ÑĢÐ¾Ð²Ð¾Ð´":3130,"Ð¾Ð½Ð¾Ð¼":3131,"Ð¾Ð·Ñı":3132,"ĠÐ¾Ð±ÑıÐ·":3133,"Ð¾Ð±ÑĭÑĩ":3134,"ĠÐĳÐ¾Ð³":3135,"Ð¸ÑıÑħ":3136,"ÐĴÐ¾":3137,"ĠÑĨÐ²ÐµÑĤÐ°":3138,"Ð¡Ðº":3139,"ĠÐ±Ð»Ð¸Ð¶Ð°Ð¹":3140,"ÐºÑĥÐ´Ð°":3141,"ĠÐ¼Ð¾ÐµÐ¹":3142,"ĠÑĢÐ°Ð·ÑĢÑĭÐ²":3143,"ĠÐ½Ð°ÑĤ":3144,"ĠÐ²Ð¾Ð·Ð²ÑĭÑĪ":3145,"al":3146,"Ð°ÑİÑīÐ¸ÑħÑģÑı":3147,"ĠÐ·Ð°Ð¶":3148,"ĠÐ±ÑĭÐ²":3149,"Ð°Ð½Ð½Ð¾Ð¹":3150,"ĠÐ¿ÑıÑĤÑĮ":3151,"ĠÐ´Ð¾Ð²ÐµÑĢ":3152,"ĠÑģÐ°Ð¼ÑĭÑħ":3153,"ĠÑģÐµÑĢÑĮ":3154,"ĠÑįÐºÑĢÐ°Ð½":3155,"ĠÐ´Ð¾Ð¶Ð´":3156,"ĠÑĤÑĢÑĥÐ±":3157,"Ð°Ð¶Ð¸":3158,"ĠÐºÐ¾Ð»ÐµÐ½Ð¸":3159,"ĠÐ¿ÐµÑĢÐµÐ³":3160,"ĠÐ¸Ð¼ÐµÐ»":3161,"ĠÐ½Ð°ÑĪÐ¸Ñħ":3162,"ĠÑĢÑĥÐ±":3163,"ĠÑģÐ°Ð¼Ð¾Ðµ":3164,"ĠÑģÐºÐ¾ÑĢÐµÐµ":3165,"ĠÐ±Ð¸ÑĤÐ²Ñĭ":3166,"ĠÐ¿Ð¾Ð´Ðº":3167,"ĠÐ²Ð½ÑĥÑĤÑĢÑĮ":3168,"ĠÑģÐ²ÑıÑī":3169,"ĠÐ¿Ð¾Ð¿ÑĭÑĤÐ°Ð»ÑģÑı":3170,"Ð¾Ð¼Ð±":3171,"Ð¸ÑĤÑĭ":3172,"Ġto":3173,"ÑģÐ¾Ð»":3174,"ĠÐºÐ¾ÑģÑĤÐ¸":3175,"ĠÐ±ÐµÑģÐº":3176,"ĠÑģÐ²Ð¾Ð±Ð¾Ð´":3177,"ĠÐ¾Ð±Ñĭ":3178,"ÐµÑĢÐ¾Ð¼":3179,"ÐµÐ´Ð»ÐµÐ½Ð½Ð¾":3180,"ĠÐ½ÐµÑĩÑĤÐ¾":3181,"ĠÐ½ÐµÐ¾Ð¶Ð¸Ð´":3182,"ĠÐ¾Ð³Ð»Ñı":3183,"ĠÐ½Ð°Ð¿Ð°Ð´":3184,"ĠÐ²ÐµÑģ":3185,"ĠÐºÐ½":3186,"ĠÑģÑĤÐ¾Ð»Ðº":3187,"ĠÐ°ÑĤ":3188,"ĠÐ¿ÑĢÐ¸Ð¿":3189,"ĠÐ²ÑĭÑģÑĤÑĢ":3190,"ĠÑĢÐ°ÑģÐ¿Ð¾Ð»Ð¾Ð¶":3191,"ĠÐ²Ð½ÐµÑĪ":3192,"ĠÐ¿Ð»ÐµÑĩÐ°Ð¼Ð¸":3193,"Ð½ÑİÑİ":3194,"ĠÑģÐ²ÑıÑĤ":3195,"Ð¸Ð½ÑĥÐ»ÑģÑı":3196,"ĠÐ´ÐµÐ¹ÑģÑĤÐ²Ð¸ÑĤÐµÐ»ÑĮÐ½Ð¾":3197,"Ð¾Ð½Ñĥ":3198,"Ð»ÐµÐ´Ð¾Ð²":3199,"ĠÑĥÑĩÐ°ÑģÑĤ":3200,"ĠÑĥÐ±Ð¸ÑĤÑĮ":3201,"Ð°ÑĤÐµ":3202,"ĠÐ¼Ð¾ÐµÐ³Ð¾":3203,"ĠÐºÐ¸Ð»Ð¾Ð¼ÐµÑĤ":3204,"ĠÐ·Ð½Ð°ÑĤÑĮ":3205,"ĠÐ¿ÑĢÐ°ÐºÑĤÐ¸ÑĩÐµÑģÐºÐ¸":3206,"ÐµÑĩÐµÐ½Ð¸Ðµ":3207,"ĠÐ´ÑĥÐ¼Ð°Ð»":3208,"Ð°ÑģÐ°":3209,"ĠÐ¼ÑĥÑĤ":3210,"ÐµÐ»Ð»Ð°Ð½":3211,"ÐµÐ»ÑĮÐ·Ñı":3212,"Ð½Ð¸ÐºÑĥ":3213,"ĠÐºÑĢÑĥÐ¿":3214,"ĠÑģÑĤÑĢÐ¾":3215,"ĠÐ¿Ð¾Ð²ÑĢÐµÐ¶Ð´":3216,"ĠÐºÐ¾Ð»Ð¸Ñĩ":3217,"ĠÐ´ÐµÐ»Ð°ÑĤÑĮ":3218,"ÐĺÐ¼Ð¿ÐµÑĢ":3219,"Ð¾ÑĦ":3220,"ĠÐ¾Ð±Ð¾ÑĢ":3221,"ÑĳÑģ":3222,"ĠÐ²ÑĭÐ³Ð»ÑıÐ´":3223,"ĠÐ¶Ð°Ð»":3224,"ĠÐŁÐ¾Ð¶":3225,"ĠÐ¿ÑĢÐ¾ÑıÐ²":3226,"ĠÑģÑĤÐ¾ÑıÐ»Ð¸":3227,"ĠÑĪÐ»ÐµÐ¼Ð°":3228,"ĠÑĤÐµÐº":3229,"ĠÐ´ÑĥÐ¼Ð°Ñİ":3230,"Ð¸Ð¼Ð°Ñı":3231,"ĠÐ¼Ð¾Ð»Ð¾Ð´":3232,"ĠÐ²ÑģÐµÐ¼Ñĥ":3233,"ĠÐ£Ð»ÑĮÑĤÑĢÐ°Ð¼":3234,"ĠÐ¿Ð¾Ð¶Ð°Ð»":3235,"Ð°Ð»ÑĮÐ½Ð¾Ð³Ð¾":3236,"ĠÑĪÐ°Ð½Ñģ":3237,"ĠÐ²ÑģÐ¿Ð¾Ð¼Ð½":3238,"ĠÑģÑĥÑīÐµÑģÑĤÐ²Ð¾":3239,"ĠÐ·Ð½Ð°ÐºÐ¾Ð¼":3240,"ÐºÑģ":3241,"Ð²ÐµÑĢÐ³":3242,"Ð¢Ð¾Ð³Ð´Ð°":3243,"ĠÑģÐ²ÑıÐ·Ð¸":3244,"ĠÑĤÐ¾Ð¹":3245,"ĠÐ¿Ð¾Ð½Ð¸Ð¼Ð°Ð»":3246,"ĠÑģÐ¸Ð»ÑĮÐ½ÐµÐµ":3247,"ĠÐ½ÐµÐ½Ð°Ð²Ð¸ÑģÑĤ":3248,"ĠÐºÐ°Ð¶Ð´Ð¾Ð³Ð¾":3249,"ÑģÐ²":3250,"ĠÐ²ÐµÑĩ":3251,"Ð¾ÑģÑħÐ¾Ð´":3252,"ĠÑĤÐ°ÐºÐ¸Ñħ":3253,"ĠÑĥÐºÑĢÑĭÑĤ":3254,"Ġl":3255,"ĠÑĪÐµÐ»":3256,"ĠÑģÐ²Ð¾ÐµÐ¼Ñĥ":3257,"ĠÐ½ÐµÐ²ÐµÑĢ":3258,"ĠÐ²ÑĢÐµÐ·":3259,"ÐµÐºÐ¾ÑĤÐ¾ÑĢÑĭÐµ":3260,"Ð°Ð´Ñĭ":3261,"ĠÐ¡Ð¿":3262,"ĠÐ¿Ð¾ÑģÐ»ÐµÐ´Ð½Ð¸Ðµ":3263,"ĠÐĶÐ°":3264,"Ð¶Ð°Ð»":3265,"ÑıÑīÐ¸Ð¹":3266,"ĠÐłÐ°ÑĦÐµÐ½":3267,"ĠÐ¡Ñĭ":3268,"ĠÐ¾ÑĢÑĥÐ´Ð¸Ñı":3269,"ĠÑģÐ¾Ð¿ÑĢÐ¾ÑĤÐ¸Ð²":3270,"ĠÐºÐ°ÑĤ":3271,"ĠÐ»ÐµÐ³ÐºÐ¾":3272,"ĠÑĥÑģÑĤÑĢÐ¾Ð¹":3273,"ĠÐ´Ð²Ðµ":3274,"ĠÑģÐ°Ð¼Ð¾":3275,"ĠÑĤÐ¾Ð²Ð°ÑĢÐ¸Ñī":3276,"Ð°ÑĥÑĤ":3277,"ÑĢÐ¸Ð½":3278,"Ð¾Ð»ÑĮÐ·Ð¾Ð²":3279,"ĠÐ¿ÑĢÐµÑģ":3280,"ÐµÐ»Ð¾Ð²ÐµÑĩ":3281,"ĠÐ½ÐµÐºÐ¾ÑĤÐ¾ÑĢÑĭÐµ":3282,"ÑĩÐµÑĤ":3283,"ĠÐĵÐ°ÑĢÑĢÐ¾":3284,"ĠÑĥÐ´Ð°ÑĢÐ°":3285,"ĠÐ½Ð°Ð¼ÐµÑĢ":3286,"ĠÐ³ÑĢÑĥÐ±":3287,"ĠÑĢÐ°Ðº":3288,"ĠÑģÑĤÐ°Ð»Ð°":3289,"ĠÐ½Ð°Ð´ÐµÐ¶":3290,"ĠÐºÐ°ÐºÐ¾Ðµ":3291,"Ð¸Ð¸Ð»":3292,"ÐµÐ½ÑĨ":3293,"Ð½Ð´":3294,"ĠÐ¶Ð¸Ð´":3295,"ÐµÐºÐ¸":3296,"ĠÐ¢Ð°Ð¼":3297,"ÑĪÐ¸ÑĢ":3298,"ĠÐ´Ñĥ":3299,"ĠÐŁÐ¾Ð²ÐµÐ»":3300,"Ð²Ð¸Ð´":3301,"Ð³Ð°":3302,"ĠÐ¿Ð¾Ð¹":3303,"ĠÐ·Ð°ÑĪ":3304,"ĠÐ¿Ð¾Ð´Ð±":3305,"ĠÑģÐ¾Ð¼Ð½ÐµÐ²":3306,"ĠÐ¾ÐºÐ°Ð·Ð°Ð»Ð¸ÑģÑĮ":3307,"Ð°Ð´Ð¾Ñĩ":3308,"ĠÐ½Ð°Ð´Ðµ":3309,"ĠÐ½Ð°ÑĪÐµÐ³Ð¾":3310,"ĠÐ¿Ð¾Ð´ÑĢÐ°Ð·":3311,"ĠÑģÐ³":3312,"ĠÐ´Ð¾Ð³":3313,"ĠÐ¾ÑģÑĤÑĢ":3314,"Ð°ÐµÑĤÐµ":3315,"ÑĢÐµÐ´Ð¾ÑĤÐ¾Ñĩ":3316,"ĠÐ½ÐµÐ´Ð¾ÑģÑĤ":3317,"ĠÐºÑĢÐµÐ¹":3318,"ĠÑįÑħ":3319,"ĠÑĥÐ´Ð°ÑĢÐ¸Ð»":3320,"ÑģÑĤÑĢÐ¾Ð¿":3321,"ÑģÑĤÐ²Ð¾Ð²Ð°Ð»Ð¸":3322,"Ð²Ñĥ":3323,"ĠÐ¾ÑģÑĤÐ°Ð»ÑĮÐ½ÑĭÑħ":3324,"ĠÐ¿ÑĢÐµÐ´Ð°ÑĤÐµÐ»ÑĮ":3325,"Ð°Ð²ÑĪÐ¸ÑħÑģÑı":3326,"ĠÐ¿ÑĢÐµÐ´ÐµÐ»":3327,"ĠÑģÑĤÐµÐ½Ðµ":3328,"ĠÐ¼Ð¾Ð´":3329,"ĠÐŁÑĢÐ¸":3330,"Ð¾Ð»ÐµÐµ":3331,"ÑĥÐ¼Ð°Ð½":3332,"ĠÐ¸Ð½ÑĤÐµÑĢÐµÑģ":3333,"ÑĢÐµÐ¼Ñı":3334,"ĠÐĲÐ½Ð³ÐµÐ»Ð¾Ð²":3335,"Ð¾Ð²ÑĭÐ¹":3336,"ÑĨÐ¸Ð¾Ð½":3337,"Ð»ÑĮÑı":3338,"Ð¾ÑĢÑĥ":3339,"ĠÐľÐµÑĢ":3340,"ĠÐºÑĢÐ¸Ñĩ":3341,"ĠÑĤÑĢÐ°Ð½ÑģÐ¿Ð¾ÑĢÑĤ":3342,"Ð°ÐºÑĥ":3343,"ĠÑģÐºÐ¾Ð»ÑĮÐ·":3344,"ĠÐ½Ð°Ð¿ÑĢÑıÐ¶":3345,"ĠÑĢÑĥÐºÐ°":3346,"ĠÐŀÑĢÐ´ÐµÐ½Ð°":3347,"ĠÑĨÐµÐ½ÑĤÑĢÐµ":3348,"ĠÐ¢ÐµÑĢÑĢÑĭ":3349,"ĠÐ¾ÐºÐ°Ð·":3350,"ÑĢÐ°Ð»ÑģÑı":3351,"ÐµÐºÑĤÐ¾ÑĢ":3352,"Ð°ÑĤÐ°ÑĢ":3353,"Ð»ÑıÐ»ÑģÑı":3354,"ĠÐ¼ÑĭÑģÐ»ÑĮ":3355,"Ð¸ÑĢÐ°Ð½Ð¸Ð´":3356,"ĠÐ¿Ð¾ÐºÑĢÑĭÐ²":3357,"Ð¶Ð´":3358,"ÑĢÐ°Ð²Ð½":3359,"ĠÐ¾ÑģÑĤÐ°Ð½Ð¾Ð²Ð¸Ð»ÑģÑı":3360,"ĠÐ¿Ð°Ð¼":3361,"ĠÐ¾Ð³Ð½":3362,"Ð°ÑİÑīÐ°Ñı":3363,"ÐµÑĢÐ½Ð¾":3364,"ĠÐ±Ð¸Ð±Ð»Ð¸":3365,"ĠÐĿÐ¾Ñĩ":3366,"ĠÑĢÐµÐ´":3367,"ĠÐ¾Ð±Ð»Ð°Ñĩ":3368,"ĠÑĢÐ°Ð·Ð´ÐµÐ»":3369,"ĠÐºÐ°ÐºÐ¸Ð¼":3370,"ĠÑĤÐ°ÐºÐ¸Ðµ":3371,"ĠÐ½ÐµÐ±Ð¾":3372,"ĠÐ¿ÐµÑī":3373,"ĠÐ·Ð°Ñĩ":3374,"ĠÑįÐºÐ¸Ð¿Ð°Ð¶":3375,"ĠÐ»ÑİÐ±Ð¾Ð¹":3376,"ĠÐ³Ð¾Ð»Ð¾Ð²Ðµ":3377,"ĠÑĤÐµÐ¿":3378,"Ð»Ð¾Ðº":3379,"ÑĢÐ°ÑĦ":3380,"ÑĢÐ¾ÑĪ":3381,"ĠÐ³Ð»ÑĥÐ±Ð¾ÐºÐ¾":3382,"ĠÐ¾ÑĤÐ´ÐµÐ»ÐµÐ½Ð¸Ñı":3383,"ĠÑĢÐ°ÑģÐ¿ÑĢÐ¾ÑģÑĤ":3384,"ÑĥÑĤÑģÑı":3385,"ĠÐ½Ð¾Ð²ÑĭÐµ":3386,"Ð»ÑĥÑĩ":3387,"Ð²ÐµÑģÑĤ":3388,"ÐĵÑĢÐ¾Ð¼":3389,"ĠÐ¾Ð±Ð¾ÑĢÐ¾Ð½":3390,"ĠÐ¿ÐµÑĢÑĩÐ°ÑĤ":3391,"ĠÑĥÑĪ":3392,"ĠÐºÐ¾ÑĤÐ¾ÑĢÐ¾Ð¼":3393,"ĠÐ¿Ð»ÐµÑĩÐ¾":3394,"ĠÐ¡Ð¼ÐµÑĢÑĤÐ¸":3395,"Ð°Ð½Ð½ÑĭÐ¼":3396,"Ð°ÑĢÐº":3397,"ĠÐ¡Ð¾Ð»":3398,"ĠÑĢÐ°Ð·Ð´Ð°Ð»ÑģÑı":3399,"ĠÐ»ÐµÑģÑĤ":3400,"ÑıÑĤÐµÐ¶":3401,"Ð¸ÑģÑģÐ°ÑĢ":3402,"ĠÐ´Ð¸Ðº":3403,"ĠÐ»Ð¾Ð²":3404,"ĠÐ°Ð½Ð³":3405,"ĠÐ²Ð»Ð°Ð´":3406,"ĠÑģÐ¸ÑĤÑĥ":3407,"ĠÐ³Ð¾ÑĢÐ´":3408,"ÑģÑĤÐ°":3409,"ĠÐ¾ÑĤÑĢÐ°Ð¶":3410,"ĠÐ´Ð²Ð¸Ð¶ÐµÐ½Ð¸Ðµ":3411,"ÑģÑģ":3412,"ĠÑģÐ»Ð¾Ð²Ð¾":3413,"ĠÐ¿Ð¾Ð·Ð¸ÑĨÐ¸Ð¸":3414,"ro":3415,"ÑĢÐµÑĪ":3416,"Ð½Ð¾Ð²ÑĢÐµÐ¼ÐµÐ½Ð½Ð¾":3417,"ĠÐ¿Ð¾Ð¸Ñģ":3418,"ĠÐĴÐ¾Ð¹":3419,"ĠÐ¼ÐµÐ½ÑĮÑĪÐµ":3420,"ĠÐ·Ð½Ð°ÐµÑĤ":3421,"ĠÑģÑĤÑĢÐ°ÑĪ":3422,"ĠÐ¾ÑĤÑĩÐ°ÑıÐ½":3423,"ĠÐ¿Ð»Ð¾ÑīÐ°Ð´":3424,"Ġg":3425,"ĠÑģÑĥÑīÐµÑģÑĤÐ²Ð°":3426,"ĠÐ¿ÑĢÐ¸Ð·ÐµÐ¼":3427,"ÐµÐ½Ð¸ÑıÑħ":3428,"ĠÐ´ÐµÐ¼":3429,"ÐŁÐ¾Ð´":3430,"ĠÐ³Ð»ÑĥÐ¿":3431,"ĠÐĽÐ¾ÑĢ":3432,"ĠÐ²ÑĤÐ¾ÑĢÐ¾Ð¹":3433,"ÑĦÐµÐºÑĤ":3434,"Ð¾Ð¶ÑĢÐµÑĨ":3435,"ĠÑĥÐ±ÐµÐ¶":3436,"ĠÑģÐ¾ÑĤÐ½Ð¸":3437,"ĠÐµÑĢÐµÑĤ":3438,"ÐµÑģÑĤÐ²Ðµ":3439,"Ð¸Ð½Ð°Ð¼Ð¸":3440,"ĠÐ²Ð¾Ð¾Ð±ÑīÐµ":3441,"Ð¾Ð²ÑĭÐ¼":3442,"ĠÐŁÑĢÐµÐ´":3443,"ÐµÐ½Ð½Ð¾Ð¼":3444,"ĠÑħÐ¾ÑĩÑĥ":3445,"Ð°Ð½Ð¸Ñİ":3446,"ĠÐºÑĥÐ·":3447,"ĠÐ²Ð¾Ð·Ð¼Ð¾Ð¶Ð½Ð¾ÑģÑĤÑĮ":3448,"Ð»ÑıÐµÑĤ":3449,"ĠÐŁÐµÑĢ":3450,"ĠÐ²ÑĭÐ¿Ð¾Ð»Ð½":3451,"ĠÐ³ÐµÐ½ÐµÑĢ":3452,"ĠÐ±Ð»Ð¾Ðº":3453,"ĠÐºÑĥÑģÐºÐ¸":3454,"ÑĭÐ»Ð¸":3455,"ĠÐ´ÑĢÑĥÐ³Ð¸Ð¼":3456,"ĠÑıÑĢÐ¾ÑģÑĤ":3457,"ÑģÐºÐ¸Ð¼":3458,"ÑĢÐ°Ð±Ð¾":3459,"ĠÐ¿Ð¾Ð±ÐµÐ¶":3460,"ĠÐ¶ÐµÑģÑĤÐ¾Ðº":3461,"ĠÑĢÐ¾ÑĤÑĭ":3462,"ĠÐ±Ð°Ð»":3463,"ĠÐ³Ð»ÑıÐ´Ñı":3464,"ĠÑĢÐ¸Ñģ":3465,"ĠÑĤÑı":3466,"ĠÐĴÑģ":3467,"Ð¸Ð²ÑĪÐ¸Ñħ":3468,"ĠÐ±ÑĢÐ¾Ð½Ðµ":3469,"Ð°ÑĤÐ¾ÑĢÐ°":3470,"Ð¼Ð¾ÑģÑĦ":3471,"ĠÐºÐ¾Ð½ÐµÑĩÐ½Ð¾":3472,"ĠÐ¿Ð»Ð°Ð½ÐµÑĤÐµ":3473,"ĠÐ¸ÑģÑĤÐ¾Ñĩ":3474,"ĠÐ¿Ð¾ÑħÐ¾Ð¶Ðµ":3475,"Ð°ÑĢÐ¸Ð¾Ð½":3476,"ĠÐºÐ°ÐºÐ¸Ðµ":3477,"ĠÐļÑģ":3478,"Ð»Ð»":3479,"ÐµÑĢÑĤÑĥ":3480,"ÑĥÐ»Ð¸":3481,"ĠÐ¸ÑģÑħÐ¾Ð´":3482,"el":3483,"ÐµÐ³Ð¾Ð´Ð½Ñı":3484,"ĠÐ¿ÑĢÐµÐ²Ð¾ÑģÑħÐ¾Ð´":3485,"ĠÐ¾ÑģÐ²ÐµÑī":3486,"Ð¾Ð²Ð¾Ð»ÑĮÐ½Ð¾":3487,"ĠÑĤÐ¸ÑĪ":3488,"ĠÑģÐ¾Ð±ÑĭÑĤ":3489,"ĠÐ³ÑĢÑĥÐ´ÑĮ":3490,"ĠÐ²ÑĭÑģÐ°Ð´":3491,"ĠÐ·Ð°Ð»Ð¿":3492,"Ð°ÑĢÐ¸Ñı":3493,"ĠÑģÐ¼Ð¾Ð¶":3494,"ĠÐ¿ÑĢÐ¸Ð±Ð»Ð¸Ð·":3495,"ÑĤÐ°Ñī":3496,"ĠÐ¿ÑĢÐ¾Ð±Ð»ÐµÐ¼":3497,"ĠÑĦÐ¾ÑĢ":3498,"Ð¾ÑĢÐ¾Ð´":3499,"Ð°ÑĢÐ°Ð±":3500,"Ð½Ð°ÑĩÐ°Ð»Ð°":3501,"ĠÐ¼Ð½Ð¾Ð¶ÐµÑģÑĤÐ²Ð¾":3502,"Ð°Ð»Ð»":3503,"ĠÑģÐ°Ð¼ÑĭÐ¼":3504,"ĠÐ³Ð¾Ð²Ð¾ÑĢÐ¸ÑĤÑĮ":3505,"ĠÐ½Ð°ÑĢÑĥÑĪ":3506,"ĠÐ¼Ð¸Ð»Ð»Ð¸":3507,"ÑıÑīÐ¸Ðµ":3508,"ĠÐ±Ð»Ð¸Ð·ÐºÐ¾":3509,"ÐµÑĢÑĤÑĥÑĢÐ°Ð±Ð¾":3510,"ÑģÑĥ":3511,"ĠÐ»Ð°Ð´Ð¾Ð½":3512,"ĠÑĤÑī":3513,"Ð°Ð²ÑĪÐ¸ÐµÑģÑı":3514,"ĠÐ±Ð»ÐµÐ´":3515,"ÑĢÐ¸Ð¼":3516,"ĠÐ¿ÑĢÐ¸Ð¶":3517,"ĠÐ¿Ð°Ð»ÑĮÑĨÑĭ":3518,"ĠÐ»Ð¾Ð¶":3519,"\".":3520,"Ð½Ð¸ÐºÐ°Ð¼Ð¸":3521,"ĠÐ¿ÑĢÐ¸Ð´ÐµÑĤÑģÑı":3522,"Ð°Ð»Ð°Ð¼":3523,"ĠÐ¼ÐµÑģÑı":3524,"ĠÐ³Ð°Ð»Ð°ÐºÑĤ":3525,"ĠÐ¿ÑĢÐ¸ÑĪÐµÐ»":3526,"ĠÐ¾ÑĤÑĢÑı":3527,"ĠÐ¾Ð±ÑģÑĤ":3528,"Ð¾Ð·Ð´":3529,"ĠÐºÐ¾Ð¼Ð°Ð½Ð´Ð¸ÑĢ":3530,"ĠÐ²Ð´Ð¾Ð»ÑĮ":3531,"ÐµÐ¼ÑĮ":3532,"ĠÐ¾ÑĤÐ´Ð°Ð»":3533,"Ð¸ÑĩÐµÑģÐºÐ¾Ðµ":3534,"Ð¾Ð·Ð½Ð°Ð²":3535,"ĠÑĤÐ¾Ð±Ð¾Ð¹":3536,"ĠÐ°Ð¿Ð¾ÑĤÐµÐº":3537,"ĠÐ¿Ð¾Ð»Ñı":3538,"ĠÑģÐ¸Ñħ":3539,"ĠÑģÐºÐ¾Ð»ÑĮÐºÐ¾":3540,"ÑĢÐµÐ´Ð½Ð¾":3541,"ĠÐ¿Ð°ÑĤ":3542,"Ð¾ÑģÑĤÐ¾":3543,"ĠÐ½Ð°Ð½ÐµÑģ":3544,"ĠÐ²Ð¸Ð´Ðµ":3545,"ĠÑĤÐ¸ÑħÐ¾":3546,"ĠÐ²Ð½Ð¸Ð·Ñĥ":3547,"ĠÑĥÑģÑĤÑĢÐµÐ¼":3548,"ĠÐĿÐµÑĤ":3549,"ÐĹÐ°":3550,"ÐµÑĢÐ½Ð°":3551,"ĠÑĥÐ²Ð°Ð¶":3552,"Ð¼Ð¾Ð»":3553,"ĠÑģÐ»ÑĥÑĩÐ°Ð¹":3554,"ĠÑģÑĤÐ°ÑĤÑĮ":3555,"ĠÐķÐ¼Ñĥ":3556,"ĠÐŀÐ´Ð¸Ð½":3557,"ÑĥÐ»Ñĭ":3558,"ĠÑģÐ»ÐµÐ´Ð¾Ð²":3559,"ĠÐ¿Ð»Ð°Ð¼ÐµÐ½Ð¸":3560,"ÑıÑİÑī":3561,"ĠÐ¾ÑĢÑĥÐ¶Ð¸ÐµÐ¼":3562,"ĠÑĩÑĥÐ²ÑģÑĤÐ²":3563,"ĠÐ·ÐµÐ¼Ð»Ðµ":3564,"ĠÐĺÐ¼Ð¿ÐµÑĢÐ°ÑĤÐ¾ÑĢÑĥ":3565,"ĠÑĤÑĭÑģÑıÑĩÐ¸":3566,"ĠÐ²ÑĭÐ·Ð²":3567,"Ð¸ÑĤÐ¾":3568,"ĠÐ¾Ð´Ð½Ð¾Ð²ÑĢÐµÐ¼ÐµÐ½Ð½Ð¾":3569,"Ð¸ÑĤÐµÐ»ÑĮÐ½ÑĭÑħ":3570,"Ð¸ÑĢÑĥÑİÑī":3571,"ĠÐ²Ð¾Ð²":3572,"ÑĭÑģÐ»":3573,"Ð¸Ð²Ð°ÑıÑģÑĮ":3574,"ÑĢÐ¸ÑĤ":3575,"ĠÐ·Ð²Ñĥ":3576,"ĠÐ´ÑĢÑĥÐ³Ð¾Ð³Ð¾":3577,"ÑıÑīÐ¸Ñħ":3578,"ĠÐ¾ÑĩÐµÐ²Ð¸Ð´":3579,"ĠÐ¸Ð·Ð²ÐµÑģÑĤÐ½Ð¾":3580,"ĠÐ¿ÐµÑģ":3581,"ĠÐ²Ð¸Ð´Ñĥ":3582,"ĠÐ±Ð»ÐµÑģÑĤ":3583,"ĠÐ¿ÑĭÐ»ÑĮ":3584,"Ð°Ð»Ðµ":3585,"ĠÑģÐ¾ÐµÐ´Ð¸Ð½":3586,"ÑģÑĤÐ¸Ð½":3587,"ĠÐ´Ð½Ñı":3588,"Ġth":3589,"Ð°Ð½Ð³Ð²Ð¸Ð½":3590,"ÑģÐ¿ÑĢÐ¾ÑģÐ¸Ð»":3591,"ĠÐ¥Ð¾ÑĤÑı":3592,"Ð°Ð²Ð»Ð¸Ð²":3593,"ĠÑģÐµÑĢÑĮÐµÐ·":3594,"ÑĥÑģÑĤÐ¸Ð»":3595,"ĠÐ¾Ð±Ðµ":3596,"ĠÐ²Ð¿ÐµÑĢÐµÐ´Ð¸":3597,"ÑĢÐµÑĩ":3598,"ĠÐºÑģÐµÐ½Ð¾Ñģ":3599,"Ð°ÑıÐ²":3600,"ÑģÑĤÐ²ÑĥÐµÑĤ":3601,"ĠÐĽÐ¾ÐºÐµÐ½":3602,"ÐµÐ¸":3603,"Ð½Ð¸Ð»":3604,"ĠÐ±Ð°Ð·":3605,"ĠÑħÐ¾Ð·Ñı":3606,"ĠÐ¿ÑĢÐµÐ´Ð¾ÑģÑĤ":3607,"ĠÐŁÐ¾ÑģÐ»Ðµ":3608,"ĠÐ¼Ð¾Ð»Ð¸ÑĤ":3609,"ĠÐ²Ð¼ÐµÑģÑĤÐ¾":3610,"Ð½Ð°Ð¶":3611,"ĠÐ´ÐµÐ»Ð°":3612,"ĠÐŁÑĢÐ¸Ð¼Ð°ÑĢÑħ":3613,"Ð¸Ð½Ð´":3614,"ĠÐ¿Ð¾ÑĢÐ°Ð¶":3615,"ĠÐłÑĥÑģ":3616,"Ð¸Ð²Ð°Ð»ÑģÑı":3617,"ĠÐ³Ð¾Ð»Ð¾ÑģÐµ":3618,"ĠÐ¢Ð¾Ð»ÑĮÐºÐ¾":3619,"Ð°Ð²ÑĪÐµÐ³Ð¾":3620,"ÐµÐ¿ÑĤÐ°Ð»":3621,"Ð¿ÑĢÐ¾":3622,"Ð¾Ð»Ð½Ðµ":3623,"ĠÐľÐµÐ´":3624,"ĠÐ¼Ð°ÑģÑģÐ¸Ð²":3625,"ĠÑģÑĤÑĢÐ°Ð¶":3626,"Ð°Ð»ÑĮÐ½ÑĭÐ¼":3627,"ÑĥÑģÐ¿":3628,"ĠÐ¼ÑĭÑĪ":3629,"ĠÐ³Ð¾Ð²Ð¾ÑĢÐ¸ÑĤ":3630,"ĠÐºÐµÑĢÐ°Ð¼":3631,"ĠÐ¿Ð¾Ð´ÑĢÐ°Ð·Ð´ÐµÐ»":3632,"ĠÐ¿ÑĢÐµÐ´Ð»Ð¾Ð¶":3633,"ĠÐ½Ð¾Ð³Ð°Ð¼Ð¸":3634,"ĠÐ¸ÑģÐºÐ»ÑİÑĩ":3635,"ĠÑģÐ»ÑĥÐ³":3636,"ĠÐ³Ð¾ÑģÐ¿Ð¾Ð´":3637,"ĠÐ°Ðº":3638,"ÑĢÐ¾Ð½Ð°":3639,"ÑĢÐµÐ´Ð½Ð¾ÑĥÑĤ":3640,"ĠÐ¼ÑĥÑĩ":3641,"ĠÐ¿Ð¾Ð·Ð¸ÑĨ":3642,"ĠÐ²ÑĭÑĪÐµÐ»":3643,"Ð¾Ð»Ð¾":3644,"ÑİÑĩ":3645,"ĠÐ±ÐµÐ´":3646,"ĠÐĳÐµÐ·":3647,"ĠÐ°ÑĤÐ°ÐºÐ¸":3648,"ĠÑĤÐ¾Ð»ÑģÑĤ":3649,"ĠÐºÐ¾ÑĪ":3650,"Ð½Ð¾Ð³Ð¸Ðµ":3651,"ĠÐ¿Ð¾ÐºÐ»Ð¾Ð½":3652,"ĠÐ·Ð°Ð´Ð°Ñĩ":3653,"ĠÐ¿ÑĢÐ¸ÑĩÐ¸Ð½":3654,"ĠÐ¿Ð»Ð°ÑĤÑĦÐ¾ÑĢÐ¼":3655,"ĠÐ¼ÐµÐ»ÑĮ":3656,"ĠÐ¿Ð¾Ð»Ð¾Ð²":3657,"ĠÐ²Ð¾ÑģÑĤ":3658,"ÑİÐ·":3659,"ĠÑĥÑģÑĤÐ°Ð²":3660,"ÐµÐºÑĥ":3661,"ĠÐŃÐº":3662,"ĠÐ¼Ð½Ð¾Ð³Ð¸Ñħ":3663,"ĠÐ®ÑĢÐ³":3664,"Ġ1":3665,"ÑĥÐ¼Ð°":3666,"ĠÐ¿Ð¾Ð¼Ð¾ÑīÐ¸":3667,"ĠÐ¼Ð°ÑĤÐµÑĢÐ¸":3668,"ĠÑĩÐµÑģÑĤÑĮ":3669,"ĠÑĪÐ°ÑĤ":3670,"ĠÐ±Ð¾ÐµÐ²ÑĭÐµ":3671,"Ð¾ÑıÑĤÐµÐ»ÑĮ":3672,"ĠÐ¾Ð·Ð½Ð°Ñĩ":3673,"ÑĢÐ°Ð»Ð¸ÑģÑĮ":3674,"Ð°ÑĢÐ¾Ð²":3675,"ĠÑĥÐ½Ð¸ÑĩÑĤÐ¾Ð¶Ð¸ÑĤÑĮ":3676,"ĠÑĤÐ¸ÑĢÐ°Ð½Ð¸Ð´":3677,"Ð²ÑĭÐµ":3678,"ĠÐ¿ÑĢÐ¾Ð»":3679,"ĠÐ²Ð»Ð°ÑģÑĤ":3680,"ÑĨÐµÐ½ÑĤ":3681,"ĠÐŀÐ³":3682,"Ð¼ÑĥÑĢ":3683,"ĠÐ²ÑĭÑĪÐµ":3684,"ĠÐĴÐ¾ÑĢÐ¾Ð½Ð°":3685,"ĠÐ½ÐµÐ»ÑĮÐ·Ñı":3686,"ĠÑĢÐ°Ð·Ð±Ð¸ÑĤ":3687,"ĠÐĿÐ°Ð´":3688,"Ð°ÑİÑīÐµÐµ":3689,"Ð°ÑĢÐ¿ÐµÐ´":3690,"ĠÐ¿Ð»Ð°Ð¼Ñı":3691,"ĠÐ¼Ð¸ÑĢÐ¾Ð²":3692,"ÑıÑīÐµÐ³Ð¾":3693,"ĠÑĦÐ»Ð¾ÑĤÐ°":3694,"ÑģÐºÐ°Ñı":3695,"Ð°ÑĤÐ¾Ð²":3696,"ĠÐ¿ÑĢÐµÐ²ÑĢÐ°Ñī":3697,"ÑĪÐ¸Ð¼Ð¸":3698,"ĠÐ±ÐµÑĢ":3699,"ĠÐ·Ð½Ð°ÑĩÐ¸ÑĤ":3700,"ÑĢÐµÑģÑĤ":3701,"Ð´Ð°ÑİÑī":3702,"ĠÐ²Ð´ÑĢÑĥÐ³":3703,"ĠÐ´Ð½ÐµÐ¹":3704,"ĠÑģÐºÑĢÑĭ":3705,"ÐµÐ½Ð¾Ñģ":3706,"ĠÐ¼Ð¾Ð¸Ñħ":3707,"ÐµÐºÐµ":3708,"ĠÐ¿ÑĢÐ¾Ð¸Ð·Ð¾ÑĪÐ»Ð¾":3709,"ĠÑģÐ¾Ð¿ÑĢÐ¾Ð²Ð¾Ð¶Ð´":3710,"Ð¸ÑģÑĤÐ¾Ð²":3711,"ĠÐ²Ð¸Ð¶Ñĥ":3712,"ĠÐ£Ð»ÑĮÑĤÑĢÐ°Ð¼Ð°ÑĢ":3713,"ĠÐ´ÑĭÐ¼Ð°":3714,"ĠÐ·Ð°Ð²ÐµÑĢÑĪ":3715,"ĠÑģÐ¼Ð¾Ð¶ÐµÑĤ":3716,"ÑĭÑĩÐ°Ð»":3717,"ĠÐ·ÐµÐ¼Ð»Ð¸":3718,"ĠÑĦÐ¸Ð·":3719,"ĠÐ²ÑģÑĤÑĥÐ¿":3720,"ĠÑĤÑĥ":3721,"ĠÐ´Ð¾ÑģÑĤÐ°Ð²":3722,"ĠÐĿÐµÐºÐ¾ÑĤÐ¾ÑĢÑĭÐµ":3723,"Ð°ÑİÑīÐ¸ÐµÑģÑı":3724,"ĠÐ¿Ð¾Ð·Ð´":3725,"Ð°ÑĤÐ¸Ð²":3726,"ĠÐ²Ð¾ÑģÐ¿Ð¾Ð¼Ð¸Ð½":3727,"ĠÐ´ÑĢÑĥÐ³Ð¾Ð¼":3728,"ĠÐ½Ð°Ñħ":3729,"ĠÐ¢Ð¾ÑĢ":3730,"ĠÐ°ÑĤÐ¼Ð¾ÑģÑĦ":3731,"Ð¾Ð½Ð¾Ð²":3732,"ĠÐ¿ÑĢÐ¾ÑģÑĤÑĢÐ°Ð½ÑģÑĤÐ²Ð¾":3733,"ÑĤÐµÑģÑĮ":3734,"Ð°ÑİÑīÐµ":3735,"ĠÐ´ÑĥÑĪÐ¸":3736,"Ð¾Ð»Ð·":3737,"Ð»ÐµÐ½Ð¸ÐµÐ¼":3738,"ĠÐ²Ð¿ÐµÑĩÐ°ÑĤ":3739,"ÑĢÐ°Ð·Ð´Ð¾":3740,"ĠÐ¾Ð±ÐµÑģÐ¿":3741,"ĠÑģÑĢÐ°Ð²Ð½":3742,"ĠÐ·Ð»Ð¾Ð²":3743,"ĠÐ°ÑĢÑĤ":3744,"ĠÐ¿Ð°ÑĢÑĥ":3745,"Ð»ÐµÐ½Ð½ÑĭÐ¼":3746,"Ð»Ð¸Ð·":3747,"ĠÑĢÐµÐ±":3748,"Ð¸ÑĩÐ½Ð¾":3749,"ĠÑģÐ¼ÐµÑĢÑĤÐµÐ»ÑĮ":3750,"ÐĺÐ½":3751,"ÑĥÐ½Ð´":3752,"Ð¾Ð¸":3753,"ĠÐľÐ¸ÑĢÐ¾Ð²":3754,"ĠÐºÑĢÐµÑģÑĤ":3755,"Ġhis":3756,"ĠÑĤÐ²ÐµÑĢ":3757,"ĠÐ½Ð°ÐºÐ»Ð¾Ð½":3758,"ĠÑĨÐµÐ½ÑĤÑĢ":3759,"ÐµÐ³ÐºÐ°":3760,"ÑĢÐ°Ð¶Ð´Ð°Ð½":3761,"ĠÐ¿ÑĢÐ¸ÑĨÐµÐ»":3762,"ĠÑģÐ°Ð¼ÑĭÐ¹":3763,"ĠÐ¾ÑĢÐ³Ð°Ð½Ð¸Ð·":3764,"Ð°Ð¶Ð´Ñĭ":3765,"ĠÐ¾ÑĤÐ²ÐµÑĩ":3766,"Ð°Ð½Ð½Ð¾Ð³Ð¾":3767,"Ð°Ð²Ð½Ð¾":3768,"Ð¸Ð»Ð»ÐµÑĢ":3769,"Ð»ÐµÐ²":3770,"ĠÑĪÐµÑģÑĤ":3771,"ÑĭÐº":3772,"ĠÐ¾ÑĨÐµÐ½":3773,"ĠÐ¿Ð¾Ð´Ð³Ð¾ÑĤÐ¾Ð²":3774,"ÐŀÐ±":3775,"ĠÑģÐ¸Ð»Ð°":3776,"ĠÐ¼ÑıÐ³":3777,"ĠÐĹÐ´ÐµÑģÑĮ":3778,"ĠÐ¼Ð°ÑģÑĤÐµÑĢ":3779,"Ð¹ÑĤÐ¸":3780,"ĠÑĢÐ¸ÑĤÑĥ":3781,"ĠÐ¸Ð·ÑĥÑĩ":3782,"ĠÑĩÐ°ÑģÑĤÐ¾":3783,"ĠÐºÐ°Ð¼Ð½Ñı":3784,"ĠÐ¿ÑĢÐµÐ´Ð¿Ð¾Ð»Ð¾Ð¶":3785,"ĠÐ¾Ð±ÐµÑĢÐ½ÑĥÐ»ÑģÑı":3786,"ĠÑģÑĤÐ²Ð¾Ð»":3787,"ĠÐ·Ð½Ð°ÐµÑĪÑĮ":3788,"ĠÐºÑĢÑĥÐ¶":3789,"ĠÐ´Ðµ":3790,"Ð¾Ð»Ð°":3791,"Ð¾ÑĤÐ²ÐµÑĤÐ¸Ð»":3792,"ĠÐĶÐ»Ñı":3793,"ĠÐ¾Ð±ÑĭÑĩÐ½Ð¾":3794,"ĠÐ¾Ð±Ð¾":3795,"Ð¸ÑĨÐ°":3796,"ĠÐĳÐ¾ÑĢ":3797,"ĠÐ¿Ð¾ÑģÐ»ÐµÐ´Ð¾Ð²":3798,"ĠÐ¿ÑĢÐ¸Ð½ÐµÑģ":3799,"ĠÐ¾ÑģÑĤÐ°ÑĤ":3800,"ĠÐ¼Ð°Ð³Ð¸ÑģÑĤÑĢ":3801,"Ð¾ÑĢÐ±":3802,"ĠÑģÐ½Ñı":3803,"ĠÑģÑĢÐµÐ´":3804,"ĠÐŀÑĢÐ´ÐµÐ½":3805,"ĠÐ¿Ð¾Ð³ÑĢÑĥÐ·":3806,"ĠÐ²ÑĭÐ½Ñĥ":3807,"ĠÑĤÑĢÐµÑģÐº":3808,"ĠÐ¾ÑĤÐ½Ð¾Ñģ":3809,"ĠÑĪÑĢÐ°Ð¼":3810,"Ð½ÐµÐ»":3811,"ÐµÐ²ÐµÐ»":3812,"ĠÐ¾ÑĤÐ¾ÑĢ":3813,"ÑĥÐ»ÐºÐ°Ð½":3814,"ĠÐ¾ÑĢÐ´ÐµÐ½Ð°":3815,"ĠÐ·Ð²ÐµÐ·":3816,"ÐĿÑĥ":3817,"ĠÑĨÐµÐ½":3818,"ĠÐ·ÑĥÐ±Ñĭ":3819,"ĠÐ¿Ð¾ÑĤÑı":3820,"ÐľÐ½Ðµ":3821,"Ð¸ÑĩÐµÑģÐºÐ°Ñı":3822,"ĠÐ¾Ð¿ÑĭÑĤ":3823,"ĠÐĲÑĢÐ¸Ð¼Ð°Ð½":3824,"Ð°Ð´Ð°":3825,"ĠÐļÐ¸ÑĢ":3826,"ĠÐļÐ°Ð¶Ð´ÑĭÐ¹":3827,"ÑģÐ¾Ð»ÑİÑĤ":3828,"ĠÑĢÐ°ÑģÐºÐ°Ð»":3829,"Ð°ÑĥÐ½":3830,"ĠÐ´ÐµÑģÐ°Ð½ÑĤ":3831,"ĠÐ½ÐµÐ²Ð¾Ð·Ð¼Ð¾Ð¶Ð½Ð¾":3832,"ĠÐ¶ÑĢÐµÑĨ":3833,"ĠÐ¼ÐµÑĪ":3834,"ĠÑģÑĤÐ¾ÑĢÐ¾Ð½Ðµ":3835,"ĠÐ¤ÐµÐ½":3836,"Ð´ÑĥÑĪ":3837,"ĠÑĥÐºÐ°Ð·Ð°Ð»":3838,"ÑıÑĤÐ¸":3839,"ĠÑģÑĤÐµÐ½Ñĥ":3840,"ĠÐºÑĥÐ»ÑĮÑĤ":3841,"ĠÑģÐ»ÐµÐ³ÐºÐ°":3842,"Ð¸ÑĩÐµÑģÐºÐ¸Ð¼Ð¸":3843,"ĠÐ¾ÐºÐ¾Ð½Ñĩ":3844,"ĠÑĢÐµÐ·ÑĥÐ»ÑĮÑĤ":3845,"Ð»Ð°ÑĤ":3846,"ĠÐ²Ð¸Ð½":3847,"ĠÐ¸ÑģÑĤÐ¸Ð½":3848,"ĠÐľÐ°ÑĢÐ´Ñĥ":3849,"ĠÐ²ÑģÑĤÐ°Ð»":3850,"ĠÐºÑĢÐ°Ñİ":3851,"ĠÑĤÐµÐ½":3852,"ÑĥÑīÐ¸Ð¹":3853,"ĠÐºÑĥÐ¿":3854,"Ð¼ÐµÑħ":3855,"ĠÑĤÐµÑħÐ½Ð¾Ð¶ÑĢÐµÑĨ":3856,"ĠÐ¿ÑĤ":3857,"ĠÐ½Ð°Ð·Ð²":3858,"ÐµÑĢÑĭÐ²":3859,"ĠÐ·Ð°Ð¼ÐµÑĩ":3860,"ĠÑıÑĢÐ¾ÑģÑĤÐ¸":3861,"Ð¾ÑħÐ¾Ð¶Ðµ":3862,"ĠÑĢÐ°Ð½ÐµÐ½":3863,"ÑĢÑĥÑĩ":3864,"Ð»ÐµÐ½Ð½Ð¾Ð¹":3865,"ĠÐºÑĢÐµÑģ":3866,"ĠÑģÐ»ÑĥÑĪ":3867,"ĠÐ³ÑĢÐ¾Ð·":3868,"ĠÐ¼Ð¾Ð³ÑĥÑĩ":3869,"ĠÐ°ÑģÑĤÑĢÐ¾Ð¿":3870,"ĠÐ¾ÑģÐ»ÐµÐ¿":3871,"ÑģÑĤÐ²Ð¾Ð²Ð°Ð»Ð°":3872,"Ð½ÑĥÑĤÑĢÐ¸":3873,"ĠÐ°ÑĤÐ°ÐºÑĥ":3874,"ĠÐ¾Ð±Ð½Ð°Ð¶":3875,"ĠÑĢÐ°Ð·Ð²ÐµÑĢÐ½ÑĥÐ»ÑģÑı":3876,"ÐµÐ¾Ð½":3877,"ĠÐ¾ÑģÑĤÐ°Ð²Ð°Ð»Ð¾ÑģÑĮ":3878,"ĠÐ½Ð¸ÐºÐ°ÐºÐ¸Ñħ":3879,"ĠÑĤÑĢÐµÑħ":3880,"ĠÐĸÐµÐ»ÐµÐ·Ð½ÑĭÑħ":3881,"ÑĢÑĥÑģÑĤ":3882,"ĠÐ´ÐµÑģÐ°Ð½ÑĤÐ½Ð¸ÐºÐ¾Ð²":3883,"ĠÐ³Ð¾ÑĢÐ°Ð·Ð´Ð¾":3884,"ac":3885,"ĠÐ²ÑĭÑĤ":3886,"ĠÑģÐ¾Ð·Ð´Ð°Ð½":3887,"ĠÐĴÐµÐ»Ð¸ÐºÐ¾Ð³Ð¾":3888,"ĠÑģÐ¾Ð¶":3889,"ĠÐ¡Ð¸Ð³":3890,"Ð¾Ð»Ð¾Ñģ":3891,"Ð¸Ð´ÐµÑĤ":3892,"ĠÐ¨ÑĤ":3893,"Ġe":3894,"ÑĤÐ¾Ð½Ð¾Ñģ":3895,"ĠÐ¿Ð¾Ð½Ð¸Ð¼Ð°Ñİ":3896,"ĠÐ²ÑĭÑĪ":3897,"ĠÐĺÐ½ÐºÐ²Ð¸Ð·":3898,"Ð°Ð²Ð°Ð»":3899,"ĠÐ¾ÑĩÐµÑĢÐµÐ´ÑĮ":3900,"ÐºÐ°Ð´":3901,"ĠÑģÐºÑĢÑĭÑĤ":3902,"ĠÑĢÐµÐ°Ðº":3903,"ĠÐºÐ¾Ð¼Ð°Ð½":3904,"ĠÑĤÑıÐ¶ÐµÐ»Ð¾":3905,"Ð»Ð°Ð¶":3906,"ĠÑĥÐ±ÐµÐ´":3907,"ÐµÐ»ÐµÑĤ":3908,"Ð¹Ð´":3909,"ĠÐŀÐ½Ð¾":3910,"ĠÐ²Ð¾ÑģÑģÑĤÐ°Ð½Ð¾Ð²":3911,"Ð°Ð½Ð½Ð¾Ðµ":3912,"ĠÐ¼ÑĥÐ¶Ñĩ":3913,"ĠÐ¼Ð¾Ð¶ÐµÑĪÑĮ":3914,"Ð¸Ð²Ð¾":3915,"ÑģÑĤÐ²Ð¸Ð¸":3916,"ĠÑĥÐºÐ°Ð·ÑĭÐ²":3917,"ĠÐĲÑĢÐ¼":3918,"ĠÐ¾Ð³ÑĢÐ¾Ð¼Ð½ÑĭÐµ":3919,"ĠÐ±ÑĢÐ¾ÑģÐ¸Ð»ÑģÑı":3920,"Ð¾ÑĩÐµÐ¼":3921,"ĠÐ·ÐµÐ»ÐµÐ½Ð¾ÐºÐ¾Ð¶":3922,"im":3923,"Ð¿Ð¸ÑģÑĤÐ¾Ð»ÐµÑĤ":3924,"Ð¾ÑĢÐ¼Ð¾ÑĤ":3925,"ĠÐ·Ð½Ð°Ð¼":3926,"ĠÑģÐºÐ¾ÑĢÐ¾":3927,"ĠÑģÐºÐ»Ð°Ð´":3928,"ĠÐ¸Ð½ÑģÑĤÑĢÑĥ":3929,"ĠÑģÑĥÑīÐµÑģÑĤÐ²":3930,"ĠÐĴÐ¾Ð»Ñĩ":3931,"ĠÐ´ÐµÐ¹":3932,"Ð»ÑİÐ´":3933,"ĠÑĤÑĢÐµÐ±Ð¾Ð²":3934,"ÑĥÐ¶Ðµ":3935,"Ð²Ð°Ñĩ":3936,"Ð¸Ð½Ð°Ñħ":3937,"ĠÑįÑĦÑĦÐµÐºÑĤ":3938,"Ð»ÐµÑĤÐµÐ»":3939,"ÑĩÐµÑĢ":3940,"Ð¸Ð²Ð°ÑĤÑĮÑģÑı":3941,"ĠÑĥÐ·Ð½Ð°Ð»":3942,"ĠÑĢÐ°Ð·Ð³Ð»ÑıÐ´":3943,"Ð¸Ð´ÑĨ":3944,"Ð»Ð°Ð²Ð°":3945,"ĠÐ¾Ð±Ð°":3946,"ĠÐºÐ°Ñģ":3947,"ĠÐ¿Ð¾ÑģÑĤÐ¾ÑıÐ½Ð½Ð¾":3948,"ĠÐ²Ð¿Ð¾Ð»Ð½Ðµ":3949,"ĠÐ±Ð»Ð°Ð³Ð¾Ð´Ð°ÑĢÑı":3950,"ÑĢÐ¾Ð¶":3951,"ĠÐ¿Ð¾ÐºÐ¸Ð½Ñĥ":3952,"ĠÑĩÐµÑĤÑĭÑĢÐµ":3953,"ĠÐ¿ÐµÑĢÐµÐ¶":3954,"ĠÐºÐ¾Ð»ÑĮ":3955,"ĠÑįÐ½ÐµÑĢÐ³ÐµÑĤ":3956,"ĠÐ¿Ð»Ð°Ð½ÐµÑĤÑĥ":3957,"ĠÐ¶Ð¸Ð´Ðº":3958,"ĠÐ¿Ð»Ð¾Ñħ":3959,"ĠÐŃÑĤÐ¸":3960,"ĠÐ±ÑĭÑģÑĤÑĢÐµÐµ":3961,"ĠÑģÐµÑĢÐ¶Ð°Ð½ÑĤÐ°":3962,"ĠÐĺÑģÐ¿":3963,"ĠÑģÑĤÐ°Ð½ÐµÑĤ":3964,"ĠÐ½ÐµÐ¼ÐµÐ´Ð»ÐµÐ½Ð½Ð¾":3965,"ĠÑıÑĢÐ¾ÑģÑĤÑĮ":3966,"ĠÐ¿ÐµÐ¿":3967,"Ð´ÐµÑģÑıÑĤ":3968,"ĠÐºÐ¾ÑĤÐ¾ÑĢÑĭÐ¼Ð¸":3969,"ĠÐ¾Ð±ÑĬÑıÑģÐ½":3970,"il":3971,"us":3972,"ÐµÐ¶Ð½ÐµÐ¼Ñĥ":3973,"ĠÑĤÑĢÑĥÐ´Ð¾Ð¼":3974,"ĠÐ½Ð°ÑĪÐµÐ¹":3975,"ĠÑĩÑĤÐ¾Ð±":3976,"ĠÑĢÐ°ÑģÐ¿ÑĢÐ¾ÑģÑĤÑĢÐ°Ð½":3977,"ĠÐ¢Ð¾":3978,"ĠÐĴÐ°Ð»":3979,"ĠÐĴÐ¾ÑĤ":3980,"ĠÐłÐ¾ÑģÑģ":3981,"ĠÐ£Ð»ÑĮÑĤÑĢÐ°Ð´":3982,"ĠÐļÐ°Ð¹":3983,"ÑĥÑĩÐ¸":3984,"ĠÐ¢Ð°Ð»Ð¾Ñģ":3985,"Ð°Ð¼ÐµÐ½ÑĤ":3986,"Ð¸Ð²Ð°ÑİÑĤ":3987,"ĠÐ¿ÑĥÑģÑĤÑĭ":3988,"ĠÐ¡Ð°Ð¼":3989,"ĠÑģÑĤÑĢÐµÐ»Ñı":3990,"ad":3991,"ĠÐ·Ð°Ð¿Ð¾Ð»Ð½":3992,"ÑĢÑıÑĤ":3993,"ĠÐ½Ð°Ð·ÑĭÐ²":3994,"ĠÐĲÐ»Ð°ÑĢÐ¸Ðº":3995,"ÑĪÑĤ":3996,"ĠÐ²ÐµÑĢÑĪ":3997,"ĠÐ¾ÑģÑĤÐ¾ÑĢÐ¾Ð¶Ð½Ð¾":3998,"ĠÐºÐ¾Ñģ":3999,"Ð¾Ð¶Ð¸Ð»":4000,"ĠÐĿÐ¾ÑĩÐ¸":4001,"ÑīÐ°":4002,"ĠÐ³ÐµÑĢ":4003,"ÑģÐºÐ°Ð·ÑĭÐ²":4004,"ĠÑĢÐ°Ð·Ð²ÐµÐ´":4005,"ĠÑģÐ°Ð¼Ð¸":4006,"Ð°Ð»Ð¸Ð·":4007,"ĠÐ³ÑĢÐ°Ð¶Ð´Ð°Ð½":4008,"ĠÐ¾Ð´Ð½Ð¾Ð¼":4009,"ic":4010,"ÑģÑĤÑĢÑĭ":4011,"ĠÑģÐ²Ð¸Ð´ÐµÑĤ":4012,"ĠÐ¼ÐµÑĩÐ°":4013,"ĠÐ¼ÑıÑĤÐµÐ¶":4014,"ĠÐ´ÐµÐ¹ÑģÑĤÐ²Ð¸Ñı":4015,"ĠÐºÐ°ÑĩÐµÑģÑĤÐ²Ðµ":4016,"ĠÐ½ÑĢÐ°Ð²":4017,"ĠÐ¿Ð¾ÑģÑĤÐ°Ð²":4018,"ĠÑģÐ¾ÑģÑĤÐ¾ÑıÐ½Ð¸Ð¸":4019,"Ð¸Ð³Ð¾ÑĤÐ¾Ð²":4020,"ĠÑģÑĤÑĢÐ°ÑħÐ°":4021,"ĠÐŁÐµÑĢÑĤÑĥÑĢÐ°Ð±Ð¾":4022,"Ð¿ÐµÑĢÐµÐ´":4023,"ĠÐ¿Ð»ÐµÐ½":4024,"Ð±Ðµ":4025,"Ð¸ÑĢÐ°Ñı":4026,"ĠÐ²Ð·ÑıÐ»":4027,"ĠÑģÐ²ÑıÐ·ÑĮ":4028,"ĠÐ¼Ð¾Ð¼ÐµÐ½ÑĤÐ°":4029,"ĠÐ¿Ð¾Ð¼Ð¾ÑīÑĮ":4030,"ĠÐ½ÐµÑĢÐ²":4031,"Ð³Ð»Ð°Ð²":4032,"ĠÐ±ÐµÑģÐºÐ¾Ð½ÐµÑĩ":4033,"ĠÑĢÐ°ÑģÑģÑĤÐ¾ÑıÐ½":4034,"Ð¡Ð¿":4035,"ĠÐ´ÐµÑģÑıÑĤÑĮ":4036,"ĠÑģÐ¼ÐµÐ½":4037,"ĠÐºÐ¾Ð½ÑĤÑĢÐ¾Ð»":4038,"ĠÑĪÐ°Ñħ":4039,"Ð»ÑıÐ½":4040,"ÐµÐºÐ¾Ð¼":4041,"ĠÐ³ÑĢÐ¾Ð¼Ð°Ð´":4042,"ĠÐ¿Ð¾Ð½ÑıÑĤ":4043,"ĠÐ»Ð¸ÑĨÑĥ":4044,"ĠÑģÑĦ":4045,"Ð»ÑĥÐ±":4046,"Ð¸Ð²ÑĪÐ¸Ðµ":4047,"ĠÐ¾Ð¶Ð¸Ð´Ð°Ð»":4048,"ĠÐ½ÐµÐ¿ÑĢÐ¸ÑıÑĤ":4049,"ĠÑģÐ¾Ð³Ð»Ð°ÑģÐ¸Ð»ÑģÑı":4050,"ÐµÑĢÐ¿":4051,"ĠÐ½Ð°ÑħÐ¾Ð´Ð¸Ð»ÑģÑı":4052,"ĠÑįÐ»ÐµÐº":4053,"Ð½Ð°ÑĩÐµ":4054,"Ð¿ÑĢÐµÐ¶Ð½ÐµÐ¼Ñĥ":4055,"ĠÑĢÐ²Ð°Ð½":4056,"Ð»Ð°ÑģÑĮ":4057,"ĠÐ´Ñİ":4058,"ĠÐ¿Ð¾ÑģÐ¿":4059,"ĠÐĳÑĭ":4060,"ĠÑĢÐ°Ð½Ñĭ":4061,"Ġ*":4062,"Ð¾ÑĤÐµ":4063,"ĠÐ¿Ð¾Ð´Ð¾ÑĪÐµÐ»":4064,"Ð¸Ð²ÑĪÐ¸ÑħÑģÑı":4065,"ĠÐ¾ÑģÑĤÐ°Ð»ÑģÑı":4066,"ĠÐ¾Ð±Ð»ÐµÐ³":4067,"ĠÐĺÐ¼Ð¿ÐµÑĢÑģÐºÐ¾Ð¹":4068,"ĠÐ¼Ð½Ð¾Ð³Ð¾ÑĩÐ¸Ñģ":4069,"ĠÐĻ":4070,"Ð°ÑİÑīÑĥÑİ":4071,"ĠÐ²Ð¾ÑĢÐ¾ÑĤ":4072,"ĠÐ½ÐµÑĢ":4073,"ĠÐ¾ÑĤÐ¼ÐµÑĤ":4074,"Ð¼Ð¸ÑĢ":4075,"Ð¾Ð»Ð³Ð¾":4076,"ÑĢÐ¾Ð´Ðµ":4077,"ĠÐ½Ð°Ð¹Ð´":4078,"ĠÐ¾Ð±Ð¸ÑĤ":4079,"ĠÑĢÑĥÐºÐ¾":4080,"Ġhe":4081,"ĠÑģÑĤÑĢÐµÐ»ÑĮ":4082,"ĠÐ²Ð¾Ð·Ð´ÑĥÑħÐ°":4083,"ĠÐ¶Ð°ÑĢ":4084,"Ð²Ð¾Ðµ":4085,"ÑĪÑĥÑİ":4086,"ĠÐ¿ÐµÑĢÐ²ÑĭÐ¼":4087,"ĠÑģÐ¾ÑģÑĢÐµÐ´Ð¾ÑĤÐ¾Ñĩ":4088,"ĠÐºÑĢÑĭÑĪ":4089,"Ð½Ð¸ÑĤ":4090,"ÐµÑģÐºÐ¾Ð»ÑĮÐºÐ¾":4091,"ÐµÐ½ÐµÑĢ":4092,"ĠÐ³ÑĥÑģÑĤ":4093,"ĠÐļÑĢÐ¾Ð²Ð°Ð²ÑĭÑħ":4094,"ĠÐŁÐ¾Ð¶Ð¸ÑĢ":4095,"ÑĮÐ¼Ð¸":4096,"ĠÐºÑĢÐ°Ñı":4097,"ĠÐĽÐ¾ÑĢÐ´":4098,"Ð¿ÑĢÐ¾ÑĩÐµÐ¼":4099,"ĠÐĿÐµÑģÑĥÑīÐ¸Ñħ":4100,"Ð½Ð°Ð¼Ð¸":4101,"ĠÐ±ÑĥÐ´ÐµÐ¼":4102,"ĠÐ¿Ð¾Ð¹Ð¼":4103,"ĠÐ²Ð¾Ð·Ð¼Ð¾Ð¶Ð½Ð¾ÑģÑĤÐ¸":4104,"ÑıÐµÑĤ":4105,"ĠÐĿÐ¸":4106,"ÑĢÐ°Ð½Ð¸Ñĩ":4107,"ÑĥÑİÑīÐ¸Ð¹":4108,"ĠÐ¾ÑħÐ²Ð°ÑĤ":4109,"\",":4110,"ĠÐ½Ð°Ð±Ð»ÑİÐ´Ð°Ð»":4111,"ĠÐļÐ¾ÑĢÐ°ÐºÑģ":4112,"ĠÐ¾ÑģÑĤÐ°Ð»Ð¸ÑģÑĮ":4113,"ĠÐºÑĢÐµÐ¿Ð¾ÑģÑĤÐ¸":4114,"Ð³Ð¸":4115,"Ð²ÑĭÑĢ":4116,"Ð¸Ð»ÑĮÐ½Ð¾":4117,"Ð»ÐµÑģÑĤ":4118,"ĠÐĲÐ±":4119,"ĠÑģÐ¿ÑĢÐ¾ÑģÐ¸Ð»Ð°":4120,"ĠÐ¸ÑģÑģ":4121,"ĠÐ¿ÑĢÐµÐ´Ð¿Ð¾Ñĩ":4122,"ĠÐ²ÐµÐ»":4123,"ĠÐļÐ¾Ð½":4124,"ĠÑģÐ¿ÐµÑĨ":4125,"ĠÐºÐ»ÐµÑĤ":4126,"ĠÑħÑĥÐ´":4127,"ĠÐĳÑĢÐ¾Ð½":4128,"ĠÑģÐ°Ð¼ÑĭÐµ":4129,"ĠÐºÐ¾Ð½ÑĨÐ¾Ð²":4130,"ĠÐ¸Ð½ÑĦ":4131,"ĠÐ·Ð´Ð°Ð½Ð¸Ñı":4132,"Ð»ÑıÐ»Ð¸ÑģÑĮ":4133,"Ð¢ÐµÐ¿ÐµÑĢÑĮ":4134,"ĠÑģÐ¼ÐµÑĢÑĤÐ¾Ð½Ð¾Ñģ":4135,"Ð¦":4136,"ĠÐ¸ÑģÑĤÑĢÐµÐ±":4137,"ĠÐ¿Ð¾ÐºÐ°Ð·ÑĭÐ²":4138,"ĠÐ´Ð¾Ð»Ð¶Ð½Ð°":4139,"ĠÑĩÑĥÐ²ÑģÑĤÐ²Ð¾":4140,"ĠÐ°ÑĢÑĤÐ¸Ð»Ð»ÐµÑĢ":4141,"Ð°ÑĤÐ¸":4142,"ĠÐ²ÑģÐºÐ¾ÑĢÐµ":4143,"ĠÐ°Ð²ÑĤÐ¾Ð¼":4144,"ĠÑģÐµÑģÑĤ":4145,"ÑĤÐ¾ÑĢÐ¼":4146,"ĠÐ¾ÑĤÐ²ÐµÑĤÐ¸Ð»Ð°":4147,"ÑĥÐµÐ¼":4148,"ĠÑĢÐ°ÑģÑģÐµ":4149,"Ð»ÐµÐ½Ð¸Ð¹":4150,"ĠÐ³Ð¾Ð²Ð¾ÑĢÑı":4151,"ĠÐºÐ¾Ð¼Ð¿Ð»ÐµÐº":4152,"ÑĤÐ°ÑĢ":4153,"Ð¾ÑĢÑıÐ´":4154,"ĠÑĪÐ»Ð¸":4155,"ÑİÑĪ":4156,"ÐµÐ´Ð»":4157,"Ð»ÐµÐ½Ð½Ð¾Ð³Ð¾":4158,"Ð¼Ð°ÑĤÑĢ":4159,"ÐļÐ¾Ð½ÐµÑĩÐ½Ð¾":4160,"ĠÐ·Ð½Ð°Ð»Ð¸":4161,"ÑĭÑģÐº":4162,"ĠÑģÐ´":4163,"Ð¾Ð»ÑĮÑĪÐµ":4164,"Ð½ÑıÐºÐ°":4165,"ĠÑĤÐµÑĢÐ¿":4166,"ĠÐ¡Ð°Ð½Ð³Ð²Ð¸Ð½":4167,"ĠÐ´Ð²ÑĥÐ¼":4168,"ĠÐ¿ÑĢÐ¾ÑĪÐµÐ»":4169,"Ð°Ð½Ðµ":4170,"Ð°ÐµÐ¼ÑģÑı":4171,"Ð¼Ð¾Ð»Ð²":4172,"ĠÐ´Ð°ÑĢ":4173,"Ð½Ð¸ÑĨÐ°":4174,"ĠÐ·Ð°Ð»Ð°":4175,"ÐµÐ¶Ð°ÑĤÑĮ":4176,"ĠÐ¾ÐºÐ°Ð·Ð°Ð»Ð¾ÑģÑĮ":4177,"ĠÑĩÑĳÑĢ":4178,"ĠÐĴÐ¾Ð»ÐºÐ¾Ð²":4179,"ÑģÑİÐ´Ñĥ":4180,"ĠÐľÐµÑħÐ°Ð½Ð¸ÐºÑĥÑģ":4181,"ĠÐ¿Ð¾ÑĢÐ°Ð·":4182,"ĠÐ°Ð±ÑģÐ¾Ð»ÑİÑĤ":4183,"ÑĤÐ°Ð»":4184,"Ð¿ÑĢÐ¾Ð¸Ð·Ð½ÐµÑģ":4185,"ĠÐºÐ¾Ðµ":4186,"ĠÐ²ÑĢÐ°Ñī":4187,"ÑĥÑĪÐºÐ°":4188,"ĠÑĢÐ°Ð·Ð´ÑĢÐ°Ð¶":4189,"ĠÐ¸ÑģÐ¿Ð¾Ð»ÑĮÐ·Ð¾Ð²Ð°ÑĤÑĮ":4190,"ĠÐ¸Ð´ÑĤÐ¸":4191,"ĠÐ¼Ð¾Ð»Ð½":4192,"ĠÑĤÐµÐ½ÑĮ":4193,"ĠÑĤÑĢÐµÑī":4194,"Ð¸Ð²ÑĪÐ¸Ð¹":4195,"ĠÐ´Ð¾ÑģÐ¿ÐµÑħÐ¾Ð²":4196,"ÑģÑĤÐ¸":4197,"ĠÑģÑĥÑīÐµÑģÑĤÐ²Ð¾Ð²":4198,"ĠÐ¿Ð¾ÑģÑĤÑĢÐ¾":4199,"ĠÐļÑĢÐ¾Ð²":4200,"ĠÐ¿ÑĢÐ¸ÑĤ":4201,"ĠÐ²ÑĭÑĤÐ°Ñī":4202,"Ð¸ÑĤÐµÐ»ÑĮÐ½Ð¾Ð³Ð¾":4203,"ĠÐĺÑģ":4204,"ĠI":4205,"ĠÐ·Ð°ÑıÐ²":4206,"ĠÐĶÑĥÑĪ":4207,"ÑģÑĤÐ²ÐµÐ½Ð½Ð¾":4208,"ĠÑģÐ»ÐµÐ´ÑĥÐµÑĤ":4209,"ĠÐ¿ÐµÑĩ":4210,"Ð¾Ð³Ð¸":4211,"ĠÐ±ÑĥÐ´Ñĥ":4212,"ĠÐ½Ð°ÑĢÑĥÐ¶":4213,"ĠÐļÑĤÐ¾":4214,"Ð¾ÑĢÐ½Ð°":4215,"ĠÐºÐ°Ð·":4216,"ĠÐºÐ¾Ð»Ð´Ñĥ":4217,"ĠÑĩÐ»ÐµÐ½":4218,"Ð¾ÑĢÐ¾ÑĪÐ¾":4219,"ĠÑģÐ¿Ð¸Ð½Ñĥ":4220,"ĠÐ³Ð¾Ð»Ð¾Ð²Ð°":4221,"ĠÐ¿ÑĭÐ»Ð¸":4222,"ĠÐ´Ñĭ":4223,"ĠÐ·Ð°Ð´ÐµÑĢÐ¶":4224,"ĠÑģÐ¾ÑĢÐ²":4225,"Ð¸ÑĩÐµÑģÐºÑĥÑİ":4226,"ĠÐ·Ð°ÐºÑĢÐ¸ÑĩÐ°Ð»":4227,"ĠÑģÑĤÐ°ÑĢÐ°ÑıÑģÑĮ":4228,"ĠÐ¸Ð½ÐºÐ²Ð¸Ð·Ð¸ÑĤÐ¾ÑĢÐ°":4229,"ĠÑĩÐµÑĤÐ²ÐµÑĢ":4230,"Ð°ÐºÐ¾Ð½ÐµÑĨ":4231,"ĠÐ¿ÑĢÐ¾Ð¸ÑģÑħÐ¾Ð´Ð¸ÑĤ":4232,"ĠÐ¼Ð¸ÑģÑģ":4233,"ĠÑĪÐµÑģÑĤÑĮ":4234,"ĠÑħÐ¸Ñī":4235,"ÑıÐ»Ð¾":4236,"Ð¸Ð¼Ð¾Ð¹":4237,"ÐĴÐ¾ÑĤ":4238,"Ð¸Ð¼ÑĭÐ¹":4239,"Ð°Ð´Ð¾Ð±":4240,"ĠÑĢÑıÐ´Ñĭ":4241,"ĠÐ²ÑĭÑĢÐ°Ð¶":4242,"ĠÑģÑĤÑĢÐ°Ð´":4243,"Ð³Ð¾Ð²":4244,"ĠÑģÐ»ÑĥÑĩÐ¸Ð»Ð¾ÑģÑĮ":4245,"ÐµÑĪÐµ":4246,"ĠÐ¡Ð°ÑĢÐ¿ÐµÐ´":4247,"ĠÐ¸ÑģÐ¿Ð¾Ð»Ð½":4248,"ĠÐ¾ÑĤÐ²ÑĢÐ°ÑĤ":4249,"ĠÐ´ÑĭÑħÐ°Ð½Ð¸Ðµ":4250,"ĠÑĥÑģÐº":4251,"ĠÐ¡ÐµÐ¹ÑĩÐ°Ñģ":4252,"ĠÐĶÑĢÑĥÐ³":4253,"ĠÐ¼ÐµÑĩÐ¾Ð¼":4254,"ĠÑĢÐ°Ð·Ð³Ð¾Ð²Ð¾ÑĢ":4255,"ĠÑģÐ¾Ð´ÑĢÐ¾Ð³":4256,"Ð¾Ð»Ð¾Ñĩ":4257,"ÑĤÐµÐ½Ð°Ð½ÑĤ":4258,"ĠÐĿÐ°Ð¼":4259,"ĠÐ³ÑĢÑĥÐ¿Ð¿Ñĭ":4260,"ĠÑĢÑĭÑĩ":4261,"ĠÐ»Ð¾ÑĢ":4262,"Ð³Ð¾ÑĢ":4263,"ĠÐŁÐ¾ÐºÐ°":4264,"ÑĳÐ´":4265,"ĠÐºÐ°Ð¶Ð´Ð¾Ð¹":4266,"ĠÐ´Ð²Ð¸Ð³Ð°ÑĤÐµÐ»ÐµÐ¹":4267,"ĠÑĥÐ´Ð°ÑĢÐ¾Ð¼":4268,"ĠÐ¿ÑĢÐ¾Ð´Ð¾Ð»Ð¶Ð¸Ð»":4269,"Ð¾Ð±ÑĢ":4270,"ĠÐ²ÑĭÐ´ÐµÑĢÐ¶":4271,"ÑģÑĤÑĢÐµÑĩ":4272,"ĠÐ³ÐµÐ½ÐµÑĤ":4273,"ĠÐ±ÐµÐ·Ð¾Ð¿Ð°ÑģÐ½Ð¾ÑģÑĤÐ¸":4274,"ĠÐĿÐµÐ¼":4275,"ĠÐľÐ¾ÑĢ":4276,"Ð¼ÐµÑĢÑĤ":4277,"ĠÑģÐ¿ÑĥÑģÑĤÑı":4278,"ĠÑĤÐ²Ð°ÑĢÐ¸":4279,"ĠÐ¸Ð³ÑĢ":4280,"ĠÐ³Ð¾Ð»Ð¾ÑģÐ°":4281,"ĠÐ³ÑĢÐ°Ð²":4282,"ĠÐ¤ÐµÑĢ":4283,"ĠÐŃÑĤÐ¾ÑĤ":4284,"ĠÑĢÐ°Ð±Ð¾Ñĩ":4285,"ĠÐ¿ÑĢÐ¸Ð²ÐµÑĤ":4286,"ĠÐ¿Ð¾Ð´Ð°Ð²":4287,"ĠÐ¿Ð¾Ð»ÑĥÑĩÐ¸Ð»":4288,"ĠÐ¿ÑĢÐ¸ÐºÐ°Ð·Ñĭ":4289,"Ð»Ð°Ð¼":4290,"ĠÐ²ÑĢÐ¾Ð´Ðµ":4291,"Ð¾Ð´Ñĥ":4292,"Ð°Ð¼ÐµÑĤ":4293,"ĠÐĺÐ»Ð¸":4294,"ÐļÐ°Ð¿Ð¸ÑĤÐ°Ð½":4295,"ĠÐķÑīÐµ":4296,"ÑĥÑīÐµÑģÑĤÐ²Ð¾":4297,"ĠÐ»Ð¸Ð½Ð¸Ð¸":4298,"Ð¾Ð¹Ð´ÐµÑĤ":4299,"Ð°Ð»Ð°Ð¼Ð°Ð½Ð´":4300,"Ð»ÐµÐ½Ð¸Ñİ":4301,"ĠÐºÑĢÐ°ÑĤ":4302,"ĠÑĤÑĢÐµÐ½":4303,"ĠÑģÐ¾Ð¾ÑĤÐ²ÐµÑĤ":4304,"ÑĥÐµÑĤÑģÑı":4305,"Ð¸Ð¼ÐµÑĤ":4306,"ĠÑģÐ¼ÐµÑĪ":4307,"ĠÑįÐ¼Ð¾":4308,"ĠÐ£ÑĢÐ¸ÑįÐ»ÑĮ":4309,"ĠÐ¿ÑĢÐ¸ÑĪÐ»Ð¸":4310,"ĠÐ¼Ð³Ð½Ð¾Ð²ÐµÐ½Ð½Ð¾":4311,"ĠÑħÐ¾ÑĤÐµÐ»Ð¾ÑģÑĮ":4312,"ÐµÐ¹Ð»":4313,"Ð·ÐµÐ¼":4314,"ĠÐ·Ð°ÑģÐ»ÑĥÐ¶":4315,"ĠÐ¼Ð¸ÑĢÐµ":4316,"Ð»Ð°Ð³Ð¾Ð´Ð°ÑĢ":4317,"ĠÐ´ÑĢÐµÐ´Ð½Ð¾ÑĥÑĤ":4318,"ĠÑģÐ»ÑĥÑħ":4319,"Ð»Ð°Ð½ÑĤ":4320,"ĠÐ²Ð¸Ð´ÐµÐ»Ð¸":4321,"ĠÐķÐµ":4322,"ÂłÂłÂł":4323,"Ð¸Ð¼ÑĭÐ¼":4324,"ĠÐ±Ð¾Ð¼Ð±":4325,"ĠÐĹÐ°ÑħÐ°ÑĢÐ¸":4326,"ĠÑĤÐµÑĩÐµÐ½Ð¸Ðµ":4327,"ĠÐ¼Ð°Ð»ÑĮ":4328,"Ð¿ÑĥÑĢ":4329,"ĠÐ¾ÑĤÐºÑĥÐ´Ð°":4330,"ĠÐ¿ÑĢÐ¸ÑħÐ¾Ð´Ð¸Ð»Ð¾ÑģÑĮ":4331,"ĠÐŀÐ¼":4332,"ĠÐ²Ð¾Ð·Ð»Ðµ":4333,"ĠÐ´Ð¾ÑģÐ¿ÐµÑħÐ°Ñħ":4334,"ĠÐ¾ÑĤÑģÑĥÑĤ":4335,"ĠÐ´Ð¾Ð²":4336,"ĠÐ´Ð¾Ð½":4337,"ÑĩÐ°ÑģÑĤ":4338,"Ð¾ÑģÑĤÐ¾Ñı":4339,"Ð¸Ð»Ð¸Ð·":4340,"ÑģÐºÐ¾Ñĩ":4341,"ĠÑģÐµÐºÑĥÐ½Ð´Ñĭ":4342,"ĠÐ´Ð¸ÑģÐ¿":4343,"ĠÑģÐ¾Ð´ÐµÑĢÐ¶":4344,"ĠÐ½Ð°ÑħÐ¾Ð´Ð¸ÑĤÑģÑı":4345,"ĠÑĢÑĥÑħÐ½ÑĥÐ»":4346,"Ð¾Ð²Ð°":4347,"ĠÐ¾ÑĤÐ¾Ð·Ð²":4348,"ÐĵÐ°ÑĢÑĢÐ¾":4349,"ĠÐ³Ð¾Ð»Ð¾ÑģÐ¾Ð¼":4350,"ĠÐ±Ð°ÑĪÐ½Ð¸":4351,"ĠÐ¾Ð±Ð»Ð¾Ð¼ÐºÐ¾Ð²":4352,"ĠÐ±Ð¸":4353,"ĠÐľÐ°Ðº":4354,"Ð½Ð°ÑĢÑĥÐ¶Ð¸":4355,"ĠÑĥÑħÐ¼Ñĭ":4356,"ĠÐ¾ÑģÐ¾Ð±ÐµÐ½Ð½Ð¾":4357,"ĠÑĥÐ·Ð½Ð°ÑĤÑĮ":4358,"ÑĢÐ¸ÑģÑĤ":4359,"ĠÐ²Ð¾ÑĢ":4360,"ĠÐ½Ð°Ð¸Ð±":4361,"Ð°Ð·Ð½Ð°Ñĩ":4362,"ĠÐĲÐ¿":4363,"ĠÐ±Ð¾Ð»ÑĮÑĪÐ¾Ð¹":4364,"ĠÐĵÐ°ÑĢ":4365,"ĠÐ¿ÑĢÐ¸Ð½ÑıÐ»":4366,"ĠÐ¼Ð°ÑĢÑĪ":4367,"ÑĪÐ¸ÑħÑģÑı":4368,"ĠÐ´Ð¾Ð²Ð¾Ð»ÑĮÐ½Ð¾":4369,"ĠÐļÐ°Ð¿Ð¸ÑĤÐ°Ð½":4370,"ĠÑģÐµÐ³Ð¾Ð´Ð½Ñı":4371,"ÑĢÐ°ÑĤÐµÐ³":4372,"ĠÐĸÐ¸Ð»Ð»":4373,"ĠÐļÑĢÐ°Ñģ":4374,"ĠÑģÐ¾Ð»Ð´Ð°ÑĤÑĭ":4375,"ÑģÑĭ":4376,"ĠÐµÐ´Ð¸Ð½":4377,"ĠÑģÐ¾ÐºÑĢÑĥÑĪ":4378,"ĠÐ¡ÑĭÐ½Ð¾Ð²":4379,"ĠÐ¼Ð¾Ðµ":4380,"ĠÑĢÐ²":4381,"ĠÑģÐ¶Ð¸Ð¼":4382,"ĠÑĦÐ°ÐºÑĤ":4383,"ĠÐ¿ÑĢÐ¾ÑĪÐµÐ¿ÑĤÐ°Ð»":4384,"ĠÐ¾ÑĤÐ´ÐµÐ»ÐµÐ½Ð¸Ðµ":4385,"ĠÐºÐµÐ¼":4386,"le":4387,"ĠÐļÐ¾Ð³":4388,"ĠÐºÐ¾Ð³ÑĤÐ¸":4389,"Ð¸ÐºÐ¾Ð¼":4390,"ĠÐĴÐ·":4391,"ÐµÐ¿ÐµÐ½Ð½Ð¾":4392,"ÑĢÐ¾Ð·":4393,"ĠÐķÐ´":4394,"ĠÐĲÑĢÐ³":4395,"Ð½Ð°ÑĩÐ¸ÑĤ":4396,"ĠÑĥÐºÐ°Ð·":4397,"ÑĢÑıÐ¼":4398,"ĠÐ¿ÑĢÐ¸Ð½Ð¸Ð¼":4399,"ĠÐºÑĢÐ¾ÑĪ":4400,"ĠÐ¿Ð¾Ð¼Ð¾ÑĩÑĮ":4401,"Ð½ÑĥÐ»Ð¾ÑģÑĮ":4402,"ĠÐ¿Ð¾ÑģÐ°Ð´Ð¾Ñĩ":4403,"ĠÐ¿ÑĢÐµÐ´Ð½":4404,"ĠÐ¼ÑĥÑģÐº":4405,"Ð¶Ð°Ð²":4406,"Ð¾ÐºÑĢÑĥÐ³":4407,"ĠÐ²Ð¾Ð½Ð·":4408,"ĠÐ½ÐµÐ¿Ð¾Ð´Ð²Ð¸Ð¶":4409,"ĠÐ¸ÑģÐºÐ°Ð¶":4410,"ĠÐ¾Ð±Ñģ":4411,"ĠÐ²ÐµÑĢÐ½ÑĥÐ»ÑģÑı":4412,"ĠÑıÑģÐ½Ð¾":4413,"ĠÑĤÑĥÐ¼Ð°Ð½":4414,"ĠÐ¾ÑģÑĤÑĢÑĭ":4415,"Ð¾ÑħÑĢÐ°Ð½":4416,"ĠÐ¿Ð¾Ð´Ð½":4417,"ĠÐºÐ¾ÑĤÐ¾ÑĢÐ¾Ð¼Ñĥ":4418,"ĠÐ²Ð·Ð´Ð¾ÑħÐ½ÑĥÐ»":4419,"ĠÑĥÐ³Ð¾Ð»":4420,"ÑĥÑīÐ¸Ðµ":4421,"ĠÐ½Ð°ÑĪÐµÐ»":4422,"ĠÐ®ÑĢÐ³ÐµÐ½":4423,"ĠÐ½Ð°Ð¶":4424,"ÐļÑĤÐ¾":4425,"ĠÑģÐ²ÐµÑĤÐ¾Ð¼":4426,"ĠÑģÐ½Ð°ÑĢÑıÐ´Ð¾Ð²":4427,"ÐµÐ´ÑĮ":4428,"Ð°Ð»ÑĮÐ´":4429,"ĠÐºÐ°Ð¿ÐµÐ»Ð»Ð°Ð½":4430,"ÑĢÐ¾Ð¹":4431,"ÐµÐ½Ð½Ð¾Ð¼Ñĥ":4432,"ĠÐ¾Ð±ÑıÐ·Ð°Ð½":4433,"ÐºÐ¾ÑĢ":4434,"ÑĭÐ²Ð°ÑıÑģÑĮ":4435,"ĠÐºÐ¾Ð½ÑĨÐ°":4436,"ĠÐĽÐµÐ³":4437,"Ð¸ÑĢÐ¾Ð²Ð°Ð½Ð½ÑĭÐµ":4438,"Ð¾ÑĢÐ¼Ð¾ÑĤÐ°Ð»":4439,"ĠÑĩÐ¸ÑĤ":4440,"ĠÐ³Ð¾Ð´Ñĭ":4441,"ÑĥÐ·Ñĭ":4442,"ĠÐĽÐ¾ÑĢÐ³Ð°ÑĢ":4443,"Ð°Ð²Ð°":4444,"ÐµÐ¹ÑĤÐµÐ½Ð°Ð½ÑĤ":4445,"ĠÐ½Ð°Ð¿Ð»ÐµÑĩ":4446,"ĠÑģÑĢÐ°Ð¶Ð°Ð»Ð¸ÑģÑĮ":4447,"Ð½Ð¸ÑĨÐµ":4448,"ĠÐļÐ°":4449,"ĠÐ½Ð°Ð²Ð¸Ð³":4450,"ĠÑĢÐ¾Ñģ":4451,"ĠÐ¾ÑģÐ¼Ð¾ÑĤ":4452,"ĠÐĴÐ¾Ð¸ÑĤÐµÐ»Ñı":4453,"ĠÐ³Ð¾ÑĤÐ¾Ð²Ñĭ":4454,"ĠÐ¿Ð¾Ð½Ð°Ð´Ð¾Ð±":4455,"ĠÐ²Ð·Ð¼Ð°Ñħ":4456,"ĠÐ¿ÑĥÐ»ÑĮÑģ":4457,"ÐºÐ¾Ð²Ð¾Ð´":4458,"ĠÑģÐ¾Ð±Ð¸ÑĢÐ°Ð»ÑģÑı":4459,"ĠÑĤÐºÐ°Ð½":4460,"ĠÐĿÐµÑģÐ¼Ð¾ÑĤÑĢÑı":4461,"ĠÐ¿ÑĢÐ¸ÑģÑĥÑĤÑģÑĤÐ²Ð¸Ðµ":4462,"Ð°ÐºÐ¸":4463,"Ð¾Ð´Ð¾Ð»":4464,"ĠÑģÐ»ÐµÐ·":4465,"ĠÑĪÐ¿":4466,"ĠÐ¾Ð³ÑĢÐ¾Ð¼Ð½ÑĭÐ¹":4467,"ĠÐ¡Ð¸Ð»":4468,"ĠÑĢÐ°Ð±Ð¾ÑĤÑĥ":4469,"ĠÑĥÐ¿ÑĢÐ°Ð²Ð»ÐµÐ½Ð¸Ñı":4470,"ÑıÑģÐ°":4471,"ĠÐ¾ÐºÑĥÑĤ":4472,"ĠÐ²ÑĭÐ³":4473,"Ð°Ð»ÑĮÐ½ÑĥÑİ":4474,"ĠÑģÐ¼ÑĭÑģ":4475,"Ð°Ð»ÑĮÐ½Ð¾Ðµ":4476,"ĠÐłÑĭ":4477,"Ð»ÑĭÐ¹":4478,"Ð°Ð´Ð´Ð¾Ð½":4479,"ĠÐ°ÑĥÐ³":4480,"ĠÐ±Ð¾Ð»ÐµÐ·":4481,"ĠÐ°Ð½":4482,"ĠÑģÐµÑĢÐ´ÑĨÐ°":4483,"Ð¾Ð»ÐµÐ¿":4484,"ÐĴÐ¾Ð·Ð¼Ð¾Ð¶Ð½Ð¾":4485,"ĠÐ»Ð°Ð±":4486,"ĠÐºÐ¾ÑĪÐ¼Ð°ÑĢ":4487,"ĠÐºÑĥÑģ":4488,"ÑĢÐ¾ÑģÐ¸ÑĤÑĮ":4489,"ĠÑĩÑĥÐ´":4490,"Ð±Ð¾":4491,"ĠÐ¸Ð¼ÐµÐµÑĤ":4492,"ÐµÐ²Ð°":4493,"ĠÑıÐ²Ð»ÑıÐµÑĤÑģÑı":4494,"ĠÐ¿ÑĢÑĭÐ³":4495,"ÐµÐ½Ñı":4496,"ĠÐĲÑĤ":4497,"Ð»Ð°Ð¶Ð´":4498,"Ð¾ÑĩÐ½Ð¾":4499,"ĠÑĥÐ³Ð¾Ð´":4500,"ÑĤÐ¾ÑĢÑĭ":4501,"ĠÑĤÑĢÐ¸Ð´ÑĨ":4502,"ĠÑĥÐ²ÐµÐ»Ð¸Ñĩ":4503,"Ð°Ð»ÑĥÐ¹":4504,"Ð½Ð°Ð´ÑĨÐ°ÑĤÑĮ":4505,"ÑĥÑīÐ¸Ñħ":4506,"ĠÐ½Ð°Ð·Ð½Ð°Ñĩ":4507,"ĠÐ¼Ð¾Ð½ÑģÑĤÑĢ":4508,"ĠÐ²Ð¾Ð´Ñĭ":4509,"Ð¾Ð²ÑĥÑİ":4510,"Ð¾ÑĢÐ¾Ðº":4511,"ĠÑģÐ²ÐµÑĤÐµ":4512,"Ð¼ÐµÑıÐ»ÑģÑı":4513,"ĠÑģÐ¾Ð¼Ð½ÐµÐ½Ð¸Ñı":4514,"ĠÐ¾Ð±Ð»ÐµÐ³Ñĩ":4515,"ĠÐĵÐ°Ð»Ð°ÐºÑĤ":4516,"ĠÐ¿Ð¾ÑıÐ²Ð¸Ð»ÑģÑı":4517,"ĠÐ¿ÑĢÐ¾ÑĩÑĮ":4518,"ĠÐ»Ð¸Ð±Ð¾":4519,"ĠÐ¶Ð¸Ð²ÑĭÑħ":4520,"ĠÐ³Ð¾ÑĢÑıÑī":4521,"Ð±ÐµÑĢ":4522,"ĠÐ´Ð¾ÑģÑĤÐ¾Ð¹":4523,"ĠÐ·Ð°Ð½ÑıÑĤ":4524,"om":4525,"ĠÑģÑĤÐ°ÑĤ":4526,"ĠÐŁÑĥÑģÑĤ":4527,"ĠÐ²Ð¾ÑģÑħ":4528,"ÐŁÐµÑĢÐ²":4529,"ĠÐ´Ð²Ð¸Ð³Ð°ÑĤÐµÐ»Ð¸":4530,"ĠÐ²ÑĭÑģÑĤÑĢÐµÐ»Ð¸Ð»":4531,"Ð¾Ð²Ð°Ð»ÑģÑı":4532,"ĠÑģÑĤÑĢÐ°ÑĤÐµÐ³":4533,"ĠÐ¸Ð¼ÐµÐ½Ð¸":4534,"ĠÐ´Ð¾ÑģÐ¿ÐµÑħÐ°":4535,"ĠÐ¼Ð¾Ñı":4536,"ÑĢÐ°ÐºÑĤÐµÑĢ":4537,"ĠÐ·Ð²ÑĥÑĩ":4538,"Ð¾Ð²Ð°Ð½Ð¸Ðµ":4539,"Ð¾ÑĤÐ¸Ð½":4540,"Ð¸Ð²Ð°Ð»Ð°":4541,"ĠÑģÐ¾Ð³":4542,"ĠÐ³ÑĥÐ±Ñĭ":4543,"ĠÐ¿Ð¾Ð´Ð¿":4544,"Ð¸ÑĤÐµÐ»ÑĮÐ½Ð¾Ðµ":4545,"Ð¼Ð¾Ð½":4546,"ÑıÐ´Ð°":4547,"ĠÐºÐ¾Ð½ÐµÑĨ":4548,"Ð»Ð°Ð·Ð°":4549,"ĠÐ¾ÑģÐ»Ð°Ð±":4550,"Ð¾Ð¿Ð¾Ð»Ð¾Ð¶":4551,"Ð¾Ð¶Ð´ÐµÐ½Ð¸Ñı":4552,"ĠÐ¿Ð¾Ð²ÐµÐ»Ð¸ÑĤÐµÐ»ÑĮ":4553,"ĠÐ½ÐµÐ¶":4554,"Ð¾Ð²Ð°Ñı":4555,"Ð¾Ð¿ÑĭÑĤ":4556,"ĠÐºÑĢÐ¸ÐºÐ¸":4557,"ĠÐ±Ð¾ÑĢÑĤ":4558,"ĠÐŀÑģ":4559,"ÑĪÐµÐ¼Ñĥ":4560,"ÐĿÐµÑģ":4561,"ĠÐ¸Ð½ÑģÑĤÐ¸Ð½":4562,"ĠÑĢÐ°ÑģÐ¿Ð¾Ð»Ð°Ð³":4563,"Ð¸ÑĢÐ¸Ð½":4564,"ÑĥÑĪÐºÐ¸":4565,"ĠÐºÑģÐµÐ½Ð¾ÑģÐ¾Ð²":4566,"ĠÐ¸Ð½Ð°ÑĩÐµ":4567,"ÐĶÐ¶":4568,"Ð»Ð¾Ñħ":4569,"Ð¸Ð¿ÐµÐ»":4570,"ĠÐ·Ð°Ð³Ð¾Ð²Ð¾ÑĢÐ¸Ð»":4571,"ĠÐ¿ÑĢÐ¾Ð·Ð²":4572,"ĠÐ¼ÐµÑĢÐ·":4573,"ĠÐ¿ÑĢÐµÐ´Ð½Ð°Ð·Ð½Ð°Ñĩ":4574,"ĠÐ¿ÑĢÐ¸ÑĢ":4575,"ÑĨÐ°Ð¼":4576,"ĠÐ²Ð¾Ð»Ð¾ÑģÑĭ":4577,"ĠÐ´Ð°ÑĤÑĮ":4578,"Ð¸Ð¼Ð¾ÑģÑĤÐ¸":4579,"Ð°ÑıÑģÑı":4580,"ĠÐ¾ÑĤÐºÐ»ÑİÑĩ":4581,"ĠÐ±ÑĢÐ¾Ð½Ñı":4582,"ĠÑĥÑģÐ¼ÐµÑħ":4583,"ĠÑģÐ²Ð¾Ð´":4584,"Ð¸Ð¾Ð½Ð°":4585,"ĠÐ²ÐµÑĢÐ½ÑĥÑĤÑĮÑģÑı":4586,"The":4587,"ĠÐ¾Ð±Ð½Ð°ÑĢÑĥÐ¶Ð¸Ð»":4588,"Ð²Ð¾ÑģÑĤ":4589,"ĠÑģÐ¾ÑİÐ·":4590,"ĠÐ¾ÑĤÐ¼":4591,"ĠÐ´Ð°Ð»ÐµÐº":4592,"ĠÐ°ÑĢÐ¼Ð¸Ð¸":4593,"ĠÐ²Ð°Ð»":4594,"ĠÐ¾Ð³Ð½ÐµÐ²":4595,"ĠÐ¾ÑĤÑģÑİÐ´Ð°":4596,"ĠÐ½Ð¾ÑĩÑĮ":4597,"Ð»ÐµÑģÐº":4598,"ĠÐ¿Ð¸Ðº":4599,"ĠÑģÑĥÑħ":4600,"ĠÐ¶ÑĥÑĤ":4601,"ĠÐ·Ð»Ð¾Ð±":4602,"ĠÑıÑģÑĤÑĢÐµÐ±":4603,"ĠÑģÐ¿ÑĢÑıÑĤ":4604,"ĠÐ¿Ð¾ÐºÐ°Ð·Ð°Ð»Ð¾ÑģÑĮ":4605,"ĠÐ¿Ð¾Ð·Ð²Ð¾Ð»Ð¸Ð»":4606,"ÑĢÐµÑģÐº":4607,"ÑĩÐ¸Ð²Ð¾":4608,"ĠÐ½Ð°ÑĢÑĥÐ¶Ñĥ":4609,"ĠÐĴÐ¼ÐµÑģÑĤ":4610,"ĠÑģÐ»ÐµÐ¿":4611,"ĠÑĢÑĭÑĨÐ°ÑĢ":4612,"Ð°Ð»ÑĮÐ½Ð°Ñı":4613,"ĠÐ½ÐµÐ²Ð¸Ð´":4614,"ĠÐ¸Ð·Ð±Ð°Ð²":4615,"Ð¸ÑĤÐµÐ»ÐµÐ¼":4616,"ĠÑģÑĢÐ°Ð¶ÐµÐ½Ð¸Ñı":4617,"Ð°Ð½Ñĥ":4618,"ÐµÐ¹Ð´":4619,"ĠÐ³Ð»Ð¾ÑĤ":4620,"ĠÑĩÐµÑĢÐµÐ¿Ð°":4621,"ĠÐ¿Ð¾Ð¼ÐµÑħ":4622,"ÐĽÑİ":4623,"ĠÑĪÐ°Ð³Ð½ÑĥÐ»":4624,"ly":4625,"ÑĢÐ°Ð»Ð¸":4626,"ĠÐºÐ¸Ñģ":4627,"ĠÑĩÑĥÐ²ÑģÑĤÐ²Ñĥ":4628,"Ġit":4629,"Ð°Ð½Ð¾Ð¼":4630,"ĠÐ³Ð»Ð°Ð´":4631,"ĠÑĥÐ´Ð¾Ð²Ð¾Ð»ÑĮ":4632,"ĠÐ²Ð¾ÐºÑģÑĥ":4633,"ĠÑģÐ¾Ð·Ð½Ð°Ð½Ð¸Ðµ":4634,"ĠÑĤÑĢÐµÑĤÑĮ":4635,"ĠÐ·Ð²ÑĥÐºÐ¸":4636,"ĠÐ²Ð¾Ð»Ð½Ð°":4637,"ĠÐ²Ð¿ÐµÑĢÐ²ÑĭÐµ":4638,"ĠÐ±ÐµÐ·Ð´":4639,"ĠÐĶÐµÑģÐ°Ð½ÑĤÐ½Ð¸Ðº":4640,"ÑĤÐ¾ÑĢÐ¾Ð²":4641,"ĠÐ¼Ð°ÑĪÐ¸Ð½Ð°":4642,"Ð¸Ð¼Ð¸ÑģÑı":4643,"ĠÐ²ÐµÑģÑĮÐ¼Ð°":4644,"ĠÐ¾ÑĤÑĪ":4645,"ĠÑĪÐµÐ¿":4646,"ĠÐ¿ÑĥÑĤÐµÑĪÐµ":4647,"ĠÐ±Ð»Ð°Ð³Ð¾ÑģÐ»Ð¾Ð²":4648,"ĠÑģÐ¼ÐµÑħ":4649,"Ð°ÑİÑīÐ¸Ð¹ÑģÑı":4650,"ĠÐ»Ð¸ÑĩÐ½Ð¾":4651,"ĠÐ¼ÑĥÑĤÐ°Ð½ÑĤ":4652,"ĠÐ¼ÑĢÐ°Ðº":4653,"ĠÑģÐ¾Ð±ÑĢÐ°Ð½":4654,"ÑĥÐ¼Ð°Ñİ":4655,"ĠÐ¿ÑĢÐµÐ´ÑģÑĤÐ°Ð²Ð»Ñı":4656,"ÑĩÐ°":4657,"ĠÐ´Ð¶":4658,"ĠÑĨÐ°ÑĢ":4659,"Ð²ÐµÐ»":4660,"ÐµÑĤÐ¾Ð¼":4661,"ĠÐĿÐ°Ð²":4662,"ĠÐĳÐ°ÑĢ":4663,"Ð°Ð²ÑĪÐ¸Ð¹ÑģÑı":4664,"ĠÑĤÐ²Ð°ÑĢÑĮ":4665,"ĠÑģÑħ":4666,"ĠÐºÐ°Ð¿ÑİÑĪ":4667,"ĠÐ½ÐµÐ¾Ð±ÑħÐ¾Ð´Ð¸Ð¼Ð¾":4668,"ĠÐ¿ÑĢÐ¸Ð·ÐµÐ¼Ð»":4669,"ĠÐ³Ð°Ð·":4670,"Ð°ÑĤÐ¾ÑĢÑĭ":4671,"ĠÐĴÐ¾Ð¸Ð½Ñĭ":4672,"ĠÐ¾ÑģÑĤÐ°Ð½Ð¾Ð²Ð¸ÑĤÑĮ":4673,"ÐµÑĤÐ¸":4674,"ĠÐ¾Ð´Ð½Ð¾Ð¼Ñĥ":4675,"ĠÐ¿Ð¾Ð²ÐµÐ´":4676,"Ð°Ð³Ð¾Ñģ":4677,"ĠÐ´Ð²Ð¸Ð¶ÐµÐ½Ð¸Ñı":4678,"Ð»Ð¸ÐºÐ½ÑĥÐ»":4679,"et":4680,"ĠÐ²Ð¾Ð¹Ð½Ð°":4681,"ĠÑģÐµÑĢÐµÐ±ÑĢÑı":4682,"ÑĩÐ¸ÐºÐ¾Ð²":4683,"ĠÑĨÐµÑĢ":4684,"ĠÐ½Ð°Ð²ÐµÑĢÑħ":4685,"ÑģÑĤÑĢÐµÑĩÑĥ":4686,"ĠÐ¿ÑĢÐ¸Ð³Ð¾ÑĤÐ¾Ð²":4687,"ÑĢÐ¾Ð¼Ðµ":4688,"ĠÐ·Ð°ÑģÑĤÐ°Ð²Ð¸Ð»":4689,"ĠÑģÐ½Ð°ÑĢÑıÐ´Ñĭ":4690,"ĠÐ¼ÐµÑĤÐ°Ð»Ð»":4691,"ĠÐ½ÐµÐ¸Ð·Ð²ÐµÑģÑĤ":4692,"Ð«":4693,"ĠÐ°Ð¼":4694,"ĠÐºÐ¾ÑĢÐ¸Ð´Ð¾ÑĢ":4695,"Ð¸Ð¼ÑĭÐµ":4696,"ĠÑįÑģÐº":4697,"ĠÐ´Ð²Ð°Ð´ÑĨÐ°ÑĤÑĮ":4698,"Ð»ÐµÐ·":4699,"ĠÑģÐ¾Ð±ÑĢÐ°ÑĤÑĮ":4700,"ĠÑĤÐ²Ð¾Ð¹":4701,"ĠÐ¾ÑĤÐ½Ð¾ÑĪ":4702,"ĠÑĢÐ°Ð·Ð²Ð°Ð»":4703,"Ð¸Ð½ÑĥÐ»Ð¸ÑģÑĮ":4704,"ÐĿÐ¸Ðº":4705,"Ð½ÑıÐ¼Ð¸":4706,"ÑĥÐºÐ°":4707,"ĠÑıÑī":4708,"Ð°Ð½Ð½ÑĭÐ¼Ð¸":4709,"ĠÐ¿ÑĢÐµÐºÑĢÐ°ÑĤ":4710,"ĠÑģÐºÐ¸ÑĤ":4711,"ÐºÑĢÐ°Ñģ":4712,"ĠÑĩÐµÐ»Ñİ":4713,"ĠÐ»ÑĮ":4714,"ĠÐĴÐ¾Ð·":4715,"ĠÐ´Ð¾Ð±Ð°Ð²Ð¸Ð»":4716,"ĠÐ²Ð¾ÑģÐ¿Ð¾Ð»ÑĮÐ·Ð¾Ð²":4717,"Ð¾ÑģÐº":4718,"ĠÑģÐ¿ÑĢÐ°ÑĪ":4719,"ĠÐ¾Ð¿ÑıÑĤÑĮ":4720,"ĠÐ¢ÑĭÑģÑıÑĩ":4721,"ĠÑĢÐ°Ð·ÑĥÐ¼Ð°":4722,"Ð´Ð°Ð»ÑģÑı":4723,"ĠÐºÐ°Ð¿Ñģ":4724,"ĠÑģÐ¾Ð±ÑģÑĤÐ²ÐµÐ½Ð½Ð¾Ð¹":4725,"ĠÑģÐ¼Ð¾Ð³Ð»Ð¸":4726,"ĠÐ¼Ð°Ñħ":4727,"ĠÐ¼Ð¾Ñİ":4728,"ĠÐºÐ¾ÑģÐ¼Ð¾Ñģ":4729,"ĠÐ¿Ð¾Ð·Ð´Ð½Ð¾":4730,"ĠÐ½Ð°ÑħÐ¼ÑĥÑĢ":4731,"Ð¾Ð¼Ð½ÐµÐ½Ð½Ð¾":4732,"Ð²Ð¾Ð¹":4733,"ĠÐ¶Ð¸Ð»":4734,"ĠÐ·Ð°Ð¿Ð°Ð´":4735,"ĠÐ¿ÑĢÐ¾Ð´Ð¾Ð»Ð¶Ð°Ð»Ð¸":4736,"ÑĥÑīÐµÐ³Ð¾":4737,"ĠÐ¼Ð¾ÑīÑĮ":4738,"ĠÐ¿Ð°Ð»ÑĥÐ±Ðµ":4739,"ĠÐ²ÑĭÑģÑĤÑĢÐµÐ»Ð¾Ð²":4740,"Ð¸Ð´Ð°":4741,"ĠÑĢÐ°Ð·Ð¼ÑĭÑĪ":4742,"ĠÑģÑĤÐ°ÑĤÑĥ":4743,"Ð°Ð±Ñĭ":4744,"ÐµÐ½ÑĤÐ¾Ð²":4745,"Ð¸Ð²ÑĪÐ¸ÐµÑģÑı":4746,"ĠÐ¿ÑĢÐ¾Ð¶":4747,"ĠÑĤÑĥÑģÐº":4748,"ĠÐ¾ÐºÐ¾Ð»Ð¾":4749,"ĠÐºÐ¾Ð¼Ñĥ":4750,"Ð°ÑĪÐ¸":4751,"ĠÐ¾Ð¿Ð¸Ñģ":4752,"ĠÐºÐ°Ð¶Ð´ÑĭÐ¼":4753,"Ð°ÐµÐ¼ÑĭÐ¹":4754,"ion":4755,"Ð¸ÑĤÐ°Ð´":4756,"ĠÐ´ÐµÐ¼Ð¾Ð½Ð°":4757,"ÐºÐ¸Ð¾":4758,"ĠÑĩÑĥÐ²ÑģÑĤÐ²Ð°":4759,"ĠÐ½ÐµÐ±ÐµÑģ":4760,"ĠÑĢÐ°ÑģÑģÐºÐ°Ð·":4761,"ĠÐ¿ÑĢÐ°Ð²Ð´Ð°":4762,"ĠÐ»ÐµÐ´Ñı":4763,"Ð½Ð¾ÑĢ":4764,"Ð¾Ð»ÐµÐ·":4765,"ĠÑĩÐ°ÑģÑĤÑĮÑİ":4766,"ĠÐ¾Ð±Ð»Ð¾Ð¼ÐºÐ¸":4767,"ĠÐ´Ð²ÑĥÐ¼Ñı":4768,"Ð»Ð¸ÑģÑĤ":4769,"ÐµÐ½ÑĤÑĭ":4770,"ĠÐ³Ð¾ÑĢÑıÑĩ":4771,"ĠÐ¢Ð°Ð½":4772,"ÑĢÐ°ÑĤÐ°":4773,"ent":4774,"ĠÑģÐ²ÐµÐ¶":4775,"ĠÐ¶Ð´Ð°ÑĤÑĮ":4776,"ĠÐ·Ð°Ð²Ð¸Ñģ":4777,"Ð»ÐµÑĤÐ²Ð¾ÑĢ":4778,"ĠÑģÐ¿ÐµÑĨÐ¸":4779,"Ð½Ð°Ð´ÑĨÐ°ÑĤ":4780,"ĠÐ±Ð°ÑĤÐ°ÑĢ":4781,"ĠÐ´ÑĭÑĪ":4782,"ÑģÐºÑĥÑİ":4783,"ĠÐ·Ð°Ð¿Ð¸Ñģ":4784,"ĠÐ´Ð²Ð¸Ð³Ð°ÑĤÑĮÑģÑı":4785,"ĠÐ²Ð¾ÑģÐº":4786,"ĠÐ½Ð°Ð²ÐµÑĢÐ½ÑıÐºÐ°":4787,"ĠÑĦÐ¸Ð³ÑĥÑĢÐ°":4788,"ĠÑĢÐ°Ð¹":4789,"ĠÑĥÐ±Ð¸Ð»":4790,"Ð·Ð²":4791,"ĠÑģÐºÐ°Ð¶":4792,"ĠÐºÐ¾ÑģÑĤÐµÐ¹":4793,"Ð»ÐµÐ¿":4794,"ĠÐ»ÐµÑģ":4795,"ĠÐ¸ÑģÑĤÐ¾ÑĢÐ¸Ð¸":4796,"Ġn":4797,"ĠÐĶÐ¾Ð¼":4798,"ĠÐĳÐ¾Ð»ÑĮÑĪ":4799,"ĠÐ±Ð¾Ð»ÑĤÐµÑĢÐ°":4800,"Ð¾Ð½ÑģÑİ":4801,"ĠÑĤÐµÑĢÐ¼Ð¸Ð½Ð°ÑĤÐ¾ÑĢ":4802,"Ð»ÑıÑĤÑĮÑģÑı":4803,"ÑģÐºÐ¾Ð¼":4804,"ĠÐ¡Ð¾":4805,"ĠÐ¾ÐºÐ°Ð·Ð°Ð»Ð°ÑģÑĮ":4806,"ĠÐ¾ÑĩÐµÑĢÑĤ":4807,"ur":4808,"Ð»Ð»Ñİ":4809,"ĠÐļÐ°Ð´":4810,"ĠÐ¾Ð±Ð»Ð°Ðº":4811,"ĠÐ¿ÑĢÐ¾ÑĤÑıÐ½ÑĥÐ»":4812,"ÑĦÐ¾ÑĢ":4813,"ÐµÑĤÑĥ":4814,"ĠÐºÐ°Ð¼ÐµÐ½ÑĮ":4815,"ĠÐºÐ¾Ð¶Ñĥ":4816,"ĠÐºÐ¾Ð¼Ð½Ð°ÑĤÑĥ":4817,"ĠÐ¾Ð±ÐµÐ·":4818,"ÐµÐ¿ÑĢÐ¸Ð¿":4819,"ĠÑĥÐ±Ð¸ÑĤ":4820,"ĠÐ¾ÑĤÑģÐµÐº":4821,"ĠÐºÑĢÐ¸ÐºÐ½ÑĥÐ»":4822,"ĠÐ¸Ð·ÑĥÐ¼":4823,"ĠÐ»Ð°Ð¿":4824,"ĠÐ´Ð¾Ð±ÑĢÐ°ÑĤÑĮÑģÑı":4825,"ĠÑĥÐ»Ð¾Ð²":4826,"ĠÐ¿ÑĢÐµÐ´Ð°ÑĤÐµÐ»ÐµÐ¹":4827,"ĠÐ¿ÑĭÑĤÐ°Ð»Ð¸ÑģÑĮ":4828,"ĠÐºÐ¾Ð¼Ð½Ð°ÑĤÑĭ":4829,"ÑĪÐµÐ¼":4830,"ĠÐŁÐµÑĢÐµÐ´":4831,"ĠÐ³Ð¾Ð²Ð¾ÑĢÐ¸Ð»Ð¸":4832,"Ð¸Ð½Ð°Ð¼":4833,"ĠÐłÐ°Ñģ":4834,"ĠÐ¿ÐµÑĢÐ²Ð¾Ð¹":4835,"ĠÐĴÐ¾Ð»Ðº":4836,"ÑĢÐ°Ð³Ð¾":4837,"Ð°Ð½Ð½Ð°Ñı":4838,"ĠÐ¶ÐµÐ½ÑīÐ¸Ð½Ð°":4839,"ĠÐ´Ð¾Ð±ÑĭÑĩ":4840,"ĠÐ¿ÑĢÐ¸Ð²Ð»ÐµÐº":4841,"ĠX":4842,"ĠÐľÐ°ÑĢÐ´ÑĥÐº":4843,"ÐµÑĢÐ´":4844,"ÑįÐ½":4845,"Ð¸Ð²ÑĪÐ¸Ð¹ÑģÑı":4846,"ÐµÐ¿ÑĢÐ¸Ð¿Ð°Ñģ":4847,"ĠÐĴÐ°":4848,"ĠÐ½Ð°Ð¸Ð±Ð¾Ð»ÐµÐµ":4849,"ĠÐ»Ð¾Ð³":4850,"ĠÑģÐ¿Ð¾ÐºÐ¾Ð¹Ð½Ð¾":4851,"ĠÑħÐ°ÑĢÐ°ÐºÑĤÐµÑĢ":4852,"ĠÐ¿Ð¾ÑģÐ¿ÐµÑĪ":4853,"ĠÐºÐ¾Ð¼Ð¸ÑģÑģÐ°ÑĢ":4854,"ÐĳÑĢÐ°ÑĤ":4855,"ÑĢÐ¸ÐºÐ½ÑĥÐ»":4856,"ĠÐĲÐ»ÑĮÑĦÐ°":4857,"ĠÐºÐ»Ñĭ":4858,"ĠÐºÐ°Ð·Ð°Ð»ÑģÑı":4859,"Ð¾Ð´Ð¾Ð±":4860,"Ð°ÑħÐ°":4861,"Ð»ÐµÐ½Ð½Ð¾Ðµ":4862,"ĠÐ¿ÐµÑĢÐµÑĢ":4863,"ĠÐ¾ÑģÑĤÐ°Ð²Ð¸Ð²":4864,"ĠÐ·Ð°ÐºÑĢÑĭÐ²":4865,"ÑıÐ¶ÐµÐ½Ð¸Ð¸":4866,"ĠÐºÐ¾Ð´":4867,"Ð»ÑıÑıÑģÑĮ":4868,"ĠÐ¾Ð´Ð¸Ð½Ð¾":4869,"ĠÐ¾ÑĢÐºÐ¸":4870,"ĠÐ¿ÐµÑĢÐ²Ð¾Ð³Ð¾":4871,"ĠÐ¾ÑĦÐ¸ÑĨÐµÑĢ":4872,"ÑĭÐ²Ð°Ð»Ð¸ÑģÑĮ":4873,"ĠÐ²ÑģÑĤÐ°Ð²":4874,"ĠÐľÐ¸ÑĢ":4875,"ÑĭÐ²Ð°Ð»Ð°":4876,"ĠÐ½Ð°ÑħÐ¾Ð´Ð¸Ð»Ð¸ÑģÑĮ":4877,"ĠÐ¾Ð±ÐµÑģÐ¿ÐµÑĩ":4878,"ĠÑĢÐ°Ð¼":4879,"ĠÐ²ÑĭÑĤÑı":4880,"ĠÐ²ÑĭÑĢÐ°Ð¶ÐµÐ½Ð¸Ðµ":4881,"Ð¾Ð¿ÑĢ":4882,"ĠÐ¿ÑĢÐµÑĢÐ²":4883,"ĠÑģÐµÑĢÐ²Ð¸ÑĤÐ¾ÑĢÐ¾Ð²":4884,"ÑĥÐ¹":4885,"ĠÑĤÐ¸Ð¿":4886,"ĠÐ¿ÐµÑĢÐµÑģÐµÐº":4887,"ÐµÑģÐ°Ð½ÑĤÐ°":4888,"ĠÐ²Ð¿ÐµÑĢÑĳÐ´":4889,"ĠÑįÑħÐ¾Ð¼":4890,"ÑĤÐ¾Ð³Ð¾":4891,"ĠÐ´ÐµÑĢÐ¶Ð°Ð»":4892,"ĠÑīÐµÐ»":4893,"ĠÐ³Ð¾ÑģÐ¿Ð¾Ð´Ð¸Ð½":4894,"ÑĥÐ»Ð°":4895,"ÐµÑģÑĤÐµÑģÑĤÐ²ÐµÐ½":4896,"Ð¿ÐµÐ´":4897,"ĠÐ¸Ð¼Ð¸":4898,"ÑĥÑģÑĤÐ¾Ð´":4899,"ĠÐ³Ð¾ÑĢÐ»Ð¾":4900,"ĠÑģÐ»ÐµÐ´Ñĭ":4901,"ĠÑĤÑĢÐµÐ½Ð¸ÑĢÐ¾Ð²":4902,"ĠÑĩÐµÐ»Ð¾Ð²ÐµÑĩÐµÑģÑĤÐ²Ð°":4903,"Ð¸Ð´Ñĭ":4904,"Ð¸ÑĩÐµÐ³Ð¾":4905,"Ð»ÐµÐ½Ð½ÑĭÐ¼Ð¸":4906,"ĠÐ²ÑģÐµÐ¼Ð¸":4907,"ĠÐ´Ð¾Ð³Ð°Ð´":4908,"ĠÐ»Ð¾ÑĢÐ´Ð°":4909,"ÑĢÐµÑī":4910,"ĠÐ¿ÑĢÐ¾ÑĪÐ»":4911,"Ð½ÐµÐ·Ð°Ð¿Ð½Ð¾":4912,"ÑĥÑĢÐ°":4913,"Ð±Ð¾Ð¹":4914,"ĠÐ¿Ð¾Ð¼Ð¾ÑīÑĮÑİ":4915,"ĠÑģÑĤÑĢÐµÐ»ÑıÑĤÑĮ":4916,"ĠÑģÐ¸Ð»Ð¾Ð²Ð¾Ð¹":4917,"ĠÑģÑĩÐ°ÑģÑĤ":4918,"ĠÑĪÐ°ÑĤÑĤ":4919,"ÐµÐ½ÑĨÐ¾":4920,"ĠÐ³Ð¾ÑĢÐ¸Ð·":4921,"ĠÐ²Ð¾Ð»Ð½":4922,"ĠÐ¡Ð°Ð±":4923,"ĠÐ½Ð°Ð²ÑģÑĤÑĢÐµÑĩÑĥ":4924,"ĠÐ½Ð°ÑģÑĤÑĢÐ¾":4925,"ĠÐ¾ÑĤÑĢÑĭÐ²":4926,"ĠÐ¿ÑĢÐ¾Ð¸Ð·Ð½":4927,"ĠÐ´ÐµÑģÐ°Ð½ÑĤÐ½Ð¸ÐºÐ¸":4928,"ĠÐľÐ¾ÑĢÑĤ":4929,"ĠÐ¾ÑĢÐ´ÐµÐ½":4930,"ĠÐľÐ°Ð³Ð¸ÑģÑĤÑĢ":4931,"ĠÐ¢Ð¾ÑĤ":4932,"ÑģÑĤÑĢÑĥÐº":4933,"ĠÐ²Ð¾Ð¹ÑģÐºÐ°":4934,"ĠÐºÐ¾Ð»Ð¸ÑĩÐµÑģÑĤÐ²Ð¾":4935,"ÐµÑĢÐ¸":4936,"Ð°ÑĤÐ¾Ñĩ":4937,"ÑĤÐ¾Ð±Ñĭ":4938,"Ð°ÑĤÐ¾Ð¼":4939,"ĠÐºÐ¾ÑĢÐ¿ÑĥÑģÐ°":4940,"ÐłÐ°Ð³Ð½Ð°ÑĢ":4941,"ĠÐ´Ð°Ð»ÑĮÐ½ÐµÐ¹":4942,"ĠÐ²Ð·Ð´ÑĢÐ¾Ð³":4943,"ĠÐ¼Ð¾Ð³ÑĥÑīÐµ":4944,"ĠÐ¿Ð¾ÑģÑĤÐµÐ¿ÐµÐ½Ð½Ð¾":4945,"ĠÐ·ÑĢÐµÐ½Ð¸Ñı":4946,"ĠÑĤÑĢÐµÐ²Ð¾Ð¶":4947,"ĠÐ¿Ð¾Ð´Ð²ÐµÑĢÐ³":4948,"ĠÐ¿Ð»Ð°Ñī":4949,"ĠÐ¿Ð¾Ð»Ð½Ð¾Ð¹":4950,"ĠÐ¿ÑĢÐ¾Ð¸Ð³":4951,"ĠÐ¾Ð±ÑĬÑıÐ²":4952,"Ð½Ð¸ÐºÐµ":4953,"ĠÐ²ÑĢÐµÐ¼ÐµÐ½Ð°":4954,"ĠÐ½Ð°Ð³ÑĢÑĥÐ´":4955,"Ð¾ÐºÐ¾Ð»":4956,"ĠÑģÐ´ÐµÐ»Ð°Ð»Ð¸":4957,"Ð¸ÑĢÑĥÑı":4958,"ĠÐ²Ð´Ð¾Ñħ":4959,"ĠÐĵÑĢÐ¸Ð¼":4960,"ĠÐ¾Ð³Ð»ÑĥÑĪ":4961,"ĠÐ¾Ð±ÑģÑĤÐ¾ÑıÑĤÐµÐ»ÑĮ":4962,"ĠÐ²Ð¸Ð½ÑĤÐ¾Ð²":4963,"ĠÐ´ÐµÐ¹ÑģÑĤÐ²Ð¸Ð¹":4964,"Ġre":4965,"ÑİÑĢ":4966,"ĠÐ¾Ð±ÐµÑī":4967,"ĠÑħÑĥÐ¶Ðµ":4968,"ÐŁÐ¾ÑĩÐµÐ¼Ñĥ":4969,"ÑĩÐ¸ÐºÐ¸":4970,"ĠÐºÑĢÐµÐ¹Ñģ":4971,"ÐµÑĢÐº":4972,"ĠÐ¿ÑĢÐ¾ÑĢÐ²":4973,"ĠÐ±Ð¾ÐµÐ¿ÑĢÐ¸Ð¿Ð°Ñģ":4974,"ĠÐ²Ð¾Ð»Ð¾Ñģ":4975,"ĠÐ§ÐµÑĢÐµÐ·":4976,"ĠÐ²Ð°Ð¼Ð¸":4977,"ÐºÐ¾ÑģÑĤÑĮÑİ":4978,"ĠÑģÑĤÐ¾Ð¹":4979,"ĠÑģÐ¿ÑĥÑĤ":4980,"ÑĥÐ¶ÐµÐ»Ð¸":4981,"Ð°ÑİÑīÐµÐ¹ÑģÑı":4982,"ĠÐ³ÑĥÐ±ÐµÑĢÐ½Ð°":4983,"Ð¸ÑĤÐ¸":4984,"ĠÐ°ÑĥÑģÐ¿":4985,"ÑĪÐµÐµÑģÑı":4986,"ĠÐ·Ð¾Ð²":4987,"ĠÐ´Ð²Ð¸Ð³Ð°Ð»Ð¸ÑģÑĮ":4988,"ĠÐ½ÐµÐ³":4989,"Ð¾Ð»Ñı":4990,"Ð»ÐµÐ½Ð°":4991,"ĠÐ½Ð¾Ð²ÑĭÐ¹":4992,"ĠÐĶÐ¾ÑĢÐ½":4993,"ĠÐ½ÐµÐ¾Ð¶Ð¸Ð´Ð°Ð½Ð½Ð¾":4994,"ĠÐ²ÑĢÐµÐ¼ÐµÐ½ÐµÐ¼":4995,"ĠÐ¡ÑĤÐ°ÑĢ":4996,"ĠÐ¿Ð¾ÑĤÐµÑĢÑıÐ»":4997,"ĠÑģÐµÐ²ÐµÑĢ":4998,"ÑĥÑīÐµÐµ":4999,"ĠÐ±Ð»Ð°Ð³Ð¾ÑĢÐ¾Ð´":5000,"ÑģÐ¾Ð½":5001,"Ð¸ÑĤÐµÑģÑĮ":5002,"ĠÐĿÐ¸ÐºÑĤÐ¾":5003,"Ð¾Ð¸ÑĤ":5004,"ĠÐ¿ÑĢÐµÐ·":5005,"ĠÑĩÐµÑģÑĤ":5006,"ÑĨÐ¾Ð¼":5007,"ĠÐ´Ð²Ð¾Ðµ":5008,"ĠÐºÑĢÑĥÑĤ":5009,"ÑĢÑĥÐ³Ð¾":5010,"ĠÐ²Ð¾Ð·Ð´":5011,"Ð°Ð½Ð´Ð°ÑĢÑĤ":5012,"Ð¸Ð»Ñı":5013,"ĠÑĢÐµÐº":5014,"ĠÐ±Ð¾Ð»ÑĮÑĪÐ¸Ð½ÑģÑĤÐ²Ð¾":5015,"ĠÑģÑĤÐµÐ½Ð°Ñħ":5016,"ĠÐ¿Ð¾ÑıÐ²Ð¸Ð»Ð¸ÑģÑĮ":5017,"ÑĩÑĤÐ¾":5018,"ĠÐ³ÑĥÐ»":5019,"ĠÐ¿Ð¾Ð»ÐµÑĤ":5020,"Ð¾Ð»Ð¸":5021,"ÐĵÐ»Ð°Ð²Ð°":5022,"Ð°ÑĤÐ¾ÑĢÐ¾Ð²":5023,"ĠÐ¿ÐµÑħ":5024,"ĠÐ¿ÑĢÐµÐ´ÑģÑĤ":5025,"Ð»Ð°Ð½ÑĪ":5026,"ĠÑħÐ¾ÑĩÐµÑĪÑĮ":5027,"ĠÐ¿ÑĢÐ¸ÑıÑĤ":5028,"Ð¸Ð½ÑĤÐµÑĢÐµÑģ":5029,"Ð°ÑİÑīÐµÐ³Ð¾ÑģÑı":5030,"ĠÐ¿Ð¾Ð¸ÑģÐºÐ°Ñħ":5031,"ĠÐºÐ°ÐºÐ¾Ð³Ð¾":5032,"ĠÑģÑĤÐ¾Ð»ÑĮÐºÐ¾":5033,"ÑıÑīÐ¸Ð¼":5034,"ĠÐ¸Ð·Ð³":5035,"ĠÐľÐ°Ð½":5036,"ĠÐ£ÑĢ":5037,"ÑıÐ·Ð³":5038,"ĠÐ¿ÑĢÐ¸Ð·ÑĢÐ°Ðº":5039,"ĠÐºÐ¾Ð¼Ð°Ð½Ð´Ñĭ":5040,"ĠÑĢÐ¾ÑģÑĤ":5041,"ÑĢÑĥÐ³Ð¾Ðµ":5042,"Ð¿Ð°ÑĢ":5043,"Ð¾Ð·Ð½Ð°Ð»":5044,"ĠÑģÐ²Ð¸Ñģ":5045,"Ð¸ÑĥÐ¼Ð°":5046,"ĠÐºÐ°Ð¶Ð´Ð¾Ð¼":5047,"un":5048,"ÐµÐ½Ð¸ÑıÐ¼":5049,"ĠÐĲÐ½Ð³ÐµÐ»Ñĭ":5050,"ĠÐ±ÑĭÑģÑĤÑĢÑĭ":5051,"Ð±ÐµÐ¶":5052,"ĠÐ¾ÑĤÐ²ÐµÑĤÐ¸ÑĤÑĮ":5053,"ĠÐ¿Ð°Ð»ÑĥÐ±Ñĥ":5054,"Ð§ÐµÑĢ":5055,"ĠÐ¾ÑĤÑĩÐµÑĤ":5056,"ĠÑĥÐ¼ÐµÑĢÐµÑĤÑĮ":5057,"Ð¬":5058,"Ð¸ÑĤÐ°Ð½Ð¾Ð²":5059,"ÑĳÐ·":5060,"ĠÐ¿ÑĢÐ¸Ð½ÑıÑĤÑĮ":5061,"ĠÐ¿ÐµÑĢÐ²ÑĭÐµ":5062,"ĠÑĦÐ¸Ð³ÑĥÑĢÑĭ":5063,"ÑıÑīÐµÐµ":5064,"Ð¾Ð»Ðº":5065,"ĠÐ²ÐµÐ»Ð¸ÐºÐ¾Ð»ÐµÐ¿":5066,"ĠÐºÐ¾Ð¶Ð°":5067,"ÐµÐ²Ð¾Ð¹":5068,"Ð°Ð²ÑĪÐµÐ¹":5069,"ĠÐ½Ð¸ÐºÐ°ÐºÐ¾Ð³Ð¾":5070,"ĠÐ¾ÑģÐ²Ð¾Ð±Ð¾Ð´":5071,"ĠÐŁÐ¾ÑĤ":5072,"ĠÐ¿Ð¾Ð´Ð·ÐµÐ¼":5073,"ĠÑĥÐ³ÑĢÐ¾Ð¶":5074,"ÐºÑĥÑģ":5075,"ĠÐ¸Ð»Ð»Ñİ":5076,"ĠÐľÐ°Ð³Ð½ÑĥÑģ":5077,"Ð¾Ð²ÐµÐ´":5078,"ĠÑĢÑĥÐºÐ¾Ð²Ð¾Ð´":5079,"ĠÐĲÑĢÑħ":5080,"ÑĮÑıÐ¼Ð¸":5081,"ĠÑģÑĥÑĢ":5082,"Ð¾Ð²Ð°Ð½Ð¸Ñı":5083,"ĠÐ½Ð°ÑĪÐ»Ð¸":5084,"ÑĳÑĢÑĤ":5085,"Ð¼Ð¾Ð¹":5086,"ĠÑħÐ»Ñĭ":5087,"ĠÐ¾ÑģÑĤÐ°Ð²Ð¸Ð»":5088,"ĠÐ½Ð°Ð¼Ð½Ð¾Ð³Ð¾":5089,"Ð°ÐºÑģÐ¸Ð¼":5090,"Ð¸Ð»ÐµÑĤ":5091,"ĠÑĥÑĨÐµÐ»":5092,"ĠÐĴÑĤÐ¾ÑĢ":5093,"ĠÑĪÐ°ÑĢ":5094,"ĠÑĥÐ´Ð°Ð»":5095,"Ð¸ÑĢÐ¾Ð²Ð°Ð½Ð½ÑĭÐ¹":5096,"Ð»Ð¸Ð¶":5097,"ĠÐ¼ÐµÐ½ÑĮ":5098,"ĠÐ¿Ð¾Ð·Ð²Ð¾Ð»Ð¸ÑĤÑĮ":5099,"ĠÐĶÐµÐ²":5100,"ĠÐ±Ð¾ÐµÐ²Ð¾Ð³Ð¾":5101,"id":5102,"ÐŁÐ¾ÐºÐ°":5103,"ĠÐ¾ÐºÐµ":5104,"ĠÑĢÐ°Ð±Ð¾ÑĤÑĭ":5105,"ĠÐ¿Ð¾Ð´Ð¾Ð·ÑĢÐµÐ²":5106,"ĠÐ½Ð°ÑģÐ»Ð°Ð¶Ð´":5107,"ĠÐ½Ð¸Ð¶Ðµ":5108,"Ð»Ð°ÑģÑĤÑĮ":5109,"ĠÑĥÑģÐ»Ð¾Ð²":5110,"ĠÐ¿Ð¾ÑĢÑıÐ´ÐºÐµ":5111,"ÑĤÐ¸Ðº":5112,"ĠÑĥÑģÑĤÑĢÐ¾":5113,"Ð°Ð¼Ð¿":5114,"ÑģÐºÐ¸Ð¼Ð¸":5115,"Ð°Ð¹Ð½":5116,"ĠÐĺÐ¼Ð¿ÐµÑĢÑģÐºÐ¸Ñħ":5117,"Ð°ÑĢÐ´Ð¸ÑĢÐ¾Ð²":5118,"ĠÐ±ÑĥÐºÐ²":5119,"ĠÐ¾Ð³ÑĢÐ¾Ð¼Ð½Ð¾Ð¹":5120,"ĠÑģÐ¾Ð»Ð½ÑĨÐ°":5121,"ĠÐĳÑĢÐ°Ð½":5122,"ĠÐ±Ð¾Ð»ÑĮÑĪÑĥÑİ":5123,"Ð¼ÑĭÑģ":5124,"ow":5125,"ĠÐ¿Ð¸ÑĤ":5126,"ĠÐ·Ð°Ð·":5127,"ĠÑĥÐ¿Ð¾ÑĢ":5128,"ĠÑįÐºÑģÐ¿":5129,"ĠÐ³Ð¾Ð´":5130,"ĠÐ´ÑĥÑĪÑĥ":5131,"Ð¾Ð²Ñĭ":5132,"ĠÑĪÐµÑİ":5133,"ĠÑĩÑĮÐ¸":5134,"ĠÐ²ÑĭÑĢÐµÐ·":5135,"ÑįÐ»":5136,"ĠÐ¿Ð¾ÑĤÐµÑĢÐ¸":5137,"ĠÑĤÐ²Ð¾Ð¸":5138,"ĠÐ¿Ð¾Ð´ÑĤÐ²ÐµÑĢÐ´":5139,"Ð°ÑĥÐ½ÑĤ":5140,"ĠÑģÐ½Ð°ÑĢÑĥÐ¶Ð¸":5141,"ĠÐºÐ°ÐºÑĥÑİ":5142,"ÑĥÑģÑĤÐ¸ÑĤÑĮ":5143,"ÐµÐ½ÑĤÐ°":5144,"ĠÐ½Ð°ÑģÐµÐ»":5145,"ĠÐ»ÑİÐ±Ð¾Ð³Ð¾":5146,"ĠÐ´Ð¾Ð¼Ð°":5147,"ÑĮÑĤÐµ":5148,"ÑıÑīÐµÐ¹":5149,"ĠÐ»ÐµÐ³Ð¸Ð¾Ð½ÐµÑĢÐ¾Ð²":5150,"III":5151,"ĠÐ¸Ð½ÑģÑĤÑĢÑĥÐ¼ÐµÐ½ÑĤ":5152,"ĠÑįÑĦÑĦÐµÐºÑĤÐ¸Ð²":5153,"ÑĩÐ¸":5154,"ĠÐ³ÑĥÐ´":5155,"ĠÑĢÐ°ÑģÑĪÐ¸ÑĢ":5156,"ĠÑģÐµÐºÑĢÐµÑĤ":5157,"ĠÐ´ÑĢÑĥÐ³Ð¾Ðµ":5158,"Ð¾Ð¶Ð´ÐµÐ½Ð¸Ðµ":5159,"ĠÐºÐ¾Ð½ÑĤÐ°Ðº":5160,"ĠÐ²ÑĭÐ¿Ð¾Ð»Ð½Ñı":5161,"ĠÐ²ÐµÑģÑĤÐ¸":5162,"ĠÐ²Ð¸Ð´Ð½ÐµÐ»":5163,"ĠÐ¾ÑĤÐ²ÐµÑĢÐ½ÑĥÐ»ÑģÑı":5164,"ĠÐºÐ½Ð¸Ð³":5165,"Ð¸Ð»Ð¸Ð¸":5166,"ĠÐ¿ÑĢÐµÐ´ÑģÑĤÐ°Ð²Ð¸ÑĤÑĮ":5167,"ÑĮÐµÐ²":5168,"ĠÐ½ÐµÑĥÐº":5169,"Ð¸Ð²Ð°ÐµÑĤÑģÑı":5170,"ĠÑıÑĢÐºÐ¾":5171,"Ð°ÐµÑĪÑĮÑģÑı":5172,"Ð¼ÐµÐ»":5173,"gh":5174,"Ð´Ð°ÐµÑĤ":5175,"ĠÐºÐ¾ÑģÐ¼Ð¸ÑĩÐµÑģÐºÐ¸Ñħ":5176,"ĠÐ¿Ð¾Ð¼ÐµÑīÐµÐ½Ð¸Ðµ":5177,"ÐĻ":5178,"ÑıÑĩ":5179,"ĠÑĤÐ²Ð¾ÑĢ":5180,"ĠÐ¾ÑģÑĤÐ°ÑĤÐºÐ¸":5181,"ĠÐºÑĥÐ»ÑĮ":5182,"ĠÐ¿ÑĢÐµÑģÑĤ":5183,"Ð¸ÑĤÐµÐ»ÑĮÐ½Ð°Ñı":5184,"Ð¾ÐºÑĢÐ°Ð´":5185,"ĠÐļÐ¾Ð½ÐµÑĩÐ½Ð¾":5186,"ĠÐ°ÑģÑĤ":5187,"ĠÑıÐ´":5188,"ĠÐºÐ¾Ð¶Ð¸":5189,"Ð¸Ð½ÑĥÐ²":5190,"ĠÐ¿ÑĥÑģÑĤÑĮ":5191,"ĠÐ¾Ð±ÑĬÐµÐ´Ð¸Ð½":5192,"ĠÐ²Ð·Ð´Ð¾Ñħ":5193,"ĠÐŃÑĢÐµÐ±":5194,"ĠÑģÐ°Ð¼Ð°":5195,"ĠÐµÐ´Ð¸Ð½ÑģÑĤÐ²ÐµÐ½Ð½ÑĭÐ¹":5196,"ĠÐ´Ð¾Ð½ÐµÑģ":5197,"ĠÑĥÑĢÐ¾Ð´":5198,"Ð¸Ð¼Ð¾Ðµ":5199,"ĠÑĦÐ»Ð°Ð³":5200,"Ð¸ÑĢÐµÐ¿":5201,"Ð°Ð¹ÑģÑı":5202,"ÑĥÑİÑīÐ¸Ðµ":5203,"ĠÑģÐ¼Ð¾ÑĤÑĢÐµÑĤÑĮ":5204,"ĠÐºÐ¸Ð»Ð¾Ð¼ÐµÑĤÑĢÐ¾Ð²":5205,"ĠÐ¾ÑĤÐ¾ÑĢÐ²":5206,"ÐļÐ¾ÑĢ":5207,"Ð½Ð°ÐºÐ¾Ð¼":5208,"ĠÑīÐ¸ÑĤÑĭ":5209,"ĠÑģÐ¼Ð¾Ð¶ÐµÐ¼":5210,"Ð°Ð»Ð¾Ð¼":5211,"ĠÐ´Ð½Ð¸":5212,"ĠÐ´Ð°Ð½Ð½ÑĭÑħ":5213,"ÑĨÐ°Ñħ":5214,"ĠÐ¢Ð¾Ð³Ð´Ð°":5215,"ĠÑħÑĢÐ¸Ð¿":5216,"ĠÐĳÑĢÐ°ÑĤ":5217,"ÑıÐ»Ð°ÑģÑĮ":5218,"ĠÑģÐ¸ÑģÑĤÐµÐ¼Ñĥ":5219,"ĠÑģÑħÐ²Ð°ÑĤÐ¸Ð»":5220,"Ð¸Ð¼Ð°Ð½Ð°":5221,"ĠÐºÑĢÐ¸ÑģÑĤ":5222,"ĠÐļÐ¾Ð¼":5223,"ĠÑģÑĤÐ¾ÑıÐ²":5224,"ĠÐ²Ð¾Ð¹Ð½Ñĥ":5225,"ĠÑĢÐ°Ð²Ð½":5226,"ĠÐ¿ÑĢÐµÑģÐ»ÐµÐ´":5227,"ĠÐ¾Ð±ÑģÑĤÑĢÐµÐ»":5228,"ĠÐºÐ°ÐºÐ°Ñı":5229,"ĠÐ²Ð·ÑıÑĤÑĮ":5230,"ĠÑģÐ¸Ð»Ð°Ð¼Ð¸":5231,"ir":5232,"ĠÐ»ÐµÐ¶Ð°Ð»":5233,"ĠÑĢÐµÐ³":5234,"ÑģÐºÐ¸":5235,"ĠÐ¡Ð°ÑĢ":5236,"ĠÑĤÐ°ÐºÐ¾Ð¼":5237,"ĠÐ¾Ð³ÑĢÐ°Ð½Ð¸Ñĩ":5238,"ĠÐ¾ÑģÑĤÐ°Ð²Ð°Ð»ÑģÑı":5239,"ĠÑĢÐ°ÑģÑģÐµÐº":5240,"ĠÐ½Ð°Ð¿ÑĢÐ°Ð²Ð¸Ð»ÑģÑı":5241,"ÑģÑĤÑĢÐ¾Ð¹":5242,"ĠÐ²ÐµÑĢÐ¾ÑıÑĤÐ½Ð¾":5243,"ÑĬÐµÐ¼":5244,"Ð°Ð½Ð¸":5245,"ĠÐľÐ¾Ð¶ÐµÑĤ":5246,"Ð»ÐµÑĩÑĮ":5247,"ĠÐ¸Ð·Ð¾Ð±ÑĢÐ°Ð¶ÐµÐ½Ð¸Ðµ":5248,"ĠÐºÐ»ÑıÑĤ":5249,"ĠÑĢÐ¾Ðº":5250,"ĠÐ¿ÑĢÐ¾Ð±Ð¾ÑĢÐ¼Ð¾ÑĤÐ°Ð»":5251,"ĠÐ¾ÑĩÐµÑĢÑĤÐ°Ð½Ð¸Ñı":5252,"ĠÑĤÐµÑģ":5253,"ĠÐ±ÐµÐ·Ð¼Ð¾Ð»Ð²":5254,"ĠÐ¼Ð¾Ð¸Ð¼":5255,"ĠÐ±ÐµÑģÐ¿Ð¾ÐºÐ¾Ð¹":5256,"ĠÑģÑĥÐ±":5257,"ÑģÐºÐ¾Ðµ":5258,"ĠÐ¿Ð»Ð°Ð²":5259,"ĠÐ¿Ð¾ÑĩÑĤ":5260,"ĠÑģÐ¸Ð´ÐµÐ»":5261,"ĠÐ·Ð½Ð°Ð»Ð°":5262,"ĠÐ½Ð°ÑĥÑĩ":5263,"ĠÐ¥Ð¾Ð½ÑģÑİ":5264,"ĠÑģÐ¾Ð²ÐµÑĤ":5265,"ĠÐĺÐ½ÐºÐ²Ð¸Ð·Ð¸ÑĨÐ¸Ð¸":5266,"ĠÑģÐ²Ð¸Ð´ÐµÑĤÐµÐ»ÑĮ":5267,"ÐĿÐ°Ð´":5268,"ĠÑĢÐ°ÑģÐ¿Ð°Ñħ":5269,"Ð°ÐºÑĤÐ¸Ð²":5270,"ĠÐºÐ¾ÑģÐ¼Ð¾Ð´ÐµÑģÐ°Ð½ÑĤÐ½Ð¸ÐºÐ¾Ð²":5271,"ĠÐļÐ°Ð·Ð°Ð»Ð¾ÑģÑĮ":5272,"ÐµÐ³Ð°":5273,"ĠâĢĶ":5274,"ĠÐ»ÑıÐ·Ð³":5275,"Ð°Ð³ÐµÑĢ":5276,"ĠÐ¾Ð´ÐµÑĢÐ¶":5277,"ÑĥÐ±Ð¸Ð¾":5278,"ÑįÐ»Ñı":5279,"ĠÐ¾Ð¿ÑĥÑģÐº":5280,"ĠÑģÑĢÐ°Ð¶Ð°Ð»ÑģÑı":5281,"ĠÐ²ÑĤÐ¾ÑĢÐ¶":5282,"ĠÐ½ÐµÑĥÐ´Ð°":5283,"Ð¾Ð»ÑĮÐ½Ð¾":5284,"ĠÐ²Ð¾ÑĪÐµÐ»":5285,"ĠÐºÐ¾Ð»ÐµÐ½":5286,"ÑĤÐ°ÐºÐ¸":5287,"ÑĩÐ¸ÑĤÑĭÐ²Ð°Ñı":5288,"ĠÐ¤Ð¾ÑĢ":5289,"ĠÐ¿Ð°Ð»ÑĮÑĨÐ°Ð¼Ð¸":5290,"ĠÑĥÐ¶Ð°ÑģÐ°":5291,"ĠÑĥÑĤÐ²ÐµÑĢ":5292,"ĠÐ¸Ð½ÑĦÐ¾ÑĢÐ¼Ð°ÑĨÐ¸Ð¸":5293,"ÐŁÐ¾ÑģÐ»Ðµ":5294,"ĠÐŁÐ¾ÑĩÐµÐ¼Ñĥ":5295,"ĠÑģÐ¼ÑĭÑģÐ»":5296,"ĠÐ·Ð°ÐºÑĢÑĭÑĤ":5297,"ĠÑĤÐ²ÐµÑĢÐ´":5298,"ĠÐ´ÐµÐ¼Ð¾Ð½Ð¾Ð²":5299,"Ġwas":5300,"ĠÑģÐ¾Ð¾Ð±ÑīÐµÐ½Ð¸Ðµ":5301,"ĠÑĤÐµÑħÐ½Ð¾Ð»Ð¾Ð³":5302,"ĠÑĢÐ°Ð·Ð¾Ð±":5303,"ĠÐŃÑĤÐ°":5304,"Ð¾Ð»Ð¾Ð´":5305,"Ð¢Ð°Ð»":5306,"ĠÐ¿ÐµÑĢÐµÑħÐ¾Ð´":5307,"ĠÐºÐ°Ð·Ð°Ð»Ð¸ÑģÑĮ":5308,"ĠÑĩÐµÐ¼Ñĥ":5309,"Ð¥Ð¾ÑĢÐ¾ÑĪÐ¾":5310,"ĠÑĤÐ¾ÑĢÐ¿ÐµÐ´":5311,"ĠÐ¿Ð¾Ð»Ð½Ð¾Ð¼":5312,"ĠÐ¿Ð¾Ð¿Ð°Ð»":5313,"ĠÐ·Ð²ÐµÐ·Ð´Ñĭ":5314,"ÑĭÐ²Ð°ÑİÑĤ":5315,"ĠÐ¥ÑĢÐ°Ð¼":5316,"ĠÐ´Ð¾ÑģÑĤÑĥÐ¿":5317,"ĠÐ¿Ð°ÑĢÐ°":5318,"Ð¿ÑĢÐµÐ´":5319,"ĠÑĦÐ¾Ð½":5320,"ĠÐ¿Ð¾ÑĤÑĢÐµÑģÐº":5321,"Ð¼Ð¾ÑĤÑĢ":5322,"ĠÐ½ÐµÐºÐ¾ÑĤÐ¾ÑĢÐ¾Ðµ":5323,"ĠÐ¿Ð°Ð¼ÑıÑĤÐ¸":5324,"ĠÑģÐ¿ÐµÑĪ":5325,"ĠÐ½Ð°Ð¿ÑĢÑıÐ³":5326,"ĠÐ³Ð½":5327,"ĠÑĢÐ°":5328,"ĠÐĴÐ¾Ð¸Ð½":5329,"ĠÑģÐºÐ¾ÑĢÐ¾ÑģÑĤÑĮÑİ":5330,"ÐŀÐ´Ð¸Ð½":5331,"ĠÐļÐ»Ð¸Ð½":5332,"ĠÐ½ÐµÐ´Ð°Ð²Ð½Ð¾":5333,"ver":5334,"Ð»Ð¸ÑĩÐ½Ð¾":5335,"ĠÐ²ÑĭÑĪÐ»Ð¸":5336,"Ð¸ÑĨÑĥ":5337,"ÐŁÐ¾Ð»":5338,"ĠÐ¾ÑīÑĥÑīÐ°Ð»":5339,"ÑĥÑĢÐ¸":5340,"ĠÐ·Ð°ÐºÑĢÑĭÐ»":5341,"ĠÐ¿ÑĢÐ¾ÑĤÐ¸Ð²Ð¾ÑģÑĤÐ¾Ñı":5342,"Ð°ÐµÐ¼ÑĭÐµ":5343,"Ð¾ÑģÐ½Ð¾Ð²":5344,"ĠÐ¾Ð±ÑĥÑĩ":5345,"ĠÐ¡ÐµÐº":5346,"ĠÑģÐ¿Ð¸Ð½Ðµ":5347,"ĠÐ´Ð¾Ð±Ð°Ð²":5348,"ĠÐ¡ÐºÐ¾ÑĢ":5349,"ĠÐ²ÑģÐ¿Ð¾Ð¼Ð½Ð¸Ð»":5350,"ÑħÐ°":5351,"ĠÐ¼Ð¸ÑĢÑĭ":5352,"ĠÐ¿ÑĢÐ¾Ð¸Ð·Ð²Ð¾Ð´":5353,"ÑĪÐ¸ÐµÑģÑı":5354,"Ð°Ð½Ð½ÑĥÑİ":5355,"ĠÐ³Ð¾ÑĢÑĭ":5356,"ĠÐ½ÐµÐºÐ¾ÑĤÐ¾ÑĢÑĭÑħ":5357,"ĠÐ¿ÑĢÐµÐ´ÑĥÐ¿ÑĢÐµÐ´":5358,"ĠÐ¾ÑĤÑĩÐ°ÑıÐ½Ð½Ð¾":5359,"ĠÑĢÐ°ÑģÑģÑĤÐ¾ÑıÐ½Ð¸Ð¸":5360,"ĠÐ¾Ð¿ÑĥÑģÑĤÐ¸Ð»":5361,"ĠÐ¿ÑĢÐµÐ´ÑĥÐ¿ÑĢÐµÐ¶Ð´":5362,"ĠÐ´ÑĢÐ°Ð³Ð¾":5363,"ÑıÐ·Ð²":5364,"ĠÐ»ÑİÐ´ÑĮÐ¼Ð¸":5365,"ÑĥÑİÑīÐ¸Ñħ":5366,"ĠÑģÐºÑĢÐµÐ¶":5367,"ĠÐ´ÑİÐ¶":5368,"ĠÑģÑĥÑī":5369,"Ð°Ð»Ð¾Ð²":5370,"ĠÐĳÐµÑĢ":5371,"ĠÐ²Ð¾Ð·Ð³Ð»Ð°Ð²":5372,"ĠÐ²Ð¸Ð´ÐµÐ»Ð°":5373,"ĠÐ³ÑĢÑĥÐ·Ð¾Ð²":5374,"ĠÑįÐ¿":5375,"Ð¸Ð³ÑĥÑĢ":5376,"ĠÑģÐ¾Ð±ÑĢÐ°Ð²":5377,"ĠÑĢÐ°Ð·Ð´Ð°Ð²":5378,"ĠÐ½Ð°Ð´ÐµÑıÐ»ÑģÑı":5379,"ĠÐ·Ð½Ð°Ñı":5380,"ĠÐ²Ð½ÐµÐ·Ð°Ð¿":5381,"ĠÐĹÐµÐ¼":5382,"ĠÑģÐ°Ð¿":5383,"ĠÐ¡Ð¸Ð½":5384,"ĠÐ¿Ð¾ÑģÐ»ÐµÐ´Ð½ÐµÐ³Ð¾":5385,"Ð¸ÑĢÐ¾Ð²Ð°Ð½Ð½ÑĭÑħ":5386,"ĠÐ²Ð½Ð¸Ð¼Ð°ÑĤÐµÐ»ÑĮÐ½Ð¾":5387,"ÑĭÑĤÑĮ":5388,"ĠÑĥÑģÑĤÑĥÐ¿":5389,"ĠÐ¿Ð¾ÐºÑĢÑĭ":5390,"ĠÐ²Ð¾Ð¹Ð½Ðµ":5391,"ĠÐ¿ÑĢÐ¸Ð±ÑĭÑĤ":5392,"Ð¶Ð¸":5393,"ĠÐļÐ°ÑģÑĤ":5394,"Ð¸ÑĩÐµÑģÐºÐ¾Ð¼":5395,"ÐķÑīÐµ":5396,"ĠÐ±ÐµÑģÐ¿Ð¾ÐºÐ¾":5397,"ĠÐ¢ÐµÐ¼Ð½ÑĭÑħ":5398,"Ð°Ð´Ñĥ":5399,"ÑĢÐ¸ÑĤÐ¾ÑĢ":5400,"ĠÐ³ÑĢÑĥÐ¿Ð¿Ð°":5401,"ĠÐ´Ð¾ÑĢÐ¾Ð³Ñĥ":5402,"ĠÐ¿ÑĢÐ¾Ð»ÐµÑĤ":5403,"ĠÐ¿ÑĢÐ¾Ð½ÐµÑģ":5404,"ĠÐ¡Ð°Ð»Ð°Ð¼Ð°Ð½Ð´":5405,"ĠÑĢÐ°ÑģÐ¿Ð¾ÑĢ":5406,"ĠÑĦÐ¾ÑĢÐ¼Ñĥ":5407,"ĠÐ»ÐµÐ¹ÑĤÐµÐ½Ð°Ð½ÑĤ":5408,"ĠÐ¶Ð´Ð°Ð»":5409,"ĠÐŁÑĢÐ¸Ð·":5410,"ĠÑĩÐµÑĤÑĭÑĢ":5411,"ĠÐ±ÑĢÑĭÐ·":5412,"ĠÑģÑĤÑĢÐ¾Ð¹":5413,"ĠÐ¾ÑģÐºÐ¾ÑĢÐ±":5414,"ĠÐ±Ð¾Ð¼Ð±Ð°ÑĢÐ´Ð¸ÑĢÐ¾Ð²":5415,"ĠÑģÐµÐ½Ñģ":5416,"ĠÐ²ÑĭÐ·Ð¾Ð²":5417,"Ð¾ÑĢÑĤÐ°":5418,"ĠÐ²ÑĭÐ´Ð°Ð²":5419,"Ð»Ð°ÑĪ":5420,"ĠÐ¾Ð´ÐµÐ¶":5421,"ĠÐ¿ÑĢÐ¾ÑĨÐµÑģÑģ":5422,"ĠÐ¾ÑĤÐ¾Ð·Ð²Ð°Ð»ÑģÑı":5423,"ĠÐ²Ð¼ÐµÑĪ":5424,"ĠÐ¸Ð·Ð¾":5425,"Ð¸ÑĨÐ¾":5426,"ĠÐŁÐµÑĢÐ²ÑĭÐ¹":5427,"ĠÐºÐµÑĢÐ°Ð¼Ð¸ÑĤ":5428,"ĠÐ±Ð¾Ð»ÐµÐ·Ð½":5429,"Ð¸Ð¾Ð½Ñĭ":5430,"ĠÐ´Ð°Ð½Ð½ÑĭÐµ":5431,"ĠÐ¿Ð¾ÑĤÑĢÑıÑģ":5432,"ĠÑģÐºÐ¾ÑĢÐ¾ÑģÑĤÑĮ":5433,"ĠÐºÑĥÑĢÑģ":5434,"ĠÐ½ÐµÐ²ÐµÑĢÐ¾ÑıÑĤ":5435,"Ð½Ð¾ÑģÑı":5436,"ĠÐ²Ð¸Ð´Ð½Ð¾":5437,"ĠÐ±Ð¾Ð¶Ðµ":5438,"ĠÑĥÐ´Ð¾Ð²":5439,"ĠÑĩÐµÐ»Ð¾Ð²ÐµÐºÐ¾Ð¼":5440,"ĠÐ¾Ð¿ÑĥÑģÑĤÐ¾ÑĪ":5441,"ra":5442,"ĠÐ³Ð°Ð»":5443,"ĠÐ²ÑģÐ»ÐµÐ´":5444,"ĠÐ¿Ð¾ÐºÐ¾ÑĢ":5445,"ĠÑĥÐ´Ð¾Ð²Ð»ÐµÑĤÐ²Ð¾ÑĢ":5446,"ĠÑĥÐ´Ð°ÑĢÑĭ":5447,"ĠÐ¾Ð±Ð¾ÑĢÐ¾Ð½Ñĭ":5448,"ĠÐ¾ÑĤÑĨÐ°":5449,"ĠÐĶÐ°Ð²":5450,"ĠÐĴÐ¾Ð»ÐºÐ¸":5451,"st":5452,"ĠÑĩÐµÑĢÑĤ":5453,"ĠÐ¿Ð¾Ð»ÑĥÑĩÐ¸ÑĤÑĮ":5454,"ĠÑĥÑģÑĤÐ°Ð»":5455,"ĠÐļÑĢÐµÑģÑĤ":5456,"ĠÐļÑħÐ°ÑĢÐ½":5457,"ĠÐ¿ÑĢÐµÐ´Ð¾ÑģÑĤÐ°Ð²":5458,"ĠÐĿÐµÑģÐºÐ¾Ð»ÑĮÐºÐ¾":5459,"ĠÑĢÐ°Ð±Ð¾Ð²":5460,"ĠÐ¿ÑĢÑĭÐ¶":5461,"ĠÑħÑĢÑĥÑģÑĤ":5462,"Ð½Ð¸ÐºÐ°Ð¼":5463,"ĠÐ´ÐµÑģÐ°Ð½ÑĤÐ½Ð¸ÐºÐ°":5464,"ÐĺÐ¼Ð¿ÐµÑĢÐ°ÑĤÐ¾ÑĢ":5465,"ĠÐ±Ð°Ð³":5466,"Ð¸ÑħÐ¾":5467,"ĠÑģÑĤÐµÐ¿":5468,"ĠÐŀÑĩ":5469,"ĠÐ²ÑĭÐ´ÐµÐ»":5470,"ĠÑĤÑıÐ¶ÑĳÐ»":5471,"ĠÐ¾ÑĤÐ²ÑĢÐ°Ñī":5472,"ĠÐ´Ð¾ÐºÐ°Ð·":5473,"ĠÐºÐ¾Ð¼Ð½Ð°ÑĤÐµ":5474,"ÑĢÐµÐ³":5475,"ĠÐ»Ð¾Ñı":5476,"ĠÑģÑĤÐ°":5477,"ĠÐ¢ÑĢÐ¾Ð½":5478,"ĠÑĪÐ¸ÑĢÐ¾ÐºÐ¾":5479,"00":5480,"ĠÑĩÐµÐ»":5481,"ĠÐ¿Ð¾Ð»ÑĮÐ·":5482,"ĠÐĵÐ´Ðµ":5483,"Ð°Ð²ÑĪÐ¸Ð¼":5484,"ĠÐ¼Ð¾ÑĢÐ³":5485,"Ð¸Ð²Ð°ÑİÑīÐ¸Ðµ":5486,"Ð½Ð¾ÑģÑĤÑıÐ¼Ð¸":5487,"ĠÐ´ÐµÐ¼Ð¾Ð½ÑģÑĤÑĢ":5488,"ĠÐ²Ð·ÑĢÐµÐ²":5489,"ĠÐ·Ð°Ð¼ÐµÐ½":5490,"ĠÐ²Ð»Ð¸":5491,"ĠÑĤÐµÐ»ÐµÐ¿":5492,"ĠÐ§ÐµÐ²":5493,"ĠÐºÑĢÑĭÐ»ÑĮ":5494,"ĠÐ½Ð¾ÑĩÐ¸":5495,"ÐŁÑĢÐ¸":5496,"ĠÑģÐ¾Ð·Ð´Ð°Ð²":5497,"ĠÐ¿ÑĢÐ¾Ð²ÐµÐ»":5498,"ĠÑĪÐ°Ð³Ð¾Ð²":5499,"Ð¾Ð²Ð°Ð½Ð¸ÐµÐ¼":5500,"ĠÐĺÐ½ÐºÐ²Ð¸Ð·Ð¸ÑĤÐ¾ÑĢ":5501,"ĠÐ½Ð°ÑĢ":5502,"ĠÐĶÐ¾":5503,"ĠÐŁÐ¾ÑģÐ»ÐµÐ´":5504,"Ð¸Ð¼Ð¾ÑģÑĤÑĮ":5505,"ĠÑģÐ¾Ð¾ÑĢÑĥÐ¶":5506,"ĠÐ¿ÑĢÐ¾Ð¸Ð·Ð½Ð¾Ñģ":5507,"ĠÑģÑĭÐ½Ð¾Ð²":5508,"ÑħÐ¾ÑĤ":5509,"ÐµÐ½Ð½Ð¾ÑģÑĤÑĮ":5510,"Ð³Ð¾Ð»ÑĮ":5511,"ĠÐ¿ÑĢÐ¸ÐºÑĢÑĭÐ²":5512,"ĠÐ³Ð½ÐµÐ²Ð°":5513,"ĠÐ¾ÐºÑĢÐ¾Ð²Ð°Ð²":5514,"ĠÑĤÐµÐ¼Ð½Ð¾ÑĤÐµ":5515,"ĠÐĴÐ¾Ð¹Ð½Ñĭ":5516,"Ð±Ð¸ÑĤÐµ":5517,"ÑĨÐ¸":5518,"ÑĥÑģÑĮ":5519,"ĠÐ¿ÑĢÐµÐ¾Ð´Ð¾Ð»":5520,"ĠÐĴÐµÐ½ÑĤ":5521,"ĠÐ¿Ð°Ð»ÑĮÑĨÐµÐ²":5522,"ÑĢÐ°Ð·Ð¸Ð»":5523,"ĠÐºÑĢÐ¾ÑĪÐµÑĩ":5524,"ĠÐ±ÐµÑģÐ¿Ð¾Ð»ÐµÐ·":5525,"ĠÐ¾ÑĤÐ´Ð°Ð²":5526,"ĠÐ¿Ð¾Ð²ÑĤÐ¾ÑĢÐ¸Ð»":5527,"ÑİÑģÑĮ":5528,"ĠÑĥÑģÐ¼ÐµÑħÐ½ÑĥÐ»ÑģÑı":5529,"Ð¸ÑĨÐ¸Ñı":5530,"ĠÐ¿ÑĥÑģÑĤÐ¾ÑĤ":5531,"ĠÐ½ÐµÑģÑĩÐ°ÑģÑĤ":5532,"ĠÐ¿Ð¾Ð³Ð¸Ð±Ð»Ð¸":5533,"ĠÐºÐ¾Ð½ÑĤÑĢÐ¾Ð»ÑĮ":5534,"ĠÐ¿Ð¾Ð´Ð¾Ð·ÑĢ":5535,"ĠÐ°Ð²ÑĤÐ¾Ð¼Ð°ÑĤ":5536,"Ð¾Ð»Ð¾Ð¼":5537,"ĠÑĢÐ¾Ð»ÑĮ":5538,"ĠÐ²ÑĭÐ²Ð¾Ð´":5539,"ĠÐ°Ð³":5540,"ĠÐ»Ð¾Ðº":5541,"ÑĥÑĪÐºÑĥ":5542,"ĠÐ¾ÑĤÐ´ÐµÐ»ÑĮ":5543,"ĠÐ¼ÑĢÐ°Ð¼":5544,"ĠÐ¿Ð¾Ð·Ð¶Ðµ":5545,"ĠÐ¾ÑĢÐ±Ð¸ÑĤÐµ":5546,"ÐĹÐ½Ð°ÑĩÐ¸ÑĤ":5547,"ÑĳÐ½Ð½ÑĭÐ¹":5548,"ĠÑĤÐ¾ÑĩÐºÐ¸":5549,"ĠÐļÑĥÐ»Ð°ÐºÐ¾Ð²":5550,"ĠÐ¿ÑĢÐµÐºÑĢÐ°ÑģÐ½Ð¾":5551,"ĠÐ³Ð°ÑĢ":5552,"ĠÑģÑĤÐ°Ð²":5553,"ĠÐ¿Ð°Ð»ÑĥÐ±Ñĭ":5554,"ÑĳÐ½Ð½ÑĭÐµ":5555,"ĠÐ¿ÐµÑĢÐµÑħÐ²Ð°ÑĤ":5556,"ÑĢÑĥÐ½":5557,"Ð¾Ð¿Ð¸Ñģ":5558,"ĠÐ¿ÐµÑĢÐµÑĪ":5559,"ÑĢÐ°ÑĤÐ½Ð¾":5560,"ĠÐºÐ°Ð¼Ð¿":5561,"ĠÐ´ÑĥÐ¼Ð°ÑĤÑĮ":5562,"ĠÐļÐ°Ð¼":5563,"ÑĥÐ´ÑĢ":5564,"ÐĹÐ°ÑĤÐµÐ¼":5565,"ĠÑĤÐµÑĢÑĢÐ¸ÑĤÐ¾ÑĢ":5566,"ĠÑģÐ¼Ð¾Ð³ÑĥÑĤ":5567,"ĠÐ´Ð¾ÐºÐ»Ð°Ð´":5568,"Ð¸ÑīÐ°":5569,"ĠÐ¿Ð¸Ð»Ð¾ÑĤ":5570,"Ð°ÑĤÐ¸Ð»ÑģÑı":5571,"ĠÑģÑĤÐ¸Ñħ":5572,"ĠÑģÐºÐ¾Ð¿":5573,"ĠÐ½Ð°Ð¿ÑĢÐ°Ð²Ð»ÐµÐ½Ð¸Ð¸":5574,"ĠÐ±Ð¾Ð»ÑĤÐµÑĢÐ¾Ð²":5575,"ĠÑģÐ¾Ð»Ð½ÑĨÐµ":5576,"Ð°ÑĢÑĭ":5577,"ÐŁÐŀ":5578,"ĠÐ£Ð¶":5579,"ĠÐ±Ð¾Ð»ÑĮÑĪÐµÐ¹":5580,"Ð¢Ð°Ð»Ð¾Ñģ":5581,"ĠÐ¾ÑĤÑĢÐµÐ·":5582,"Ð¾Ð³Ð¾Ð²":5583,"ĠÑĢÐ°ÑģÑģÐºÐ°Ð·ÑĭÐ²":5584,"ÐĵÐ´Ðµ":5585,"ĠÐ´Ð¶ÑĥÐ½":5586,"ĠÐ¿Ð¾Ð´Ñģ":5587,"ĠÐŁÐ°Ð´":5588,"ĠÐ¿ÐµÑĢÐµÐ»":5589,"ĠÐ¿ÑĢÐ¾Ñħ":5590,"ĠÐĶÑĥÑĪÐ¸":5591,"ÐŁÑĢÐµÐ´":5592,"ĠÐ²ÑĭÑģÐ¾ÐºÐ¾":5593,"ith":5594,"ÐµÐ²ÑĪÐ¸Ðµ":5595,"ÐºÐ²Ð¸Ð»":5596,"Ð½Ð¸Ð¼Ð¸":5597,"Ð»ÑģÑı":5598,"ĠÑĤÐ¸ÑĤÐ°Ð½":5599,"ĠÑħÐ¸ÑĤ":5600,"ÐļÐ¾":5601,"ĠÐ½Ð°ÑĩÐ°Ð»Ð¾":5602,"ĠÐ¿ÑĢÐ¾ÑĪÐ»Ð¸":5603,"ĠÑĢÐµÑĪÐµÐ½Ð¸Ðµ":5604,"ĠÐ¿ÑĢÐµÐ²ÑĢÐ°ÑĤÐ¸Ð»ÑģÑı":5605,"ĠÐ¼Ð°Ð½ÐµÐ²":5606,"ĠÑģÐ¿Ð°ÑģÑĤÐ¸":5607,"ĠÐĶÐ²Ð¾ÑĢ":5608,"ĠÑģÐ¾Ð¶Ð°Ð»":5609,"ĠÑĢÐ°Ð·Ð³Ð»ÑıÐ´ÐµÑĤÑĮ":5610,"ÑĥÐ²ÐµÑĢ":5611,"ĠÐ½Ð¾Ð²ÑĭÑħ":5612,"ĠÐ¼ÐµÑħÐ°Ð½Ð¸Ð·Ð¼":5613,"ĠÑģÐ¼Ð¾ÑĤÑĢÐµÐ»Ð¸":5614,"Ð¼Ð°Ð½Ð°":5615,"Ð¸ÑĢÐ¾Ð²Ð°Ð»Ð°":5616,"Ð¢ÐµÐ¼":5617,"Ð°ÑĨÐ¸ÐµÐ¹":5618,"ĠÑģÐºÐ°ÑĥÑĤ":5619,"ÐĴÐ°ÑĢ":5620,"ÐŁÐ¾Ð²":5621,"ĠÑĨÐµÐ»ÑĮÑİ":5622,"ÐµÐ¹Ð²ÐµÐ½":5623,"ĠÑĢÐ°Ð·ÑĢÐµÑĪ":5624,"ĠÐĲÐ²":5625,"ĠÐ¿Ð¾Ð³Ð»Ð¾ÑĤ":5626,"ĠÐ·Ð°Ð»Ðµ":5627,"ĠÑģÑĤÑĢÐµÐ¼Ð¸ÑĤÐµÐ»ÑĮÐ½Ð¾":5628,"ĠÐ´ÑĥÐ³":5629,"ĠÑĥÐ»ÑĮÑı":5630,"Ð¸Ð¼Ð°":5631,"ĠÑħÐ»Ð¾Ð¿":5632,"ĠÐ£Ð»ÑĮÑĤÑĢÐ°Ð´ÐµÑģÐ°Ð½ÑĤÐ½Ð¸Ðº":5633,"ÑĤÑĢÐ¸":5634,"ÑİÐ¼":5635,"ĠÐ²Ð¾Ð»Ð½Ñĭ":5636,"ĠÐ¾Ð³ÑĢÐ¾Ð¼Ð½ÑĭÑħ":5637,"Ð°Ð½Ð¸ÑıÐ¼Ð¸":5638,"ĠÑĤÑĭÑģÑıÑĩÐµÐ»ÐµÑĤ":5639,"ĠÐĽÐ¾ÑĢÐµÐ½ÑĨÐ¾":5640,"ÑĪÐ¸Ð²":5641,"Ð¸ÑģÐ¿":5642,"ĠÐ§ÐµÐ»Ð¾Ð²ÐµÑĩ":5643,"ut":5644,"ÐµÐ»Ðµ":5645,"Ð¾Ð½ÑıÑĤ":5646,"ĠÑģÐ»ÐµÐ´Ð¾Ð²Ð°Ð»Ð¾":5647,"Ð¸Ð±ÐµÑĢ":5648,"ĠÐ¡Ð°ÑĢÐ¿ÐµÐ´Ð¾Ð½":5649,"ĠÐĹÐ²":5650,"ĠÐ¾ÑĤÐºÑĢÑĭÑĤÑĮ":5651,"ĠÐ¸Ð´ÐµÑĤ":5652,"ĠÑĤÑĮÐ¼Ñĥ":5653,"Ð¾Ð²Ð¾ÑĢÐ¸ÑĤÑĮ":5654,"ĠÐ´ÑĢÑĥÐ·":5655,"ĠÐ¾Ð±ÑĢÐ°ÑĤÐ¸Ð»ÑģÑı":5656,"ĠÐ¿Ð¾Ð»ÐºÐ¾Ð²Ð½Ð¸Ðº":5657,"ĠÑĤÑĳÐ¼":5658,"ĠÐ²Ð¾ÑģÐµÐ¼ÑĮ":5659,"ĠÑģÑĥÐ¼ÐµÐ»":5660,"ĠÐ¿ÑĢÐµÐ¿":5661,"ĠÐ½Ð°Ð¿Ð¾Ð¼Ð½":5662,"ĠÐ½Ð°Ð¿Ð¾Ð»Ð½Ñı":5663,"ĠÐ²Ð¾Ð¿Ð»Ð¾Ñī":5664,"ÐºÐ¾Ð½":5665,"Ð¸ÑĢÐ°Ð»Ð¸":5666,"Ð¸Ð·Ñĥ":5667,"ĠÐ¾ÑģÐ¾Ð·Ð½Ð°Ð»":5668,"ĠÐĴÐ¾Ð¸Ð½Ð¾Ð²":5669,"ÑģÑĤÐ°Ð½":5670,"ĠÐ¿ÑĢÐ¸Ð·ÑĢÐ°Ñĩ":5671,"ÐµÐ½Ð½Ð¾ÑģÑĤÐ¸":5672,"ĠÐĶÑĢÐ°Ðº":5673,"Ð¸ÑĢÑĥÑĢÐ³":5674,"ĠÑģÐ²ÐµÑĢÑħÑĥ":5675,"ÐµÑħÐ½":5676,"ÐºÐ¾Ð²Ð½Ð¸Ðº":5677,"ĠÐ¿ÑĢÐµÐ´Ð¿Ð¾Ð»Ð°Ð³":5678,"ĠÐ´ÑĢÐ°Ðº":5679,"Ð¾Ð´Ð¾Ð»Ð¶":5680,"ÐŁÐ¾ÑĤ":5681,"Ð¸ÑĤÐµÐ»ÑĮÐ½ÑĥÑİ":5682,"ĠÑįÐ»ÐµÐºÑĤÑĢ":5683,"ĠÑĢÐ¾Ð²":5684,"ĠÐ¾ÑīÑĥÑīÐµÐ½Ð¸Ðµ":5685,"ĠÐ¿ÐµÑģÐº":5686,"ĠÐ¾ÑĤÐµÑĨ":5687,"ÑĭÐ²Ð°Ð»Ð¾":5688,"ĠÐ²ÑĢÐµÐ¼ÐµÐ½":5689,"ĠÐ´ÐµÐ»Ð°ÐµÑĤ":5690,"ĠÐºÐ¾Ð½ÐµÑĩÐ½Ð¾ÑģÑĤÐ¸":5691,"ĠÐŁÐ¾ÑĤÐ¾Ð¼":5692,"Ð¾ÑĩÐºÐ¸":5693,"ĠÑĢÐµÐ¼":5694,"ĠÐĴÑĢÐ°Ð³":5695,"Ð¸ÑģÑĤÑĭ":5696,"ÑĢÐ°Ð±Ð»ÑĮ":5697,"ĠÑĩÐµÑĢÐ½ÑĭÐµ":5698,"ĠÐĴÐ°ÑĢÑģ":5699,"ĠÐ¿Ð¾Ð´ÐºÑĢÐµÐ¿":5700,"ĠÑĢÐ°ÐºÐµÑĤ":5701,"ÑĩÐ°Ð»":5702,"ĠÐ»Ð¸Ð´":5703,"ĠÑģÐ²Ð¸ÑĢÐµÐ¿":5704,"ĠÐ¸Ð½ÑĦÐ¾ÑĢÐ¼Ð°ÑĨÐ¸Ñİ":5705,"ĠÐ²ÐµÐ»Ð¸ÑĩÐ°Ð¹":5706,"ĠÐ¾ÑĤÐ¾":5707,"ĠÐ»ÑİÐ±Ð¾Ð¼":5708,"ĠÐ¿ÑĢÐ¾Ð´Ð²Ð¸Ð³":5709,"ĠÐ»Ð°Ð±Ð¸ÑĢÐ¸Ð½":5710,"?Â»":5711,"ÑģÑĤÐ²Ð¸ÐµÐ¼":5712,"ĠÐ¿Ð¾Ð»Ð¾Ð¶ÐµÐ½Ð¸Ðµ":5713,"ĠÐ²Ð»Ð°ÑģÑĤÐ¸":5714,"Ð°Ð»Ð¸Ð»ÑģÑı":5715,"ĠÐ¼Ð°Ð½ÑĤ":5716,"ĠÐ¾ÐºÐ°Ð·Ð°ÑĤÑĮÑģÑı":5717,"ĠÑĢÐ¶Ð°Ð²":5718,"ĠÑĦÐ°Ðº":5719,"Ð°ÑĪÐ°":5720,"ĠÐ¿Ð¾Ð´Ð½ÑıÐ²":5721,"ĠÐ´Ð²Ð¸Ð³Ð°Ð»ÑģÑı":5722,"ĠÐ¸Ð¼Ð¿Ð»Ð°Ð½ÑĤ":5723,"ĠÐ¾ÑĤÐ¼ÐµÑĩ":5724,"ĠÐ¿ÑĢÐ¸Ð²ÑĭÐº":5725,"ĠÐ¿ÑĢÐ¸ÑģÑĤÑĥÐ¿":5726,"ĠÐłÑĭÑĨÐ°ÑĢ":5727,"ĠÐ½Ð°ÑĪÐµ":5728,"Ð¶Ð¸Ð³":5729,"ĠÐ¾Ð´ÐµÑı":5730,"ĠÐ¾ÐºÐ°Ð·ÑĭÐ²":5731,"ĠÐ¿ÑĢÐ¾ÑĤÐ¸Ð²Ð¾Ð¿Ð¾Ð»Ð¾Ð¶":5732,"ĠÐ²Ð°Ð¶Ð½Ð¾":5733,"ÐµÐ¶Ð°Ð»":5734,"ĠÑĦÑĢÐ¾Ð½":5735,"ĠÑĢÐµÑĪÐµÑĤ":5736,"ĠÐ¾ÑĦÐ¸ÑĨÐµÑĢÐ¾Ð²":5737,"ĠÐ¿ÑĢÐµÑģÑĤÑĥÐ¿":5738,"Ð½Ð¸ÑĨÑĥ":5739,"ĠÐ¾ÑģÐ¾Ð·Ð½":5740,"ĠÐ¾Ð¿ÑĢÐ°Ð²":5741,"ĠÑĢÐ°Ð·Ð²Ðµ":5742,"Ġst":5743,"ĠÐ¾ÑģÑĤÐ°Ð½Ð°Ð²Ð»Ð¸Ð²":5744,"ĠÑĥÑĢÐ¾Ð²Ð½Ñı":5745,"ĠÐ¾ÑĩÐµÐ²Ð¸Ð´Ð½Ð¾":5746,"ĠÐ±ÑĥÐ½Ðº":5747,"ĠÑĢÐ°ÑģÑģÐ»":5748,"ĠÐ»ÑĥÑĩÐ¸":5749,"ĠÐºÐ»ÑĥÐ±":5750,"Ð½ÐµÑĤÑģÑı":5751,"ÑĨÐ²ÐµÑĤ":5752,"Ð¾ÑĤÑĮ":5753,"ĠÐĴÐ¾ÐºÑĢÑĥÐ³":5754,"ĠÑģÑĤÐ¾ÑıÐ»Ð°":5755,"ĠÑģÐ»ÐµÐ´Ð¾Ð¼":5756,"ĠÐ¿Ð¾Ð´Ð¾Ð±Ð½ÑĭÐµ":5757,"ĠÑģÐ¾ÑĤÐµÐ½":5758,"ĠÐ±ÐµÑģÐ¿Ð¾ÑĢÑıÐ´":5759,"ĠÐ¸ÑģÐºÑĥÑģÑģÑĤÐ²ÐµÐ½":5760,"ÑīÐ¸Ðº":5761,"ĠÐ¡ÐµÑģÑĤ":5762,"ĠÐ¶ÐµÐ»Ð°Ð½Ð¸Ðµ":5763,"ĠÐ±ÐµÐ¶Ð°ÑĤÑĮ":5764,"Ġ2":5765,"ĠÐ¾Ð±Ð¼Ð°Ð½":5766,"ĠÑĢÐ°ÑģÑĩ":5767,"ĠÑģÑĤÐ¾Ð¸Ð»Ð¾":5768,"ĠÐ¼Ð°Ð»ÐµÐ¹":5769,"Ð°Ð»ÑĥÐ¹ÑģÑĤÐ°":5770,"ĠÐºÐ»ÑİÑĩ":5771,"ĠÐ½ÐµÐ²Ð¾Ð·":5772,"ĠÐ¿Ð¾ÑģÐ¼Ð¾ÑĤÑĢ":5773,"ĠÐ²Ð¾Ð¿ÑĢÐ¾ÑģÑĭ":5774,"ÑĩÐ¸ÐºÐ°":5775,"ÑģÑĤÐµÑģÑĤÐ²ÐµÐ½":5776,"ĠÑĥÑī":5777,"ĠÑĥÑģÐ¿Ð¾ÐºÐ¾":5778,"ÑĢÑĭÐ³Ð½ÑĥÐ»":5779,"Ð¼Ð¸Ð½Ð¸ÑģÑĤÑĢ":5780,"ĠÐ·Ð¼Ðµ":5781,"Ð°Ð»ÑĮÐ½Ð¾Ð¼":5782,"ÐĴÐµÑĢ":5783,"ÑĥÐ»Ð¾Ð²":5784,"ĠÐ¼Ð¾ÐµÐ¼Ñĥ":5785,"ĠÐ¼Ð°ÑĪÐ¸Ð½Ñĥ":5786,"ĠÐ¿ÑĢÐ¾Ð²ÐµÐ´":5787,"ĠÐ¿ÑĢÐµÐ´ÑģÑĤÐ°Ð²Ð»ÑıÐ»":5788,"ĠÐĸÐµÐ»ÐµÐ·Ð½ÑĭÐµ":5789,"ĠÑģÐµÐ¼ÑĮ":5790,"ĠÑĤÑīÐ°ÑĤÐµÐ»ÑĮÐ½Ð¾":5791,"ĠÐ±ÑĥÐ¼":5792,"ĠÑģÐ¸Ð»Ð°Ñħ":5793,"ĠÐ¾ÑĤÐºÑĢÑĭÐ»Ð¸":5794,"ĠÐĴÑĥÐ»ÐºÐ°Ð½":5795,"ÑĢÑıÑħ":5796,"ĠÐłÐ°Ð³Ð½Ð°ÑĢÐ°":5797,"ĠÑĤÑĮÐ¼Ðµ":5798,"Ð²ÐµÑģÑĤÐ¸":5799,"ĠÑĤÑĥÑĢ":5800,"ĠÐ¿Ð¾Ð»Ð¾Ñģ":5801,"ÑĨÐµÐ¿Ñģ":5802,"ĠÐ²ÐµÑĢÐ¾ÑıÑĤ":5803,"ĠÐ¸ÑģÐ¿ÑĥÐ³":5804,"ĠÑħÐ¾ÑĩÐµÑĤ":5805,"Ġbe":5806,"Ð¾Ð³Ð°":5807,"ÑĥÐ¼Ðµ":5808,"ĠÑĢÐ°ÑģÑģÑĩÐ¸ÑĤ":5809,"ĠÐļÐ¾ÑģÐ¼Ð¸ÑĩÐµÑģÐºÐ¾Ð³Ð¾":5810,"ĠÐĳÐ¾Ð³Ð°":5811,"Ð¸Ð²Ð°ÑİÑīÐ¸Ñħ":5812,"Ð¡ÐµÑĢÐ¶Ð°Ð½ÑĤ":5813,"ĠÑĦÐ¾ÑĢÐ¼Ðµ":5814,"ĠÐ²Ð¸Ñħ":5815,"ĠÐ¢Ðµ":5816,"ĠÐ¼ÐµÑĤÑĢÐ°Ñħ":5817,"ĠÐ¿ÑĢÐ¸Ð²ÐµÐ´":5818,"ÐŀÑģÑĤ":5819,"ÐĶÐ°Ð¶Ðµ":5820,"ĠÐ¿ÑĢÐµÐ¶":5821,"ĠÐºÑĢÐµÐ¿Ð¾ÑģÑĤÑĮ":5822,"ĠÑĩÐ°ÑģÐ°":5823,"ĠÐ¿ÑĢÐµÐ¸Ð¼":5824,"Ð®":5825,"Ð¾Ð²ÑĭÐ¼Ð¸":5826,"ĠÐ¼ÑıÑģ":5827,"ĠÐ¿Ð»Ð°Ð·Ð¼":5828,"ÑĥÑĦ":5829,"ĠÐ¡Ð¾Ð²":5830,"ĠÐ»Ñĥ":5831,"ĠÐ¾ÑĤÐ²ÐµÑĤÐ°":5832,"ĠÐ¿ÐµÑĢÐµÐ¼ÐµÑī":5833,"ÑĢÐµÐº":5834,"ĠÑģÐ½Ð°ÑĩÐ°Ð»Ð°":5835,"ĠÐ²Ð»Ð°Ð¶":5836,"ĠÐŁÐ¾ÑħÐ¾Ð¶Ðµ":5837,"ĠÐ·Ð°ÐºÑĢÐµÐ¿":5838,"Ð»ÐµÐ³":5839,"Ð¸Ð¼Ð¾Ð³Ð¾":5840,"ĠÐ¿Ð»ÐµÑĩÐ¸":5841,"ĠÐ¿ÑĥÑĪÐºÐ¸":5842,"ĠÑįÐºÐ¸Ð¿Ð°Ð¶Ð°":5843,"Ð¸Ð°ÑĢÑħ":5844,"ĠÑĥÐ¹ÑĤÐ¸":5845,"Ð¾Ð·Ð½Ð°Ñĩ":5846,"ĠÐļÑĢÐ¾Ð¼Ðµ":5847,"ĠÑģÑĤÐ°Ð±":5848,"ĠÑĨÐ¸ÑĤÐ°Ð´":5849,"ĠÐ¿Ð¾Ð·Ð¸ÑĨÐ¸Ñİ":5850,"ĠÐºÑĥÑĩ":5851,"Ð¾Ð³Ñĥ":5852,"ÑĭÐ²Ð°Ð»ÑģÑı":5853,"ĠÐ²ÐµÑĤÑĢÐ°":5854,"ĠÐ¿Ð¾ÑħÐ¾Ð´Ð°":5855,"ĠÐ²ÑĨÐµÐ¿":5856,"ĠÐ¿ÑĢÐ¾Ð¹ÑĤÐ¸":5857,"ĠÐ²ÐµÑīÐ¸":5858,"ĠÐºÐ¸Ð½":5859,"Ð·Ð¾ÑĢ":5860,"Ð¸ÐºÑĥÑģ":5861,"ÐµÐ²ÑĪÐ¸Ñħ":5862,"ĠÐ³Ð»ÑĥÑħ":5863,"ĠÑħÐ²Ð¾ÑģÑĤ":5864,"ÑĪÐµÐ»Ð¾Ð¼":5865,"ĠÐ¼ÐµÑĢÑĤÐ²ÐµÑĨ":5866,"Ð°Ð»ÑĮÐ½ÑĭÐ¼Ð¸":5867,"Ð¸Ð²ÑĪÐµÐ³Ð¾":5868,"ÑĪÑĤÐ°Ð±":5869,"ĠÐ¾ÑĩÐ¸ÑģÑĤ":5870,"ĠÐ¾Ð³ÑĢÐ¾Ð¼Ð½Ð¾Ð³Ð¾":5871,"ĠÐ´ÑĥÐ¼Ð°ÐµÑĪÑĮ":5872,"ĠÐ¿ÑĢÐ¾Ð¸Ð·Ð½ÐµÑģÐ»Ð°":5873,"ĠÑĤÑıÐ¶ÐµÐ»ÑĭÐµ":5874,"Ð°ÑĤÐµÐ»ÑıÐ¼Ð¸":5875,"ĠÐĲÐ»ÑĮÑĦ":5876,"Ð¾ÑĤÐ¾Ð¹":5877,"ĠÐ¾ÑĢÑĥÐ¶ÐµÐ¹":5878,"ĠÐ±Ð¾Ð³Ð¾Ð²":5879,"ĠÐ±ÑĥÑĪ":5880,"Ð°Ð³Ð¸":5881,"ĠÑĢÐ°Ð·Ð¼Ð°Ñħ":5882,"ĠÐ¿Ð»Ð¾ÑħÐ¾":5883,"ĠÐ¸Ð±Ð¾":5884,"ĠÐ¿Ð¾ÑģÐ¾Ñħ":5885,"ĠÐ±Ð¾Ð»ÑĮÑĪÐ¸Ð¼":5886,"ĠÐ»ÐµÐ·Ð²Ð¸Ðµ":5887,"ĠÑģÐ¸ÑĢ":5888,"Ð²Ð°Ð¹":5889,"ĠÑģÐ¶Ð°Ð»":5890,"ĠÐµÐ´Ð¸Ð½ÑģÑĤÐ²ÐµÐ½Ð½ÑĭÐ¼":5891,"ĠÐ³Ð²Ð°ÑĢÐ´ÐµÐ¹ÑĨÐµÐ²":5892,"Ð¶Ð°Ð»Ð¾ÑģÑĤ":5893,"Ð°ÑĤÑĭÐ¹":5894,"ĠÐ¾ÑĢÐ³":5895,"ĠÐ±Ð¾Ð»ÑĮÑĪÐ°Ñı":5896,"ĠÐ½Ð°ÑħÐ¼ÑĥÑĢÐ¸Ð»ÑģÑı":5897,"ĠÐľÐ½Ð¾Ð³Ð¸Ðµ":5898,"ĠÐ°Ð¿Ð¿Ð°ÑĢ":5899,"ĠÑĩÑĥÐ²ÑģÑĤÐ²ÑĥÑı":5900,"ĠÐ³ÑĢÐ°Ð´":5901,"Ð°ÑīÐ¸Ðµ":5902,"ĠÐ²ÑĭÑģÑĤÑĢÐµÐ»Ñĭ":5903,"ĠÑģÐ½ÑıÐ»":5904,"Ġ+":5905,"ĠÑĤÑĢÑĥ":5906,"ĠÐ¿Ð¾Ð´Ð½ÑıÑĤÑĮÑģÑı":5907,"ĠÐºÐ¸Ð²Ð½ÑĥÐ»Ð°":5908,"ĠÐ¿Ð¾ÑıÐ²Ð¸Ð»Ð°ÑģÑĮ":5909,"ĠÑģÑĭÐ½":5910,"ĠÐ½ÐµÐ±Ð¾Ð»ÑĮÑĪÐ¾Ð¹":5911,"Ð¾Ð»ÑĩÐ°Ð»":5912,"ĠÐ¿ÑĢÐ¾Ð¸Ð·Ð½ÑĳÑģ":5913,"Ð¸Ð¼ÑĭÑħ":5914,"ĠÑģÐºÑĢÐ¸Ð¿":5915,"ĠÑĥÑģÐ¿ÐµÑħ":5916,"ĠÐ¢Ð¸ÑĢ":5917,"ĠÐ²Ð°ÑĪÐ¸":5918,"ĠÐĵÐ²Ð°ÑĢÐ´ÐµÐ¹":5919,"ĠÐ¿Ð¾ÐºÐ°Ð·Ð°Ð»":5920,"ĠÐ¶Ð¸ÑĤÑĮ":5921,"ĠÐ·Ð°Ð¿Ð°Ñģ":5922,"ĠÑĤÐ¾ÑĢÐ³Ð¾Ð²":5923,"ĠV":5924,"ĠÑĢÐ°Ð·Ð¾Ñĩ":5925,"ĠÑĤÐ°ÐºÑĥÑİ":5926,"ĠÐ²ÐµÑĢÐ½Ð¾":5927,"ÐµÐ»Ð¾Ð²ÐµÐº":5928,"ĠÐ²Ð·Ð³Ð»ÑıÐ´Ð°":5929,"ĠÐ¿ÑĢÐ¸Ð¼ÐµÐ½":5930,"ÑİÑīÐ¸Ðµ":5931,"ĠÑĢÐ°ÑģÑģÐ¼ÐµÑıÐ»ÑģÑı":5932,"ĠÑģÑĩÐ¸ÑĤÐ°Ð»":5933,"ĠÑĤÐ°Ð½ÐºÐ¾Ð²":5934,"ĠÐ¾Ð³Ð»ÑıÐ½ÑĥÐ»ÑģÑı":5935,"ĠÐ¿Ð°ÑĤÑĢÑĥ":5936,"ÑĢÑĭÑĤÑĮ":5937,"ĠÑįÑĤÐ¸Ð¼Ð¸":5938,"ĠÐ°ÑĢÐ±Ð¸ÑĤ":5939,"ÑħÐ²Ð°ÑĤÐ¸Ð»":5940,"ĠÐĿÑĥ":5941,"ĠÑĤÐ°ÐºÐ°Ñı":5942,"Ð½Ð°Ð¶Ð´Ñĭ":5943,"ĠÐºÐ°ÐºÐ¸Ñħ":5944,"Ð°ÑĩÐµÐ¼":5945,"ĠÑĤÐµÐ¼Ð½ÑĭÐµ":5946,"ĠÐ¿Ð¾ÑĢÑĥÑĩ":5947,"ĠÐºÐ¾Ð³ÑĤÑıÐ¼Ð¸":5948,"Ð²ÑıÑī":5949,"ĠÐ³Ð¾Ð»Ð¾Ð²Ð°Ð¼Ð¸":5950,"ÐµÐ»ÑıÐ½":5951,"ĠÐ¾Ð±Ð»Ð°ÐºÐ°":5952,"ĠÐ¾ÑĩÐµÑĢÐµÐ´Ð½Ð¾Ð¹":5953,"ĠÐ´Ð»":5954,"ĠÐ¿Ð¾ÑĪÐµÐ»":5955,"Ð¾Ð·Ð°":5956,"ĠÐ¿Ð¾Ð»ÐµÐ·":5957,"Ġwith":5958,"ĠÐ¶Ð°Ð¶":5959,"ĠÐ¿ÑĢÐµÐ´Ð¿ÑĢ":5960,"ĠÐ´Ð¾Ð¿Ð¾Ð»Ð½":5961,"ĠÐ±Ð¾ÑĤÐ¸Ð½":5962,"ĠÐ¡ÐµÑĢÐ¶Ð°Ð½ÑĤ":5963,"ĠÑģÐ¸ÑģÑĤÐµÐ¼Ðµ":5964,"ĠÐ±Ð¾Ð¹ÑĨÐ¾Ð²":5965,"ĠÐ³ÑĢÐ¾ÑħÐ¾ÑĤÐ¾Ð¼":5966,"Ð°Ð½ÑĩÐ¸Ð²":5967,"ĠÐ¡Ð°Ð¹":5968,"Ð¸Ð²ÑĪÐµÐ³Ð¾ÑģÑı":5969,"ĠÐ¸Ð½Ð¾Ð³Ð´Ð°":5970,"ĠÐºÐ¾Ð»ÐµÐ±":5971,"ĠÑĥÐ²Ð¸Ð´ÐµÐ»Ð°":5972,"ĠÐ¿ÑĢÐ¸Ð¼ÐµÑĢÐ½Ð¾":5973,"ÐĹÐ°Ð²":5974,"Ð¾ÑĢÐ´Ð°Ð¶":5975,"Ð¾Ð¼ÐµÑĢ":5976,"ĠÐºÐ¾Ð¼Ð°Ð½Ð´Ð¸ÑĢÐ°":5977,"ĠÐºÐ¾Ð½ÑģÑĤÑĢÑĥÐº":5978,"ĠÐ¿Ð¾ÑģÐ»ÐµÐ´Ð¾Ð²Ð°Ð»":5979,"ĠÑĤÐ¸ÑĤÐ°Ð½Ð°":5980,"ÑĢÐ°ÑĩÐ½Ð¾":5981,"ĠÐ±ÐµÑģÑĩÐ¸Ñģ":5982,"ĠÐ¼Ð¾Ð¶ÐµÑĤÐµ":5983,"ÑıÑĤÐ¾":5984,"ĠÐ²ÑĢÑıÐ´":5985,"Ð¾Ð²Ð¾Ðµ":5986,"ÐĴÐ·":5987,"ÑĢÐ¸ÐºÑģ":5988,"ĠÐĽÐµÐ²":5989,"ĠÐ²ÑĢÐ°Ð³Ð¸":5990,"ÐµÐ»ÐµÐ½Ð½Ð¾Ð¹":5991,"ĠÐĵÐ¸Ð´":5992,"ĠÐĴÐ¼ÐµÑģÑĤÐ¾":5993,"ĠÑģÑħÐ¾Ð´":5994,"Ð³Ðµ":5995,"ĠÐĲÑģÑĤÑĢ":5996,"Ð¸ÑĤÐµÐ»ÑĮÐ½ÑĭÐ¼Ð¸":5997,"ÐĵÑĢÐ¾Ð·":5998,"ĠÐ·Ð°Ð´ÑĢÐ¾Ð¶":5999,"ĠÑĢÐ°Ð·Ð²Ð¾ÑĢÐ°ÑĩÐ¸Ð²":6000,"ÐµÑĢÐ»Ð¸":6001,"ĠÐ¾ÑĤÑĢÐ°Ð·":6002,"ĠÐºÐ¾ÑĢÐ°Ð±Ð»Ðµ":6003,"ĠÐĽÐ¾ÑĢÐ³Ð°ÑĢÐ°":6004,"Ð¸ÑĤÐ¸Ð²":6005,"Ð³Ñĥ":6006,"ĠÐ²ÑĭÑĢÑĭÐ²":6007,"ĠÐ¿ÑĢÐ¾Ñī":6008,"ĠÐ¾ÑģÑĤÐ°Ð²Ð°ÑĤÑĮÑģÑı":6009,"ĠÐ¾Ð³Ð»ÑıÐ´ÐµÐ»":6010,"ÑĮÐµÐ¼":6011,"ĠÐ½ÐµÑĳ":6012,"ĠÐ´ÑĢÐ°Ð³Ð¾ÑĨ":6013,"ĠÐ²Ð¾ÑģÑĮ":6014,"ÑĭÐ²Ð°ÑĤÑĮÑģÑı":6015,"ĠÐ¯ÑĢ":6016,"ĠÐĲÐ½Ð³ÑĢÐ¾Ð½":6017,"ĠÐ½ÐµÐ¿ÑĢÐµÑĢÑĭÐ²":6018,"ĠÐ¶ÐµÐ½ÑīÐ¸Ð½Ñĭ":6019,"ĠÐ¾ÑģÐºÐ¾Ð»ÐºÐ¸":6020,"ĠÐ²ÐµÐ»Ð¸":6021,"Ð¾Ð²Ð¾ÑĢÐ¸Ð»":6022,"ĠÐ·ÐµÐ¼Ð»Ñı":6023,"ĠÑĤÑĢÐ°Ð´":6024,"ÐľÐ¾Ð¹":6025,"ÑıÐ´Ð¾Ð¼":6026,"ĠÐ¿Ð¾Ð³Ð»Ð¾Ñī":6027,"ĠÐ³ÐµÐ½Ð¾ÐºÑĢÐ°Ð´":6028,"ĠÐ´ÐµÑģÑıÑĤÐºÐ¸":6029,"Ð¾Ð»Ð¾Ð²Ð¸Ð½Ñĥ":6030,"Ð¸ÑıÐ¼":6031,"ĠÐ³Ð¾Ð»ÑĥÐ±":6032,"ĠÐ¿Ð¾Ð³ÑĢÑĥÐ¶":6033,"ĠÐ·Ð°ÑĩÐµÐ¼":6034,"ĠÐ¾ÑģÐ¼ÐµÐ»":6035,"ĠÑģÐ¿Ð¾ÑģÐ¾Ð±ÐµÐ½":6036,"ĠÐ¿Ð¾ÑģÑĢÐµÐ´Ð¸":6037,"ĠÐ¿ÑĥÐ³":6038,"ÐµÑģÐºÐ¸":6039,"ĠÐłÐ°Ð½":6040,"ĠÐ¸Ð·Ð¾Ð³":6041,"ĠÐ¸ÑģÐ¿Ð°ÑĢ":6042,"ĠÐ¾Ð±ÑĢÐ°Ð·Ð¾Ð²":6043,"Ð¾Ð»ÑĤÐµÑĢ":6044,"Ð»ÑıÐµÑĤÑģÑı":6045,"ĠÑĥÐ±Ð¸Ð²Ð°ÑĤÑĮ":6046,"Ð¾Ð´ÑĥÑĪ":6047,"ĠÑĤÐ¾ÑĪ":6048,"Ð°ÑīÐ¸Ñħ":6049,"ĠÐ¿ÐµÑĢÐµÐºÐ»ÑİÑĩ":6050,"ĠÐ²ÐµÐº":6051,"ĠÐ½ÐµÐ¾Ð±ÑĭÑĩ":6052,"ĠÑĨÐµÐ¿Ð½Ð¾Ð¹":6053,"ĠÑģÑĩÐ¸ÑĤÐ°ÑĤÑĮ":6054,"ĠÑģÑĤÐ°Ð½ÑĨÐ¸Ð¸":6055,"Ð³Ð°ÑĢ":6056,"Ð¸ÑģÑĤÐ°Ð½":6057,"ĠÐ´ÐµÑĢÐ¶Ð°":6058,"ÑĨÐµÐ½ÑĤÑĢ":6059,"ĠÐ¤ÐµÐ½ÑĢÐ¸Ñģ":6060,"ri":6061,"ÑģÑĤÐ²Ð°Ñħ":6062,"ÐŀÑĢ":6063,"ĠÑĤÑĢÐ¾Ð½":6064,"ĠÐ½Ð°ÑĪÑĥ":6065,"ĠÐ²Ð¾Ð»Ð¸":6066,"ĠÑĤÐ°Ð»":6067,"ĠÐ±Ð¸ÑĤÐ²Ðµ":6068,"ĠÑģÐ¾Ð·Ð½Ð°Ð½Ð¸Ñı":6069,"ĠÐ·ÑĢÐµÐ»Ð¸":6070,"Ð¾Ð²Ð¾":6071,"ĠÐĽÐµ":6072,"ĠÐ½ÐµÐ»":6073,"Ð¸ÐºÐ¾Ð¹":6074,"ĠÐ·Ð½Ð°ÑĩÐµÐ½Ð¸Ñı":6075,"ĠÐ¾ÑģÑĤÐ°ÑĤÑĮÑģÑı":6076,"ĠÐºÐ¾Ð»Ð¾ÑģÑģ":6077,"ĠÐ½ÐµÑģÐ¾Ð¼Ð½ÐµÐ½Ð½Ð¾":6078,"ĠÐ°Ð´ÐµÐ¿ÑĤ":6079,"ĠÐ¾ÑĤÑĢÑıÐ´Ð°":6080,"ĠÐºÐ¾Ð»Ð´Ð¾Ð²":6081,"ĠÐ£Ð±":6082,"ĠÐ·Ð°Ð¿Ñı":6083,"ĠÐ¾ÑģÑĤÐ°Ð²Ð°Ð»Ð¸ÑģÑĮ":6084,"ĠÑģÑĥÐ´Ð½Ð¾":6085,"ÐµÑİÑģÑĮ":6086,"ĠÑģÐ°ÑĢ":6087,"ĠÐ´Ð°Ð±Ñĭ":6088,"ĠÐ½ÐµÑģÐ»Ð¸":6089,"ĠÐ¿Ð¾ÑģÐ»ÐµÐ´Ð½Ð¸Ñħ":6090,"ĠÑĥÑģÐ»ÑĭÑĪÐ°ÑĤÑĮ":6091,"ĠÑĢÐ°Ð·Ð±ÑĢÐ¾Ñģ":6092,"ĠÐ½ÐµÐ±Ðµ":6093,"Ð¾Ð²Ð¾Ð¼":6094,"ĠÑĢÐµÐ¿":6095,"ĠÐ¿ÑĢÐ¾ÑĪÐ»Ð¾":6096,"ĠÐ²ÑĢÐµÐ·Ð°Ð»ÑģÑı":6097,"ĠÑĪÑĥÑĤ":6098,"ĠÐºÑĢÐµÐ¹ÑģÐµÑĢ":6099,"ÐµÐ²ÑĪÐ¸Ð¹":6100,"ĠÑģÐºÐ°Ð½":6101,"ĠÐ¾ÑģÑĤÐ°Ð²Ð¸ÑĤÑĮ":6102,"ĠÑĥÑģÑĤÑĢÐ¾Ð¹ÑģÑĤÐ²Ð¾":6103,"ĠÐ¿Ð¾Ð»Ð°":6104,"ĠÑĦÐ¸Ð³ÑĥÑĢ":6105,"Ð½ÑĥÑĤÑĭÐµ":6106,"ÐĽÐµÐ³Ð¸Ð¾Ð½":6107,"ĠÐļÐ¾ÑģÐ¼Ð¸ÑĩÐµÑģÐºÐ¸Ñħ":6108,"Ð¾Ð³Ðµ":6109,"Ð°Ð±Ð¾ÑĤ":6110,"ĠÐ¿Ð¾Ð´Ð¾Ð±Ð½ÑĭÑħ":6111,"ĠÐ¿Ð¾Ð±ÐµÐ´Ñĭ":6112,"ĠÐ³Ð¸Ð±ÐµÐ»Ð¸":6113,"ĠÐ²Ð¸Ð·Ð³":6114,"ĠÐ¿ÑĢÐ¸ÐµÐ¼":6115,"ĠÐĵÐ»Ð°Ð·Ð°":6116,"Ð¸ÑĢÐ°Ð¼":6117,"Ð¸Ð¼Ñĭ":6118,"ĠÐ¿Ð¾Ð´Ð²":6119,"Ð°Ð»ÑĮÐ¿ÑĥÑĢ":6120,"ĠÑĩÐµÑĢÐ½Ð¾Ð¹":6121,"ĠÐºÐ¾Ð»ÐµÐ½Ð¾":6122,"ĠÑģÑĤÐ¾Ð»ÐºÐ½Ð¾Ð²":6123,"ĠÐŁÑĢÐ¾":6124,"ĠÐ»Ð°Ð·Ð³":6125,"ĠÐ¥Ð°Ð¾Ñģ":6126,"Ð¸ÑĨÐµ":6127,"ĠÐ¿Ð¾Ð»Ð¾Ð¶Ð¸Ð»":6128,"ĠÐ¾ÑĤÐ²ÐµÑĢÑģÑĤ":6129,"Ð°Ð´Ð´":6130,"Ð»ÑıÐ²":6131,"Ð»ÑıÐ¼Ð¸":6132,"ĠÐļÐ°ÑĢÐ°":6133,"ĠÑĤÐ¾Ð¿Ð¾ÑĢ":6134,"ĠÑģÑĥ":6135,"ĠÐĴÐ¸Ð´":6136,"ĠÐ¼Ð¾Ð³ÑĥÑīÐµÑģÑĤÐ²ÐµÐ½":6137,"ĠÐ´Ð¾Ñģ":6138,"ĠÑĦÐ¾Ð½Ðµ":6139,"ĠÐ²Ð¸Ð´Ð¸ÑĤ":6140,"ĠÐļÐ¾ÑģÐ¼Ð¾Ð´ÐµÑģÐ°Ð½ÑĤÐ½Ð¸Ðº":6141,"ĠÐ²Ð¾ÑģÐ¿Ð¾Ð¼Ð¸Ð½Ð°Ð½Ð¸Ñı":6142,"ĠÐ¶Ð°Ð¶Ð´":6143,"ĠÐ²Ð·Ð»ÐµÑĤ":6144,"ĠÐ±ÐµÐ·Ð¶Ð°Ð»Ð¾ÑģÑĤ":6145,"ĠÐ·ÐµÐ»ÐµÐ½Ð¾ÐºÐ¾Ð¶Ð¸Ñħ":6146,"ĠÑĥÑģÐºÐ¾ÑĢ":6147,"ĠÐ¿Ð»Ð°Ð½ÐµÑĤÐ°":6148,"ĠÐ»ÐµÐ³ÐµÐ½":6149,"ĠÐ¥Ð¾ÑĢÑģÑĤ":6150,"ĠÐ¾Ð¿ÑĥÑģÑĤÐ¸Ð»ÑģÑı":6151,"ĠÐ½Ð°Ð½ÐµÑģÑĤÐ¸":6152,"ĠÐľÐµÑħÐ°Ð½Ð¸ÐºÑĥÐ¼":6153,"ĠÑĥÑģÑĤÐ°Ð²Ð¸Ð»ÑģÑı":6154,"ĠÐ¿Ð¾Ð´ÑĤÐ²ÐµÑĢÐ¶Ð´":6155,"ĠÑĤÐ¸ÑĪÐ¸Ð½Ð°":6156,"ĠÐ¾Ð±Ð¼ÐµÐ½":6157,"Ð²Ð°ÑĢÐ´Ðµ":6158,"ÑĥÑİÑīÐµÐ³Ð¾":6159,"ĠÐ½ÐµÐ´Ð¾":6160,"ĠÑģÐ»ÐµÐ´ÑĥÑİÑīÐ¸Ð¹":6161,"ĠÑģÐ¾Ð¼Ð½ÐµÐ²Ð°Ð»ÑģÑı":6162,"Ð¸Ð»Ð»Ð°":6163,"ĠÑĥÐ´Ð°ÑĢÐ¾Ð²":6164,"ĠÑģÐ¾Ð±ÑģÑĤÐ²ÐµÐ½Ð½ÑĭÐµ":6165,"ĠÑīÑĥÐ¿":6166,"Ð¼ÑĥÑĤ":6167,"Ð¶Ð°":6168,"ĠÐ¾Ð±Ð²Ð¸Ð½":6169,"ĠÐºÐ»Ð°Ñģ":6170,"ĠÑĥÐ½":6171,"ĠÑĦÐ¾Ð½ÑĤ":6172,"ĠÐ¿ÑĢÐ°Ð²Ð´Ñĥ":6173,"ĠÐļÐ¾Ð¼Ð°Ð½Ð´":6174,"ĠÑĪÐºÑĥ":6175,"ĠÐ´Ð¾Ð½Ð¾Ñģ":6176,"Ð²Ð°ÑĢÐ´ÐµÐµÑĨ":6177,"ĠÐĴÐ¿ÑĢÐ¾ÑĩÐµÐ¼":6178,"Ð¸Ð´ÐµÑģÑı":6179,"ĠÐ¼ÐµÑĢÑĤÐ²ÑĭÑħ":6180,"ĠÐ¼Ð¸Ð½ÑĥÑĤÑĭ":6181,"Ð½Ð°ÑĤÑĮ":6182,"Ð°ÑĤÐµÐ»ÑĮÑģÑĤÐ²Ð¾":6183,"ĠÐ´ÑĥÑĪÐµ":6184,"ĠÐ¸Ð·Ð´Ð°Ð»":6185,"Ð°Ð³Ð°":6186,"ĠÐ¿Ð»ÐµÐ¼":6187,"ĠÐ¼ÐµÑħÐ°Ð½Ð¸Ð·":6188,"ĠÐĲÑĢÐ³ÐµÐ»":6189,"ÑıÑıÑģÑĮ":6190,"ĠÐ»ÑİÐº":6191,"ĠÐ²Ð·ÑĢÑĭÐ²Ð°":6192,"ÑıÑİ":6193,"ĠÐ¼ÐµÐ¶":6194,"ĠÐ¾Ð´ÐµÑĤ":6195,"ĠÑģÐ»Ð¾Ð²Ð°Ð¼Ð¸":6196,"ĠÐ²Ð¾ÑĢÐ²":6197,"Ð°Ð·Ð°Ð½":6198,"ĠÐ²Ð¾Ð·Ð´ÑĥÑĪ":6199,"ĠÐ¾ÑģÑĤÐ°Ð²Ð»ÑıÑı":6200,"ĠÐĲÐ½Ð³ÐµÐ»Ð°":6201,"ĠÐ·Ð°ÑīÐ¸ÑĤÑĭ":6202,"ĠÐ¼Ð¾Ð»ÑĩÐ°":6203,"Ð°Ð»Ð´":6204,"ĠÐ·Ð°Ð³Ð¾":6205,"ĠÐ¡Ð¾ÑĢ":6206,"ĠÐĺÐ¼ÐµÐ½Ð½Ð¾":6207,"ÐľÐ°Ð³":6208,"ÑĥÑīÐµÐ¹":6209,"ĠÑĢÐ°Ð±Ð¾ÑĤÐ°":6210,"ĠÑģÑĥÐ´Ð½Ð°":6211,"ĠÑĢÑĥÑĩ":6212,"ĠÐ¿Ð¾Ð²Ð¾ÑĢÐ°ÑĩÐ¸Ð²":6213,"ĠÑĤÐµÐ»Ðµ":6214,"ĠÐ¿Ð°Ð»ÑĮÑĨÐµÐ¼":6215,"ĠÑĤÐ¸ÑĢÐ°Ð½Ð¸Ð´Ð¾Ð²":6216,"ÑĤÐ¾Ð¹":6217,"ĠÑģÐ°Ð¼Ð¾Ð¼Ñĥ":6218,"ĠÐ»ÐµÐ¶Ð°Ð»Ð¸":6219,"ĠÐ¿ÐµÑĢÐµÐ½":6220,"ÐµÑĪÑĮÑģÑı":6221,"ĠÐ¾ÑĤÑĤÐµÐ½":6222,"ĠÑĢÐµÐ¶":6223,"ĠÑĢÐ¾ÑĤÐ°":6224,"ĠÑıÐ´Ð¾Ð²":6225,"ÑĥÑģÐµÐ½":6226,"ĠÐ¿Ð¾ÑģÐ»ÐµÐ´Ð½ÐµÐµ":6227,"ĠÐºÐ°Ð¶Ð´Ð¾Ðµ":6228,"ĠÐĲÑĢÐºÐ¸Ð¾":6229,"ĠÐĸÐ¸Ð»Ð»Ð¸Ð¼Ð°Ð½":6230,"Ð¸Ð²Ð°Ð»Ð¾":6231,"ĠÐ»ÑİÐ´ÑıÐ¼":6232,"ĠÐ¿ÑĢÐ¸Ð²ÑĭÑĩ":6233,"ĠÑħÑĢÐ°Ð¼Ð°":6234,"ĠÐĳÐ¾ÑĢÐµÐ¹":6235,"ĠÑĨÐµÑĢÐµÐ¼Ð¾Ð½":6236,"ĠÐ¾ÑĪÐµÐ»Ð¾Ð¼":6237,"ĠÑĥÑģÐµ":6238,"ĠÐ´ÑĢÑĥÐ³ÑĥÑİ":6239,"ĠÐ¿ÐµÑĢÐµÐ´Ð°Ð»":6240,"ĠÐ½Ð¾Ð³Ð°Ñħ":6241,"ĠÐ¾Ð¿Ð°ÑģÐ½Ð¾ÑģÑĤÐ¸":6242,"ĠÐ´ÑĢÑĥÐ³Ð¸Ð¼Ð¸":6243,"ÑıÑīÐ¸ÐµÑģÑı":6244,"ÑĢÐµÐ°Ð³":6245,"ĠÐ½ÑĥÐ¶ÐµÐ½":6246,"ĠÐ±Ð¾ÑĢÑĮ":6247,"ĠÐºÐ»Ð¸Ð½ÐºÐ°":6248,"ÑĢÐµÑģÐ¸":6249,"ĠÑĥÐºÑĢÑĭÑĤÐ¸Ñı":6250,"ĠÐĶÐµÐ»":6251,"ÐĺÑħ":6252,"ĠÑģÑĤÑĢÐ¾Ñı":6253,"ĠÐºÐ¸Ð¿":6254,"ĠÐ±Ð°Ð½Ð´":6255,"ÑĨÐ¸ÑĢ":6256,"ĠÐ»Ð¾Ð¿":6257,"ĠÐĴÐ¾Ð¸ÑĤÐµÐ»ÑĮ":6258,"Ġsh":6259,"ÐºÐ°Ð»":6260,"Ð½Ð¾Ð²Ð¸Ð´":6261,"ĠÐ½Ð¸ÑĩÑĤÐ¾":6262,"ĠÐ¼Ð¾Ð»Ð¾ÑĤ":6263,"ĠÐ¾Ð¶Ð¸Ð´Ð°Ñı":6264,"ĠÐ°ÑĥÐ³Ð¼ÐµÑĤ":6265,"Ð¸ÑĤÐµÐ»Ñİ":6266,"ĠÐŀÐº":6267,"ĠÑĢÐ°Ð·ÑĢÑıÐ´":6268,"ĠÐ¥Ð°ÑĢ":6269,"ĠÐ·Ð°Ð¼ÐµÑĪ":6270,"ÐµÐ²ÑĭÐµ":6271,"ĠÐ´ÐµÐ¹ÑģÑĤÐ²Ð¾Ð²Ð°ÑĤÑĮ":6272,"ÐµÐµÑĤ":6273,"ÑĩÑĥ":6274,"Ð°ÐµÐ¼ÑĭÑħ":6275,"ĠÐ¾ÑĤÐ²Ð»ÐµÐº":6276,"ĠÐ¢ÑĭÑģÑıÑĩÐ¸":6277,"ec":6278,"ĠÑĩÐµÑĢÐ½Ð¾Ð³Ð¾":6279,"ĠÐ·Ð½Ð°ÑĩÐµÐ½Ð¸Ðµ":6280,"Ð¾Ð¹Ð´Ñı":6281,"ĠÐ²ÑģÐ¿ÑĭÑĪÐºÐ¸":6282,"ĠÐłÑĥÑģÑģÐ°":6283,"Ð»ÑıÐµÐ¼":6284,"Ð¸ÑĢÐ¾Ð²Ð°ÑĤÑĮÑģÑı":6285,"Ð¢Ð¾Ð»ÑĮÐºÐ¾":6286,"ĠÐºÐ¾Ð½ÑĦ":6287,"ĠÑĤÐ°ÐºÐ¸Ð¼Ð¸":6288,"ĠÐ²ÐºÑĥÑģ":6289,"ĠÐ¾Ð±Ð¾Ð¸Ñħ":6290,"ĠÑĤÑĢÐ¸Ð´ÑĨÐ°ÑĤÑĮ":6291,"ĠÐ»Ð°Ð¼Ð¿":6292,"ĠÐĲÐ³":6293,"ĠÑĢÐ°Ð½ÐµÐµ":6294,"ĠÑĥÑĤÑĢÐ°ÑĤ":6295,"ĠÐ¿ÑĢÐ¾ÑĢÑĭÑĩÐ°Ð»":6296,"ÐºÐ¾ÑģÑĤÑĮ":6297,"Ð»ÐµÐ½Ð½Ð°Ñı":6298,"ĠÐĲÐ¼":6299,"ĠÐłÐ¾Ð³":6300,"ĠÐºÐ¾ÑģÐ¼Ð¾ÑģÐ°":6301,"ĠÑģÐºÐ¾ÑĢÐ¾ÑģÑĤÐ¸":6302,"ĠÑģÐ¾Ð»Ð½ÐµÑĩ":6303,"ĠÐ°Ð±Ð¾ÑĢÐ´Ð°Ð¶":6304,"ĠÐ±ÐµÑģÑģÐ¼ÑĭÑģ":6305,"ĠÐ½Ñĭ":6306,"ĠÑĤÐ²Ð¾ÐµÐ¹":6307,"ĠÐ½Ð¾ÑģÐ¸Ð»":6308,"ĠÐ²ÑĭÐ»ÐµÑĤ":6309,"ĠÐĳÑĥÐ»":6310,"ĠÐłÑĥÐº":6311,"ĠÐ³Ð¾Ð»Ð¾Ð´":6312,"ĠÐ¾ÑĢÐ¾ÑĩÑĮ":6313,"ĠÐ²ÑģÐºÐ¾Ñĩ":6314,"Ð»ÑĥÑħ":6315,"Ð¸Ð½ÑĥÑĤ":6316,"Ð°Ð»Ð¸ÑģÑĤ":6317,"ÐĴÑģ":6318,"ĠÐ¥Ð°Ð²":6319,"ĠÐ·Ð°Ð¼ÐµÐ´Ð»":6320,"ÐķÑģÑĤÑĮ":6321,"ĠÐºÐ¾Ð»Ð¾Ð½Ð½Ñĭ":6322,"Ð½ÑĥÑĪ":6323,"ĠÐ¿ÑĢÐµÐ·ÑĢ":6324,"ĠÐ¾Ð²":6325,"Ð·Ð°Ð´Ð¸":6326,"ÑĢÑĭÐ¹":6327,"ĠÐ½Ð°Ð¿Ð¾Ð»Ð¾Ð²Ð¸Ð½Ñĥ":6328,"ĠÐ¼ÐµÑģÑıÑĨÐµÐ²":6329,"ĠÐ¢Ð¾ÑĢÐ³":6330,"ĠÐºÐ¾Ð½Ñĩ":6331,"ĠÐĴÐµÐ»Ð¸ÐºÐ¸Ð¹":6332,"ĠÐ²Ð»Ð°ÑģÑĤÑĮ":6333,"ÐµÑĤÐµÑĢ":6334,"ĠÑĪÐµÐµ":6335,"ĠÐĵÑĥÑĢ":6336,"ĠÑĦÑĢÐ°Ð³":6337,"ĠÐ½Ð¸ÐºÐ¾Ð³Ð¾":6338,"ÑĥÑĤÐ¸":6339,"ĠÑģÑĤÐ¾Ð»Ð°":6340,"ĠÐ²ÑĭÐ±Ð¾ÑĢ":6341,"ĠÐ²ÑĭÐ¶Ð¸Ð²":6342,"ĠÐ³Ð¸Ð±ÐµÐ»ÑĮ":6343,"ĠÑģÐ¼ÑĭÑģÐ»Ð°":6344,"ot":6345,"ĠÐ¿Ð¾ÑģÐ»ÐµÐ´Ð½ÐµÐ¹":6346,"ĠÐ½ÐµÑĤÐµÑĢÐ¿":6347,"ÑĢÐ¸ÑĨ":6348,"ĠÐŀÐ¿":6349,"ÑĳÐ½Ð½ÑĭÑħ":6350,"ĠÑħÑĢÐ°Ð½Ð¸Ð»Ð¸":6351,"ĠÐ²Ð¾ÑģÑħÐ¸Ñī":6352,"ÐµÑĤÐµÐ¹":6353,"ĠÑħÑĢÐµÐ±":6354,"Ð»ÐµÐ½Ð½ÑĥÑİ":6355,"ĠÐĽÑĥ":6356,"ĠÐ¿Ð¾ÑģÑĤÐ°ÑĢ":6357,"ÐµÐ»Ð¾Ð²ÐµÑĩÐµÑģÐº":6358,"ÑıÐµÑĤÑģÑı":6359,"ĠÑĤÑĢÐ°Ð²":6360,"ĠÐ¡ÑĥÐ´":6361,"ÐļÐ°ÑĢ":6362,"ĠÐ¼ÑĭÑģÐ»":6363,"ĠÐ½Ð¾Ð²Ð¾Ð¹":6364,"ĠÐ±ÑĢÐ¾ÑģÐ¸Ð»Ð¸ÑģÑĮ":6365,"ĠÑĤÑĢÑĥÐ´Ð½Ð¾":6366,"ĠÐŀÑģÑĤÐ°Ð»ÑĮÐ½ÑĭÐµ":6367,"ĠÐ²Ð³":6368,"ĠÑĩÐµÑģÑĤÐ¸":6369,"ÑĦÐµ":6370,"Ð¾ÑĪÑĥ":6371,").":6372,"ĠÑĢÐ°Ð·Ð½ÐµÑģ":6373,"Ð¸ÑĢÐ¾Ð²Ð°Ð½Ñĭ":6374,"ĠÐ¿Ð¾ÑģÐ¼Ð¾ÑĤÑĢÐµÑĤÑĮ":6375,"ĠÐĶÑĢÑĥÐ³Ð¸Ðµ":6376,"Ð½Ð¾Ñĩ":6377,"ĠÑĩÑĢÐµÐ·":6378,"Ð°Ð½ÑĤÐ°":6379,"ÐĿÐ°Ð¼":6380,"ĠÑĦÐ»Ð°Ð½":6381,"ĠÑĦÑĥÐ½Ðº":6382,"ĠÐ¸Ð¼ÐµÐ»Ð¸":6383,"ĠÐ²Ð¾Ð¸Ð½Ð°Ð¼Ð¸":6384,"Ð¥Ð¾ÑĢ":6385,"ĠÐ¿ÑĢÐ¸Ð³Ð»ÑĥÑĪ":6386,"ĠÑĥÐ²Ð¸Ð´ÐµÐ²":6387,"ÐµÑĢÐ°Ð¼Ð¸":6388,"ÐµÐ´Ð¾Ð¼":6389,"Ð¾ÑĤÐ²":6390,"ĠÑĢÐ°Ð·ÑĬ":6391,"ĠÐ¿Ð¾Ð½ÐµÑģ":6392,"ÐĽÐ¾ÑĢÐ´":6393,"ĠÑĤÐ²Ð°ÑĢÐµÐ¹":6394,"ĠÐļÐµÐ¹":6395,"ĠÐŁÑĢÐ¾Ñģ":6396,"ĠÐ²Ð·Ð²":6397,"Ð°Ð²ÑĪÐ°Ñı":6398,"ĠÑĢÐ°ÑģÑģÑĭÐ¿":6399,"ĠÐ½ÐµÐºÐ¾Ð³Ð´Ð°":6400,"ĠÑĩÑĥÐ²ÑģÑĤÐ²ÑĥÑİ":6401,"ĠÐ¿Ð¾ÑıÑģ":6402,"ÐŀÑĩ":6403,"ĠÐĴÑĭÑģ":6404,"ÑıÑĤÐ¾Ð¹":6405,"ĠÑĢÐ°Ð·Ð¼ÐµÑĢÐ¾Ð¼":6406,"ĠÐºÐ°Ð·Ð°Ð»Ð°ÑģÑĮ":6407,"Ð±ÐµÐ»":6408,"ĠÐĺÑģÑĤÐ²Ð°":6409,"ĠÐ¾Ð³Ð»ÑıÐ´":6410,"ĠÐ¼ÐµÑģÑĤÐ°Ñħ":6411,"ĠÐ²Ð·ÑĢÑĭÐ²Ð¾Ð²":6412,"ĠÑĤÐ¾Ð²Ð°ÑĢÐ¸ÑīÐµÐ¹":6413,"ĠÐ²ÑĭÑĤÐ°ÑīÐ¸Ð»":6414,"Ð°ÑĪÐµ":6415,"Ð¸Ð½Ð¾Ð¼":6416,"ĠÑįÐ²":6417,"ĠÐ¿Ð¾Ð»Ð½ÑĭÐ¹":6418,"ÐľÐ°Ð»":6419,"ÐĲÐ´":6420,"Ð°ÑĨÐ¸Ð¹":6421,"ĠÐŁÐ¾ÑħÐ¾Ð´":6422,"ĠÐ¿Ð¾ÑĪÐ°ÑĤ":6423,"ul":6424,"ĠÑĪÑĤÐ¾ÑĢÐ¼":6425,"ĠÐ¿Ð¾ÑģÐµÐ»":6426,"Ð½Ð¸ÐµÐ¼":6427,"ĠÐ´ÐµÑģÑıÑĤÐ¸Ð»ÐµÑĤ":6428,"Ð°Ð´ÑĨÐ°ÑĤÐ¸":6429,"ĠÐ½Ð°Ð¼ÐµÑĢÐµÐ²":6430,"ĠÐ´Ð¸":6431,"Ð°Ð´Ð´Ðµ":6432,"ĠÐ½ÐµÐ¿ÑĢÐ°Ð²":6433,"Ð°ÐµÐ¼Ð¾Ð¹":6434,"ĠÐ²Ð°ÑĢÐ¸":6435,"Ð´Ð¾Ð¹":6436,"Ð½ÑĥÑģÐ°":6437,"ĠÑĤÐ¾Ð»Ð¿Ñĥ":6438,"Ð¾Ð·Ð°Ð´Ð¸":6439,"ÑĦÐ¾Ð½":6440,"Ð¸ÑĤÐµÐ»ÑıÐ¼Ð¸":6441,"ÐºÐ°Ð»Ð¸":6442,"ĠÐļÐ°Ð¿":6443,"Ð¸ÑĢÐ°Ð»":6444,"ĠÑħÐ¸ÑĢÑĥÑĢÐ³":6445,"ĠÐ´ÑĢÐµÐ²Ð½Ð¸Ñħ":6446,"ĠÐ¿Ð¾Ð¼ÐµÑīÐµÐ½Ð¸Ñı":6447,"ĠÐ¿ÑĢÐµÐ±":6448,"ĠÐ¾ÑĤÑħÐ¾Ð´":6449,"ĠÐ¸Ð·Ð¼":6450,"ÐµÑĩÐ¸":6451,"ĠÐ½Ð°ÑĪÐ°":6452,"ĠÐ¢ÐµÑĢÑĢÐµ":6453,"ĠÐ½ÐµÐ½Ð°Ð²Ð¸ÑģÑĤÐ¸":6454,"ĠÐ»Ð¾Ð¼":6455,"ĠÐ¡ÑĤÐ¾":6456,"ĠÑģÐ¿Ð¾ÑĢ":6457,"Ð¸ÑĪÑĮÑģÑı":6458,"ĠÐ½Ð¾Ð³Ñĥ":6459,"Ð»ÑĭÑĪ":6460,"ĠÐ²Ð¾ÑĢÐ¾Ð½":6461,"ĠÐ²ÑħÐ¾Ð´Ð°":6462,"ĠÑģÐ¸ÑĤÑĥÐ°ÑĨÐ¸Ð¸":6463,"ĠÑĤÑĥÐ¿":6464,"ĠÐĳÐ°Ð´":6465,"ĠÐ´Ð¾ÑģÑĤÐ°ÑĤÐ¾Ñĩ":6466,"ĠÐ±ÑĢÐ°ÑĤÑĮÑıÐ¼Ð¸":6467,"ĠÐ¿Ð¾Ð±ÐµÐ´Ñĥ":6468,"ĠÑĪÑĤÑĥÑĢÐ¼Ð¾Ð²":6469,"Ð¾ÐºÑĥ":6470,"Ð¾ÐºÑĥÑģ":6471,"ĠÑĢÑĤÐ°":6472,"ĠÐ¾Ð±ÑīÐµ":6473,"ĠÑģÑĤÐ°Ð½Ð´Ð°ÑĢÑĤ":6474,"Ð°ÑİÑīÐµÐ¼Ñĥ":6475,"ĠÐ½Ð°Ð´ÐµÑı":6476,"ĠÐ¾ÑģÑĤÐ°Ð»ÑĮÐ½ÑĭÐ¼":6477,"ĠÐ¸ÑģÑĩÐµÐ·Ð»Ð¸":6478,"ĠÐ»Ð¸ÑģÑĤ":6479,"ĠÐ³Ð¾Ð»Ð¾Ð»Ð¸ÑĤ":6480,"Ð»Ð°Ð´Ñĭ":6481,"ĠÑĥÐºÑĢÑĭÑĤÐ¸Ðµ":6482,"ld":6483,"ĠÐ¡Ð¾Ð»Ð½":6484,"Ð°ÑģÑĤÑĭ":6485,"ĠÐĺÐ¼Ð¿ÐµÑĢÐ°ÑĤÐ¾ÑĢÐ¾Ð¼":6486,"ĠÐ²ÑĭÐ¶Ð¸ÑĤÑĮ":6487,"ĠÐ¸Ð¼Ð¿ÐµÑĢÑģÐºÐ¸Ñħ":6488,"ĠÑģÐ¸Ð»ÑĥÑįÑĤ":6489,"ĠÐĴÐµÐ»":6490,"ĠÑģÐ¼ÐµÑĢÑĤÑĮÑİ":6491,"ĠÐºÑĥÐ»Ð°ÐºÐ¾Ð¼":6492,"ĠÐ¿ÑĢÐ¸ÑģÑĤÐ°Ð»ÑĮÐ½Ð¾":6493,"ÐŀÐ´Ð½Ð°ÐºÐ¾":6494,"ĠÐ½Ð°ÑģÐ»ÐµÐ´":6495,"ĠÐ·Ð°Ð¿ÑıÑģÑĤÑĮ":6496,"ĠÑĥÑıÐ·Ð²":6497,"ÐŁÐµÑĢÐµÐ´":6498,"ĠÐºÐ¾Ð½ÑĤÐµÐ¹Ð½":6499,"ĠÑģÐµÑĢÐµÐ±ÑĢÐ¸ÑģÑĤ":6500,"ĠÐ²ÐµÐ»Ð¸ÑĩÐµÑģÑĤÐ²ÐµÐ½":6501,"?!":6502,"ĠÐºÐ¾Ð¶Ðµ":6503,"ĠÐ´ÑĢÑĥÐ¶":6504,"ĠÐ¾Ð³ÑĢÐ¾Ð¼Ð½Ð¾Ðµ":6505,"ĠÐ¾ÑģÑĤÐ°Ð½ÐµÑĤÑģÑı":6506,"ĠÐ»ÐµÑģÑĤÐ½Ð¸ÑĨÐµ":6507,"ÐºÐ¾Ð»ÑĮÐ·":6508,"ĠÑģÐ»Ñİ":6509,"ĠÐłÐ°Ð²":6510,"ĠÑĤÑıÐ¶ÐµÐ»ÑĭÑħ":6511,"ĠÐ²Ð¾Ð²ÑģÐµ":6512,"ÑģÐºÐ¾ÑĢÐµ":6513,"ĠÑĢÐ°ÑģÐºÐ¾Ð»":6514,"ĠÐ´Ð»Ð¸Ð½Ð½ÑĭÐµ":6515,"ĠÑĥÑģÐ¸Ð»Ð¸Ñı":6516,"ĠÑģÑĥÐ´ÑĮÐ±Ð°":6517,"ĠÐĳÑĭÐ»Ð¾":6518,"ĠÐļÑĢÐ¾Ð²ÑĮ":6519,"Ð½Ð°Ð¼":6520,"Ð°Ð¹ÑĤÐµÑģÑĮ":6521,"ÑĥÑĢÐµ":6522,"ĠÑģÑĤÐ°ÑĢÑĭÐ¹":6523,"ÑĤÑĥÐ´Ð°":6524,"ĠÐĿÐµÑģÑĥÑīÐ¸Ðµ":6525,"ĠÐ¾Ð¿ÐµÑĢÐ°ÑĨÐ¸Ð¸":6526,"ĠÑģÐµÐ»":6527,"ĠÐŁÐ¾Ðº":6528,"ĠÐ³Ð¾ÑģÑĤ":6529,"ĠÑģÐ²Ð¾Ñĳ":6530,"Ð²ÐµÑĢÐ½":6531,"Ð°Ð²ÑĪÐµÐ³Ð¾ÑģÑı":6532,"ĠÑĥÐ»ÑĭÐ±ÐºÐ¾Ð¹":6533,"ĠÐ¿Ð°Ð½ÑĨÐ¸ÑĢ":6534,"ĠÐ¾Ð±ÑĢÑĭÐ²":6535,"ĠÑĢÐ°Ð·Ð½Ð¾":6536,"ĠÐ¼Ð¾ÑīÐ¸":6537,"ĠÐºÐ¾ÑĢÐ¸Ð´Ð¾ÑĢÐ°":6538,"ĠÐļÑĢÐ¾Ð²Ð°Ð²ÑĭÐµ":6539,"ĠÐ·Ð°Ð´ÑĥÐ¼Ð°Ð»ÑģÑı":6540,"ĠÐ¾ÑĤÐ½Ð¾ÑģÐ¸ÑĤÐµÐ»ÑĮÐ½Ð¾":6541,"ÑĤÐ°Ð½":6542,"ĠÐľÐ¾Ð½":6543,"ĠÑĤÐ°Ð½Ðº":6544,"ĠÐ»Ð¸Ðº":6545,"ĠÐ¿Ð¾Ð»Ð·":6546,"ĠÐ´Ð²Ð¸Ð½ÑĥÐ»ÑģÑı":6547,"ĠÑĤÐµÐ»Ð¾Ð¼":6548,"ĠÐ½ÐµÐ¸Ð·Ð±ÐµÐ¶":6549,"ĠÐ·Ð»Ð¾Ð²ÐµÑī":6550,"ĠÐĿÐ°Ñģ":6551,"ĠÐŁÑĢÐ¸Ð½":6552,"ĠÑĤÑİ":6553,"ĠÑĥÐ±Ð»ÑİÐ´":6554,"ĠÐ½Ð°ÑĪÐ¸Ð¼":6555,"ĠÐ¤Ð»Ð¾ÑĤ":6556,"ĠÐ¿ÑĢÐ¸ÑĪÐ»Ð¾":6557,"ĠÐ³Ð¾ÑĢÐ¸Ð·Ð¾Ð½":6558,"Ð¾Ð»Ð¾Ñħ":6559,"ĠÐ¿Ð¾Ð²ÑģÑİÐ´Ñĥ":6560,"ĠÐ·Ð°Ð±Ð¾ÑĤ":6561,"ĠÐ²Ð°ÑĢÐ¿Ðµ":6562,"ĠÐłÑĥÑģÑģ":6563,"ĠÐ½ÐµÑĥÐºÐ»Ñİ":6564,"ĠÐ¾ÐºÐ½Ð°":6565,"ĠÐ§ÐµÐ²Ð°Ðº":6566,"ĠÐ¿Ð¾Ð²ÐµÑĢÐ½ÑĥÐ»":6567,"ĠÐ¿ÐµÑĢÐ²ÑĭÑħ":6568,"ĠÐ½Ð°Ð³Ð¾":6569,"ĠÐ¡ÑĤÑĢ":6570,"Ð°ÑĤÐµÐ»ÑĮÐ½ÑĭÐµ":6571,"ĠÐºÐ°Ð¼Ð½Ð¸":6572,"ĠÐ·Ð°Ð³Ð»ÑĥÑĪ":6573,"ĠÐ²ÑĭÑģÑĤÑĢÐµÐ»Ð°":6574,"ÐµÑĢÐ·":6575,"Ð°ÑĪÐ¸Ð½Ñĭ":6576,"ÐµÐ¿ÑĤÐ¸Ð¼":6577,"ĠÑĤÐ¾Ð»Ð¿Ñĭ":6578,"ĠÐķÐ´Ð¸Ð½ÑģÑĤÐ²ÐµÐ½":6579,"Ġv":6580,"ĠÐ´ÑĢÑĥÐ³Ñĥ":6581,"ĠÐ¿Ð¾ÑĩÐµÑĢ":6582,"ÐĹÐ´ÐµÑģÑĮ":6583,"ĠÐ±Ð¾Ð»ÑĮÑĪÐ¸Ð½":6584,"ĠÑĤÐ¾ÑĢÑĩ":6585,"ĠÑģÐºÑĢÑĭÑĤÑĮ":6586,"ĠÐ²Ð¾Ð·Ð´ÐµÐ¹ÑģÑĤÐ²":6587,"ĠÑĢÐ¾Ð¶Ð´":6588,"ĠÐ¿Ð¾Ð²ÐµÐ·":6589,"ĠÐ§ÑĤÐ¾Ð±Ñĭ":6590,"ĠÑģÐ¾ÑĤÑĢÑıÑģ":6591,"ĠÐ´Ð²Ð¸Ð¶ÐµÐ½Ð¸ÐµÐ¼":6592,"ĠÐ·Ð°ÑģÑĤÐ°Ð²Ð¸ÑĤÑĮ":6593,"ĠÐ²Ð½Ðµ":6594,"ĠÑħÐ¸Ð¼":6595,"ĠÐ¿Ð¾ÐºÐ¸Ð´":6596,"ĠÐĽÐµÐ¼":6597,"ÐµÐ½ÑĮÑĪ":6598,"ĠÐŁÑĢÐ¾ÑģÑĤÐ¾":6599,"ĠÑģÐ¼Ð¾Ð³Ñĥ":6600,"ĠÐ´ÐµÑĢÐ¶Ð°ÑĤÑĮ":6601,"ĠÐ¿Ð¾ÑĤÐ¾ÐºÐ¸":6602,"ĠÐ½Ð¾ÑĢÐ¼":6603,"Ð¾Ð²Ð°Ð»Ð°":6604,"ĠÐ¿Ð¾Ð¼Ð½Ð¸Ð»":6605,"ĠÐ¨ÑĢÐ°Ð¼":6606,"ĠÐºÐ»Ð¸Ð½ÐºÐ¸":6607,"Ð»Ð°Ðº":6608,"ĠÑĢÑıÐ´Ð°":6609,"ĠÐ¾Ð±ÑĢÐµÑĩ":6610,"ĠÐ°ÑģÑģ":6611,"ĠÐ¡ÐµÐ¼":6612,"ĠÐŁÐ°Ð»":6613,"ĠÐ±ÑĢÐ¾Ð½ÐµÑĤ":6614,"ĠÑģÐµÐºÑĤÐ¾ÑĢ":6615,"ĠÐ¼ÑĥÑģ":6616,"ĠÐĲÐ·":6617,"ĠÐ¾ÑĤÐºÐ°Ð·":6618,"ĠÑģÑĤÐ°ÑĢÐ°Ð»ÑģÑı":6619,"ĠÐŁÐ¾ÑįÑĤÐ¾Ð¼Ñĥ":6620,"Ð¼Ð°ÑĤÑĢÐ¸Ð²":6621,"ÑĳÑĤÑģÑı":6622,"ĠÐ¸Ð¼Ð¿ÑĥÐ»ÑĮÑģ":6623,"Ð´Ð°ÐµÑĤÑģÑı":6624,"Ð¸ÑĤÐµÐ»ÑĮÐ½Ð¾ÑģÑĤÐ¸":6625,"ĠÐ¿Ð¾Ð¼Ð½":6626,"ĠÐºÑĢÐµÐ¿ÐºÐ¾":6627,"ĠÑĤÐµÑħÐ½Ð¾Ð´ÐµÑģÐ°Ð½ÑĤÐ½Ð¸Ðº":6628,"ĠÐ½ÐµÐ¾Ð±ÑħÐ¾Ð´Ð¸Ð¼Ð¾ÑģÑĤÐ¸":6629,"ÑĭÑī":6630,"ĠÐ¿Ð¾ÐºÐ¸Ð½ÑĥÐ»":6631,"ĠÐ»Ð°Ð·Ð³Ð°Ð½":6632,"ÐĸÐµÐ»ÐµÐ·":6633,"ĠÐºÑĥÑģÐ¾Ðº":6634,"ĠÐ»Ð°Ð²":6635,"ÑĭÐ²Ð°ÐµÑĤÑģÑı":6636,"ĠÐ¸Ð·Ð±ÐµÐ¶Ð°ÑĤÑĮ":6637,"ĠÐ´Ð¸ÑģÑĨÐ¸Ð¿":6638,"ĠÑģÐ¼ÑĥÑĤ":6639,"ÐłÐĲ":6640,"Ð»Ð°Ð½ÐµÑĤ":6641,"ĠÐļÐ°ÑģÑģ":6642,"Ð°Ð»ÑĮÑĨÐ°":6643,"Ð¾ÑĩÐ½ÑĭÑħ":6644,"ÑģÑĤÐ¾ÑıÐ½Ð¸Ðµ":6645,"ĠÐ»Ð°Ð´Ð¾Ð½Ð¸":6646,"Ð°ÑĢÐ°Ð¿":6647,"Ð°ÑĢÑĮ":6648,"Ð°ÑĢÐ¸Ð¸":6649,"Ð¾ÑĩÐ½ÑĭÐµ":6650,"ĠÐ¿ÑĢÐµÐ´Ð¼ÐµÑĤ":6651,"ÐļÐ¾Ð¼Ð°Ð½Ð´":6652,"ÑĪÐ¸Ð¹ÑģÑı":6653,"ĠÐļÐ°Ð»Ð¸Ð±":6654,"Ð°Ð½ÑĤÑĭ":6655,"ĠÑģÑĤÐ¾Ð»ÐµÑĤ":6656,"Ð¸ÑĢÐ¾Ð²Ð°Ð½Ð½Ð¾Ð¹":6657,"ĠÐ³ÑĢÑıÐ·Ð¸":6658,"ĠÑįÐºÑģÐ¿ÐµÐ´":6659,"ĠÑĤÐ¾ÑĪÐ½Ð¾":6660,"ter":6661,"ĠÐ´Ð¸ÑģÑĤÐ°Ð½":6662,"ĠÑģÐ²ÐµÐ´":6663,"ĠÐ¢Ð¾Ð½":6664,"ĠÐ¿Ð¾ÑĤÑıÐ½ÑĥÐ»ÑģÑı":6665,"Ð»ÑĭÐ¼":6666,"âĢĿ.":6667,"ĠÑĤÐ°Ñĥ":6668,"ĠÐ°Ð»ÑĤÐ°ÑĢ":6669,"ĠÑģÑĤÐµÐ¿ÐµÐ½Ð¸":6670,"ĠÐ²Ð½ÑĥÑĪ":6671,"ÑĤÐ¾Ð½Ð°":6672,"ĠÐŃÐ¹":6673,"ÐµÐ»ÑıÐ¼Ð¸":6674,"ĠÑĤÐ²Ð¾Ñı":6675,"ĠÐ·Ð½Ð°ÐµÐ¼":6676,"ĠÐĽÑİÐ´Ð¸":6677,"ĠÐ¸Ð·Ð±ÑĢÐ°Ð½":6678,"ĠÑĢÐµÐ°Ð»ÑĮÐ½Ð¾ÑģÑĤÐ¸":6679,"ÑģÐµÑĢÐ¶Ð°Ð½ÑĤ":6680,"ĠÐ½ÐµÑĢÐ¾Ð²":6681,"ĠÐ¾Ð±ÑĪÐ¸ÑĢ":6682,"ÑĳÐ²":6683,"ĠÐĶÐ²Ð°":6684,"ĠÐ²Ð¾Ð·ÑĢÐ°ÑģÑĤ":6685,"Ð¸Ð²ÑĪÐµÐ¹ÑģÑı":6686,"ĠÐ²Ð¾Ð»Ð½Ñĥ":6687,"ĠÐĴÐµÑĢÑħ":6688,"ĠÐ½Ð°ÑģÐµÐºÐ¾Ð¼":6689,"ĠÐ¾ÑĤÐºÐ°Ð·ÑĭÐ²":6690,"ĠÑĤÐµÐ¼Ð½ÑĭÑħ":6691,"ĠÑģÐ¿Ð¾ÑģÐ¾Ð±Ð½Ð¾ÑģÑĤÐ¸":6692,"ĠÐĲÐ¿Ð¾ÑģÑĤ":6693,"ĠÑĤÑĢÐµÑĤ":6694,"ĠÑĢÐ°ÑģÑģÐ²ÐµÑĤ":6695,"ĠÐ¶ÐµÑģÑĤÐ¾Ð¼":6696,"ĠÐ²ÑĭÐ´Ð¾ÑħÐ½ÑĥÐ»":6697,"am":6698,"ĠÐ±ÐµÑĪ":6699,"ĠÐĶÑĢÐµÐ¹":6700,"ĠÐºÐ¾ÑģÐ¼Ð¾Ð´ÐµÑģÐ°Ð½ÑĤÐ½Ð¸ÐºÐ°":6701,"ÑĤÐ¸Ð¼":6702,"ÑģÐ¾ÑĤ":6703,"Ð¾ÑĢÑī":6704,"ĠÐ²ÑĭÑıÑģÐ½":6705,"ĠÐĶÐµÐ¼Ð¾Ð½":6706,"ĠÐĵÐ°Ð»":6707,"ĠÐ¿Ð¾ÐºÐ¸Ð½ÑĥÑĤÑĮ":6708,"ĠÑĢÑĥÐºÐ¾ÑıÑĤÑĮ":6709,"ĠÐ¿Ð¸ÑĢ":6710,"ĠÐºÐ¾Ð±":6711,"Ð°ÑĤÑĭÐµ":6712,"ĠÐ¾Ð±Ð¾ÑĢÐ²":6713,"ĠÐļÐ°Ñģ":6714,"ÐµÐ³Ð¼ÐµÐ½ÑĤ":6715,"ĠÑĢÑĥÐ¶":6716,"ĠÐ¿ÑĢÐ¾ÑĤÑıÐ¶ÐµÐ½Ð¸Ð¸":6717,"ĠÐ½ÐµÐ²Ñĭ":6718,"ĠÐ¼Ð¸Ð½ÑĥÑĤÑĥ":6719,"ĠÑĤÑĮÐ¼Ñĭ":6720,"Ð¼Ð±ÐµÑĢÐ»Ð¸":6721,"ĠÐ²ÑĭÐ¸Ð³":6722,"ĠÐ²Ð·Ð±":6723,"ĠÐ¿ÑĢÐµÐ´ÑģÑĤÐ¾Ñı":6724,"Ð¥Ð¸Ð¼":6725,"ĠÑĢÐ°Ð·ÑĥÐ¼Ðµ":6726,"ĠÐŀÐ³ÑĢÐ¾Ð¼":6727,"ĠÐ²ÑĭÐ½ÑĥÐ¶":6728,"ĠÐ°Ð±ÑģÐ¾Ð»ÑİÑĤÐ½Ð¾":6729,"ĠÐºÐ¸ÑĪ":6730,"ĠÐ·Ð°Ð¹":6731,"ĠÐµÑģÑĤÐµÑģÑĤÐ²ÐµÐ½":6732,"Ð¾ÑĩÐ½Ð¾Ð¹":6733,"ĠÐ½Ð°Ð²Ð¸Ñģ":6734,"ÑĤÐ¾Ð»Ðº":6735,"ĠÐĽÐµÐ³Ð¸Ð¾":6736,"ÐľÐ¾Ð¶ÐµÑĤ":6737,"ĠÐ¾ÑģÑĤÐ°Ð²Ð¸Ð»Ð¸":6738,"ĠÑģÐ»ÑĥÐ¶Ð¸ÑĤÑĮ":6739,"ĠÑģÑĥÐ´Ñı":6740,"ĠÑĢÐ°Ð·Ð³Ð¾Ð²Ð°ÑĢ":6741,"ĠÑģÐµÑĢÐ²Ð¸ÑĤÐ¾ÑĢÑĭ":6742,"ĠÑĩÐ¸ÑģÐ»ÐµÐ½":6743,"ĠÐ²ÑĭÐ¹ÑĤÐ¸":6744,"ÐµÐºÑĤÐ°":6745,"ÑĢÐ¾Ð½Ð¾Ð²":6746,"ÑİÑīÐ¸Ñħ":6747,"ĠÐ¶ÐµÐ»Ð°Ñı":6748,"ĠÐ¿Ð¾Ð´Ð¾Ð±Ð½Ð¾Ðµ":6749,"Ġon":6750,"ĠÐĵÐ²Ð°ÑĢÐ´Ð¸Ñı":6751,"ĠÑħÐ¾Ð´Ñĥ":6752,"ĠÐ¿ÑĢÐµÐ´Ð¿Ð¾ÑĩÐ¸ÑĤ":6753,"ĠÐ³ÑĢÐ°Ð²Ð¸ÑĤ":6754,"ĠÑĢÐµÑģ":6755,"ĠÐ¿Ð¾ÐºÐ¾Ð»":6756,"ĠÐ¼Ð¸Ð½Ð¸Ð¼":6757,"ĠÑģÐ¼ÐµÑĢÑĤÐ½ÑĭÑħ":6758,"ĠÐ¿ÑĢÐ¾Ð²Ð¾ÑĢ":6759,"Ð¾Ð»Ñİ":6760,"ĠÐ²ÑĭÑģÐ»":6761,"ĠÐ¿Ð¾ÐºÑĢÐ¾Ð²":6762,"ÑĤÑĥÑĢÑĭ":6763,"ÐľÐ°ÑĢ":6764,"ĠÐ¿Ð»Ð°Ð½ÑĪ":6765,"ĠÑģÐ¼Ð¾ÑĤÑĢÐ¸ÑĤ":6766,"ĠÐ¿Ð¾Ð´Ð±Ð¾ÑĢÐ¾Ð´":6767,"ĠÐ²Ð¾ÑģÐºÐ»Ð¸ÐºÐ½ÑĥÐ»":6768,"ĠÐ¿Ð°ÑģÑģ":6769,"ĠÑĢÐ°Ð·Ð»ÐµÑĤÐµÐ»":6770,"Ð¾ÑĢÐ´Ð¸Ð½":6771,"ĠÐĴÐ¾Ð»ÐºÐ°":6772,"ĠÑĩÑĥÐ´Ð¾Ð²Ð¸ÑīÐ°":6773,"ĠÐ¾Ð±Ð»Ð°Ð´Ð°Ð»":6774,"ĠÐ¾Ð¿ÑĢÐµÐ´ÐµÐ»Ð¸ÑĤÑĮ":6775,"ĠÐ¿Ð»Ð°ÑĤÑĦÐ¾ÑĢÐ¼Ñĭ":6776,"Ð»Ð¾Ð¹":6777,"ĠÐ¿ÐµÑĢÐµ":6778,"Ð°Ð¹Ð¾ÑĢ":6779,"ĠÐ¿Ð¾ÑģÐ»ÐµÐ´Ð½Ð¸Ð¼":6780,"ĠÑıÑĢÐ¾ÑģÑĤÑĮÑİ":6781,"ĠÐ³ÑĢÐ¾Ð±":6782,"ĠÐ´ÐµÑģÑıÑĤÐ¸":6783,"ĠÑģÑĤÑĢÐ°Ð½Ð½Ð¾":6784,"ĠÑģÐ¾Ð¼Ð½ÐµÐ½Ð¸Ð¹":6785,"ĠÐºÑĢÐ¸ÑģÑĤÐ°Ð»":6786,"ĠÑģÐµÑĤ":6787,"ĠÐ¿ÑĢÑıÑĤ":6788,"ÑĨÐ¸ÐµÐ¹":6789,"ĠÑģÐ¼Ðµ":6790,"ĠÐ½ÐµÐ¿Ð¾Ñģ":6791,"ĠÐ¸ÑģÐºÑĢÐµÐ½":6792,"ĠÐ±Ð¸ÑĤÐ²Ð°":6793,"ĠÐºÐ¾Ð¼Ð°Ð½Ð´Ñĥ":6794,"ĠÐĴÐ¾Ð»ÑĩÑĮ":6795,"Ð»ÐµÐ½Ð¾":6796,"ĠÐ¿ÑĢÐ¸Ð±ÑĭÐ»Ð¸":6797,"ĠÑģÑĤÐ¾ÑĢÐ¾Ð½Ð°Ð¼":6798,"ÐŁÑĢÐ¸Ð¼Ð°ÑĢÑħ":6799,"ĠÑģÐ¾Ð±ÑģÑĤÐ²ÐµÐ½Ð½ÑĭÑħ":6800,"ĠÐļÐ¾ÑĢÐ²":6801,"Ð°Ð³ÐµÐ´":6802,"ĠÐŃÐ»ÑĮ":6803,"ĠÐ¿Ð¾Ð´ÑĢÐ°Ð·Ð´ÐµÐ»ÐµÐ½Ð¸Ñı":6804,"ĠÐ¸Ð·Ð»ÑĥÑĩ":6805,"Ð»ÑıÐ»Ð°":6806,"ĠÑģÐ¾Ð±ÑĭÑĤÐ¸Ð¹":6807,"ĠÐºÐ¸ÑģÐ»Ð¾ÑĤ":6808,"ĠÑģÐ½Ð¸Ð¼":6809,"ĠÐºÑĢÑİÑĩ":6810,"ĠÐ¾ÑģÑĤÐ°Ð»Ð°ÑģÑĮ":6811,"Ð¸ÑĢÐ¾Ð²Ð°Ð½Ð½Ð¾Ð³Ð¾":6812,"ĠÐ¿Ð¸ÑģÑĤÐ¾Ð»ÐµÑĤÐ°":6813,"ĠÐ¿Ð¾Ð»ÑĥÐ¼":6814,"ĠÐ¿Ð¾ÑģÐ»ÑĥÑĪ":6815,"Ð¾ÑĪÐµÐ»":6816,"ĠÐłÐ°Ð·Ð²Ðµ":6817,"ĠÐ°Ð²ÑĤ":6818,"ĠÐ²ÐµÐ½":6819,"Ð°ÑĤÑĥÑģ":6820,"ĠÑģÐ°Ð¼Ð¾Ð»ÐµÑĤ":6821,"ĠÐºÐ°Ð¶Ð´ÑĥÑİ":6822,"ĠÐ¶Ð´Ð°Ð»Ð¸":6823,"ĠA":6824,"ĠÐļÐ²":6825,"ĠÐļÐ°Ñį":6826,"ĠÑģÑĢÐ°Ð¶ÐµÐ½Ð¸Ðµ":6827,"ĠÐ³Ð»ÑĥÐ±Ð¸Ð½Ðµ":6828,"ĠÐ¼ÐµÑĤÐ°Ð»Ð»Ð¸ÑĩÐµÑģÐºÐ¸Ðµ":6829,"ĠÑĩÐ»ÐµÐ½Ð¾Ð²":6830,"ĠÐ²Ðµ":6831,"ĠÐļÐ°Ð»ÑĮÐ¿ÑĥÑĢ":6832,"ĠÑģÐ¿Ð¸Ñģ":6833,"ĠÐ¿ÑĢÐ¾ÑĤÐ¸Ð²Ð½Ð¸Ðº":6834,"ĠÐ¿ÑĢÐ¸ÑģÐ»ÑĥÑĪ":6835,"ĠÐ¿Ð¾Ð´Ð¾Ð±Ð½Ð¾Ð³Ð¾":6836,"ĠÐ¾ÑģÑĤÐ°Ð½ÐºÐ¸":6837,"Ð»ÑĭÐµ":6838,"ÑģÑĤÑģÑı":6839,"Ð¡Ð¢":6840,"ĠÑĨÐ°ÑĢÐ°Ð¿":6841,"ĠÐ±ÑĥÐ´ÐµÑĪÑĮ":6842,"ĠÐ½ÐµÐ´Ð¾ÑģÑĤÐ°ÑĤÐ¾ÑĩÐ½Ð¾":6843,"ĠÐŁÑĢÐ¸Ð·ÑĢÐ°Ðº":6844,"Ð¾Ð¾Ð±ÑĢÐ°Ð·":6845,"ÑģÑĤÐ²ÐµÐ½Ð½Ð¾Ð¹":6846,"ĠÑĥÐºÐ»Ð¾Ð½":6847,"ĠÐ¿ÑĢÐ¾Ð±Ð¸ÑĢ":6848,"ĠÑĥÑĩÐµÐ½":6849,"ĠÑĤÐ²Ð¾ÐµÐ³Ð¾":6850,"ÐµÐ½Ñħ":6851,"ĠÐ¼ÑĢÐ°ÑĩÐ½Ð¾":6852,"ĠÐ´ÐµÐ»Ð°Ð»":6853,"ĠÑĤÐ²Ð¾Ðµ":6854,"ĠÐ¿Ð°Ð´Ð°Ð»Ð¸":6855,"ĠÐ¼Ð¾ÑģÑĤÐ¸Ðº":6856,"ĠÐ´Ð²Ð¾ÑĢÑĨÐ°":6857,"ĠÑģÐ¾Ð·Ð´Ð°Ð½Ð¸Ñı":6858,"Ð¾Ð¸Ñħ":6859,"ÐĲÐ»":6860,"ĠÑĥÐ³ÑĢÐ¾Ð·Ñĥ":6861,"ĠÐ¶Ð´ÐµÑĤ":6862,"ĠÐ¾ÑĤÑĭÑģÐº":6863,"ĠÐ¡Ð¾Ð±":6864,"ĠÐ¾Ð±ÑĢÐ°ÑĤÐ¸Ð»":6865,"ĠÐ¾Ð±Ð½Ð°ÑĢÑĥÐ¶Ð¸Ð»Ð¸":6866,"Ð»ÑĥÑĩÑĪ":6867,"Ð¾ÑĤÐµÐ»":6868,"Ð¸Ð²Ð°Ð»Ð°ÑģÑĮ":6869,"ĠÐ¾Ð±Ð¾Ð»Ð¾Ñĩ":6870,"ĠÑĦÑĭÑĢ":6871,"ĠÐ¿Ð¾Ð²Ð¸Ñģ":6872,"Ð¸ÑĢÑĥÐµÑĤ":6873,"ĠÑįÐ½ÐµÑĢÐ³Ð¸Ñİ":6874,"ĠÐ¿ÑģÐ°Ð¹ÐºÐµÑĢ":6875,"ĠÐ²ÑĭÑĢÑĥÐ³":6876,"ĠÐ±ÑĢÐ¾Ð½Ð·":6877,"ĠÐ²Ð°ÑĪÐµÐ³Ð¾":6878,"ĠÐ²ÑĭÑĢÐ²Ð°Ð»ÑģÑı":6879,"ĠÐ¤ÑĥÐ»Ð³ÑĢÐ¸Ð¼Ð°":6880,"ĠÐ°ÐºÐºÑĥ":6881,"ĠÐ²ÑģÑĤÑĢÐ¾":6882,"ĠÐ±ÑĢÐ¾Ð²":6883,"ĠÑĢÑĥÐ½":6884,"ĠÐĽÑĮ":6885,"ĠÐ£ÑĢÐ¸":6886,"ĠÐ»ÑİÐ±Ð¾Ð¿ÑĭÑĤ":6887,"ĠÑĤÐ²Ð¾Ð¸Ñħ":6888,"ĠÑģÐ¾Ð¾Ð±ÑīÐ¸Ð»":6889,"ÐµÑĢÐµÐ³":6890,"ĠÐ´ÐµÑĢÐ³":6891,"ĠÐĲÐºÑģ":6892,"ĠÐ¿Ð¾Ð´Ð½ÑıÑĤÑĮ":6893,"ĠÐ±ÐµÐ¶Ð°Ð»Ð¸":6894,"ĠÐ½ÐµÐ½Ð°Ð²Ð¸Ð´":6895,"ĠÐ¿Ð¾Ð±ÐµÐ¶Ð°Ð»":6896,"ÑĢÐ¸Ð´":6897,"Ð»Ð°Ð³Ð¾":6898,"ÑıÐ½ÑĥÑĤ":6899,"ĠÐ¼ÑıÑģÐ°":6900,"Ð¾Ð·ÑĮ":6901,"ĠÐŁÐ¾Ð½":6902,"ĠÑĢÐ°ÑģÐ¿Ð»Ð°Ð²":6903,"ĠÐ²ÑĢÐ°Ð³Ð¾Ð¼":6904,"ĠÐ½ÐµÐ±Ð°":6905,"ĠÐ¾ÑĤÐ»Ð¸ÑĩÐ¸Ðµ":6906,"ĠÑĥÐ³ÑĢÐ¾Ð·Ñĭ":6907,"ĠÐ¸ÑģÐºÐ»ÑİÑĩÐµÐ½Ð¸ÐµÐ¼":6908,"ĠÐ²Ð¾ÑĢÐ¾ÑĤÐ°":6909,"ĠÑįÐ²Ð°ÐºÑĥ":6910,"ÑĭÐ»Ð°":6911,"ĠÑģÑĢÐ°Ð±Ð¾ÑĤ":6912,"ĠÑĢÐ¸ÑģÐº":6913,"ĠÐĶÐ°Ð»":6914,"ĠÐ²Ð¾ÑĪ":6915,"ĠÐºÐ¾ÑģÐ¼Ð¸ÑĩÐµÑģÐºÐ¾Ð³Ð¾":6916,"ĠÐ¿ÑĢÐµÐ²ÑĢÐ°ÑĤÐ¸Ð»Ð¸ÑģÑĮ":6917,"ĠÐ¾ÑĤÐ±ÑĢÐ¾ÑģÐ¸Ð»":6918,"Ð¾Ð´Ðµ":6919,"Ð¸Ð²Ð°ÑİÑĤÑģÑı":6920,"Ð¸ÑģÑĤÐ¾":6921,"ĠÐ¾ÑĩÐ¸Ñī":6922,"ĠÐ²ÑģÑĤÐ°ÑĤÑĮ":6923,"ĠÑģÑĤÐµÐºÐ»Ð°":6924,"ĠÐŁÐ¾Ð¼":6925,"ÑĥÐ±Ð¸Ð¹":6926,"ĠÐ¿Ð¾Ð»ÑĥÑĩÐ¸Ð»Ð¸":6927,"ĠÐ»ÐµÐ²Ð¾Ð¹":6928,"Ġ3":6929,"ĠH":6930,"ĠÐ¿ÑĥÑģÐº":6931,"ĠÑģÐ»Ð¾Ð²Ð°Ñħ":6932,"ĠÐ·Ð´Ð¾ÑĢÐ¾Ð²":6933,"ĠÑģÐ¾Ð±ÑģÑĤÐ²ÐµÐ½Ð½Ð¾Ð³Ð¾":6934,"ĠÑĨÐµÐ»ÑĭÐµ":6935,"ĠÐºÐ¾ÑĢÐ¸Ð´Ð¾ÑĢÑĥ":6936,"ÑĪÑĮ":6937,"ĠÐĿÐ°ÐºÐ¾Ð½ÐµÑĨ":6938,"ÑıÑĤÐµÐ»ÑĮ":6939,"ĠÐ³Ð¾Ð²Ð¾ÑĢÑıÑĤ":6940,"ĠÐ¿ÑĢÐ¸Ð¼Ð¸ÑĤÐ¸Ð²":6941,"ĠÐ²ÑĭÑģÐ°Ð´ÐºÐ¸":6942,"ĠÑĥÐ³Ð¾Ð´Ð½Ð¾":6943,"ÑħÐ°ÑĢ":6944,"Ð¾Ð¶Ð°":6945,"ĠÐ¿Ð»Ð¸ÑĤ":6946,"ĠÐĵÐ°ÑĥÐ½ÑĤ":6947,"ĠÐ¿ÑĢÐµÐ´Ð°Ð½":6948,"ĠÐ¾ÑģÐ¾Ð·Ð½Ð°Ð²":6949,"ĠÐ²ÑĭÐ¿ÑĥÑģÑĤÐ¸Ð»":6950,"ĠÐ°ÑĤÐ°ÐºÐ¾Ð²Ð°ÑĤÑĮ":6951,"ĠÑģÐ»ÑĭÑĪÐ°ÑĤÑĮ":6952,"ĠÑĤÑıÐ¶ÐµÐ»ÑĭÐ¹":6953,"ĠÐ¿ÐµÑĢÐµÐ²ÐµÑĢ":6954,"ÑĥÐ»ÑıÑĢ":6955,"ĠÐ¼ÑĥÐ¶ÑĩÐ¸Ð½Ð°":6956,"Ð¸ÑĨÐ¸Ð¾Ð½":6957,"ĠÑģÐ»ÑĥÐ¶Ð±Ñĭ":6958,"ĠÐºÑĢÑĭÐ»ÑĮÑı":6959,"ĠÐ¼Ð¾ÑģÑĤÐ¸ÐºÐ°":6960,"ĠÐ¿ÑĢÐµÐ´ÐµÐ»Ð°Ð¼Ð¸":6961,"ĠÐ»Ð¾Ð±":6962,"ĠÐ¿Ð¾ÑĢÑĤ":6963,"ĠÐ¿Ð¾Ð²ÐµÑĢÐ¸ÑĤÑĮ":6964,"ĠÑģÐ¾ÑģÐµÐ´":6965,"ĠÐŁÑĥÑģÑĤÑĮ":6966,"Ð¾Ð»Ð¾Ð½":6967,"ĠÑģÐ²Ð°Ð»":6968,"ÐĿÐ°ÐºÐ¾Ð½ÐµÑĨ":6969,"Ð¢Ð°Ð¼":6970,"ĠÑįÑħÐ¾":6971,"ĠÐ¡Ð»ÐµÐ´":6972,"ĠÐŃÐ»Ð¸":6973,"Ð»ÑİÑĤ":6974,"ĠÑĩÐµÑĢÐ½ÑĭÐ¹":6975,"ÐĶÐ»Ñı":6976,"ĠÐ¿ÐµÑĢÐµÐ´Ð°Ð²":6977,"ĠÑĤÐµÐ»Ñĥ":6978,"ĠÐĶÐµÑģÑı":6979,"ĠÐĹÐ°Ð¿":6980,"ĠÐ½Ð¸ÑĩÐµÐ¼":6981,"Ġhim":6982,"Ð²ÑĭÑĢÐ½ÑĥÐ»":6983,"Ð¸Ð´ÐµÑģÑıÑĤÐ¸":6984,"ÑħÐ¾":6985,"Ð±Ð¸":6986,"ĠÑĢÐ°Ð·ÑĢÐµÐ·":6987,"ÐµÐ³Ð¾Ð½":6988,"ĠÐ½Ð°ÑģÐ¼ÐµÑĪ":6989,"ĠÑıÐ·ÑĭÐº":6990,"ĠÐ°ÑĢÑħÐ¸Ð²":6991,"ĠÑĩÐµÑĤÑĭÑĢÐµÑħ":6992,"ÑģÐ¸Ð½":6993,"ĠÐ¿ÑĢÐ¾Ð·":6994,"ĠÐ½ÐµÑĥÐ¼":6995,"Ð½ÑĥÑī":6996,"ĠÐľÐ¾Ð¹":6997,"ÐŀÐ³":6998,"ĠÐ²ÐµÑĢÐ½ÑĥÐ»Ð¸ÑģÑĮ":6999,"ĠÐ½Ð°ÑģÑĩÐµÑĤ":7000,"Ð°ÑĢÐ¸ÐµÐ²":7001,"ĠÐ¾ÑĤÑģÑĤÑĥÐ¿Ð¸Ð»":7002,"ĠÐ¼ÐµÑĤÐ°Ð»Ð»Ð¸ÑĩÐµÑģÐºÐ¸Ð¹":7003,"ĠÐ¿Ð¾ÑģÐ»ÑĭÑĪ":7004,"ĠÐ·Ð°ÑĢÑıÐ´Ñĭ":7005,"Ð§ÐµÑĢÐµÐ·":7006,"Ð³Ð»Ð¸":7007,"ĠÐĿÐ°Ð¿":7008,"ĠÐĿÐµÐ¹Ð»":7009,"Ð¸ÑģÑĤÑĭÐµ":7010,"ĠÐ¿Ð¾Ð¼ÐµÑĪ":7011,"ĠÐ½ÑĥÐ¶Ð½Ñĭ":7012,"ĠÐºÑĢÐµÐ¹ÑģÐµÑĢÐ°":7013,"ĠÑĢÐµÐ¼Ð¾Ð½":7014,"ĠÐŁÐ¾Ñĩ":7015,"ĠÐ¾Ð·Ð°ÑĢ":7016,"Ð¸ÑģÑı":7017,"Ð°Ð´Ð½Ð¾":7018,"Ð¾Ð¿Ð¾Ð´Ð¾Ð±":7019,"ĠÐºÐ¾ÑģÑĤÑı":7020,"ĠÐ¼ÑĳÑĢÑĤ":7021,"ÐºÑĥÐ»":7022,"ĠÑģÑĤÐµÐºÐ»ÑıÐ½":7023,"ĠÑĨÐµÐ¿Ð¸":7024,"ĠÐ´Ð¾ÑĢÐ¾Ð³Ð¸":7025,"ĠÐłÐ°ÑĦÐµÐ½Ð°":7026,"ĠÐ·Ð²ÐµÑĢÑı":7027,"ÑģÐ¾Ð²":7028,"Ð¾ÑĪÐ»Ð¸":7029,"ÐĳÐµÐ·":7030,"ĠÑĥÐ»ÑĭÐ±ÐºÐ°":7031,"ĠÐ²ÑĭÑģÑĤÑĢÐ¾":7032,"ĠÐ½Ð°ÑĩÐ°ÑĤÑĮ":7033,"ÑĤÐµÑĦ":7034,"ĠÑĥÐ·Ð½Ð°":7035,"ĠÐĶÐ¶Ð¾Ð½":7036,"ess":7037,"ĠÐ¿Ð°Ð¼ÑıÑĤÑĮ":7038,"ÑĢÐ°ÑģÑģ":7039,"ĠÐ¼Ð³Ð½Ð¾Ð²ÐµÐ½Ð¸Ð¹":7040,"ĠÑģÐ¾ÑħÑĢÐ°Ð½Ð¸ÑĤÑĮ":7041,"ĠÑģÐµÐ¹":7042,"ÐµÐ»ÑĮÐµ":7043,"ĠÐĶÐ¾ÑĢÐ½Ð°":7044,"Ð¡Ð»Ð¾Ð²":7045,"ĠÑĥÐ¼Ð°":7046,"ĠÐ¿ÐµÑĢÐ²ÑĥÑİ":7047,"ĠÑģÑĤÐµÐ½Ð°Ð¼Ð¸":7048,"ĠÐ½Ð°Ð¶Ð°Ð»":7049,"ĠÐ²Ð·Ð´ÑĢÐ¾Ð³Ð½ÑĥÐ»":7050,"ĠÐ¿ÑĥÐ»ÑĮ":7051,"ĠÐ³Ð»Ñı":7052,"ĠÑģÐ½ÐµÐ³":7053,"um":7054,"Ð°ÑĢÐµ":7055,"ÐµÐ²ÑĭÑħ":7056,"ĠÑģÐ²Ð¸ÑģÑĤ":7057,"ÑģÐ»ÑĥÐ¶":7058,"ÑİÑīÐ¸Ð¹":7059,"ĠÑĤÐ¾ÑĢÐ¾Ð¿":7060,"ĠÐ¼Ð¾ÑģÑĤÐ¸ÐºÐµ":7061,"ÐŁÐ¾ÑģÐ»ÐµÐ´":7062,"ĠÐ½ÐµÐ½Ð°Ð²Ð¸ÑģÑĤÑĮ":7063,"ĠÐ¡ÐµÐ²ÐµÑĢ":7064,"ĠÐ±ÑĥÐ´ÑĥÑīÐµÐµ":7065,"ĠÐ¿Ð¾Ð¿Ð°ÑģÑĤÑĮ":7066,"ĠÐ¸ÑģÐºÐ°Ð»":7067,"ĠÐ½Ð°ÑĨÐµÐ»":7068,"ĠÑĥÐ»ÑĥÑĩÑĪ":7069,"Ð½Ð¾Ð²ÐµÑģ":7070,"ĠÐĽÑİÑĨÐ¸Ð¹":7071,"ĠÑģÐ¸Ð»ÑĥÑį":7072,"ĠÐ´ÐµÑĢÐµÐ²ÑıÐ½":7073,"ĠÐ¨ÑĤÐµÐ»ÑĮ":7074,"ĠÐ·Ð°ÑıÐ²Ð¸Ð»":7075,"ÐºÐ»ÐµÐ·":7076,"Ð°Ð½Ð½":7077,"ĠÑģÑĤÑĭ":7078,"ĠÑħÑĢÐ°Ð±":7079,"Ð¾ÑĩÐºÐ°":7080,"ĠÑĢÐ°ÑģÑħÐ¾Ð´":7081,"ÑĢÐ¾ÑģÐ¸Ð²":7082,"ĠÐºÐ°Ð¿ÐµÐ»Ð»":7083,"ĠÐ½Ð¾Ð²ÑĥÑİ":7084,"ĠÐ¾Ð³ÑĢÐ¾Ð¼Ð½ÑĭÐ¼":7085,"ĠÐ²ÑĤÐ¾ÑĢÐ¾Ð³Ð¾":7086,"ĠÐ²ÑĭÐ³Ð»ÑıÐ´ÐµÐ»Ð¸":7087,"Ð°ÑĢÑıÐ´":7088,"ĠÐ¸Ð·Ð½ÑĥÑĤÑĢÐ¸":7089,"ĠÐ¿Ð¾Ð½ÑıÐ»Ð°":7090,"Ð¾Ð²Ð°Ð½Ð½ÑĭÐµ":7091,"Ð¾Ð½Ð°Ñħ":7092,"ĠÐ²ÑĭÑģÑĤÐ°Ð²":7093,"ĠÐĴÐµÐ½":7094,"ĠÐŁÑĢÐ°Ð²":7095,"Ð¼Ð¾ÑĤÑĢÐµÑĤÑĮ":7096,"ĠÐ¿ÑĢÐ¸ÑģÐ¿":7097,"ĠÐ¼Ð½Ð¾Ð³Ð¾Ðµ":7098,"ĠÐ¢ÐµÑĢÑĢÑĥ":7099,"ĠÐ¸ÑģÐ¿ÑĭÑĤÑĭÐ²Ð°Ð»":7100,"ĠÑĢÐ¾Ð´Ð°":7101,"Ð¾ÑģÑĤÐ°Ð²":7102,"ĠÐ°Ð¿Ð¾ÑĤÐµÐºÐ°ÑĢÐ¸Ð¹":7103,"ÐµÑĢÐµÐ½":7104,"ĠÐ¡ÐŁÐŀ":7105,"ĠÐºÐ°Ð¿Ð»Ð¸":7106,"ĠÐ§ÐµÑĢÐµÐ¿":7107,"ĠÐ²ÑĢÐ°Ð¶ÐµÑģÐºÐ¸Ñħ":7108,"ÐĿÐµÑģÐ¼Ð¾ÑĤÑĢÑı":7109,"ĠÐ¼Ð°Ñı":7110,"ĠÐ°Ð½Ð°Ð»":7111,"ĠÐ¥Ð¾Ð»":7112,"ĠÐ·Ð°Ð¿ÐµÑĩÐ°ÑĤ":7113,"ĠÐ¿ÐµÑĢÐµÐ´Ð°Ñĩ":7114,"ĠÑįÐºÑģ":7115,"ĠÐ¼Ð°Ð»ÑĮÑĩÐ¸Ðº":7116,"Ð¡Ð¾":7117,"Ġan":7118,"ĠÐ¿ÑĢÐ¾ÑģÑĤÑĢÐ°Ð½ÑģÑĤÐ²Ð°":7119,"Ð²Ð¸":7120,"Ð°ÑĦÐµÐ½":7121,"ĠÑģÐ¿Ð¾ÑģÐ¾Ð±Ð½Ñĭ":7122,"ĠÐ±ÐµÐ·ÑĥÐ¼Ð¸Ðµ":7123,"ĠÐ½Ð°Ð±Ð»ÑİÐ´Ð°Ñı":7124,"ĠÐ¿Ð¾ÑĤÐ¾Ð»ÐºÐ°":7125,"ĠÑįÑģÐºÐ°Ð´":7126,"ĠÐ²ÑĭÑģÐºÐ¾Ñĩ":7127,"Ð¸ÑĨÐ¸Ð½":7128,"ĠÐ¿Ð¾Ð¶ÐµÐ»":7129,"ĠÐ±ÑĥÐºÐ²Ð°Ð»ÑĮÐ½Ð¾":7130,"ĠÐ§ÐµÐ»Ð¾Ð²ÐµÑĩÐµÑģÑĤÐ²Ð°":7131,"Ð¸Ð»Ð¸Ñı":7132,"Ð°ÑĤÑĢ":7133,"Ð¸ÑĢÐ°ÑĤÑĮ":7134,"Ð½ÐµÑĨ":7135,"ĠÑģÑĤÐ¾ÑıÑĤÑĮ":7136,"ĠÑĥÐ¼ÐµÐ½ÑĮÑĪ":7137,"ĠÐŀÑĢÐ´Ð¾":7138,"ĠÑĤÑĥÐ½Ð½ÐµÐ»Ñı":7139,"ĠÐ¿Ð¾Ð²ÑĢÐµÐ¶Ð´ÐµÐ½Ð¸Ñı":7140,"ĠThe":7141,"Ð¾Ð´Ñı":7142,"ĠÐ¿Ð¾Ð»Ð½ÑĥÑİ":7143,"ĠÐ½Ð°Ð¿ÑĢÐ°Ð²Ð¸Ð»":7144,"ĠÐ°Ð´ÐµÐ¿":7145,"ĠÐ²Ð¾Ð²ÑĢÐµÐ¼Ñı":7146,"ÑĢÐ¾ÑĤ":7147,"ĠÐ¿Ð°Ñħ":7148,"ĠÐļÐ»Ñĭ":7149,"ĠÐ¡Ð²ÐµÐ½":7150,"ĠÐ¾ÑģÑĤÐ°ÐµÑĤÑģÑı":7151,"ĠÐĹÐ°Ðº":7152,"ĠÐ²ÑĭÐ¿ÑĥÑģÐº":7153,"ĠÑĢÐµÐ·ÐµÑĢÐ²":7154,"ve":7155,"ĠÐ·ÐµÐ»":7156,"ĠÐ¿ÑĢÐ¾ÑģÑĤÑĢÐ°Ð½ÑģÑĤÐ²Ðµ":7157,"ÑĥÐ»Ðº":7158,"Ð°ÑĤÐµÐ»ÑĮÐ½Ð¾Ð¹":7159,"Ð°ÑĤÐµÐ»ÑĮÐ½ÑĭÐ¹":7160,"ÑĥÑĢÑĥ":7161,"ĠÐºÐ°ÑĤÐ°":7162,"ĠÐ³ÐµÑĢÐ¾":7163,"ĠÐ¸Ð·Ð´Ð°Ð²":7164,"Ð¸ÑĩÑĮ":7165,"Ð°Ð¶Ð½Ð¾":7166,"Ð¡Ð²":7167,"ĠÑģÑĢÐ°Ð¶ÐµÐ½Ð¸Ð¹":7168,"ĠÑĥÐ»Ð¸ÑĨÑĭ":7169,"Ð°Ð»ÑĮÑĪÐµ":7170,"ÑĥÐ¶Ð¶":7171,"ĠÐ²ÑĭÐ¿ÑĢÑıÐ¼":7172,"ĠÐ²Ð¿ÐµÑĩÐ°ÑĤÐ»ÐµÐ½Ð¸Ðµ":7173,"ĠÑĢÐµÑģÑĥÑĢ":7174,"Ð´Ð¸Ð²":7175,"ÐµÑĢÐ±":7176,"ĠÐ·ÐµÑĢÐº":7177,"ĠÑĢÐ¾Ð·":7178,"ĠÑĢÐµÑĩÑĮ":7179,"Ð»ÑıÑİÑĤ":7180,"ĠÐļÐ°ÑĤ":7181,"Ð¸ÑĤÐµÐ»ÑĮÐ½Ð¾ÑģÑĤÑĮ":7182,"ÑĥÑĢÐ¾Ð´":7183,"ĠÐ¿ÑĢÐ°Ð²Ð¾":7184,"ĠÐļÐ¾ÑĢÐ¿":7185,"ĠÐ½Ð°ÐºÐ»Ð¾Ð½Ð¸Ð»ÑģÑı":7186,"ĠÑģÐ¾ÑĢ":7187,"ĠÐ±Ð°Ð½":7188,"ĠÐ¼Ñĩ":7189,"ÐµÑģÑĤÐ¸Ð²":7190,"ÐķÐĿ":7191,"ĠÐ³Ð»ÑĥÐ±Ð¶Ðµ":7192,"ĠÐ¿Ð¾Ð»Ð°Ð³Ð°Ñİ":7193,"ĠÐ½Ð°Ð´ÐµÐ¶Ð´Ñĭ":7194,"ĠÐĴÐ¾Ð·Ð´ÑĥÑħ":7195,"ĠÐ¸Ñī":7196,"ĠÐºÐ°ÑĪ":7197,"ĠÐ±ÑĥÐ´ÑĮ":7198,"ĠÑģÐ´ÐµÐ»Ð°Ð»Ð°":7199,"ĠÐ¿ÑĢÐ¸Ð½ÑĨÐµÐ¿Ñģ":7200,"ĠÑĤÐ¾ÑĢÐ¶Ðµ":7201,"ĠÐ¿Ð°ÑĥÑĤ":7202,"ght":7203,"ĠÑħÑĢÑĥÐ¿":7204,"Ð°Ð½ÑĤÐ¾Ð²":7205,"ĠÐ½Ð°Ð¿Ð¸Ñģ":7206,"ĠÐ·Ð´Ð°Ð½Ð¸Ðµ":7207,"ĠÐºÐ°Ð¶Ð´Ð°Ñı":7208,"Ð°ÐµÐ¼Ð¾Ð³Ð¾":7209,"ĠÐ½ÐµÐ·Ð½Ð°ÐºÐ¾Ð¼":7210,"ĠÐ¿Ð¾ÑĢÑıÐ´Ð¾Ðº":7211,"ĠÑģÑĤÑĥÐ¿ÐµÐ½":7212,"ÑĳÐ³":7213,"ĠÐ·Ð°ÑīÐ¸ÑĤÐ¸ÑĤÑĮ":7214,"ĠÐ¿Ð°ÑģÑĤÑĮ":7215,"Ð¸Ð»Ð»Ð¸":7216,"ĠÐĵÐ°Ð±":7217,"ĠÐ¥ÐµÐ½":7218,"ÑıÑīÐ¸ÑħÑģÑı":7219,"ĠÑģÑĢÐ°Ð²Ð½ÐµÐ½Ð¸Ñİ":7220,"ÐĺÐ½ÐºÐ²Ð¸Ð·Ð¸ÑĤÐ¾ÑĢ":7221,"ÑĤÐµÐ»":7222,"ĠÐ¿Ð¾Ð»ÑĮÐ·Ð¾Ð²":7223,"ĠÐ²ÑĢÐµÐ´":7224,"ĠÑĤÑĢÐ¾ÑĦ":7225,"ĠÑĩÐµÑĢÐ½ÑĭÑħ":7226,"ĠÐ´ÑĢÐ¾Ð±":7227,"ĠÐĽÑİÑĤÐµÑĢ":7228,"ĠÑģÑĩÐµÑĤ":7229,"ĠÐ¿Ð»Ð¾ÑīÐ°Ð´Ð¸":7230,"ĠÑĢÐµÐ±ÐµÐ½":7231,"ĠÐ¼Ð¾Ð»Ð½Ð¸Ð¸":7232,"ce":7233,"ÑĢÐ¾Ð¿":7234,"Ð°Ð»ÐµÐºÑĥ":7235,"ĠÐ»Ð°ÑĤ":7236,"ĠÐļÑĥÑĢ":7237,"ĠÐ·Ð½Ð°Ð½Ð¸Ñı":7238,"ÑĪÐµÐ¹ÑģÑı":7239,"ĠÐ¿Ð»Ð°Ð¼ÐµÐ½ÐµÐ¼":7240,"ĠÐ¾ÑģÐ²Ð¾Ð±":7241,"ĠÑģÐ·Ð°Ð´Ð¸":7242,"ÐºÐ°Ð¿Ð¸ÑĤÐ°Ð½":7243,"ĠÐ¿Ð¾Ð´ÑĢÐ¾Ð±":7244,"ÐĽÐ¾Ðº":7245,"ĠÐ¿Ð°Ð»ÐµÑĨ":7246,"ĠÑĩÑĥÐ´Ð¾Ð²Ð¸ÑīÐµ":7247,"ĠÑĢÐµÐ´ÐºÐ¾":7248,"),":7249,"ÑĩÑĥÐ²":7250,"ĠÑĢÐ¾Ð±":7251,"ĠÐ²Ð¾ÑĪÐ»Ð¸":7252,"ĠÐ¿ÑĢÐµÐ´Ð»Ð°Ð³":7253,"ĠÑģÐ¾Ð±ÑĢÐ°Ð»Ð¸ÑģÑĮ":7254,"ĠÐ²ÑĭÐ¿Ð°Ð´":7255,"ĠÐ¶ÐµÑĢÑĤÐ²Ñĥ":7256,"ĠÐĹÐ°ÑħÐ°ÑĢÐ¸ÑįÐ»ÑĮ":7257,"Ð°Ð½Ð°ÑĤ":7258,"ĠÑĥÐ²Ð¸Ð´ÐµÐ»Ð¸":7259,"ĠÐ´ÑĢÐ¾Ð¶ÑĮ":7260,"ĠÐ½Ð°Ð²ÐµÑĢÑħÑĥ":7261,"Ð¾ÐºÑĢÐ°ÑĤ":7262,"Ð°Ð·Ð¸":7263,"ĠÐ´Ð²ÐµÑĢÐµÐ¹":7264,"ĠÑģÐ¾ÑģÑĤÐ¾ÑıÐ½Ð¸Ðµ":7265,"ĠÑħÐ²Ð°ÑĤÐ¸Ð»Ð¾":7266,"ĠÑĢÐ¸ÑģÐºÐ¾Ð²":7267,"ÐºÐ»ÐµÐ·Ð¸Ð°ÑĢÑħ":7268,"ÐµÐºÑģÐ°":7269,"ĠÐ¿ÑĢÐ°Ð²Ð¾Ð¹":7270,"ĠÐ¿Ð¾Ð³Ð¾Ð²Ð¾ÑĢÐ¸ÑĤÑĮ":7271,"ĠÐ½Ð¾Ð²Ð¾Ð³Ð¾":7272,"ĠÐ¼ÐµÑĢÑĤÐ²Ñĭ":7273,"ĠÐ±Ð¾Ð³Ð°":7274,"ĠÐ¿Ð¾ÑģÐ»ÑĥÐ¶":7275,"ĠÐ¼Ð»Ð°Ð´":7276,"Ð°ÑģÐ¸Ð±Ð¾":7277,"ÐµÐ²Ð°ÑĤÑĮ":7278,"ĠÐ¾Ð±ÑħÐ¾Ð´":7279,"ĠÐ±Ð¾Ð»ÑĤÐµÑĢÑĭ":7280,"ĠÐ½Ð°Ð´ÐµÑıÑĤÑĮÑģÑı":7281,"ĠÐ¿ÑĢÐµÐ´ÑģÑĤÐ¾ÑıÐ»Ð¾":7282,"ĠÐ·Ð°Ð¼ÐµÑĤÐ½Ð¾":7283,"ĠÐ¿Ð¾ÐºÑĢÑĭÐ²Ð°Ð»Ð¸":7284,"Ð¸Ð½ÐºÐ¸":7285,"ĠÐĺÑģÑĤ":7286,"ĠÐĶÐµÑĤÐµÐ¹":7287,"ÐĲÐ²":7288,"ĠÐ»ÐµÐ³ÐºÐ¾ÑģÑĤÑĮÑİ":7289,"ĠÑĢÐ°Ð²Ð½Ð¾Ð²ÐµÑģ":7290,"ĠÑĪÑĤÐ°Ð±":7291,"ĠÐ¾Ð¿Ð°ÑģÐ½Ð¾ÑģÑĤÑĮ":7292,"ĠÐ²Ð·ÑĢÐµÐ²ÐµÐ»":7293,"ÐµÑģÐºÐ¾Ðµ":7294,"Ð°Ð·Ð´":7295,"Ð½ÑıÑĤÑĮ":7296,"ĠÑĢÐ°Ð·ÑĢÑĥÑĪÐµÐ½Ð¸Ñı":7297,"ĠÐ±ÐµÑĢÐµÐ³":7298,"ĠÐ°ÑģÑĤÑĢÐ¾Ð¿Ð°ÑĤ":7299,"ĠÐļÐ¾Ð¿":7300,"ĠÑĪÐµÐ¸":7301,"ĠÐ²Ð¸Ð´Ð¾Ð¼":7302,"ĠÐ¿ÑĥÑģÑĤÐ¾ÑĪ":7303,"ĠÐ³Ð»Ð°Ð²Ðµ":7304,"ĠÐ¸ÑģÑĩÐµÐ·Ð»Ð°":7305,"ĠÐ£Ð¶Ð°ÑģÐ°":7306,"ĠÑĤÐµÑĩ":7307,"Ð½ÑĥÑģÑĮ":7308,"ĠÐ³Ð¸Ð´":7309,"ĠÐ¿ÑĢÐ¸ÑĪÐ»Ð°":7310,"ĠÐľÐ°ÑĢÑģÐ°":7311,"ĠÐļÑĭÑģ":7312,"ĠÐĿÐµÐ²":7313,"ĠÑĤÐµÐ»Ð¾ÑħÑĢÐ°Ð½":7314,"ĠÑĥÐ±Ð¸Ð¹ÑģÑĤÐ²Ð°":7315,"ĠÐºÐ¾Ð½ÑĤÐ¸Ð½":7316,"ĠÐ°ÑĢÑĤÐ¸Ð»Ð»ÐµÑĢÐ¸Ð¹":7317,"ĠÐľÐ°Ð»ÑĮ":7318,"ĠÐłÐµÐ¹Ð²ÐµÐ½":7319,"ĠÐ·Ð°Ð²Ð¾ÐµÐ²":7320,"ĠÑģÐ»Ð°Ð±Ð¾":7321,"Ð¿Ð¸Ð¾Ð½":7322,"ĠÐłÑĥÐºÐ¸":7323,"ÑįÐ¼":7324,"ĠÐ½Ð°ÐºÐ°Ð·":7325,"ĠÑįÐºÐ·":7326,"ĠÐ·Ð°ÑħÐ²Ð°Ñĩ":7327,"ĠÐ¼Ð°Ð³Ð¾Ñģ":7328,"ĠÐ½ÐµÑĥÐ´":7329,"Ð¸Ð²Ð°Ñİ":7330,"ĠÑĢÐ°Ð±Ð¾ÑĤÐ°ÑĤÑĮ":7331,"ĠÑĤÐµÐ¼Ð½Ð¾ÑĤÑĥ":7332,"ĠÑĩÐµÐ»Ð½Ð¾Ðº":7333,"od":7334,"ÑıÑĢ":7335,"Ð»ÑİÐ½ÑĥÐ»":7336,"ĠÐ£Ð·":7337,"ĠÐ²ÑģÐ¿Ð¾Ð¼Ð¸Ð½":7338,"ÐŃÑĤÐ¾ÑĤ":7339,"ĠÑģÐ¾Ð²ÐµÑĢÑĪÐµÐ½":7340,"ĠÐ¼ÑĭÑĪÑĨÑĭ":7341,"ĠÑĥÑĢÐ¾Ð´Ð»Ð¸Ð²":7342,"Ð°Ð»Ðº":7343,"ÐµÐ¼Ð°":7344,"ÑĥÑģÑĤÑı":7345,"ĠÐ·Ð°Ð¼ÐµÑĤÐ¸ÑĤÑĮ":7346,"ĠÐ¿ÑĢÐ¸ÐºÐ°Ð·Ñĥ":7347,"ĠÑĨÐµÐ»ÑĭÐ¹":7348,"ĠÐºÐ°Ð½Ð°Ð»":7349,"ĠÐºÑĢÐµÑģÑĤÐ¾Ð²Ð¾Ð³Ð¾":7350,"ĠÐ¿Ð¸ÐºÑĤ":7351,"ĠÐľÐ¾ÑĢÑĤÐ°ÑĢÐ¸Ð¾Ð½":7352,"ĠÐ¼ÐµÐ½ÑĤ":7353,"ĠÐĺÐ¼Ð¿ÐµÑĢÑģÐºÐ¸Ðµ":7354,"ĠÐŀÑĤÐº":7355,"ĠÐ³ÑĢÐ¾Ð¼ÐºÐ¾":7356,"ĠÐ·Ð°ÑīÐ¸ÑĤÑĥ":7357,"ĠÐ±Ð°ÑĢÑĢÐ¸Ðº":7358,"ÐĿÐ¸ÑĩÐµÐ³Ð¾":7359,"ĠÑĢÐ°ÑģÑģÑĤÐ¾ÑıÐ½Ð¸Ðµ":7360,"Ġat":7361,"ĠÐ¼ÑĥÐ¶ÑĩÐ¸Ð½":7362,"ĠÐ±ÑĥÑĢÐ¸":7363,"Ð´ÑĥÐ¼":7364,"ĠÐ½Ð°Ð¿ÑĢÐ¾ÑĤÐ¸Ð²":7365,"ĠÐ·Ð°Ð´Ð°Ð½Ð¸Ðµ":7366,"ĠÐ¿ÑĢÐ¾ÑĪÐ¸Ð¿ÐµÐ»":7367,"ĠÐ½Ð¾ÑĩÑĮÑİ":7368,"ĠÐ¡ÐµÑĢÐ´":7369,"ĠÑģÑĥÐ´ÑĮÐ±Ñĭ":7370,"ĠÐµÑĢÐµÑĤÐ¸ÐºÐ¾Ð²":7371,"ĠÐ¾Ð±Ð¾Ð·Ð½Ð°Ñĩ":7372,"ÐŁÐ¾ÑħÐ¾Ð¶Ðµ":7373,"ÑĳÑĢÐ·":7374,"ĠÑĤÑĢÑĥÐ¿Ð¾Ð²":7375,"ĠÑıÐ´Ð¾Ð²Ð¸ÑĤ":7376,"ĠÐ±Ð»ÐµÑģÐº":7377,"ĠÑĥÐ¿Ð°Ð»Ð°":7378,"ĠÐ³ÑĢÐ¾Ð¼ÑĩÐµ":7379,"ĠÑģÐ½Ð°Ð±":7380,"ĠÑĤÐ°Ð½ÐºÐ°":7381,"ĠÐ¿Ð¾ÑħÐ¾Ð¶Ð¸Ðµ":7382,"ĠÐ³ÑĥÑģÐµÐ½":7383,"ĠÐ¸Ð·Ð´":7384,"ĠÑĪÐ¾Ðº":7385,"ÐłÐ°ÑĦÐµÐ½":7386,"ĠÐĿÐµÑĥÐ¶ÐµÐ»Ð¸":7387,"ĠÐ½Ð¸ÐºÐ°ÐºÐ¾Ð¹":7388,"ĠÑĢÑıÐ²":7389,"ĠÐ°Ð³ÑĢ":7390,"Ð¸ÑģÑĤÐ¾Ð¹":7391,"Ð¾Ð²Ð°Ð½Ð½ÑĭÐ¹":7392,"ĠÐ³Ð»Ð°Ð²Ð½ÑĭÐ¹":7393,"ĠÐ¿ÑĢÐµÑģÐ»ÐµÐ´Ð¾Ð²":7394,"ÐµÐ½ÑĨÐ¸":7395,"ÑģÑĤÐ²Ð¾ÑĢ":7396,"ĠÑĪÐ»Ñİ":7397,"Ð°ÑİÑīÐ¸Ð¼ÑģÑı":7398,"ĠÐĽÐ¸ÑĪÑĮ":7399,"ÑĢÐ¸ÑĢÑĥ":7400,"ĠÐ´Ð¾ÑģÑĤÐ°Ð»":7401,"ĠÐ¿Ð¾Ð³ÑĢÐµÐ±":7402,"ĠÑĦÑĢÐ°Ð³Ð¼ÐµÐ½ÑĤ":7403,"ĠÐºÐ»Ð°Ð´":7404,"ĠÑģÐºÐ¾Ð½":7405,"ĠÐĵÐ¾Ð²Ð¾ÑĢ":7406,"ĠÑĢÑĥÐ½Ñĭ":7407,"Ð¸ÑģÑĤÑĭÐ¹":7408,"ÑĤÐ¸ÑĦ":7409,"ĠÐ¼Ð¾ÐµÐ¼":7410,"ÑĢÐ°ÐºÑģÐ°":7411,"ĠÐ¸ÑģÐºÑĢÑĭ":7412,"ĠÑģÐ¾Ð±ÑģÑĤÐ²ÐµÐ½Ð½ÑĭÐ¹":7413,"ĠÐ²ÑĭÐ¶Ð¸Ð²ÑĪÐ¸Ñħ":7414,"ĠÑĦÐ¾ÑĢÐ¼Ñĭ":7415,"ĠÐ¾ÑģÐ¼Ð¾ÑĤÑĢÐµÐ»":7416,"ÑĤÐ¾Ñģ":7417,"ÑĤÐ¾ÑĢÐ¾Ð¿":7418,"ÐĴÐ½ÐµÐ·Ð°Ð¿Ð½Ð¾":7419,"ĠÐ½ÐµÐ¼Ð½Ð¾Ð³":7420,"ĠÐ¿ÑĢÐ¾Ð²ÐµÑģÑĤÐ¸":7421,"ĠÐ¿Ð¾Ð´Ð´ÐµÑĢÐ¶ÐºÐ¸":7422,"ĠÐ¿ÐµÑīÐµÑĢÑĭ":7423,"ĠÐ¿ÑĥÑģÑĤÐ¾ÑĤÑĥ":7424,"ĠÑĥÐ´Ð°ÑģÑĤÑģÑı":7425,"ĠÐ»Ð¾ÑıÐ»Ð¸ÑģÑĤ":7426,"ÑĢÑĥÐº":7427,"ÑģÐºÐ¾Ð¼Ñĥ":7428,"ĠÑħÐ¾ÑĤÐµÐ»Ð¸":7429,"ĠÐĲÑĢÐ±Ð¸ÑĤ":7430,"ĠÐ¸Ð¼ÐµÐ»Ð¾":7431,"ÑįÐº":7432,"ÑĢÐ°ÐºÑĤ":7433,"ĠÐ¾ÑĤÑģÑĤÑĥÐ¿Ð¸ÑĤÑĮ":7434,"ĠÑĤÐ°Ð½ÐºÐ¸":7435,"ĠÐĴÐ°ÑĢÑģÐ°Ð²Ð°":7436,"ĠÐĿÐµÐ±":7437,"ĠÐĳÐ¾ÐµÐ²":7438,"ĠÐ¾ÑĤÐ±ÑĢÐ°Ñģ":7439,"ĠÐ¾Ð±ÑĢÐ°ÑīÐ°Ñı":7440,"ĠÐŁÐ¾Ð²ÐµÐ»Ð¸ÑĤÐµÐ»ÑĮ":7441,"ĠÑģÐ¾Ð±ÑĭÑĤÐ¸Ñı":7442,"Ð°ÑĤÐ¾Ð¹":7443,"Ð¸ÐºÐ°ÑĢ":7444,"ĠÑĪÐ»Ð°":7445,"ĠÐ¾ÑĤÐºÐ»Ð¸Ðº":7446,"Ð°ÑīÐ¸Ð¹":7447,"ĠÑĤÐ¾Ð¿Ð»Ð¸Ð²":7448,"ĠÐ¿Ð¾ÑĤÑĢÐµÐ±Ð¾Ð²":7449,"ĠÐ¿ÑĢÐµÐ´Ð¿ÑĢÐ¸Ð½":7450,"Ð°Ð´Ðµ":7451,"ĠÑĢÐ°Ð·Ð½ÑĭÑħ":7452,"ĠÐ·Ð½Ð°ÑİÑĤ":7453,"ĠÐ²Ð¾Ð¿Ð»Ð¸":7454,"ĠÐ½ÐµÐ±Ð¾Ð»ÑĮ":7455,"ĠÐ³ÑĢÑĥÐ¿Ð¿Ñĥ":7456,"ĠÐ¿Ð»Ð°Ð½ÐµÑĤÐ°ÑĢ":7457,"Ð¾ÑĢÐ°Ð»":7458,"Ð¶Ð¸Ð·Ð½":7459,"Ð°Ð½ÑĤÐµ":7460,"ĠÐ²Ð¾Ð·Ð±":7461,"ĠÐ¥Ð°Ðº":7462,"ĠÑĤÐµÐ¼Ð½Ð¾Ð¹":7463,"ÐĽÐ¾ÑĢÐ³":7464,"Ð£Ð±":7465,"Ð°ÑĦÐ°Ð½":7466,"ĠÐ¸ÑģÐ¿Ð¾Ð»ÑĮÐ·Ð¾Ð²Ð°Ð»":7467,"ĠÐ¿ÑĢÐ¾ÑģÐ»ÐµÐ´":7468,"ĠÑģÑĩÐ¸ÑĤÐ°Ð½":7469,"ĠÐ¾Ð´Ð¸Ð½Ð¾Ñĩ":7470,"ÐĽÐ¾ÑĢÐ³Ð°ÑĢ":7471,"Ð±Ð¸Ð½":7472,"ĠÐļÑĢÐ¾":7473,"ĠÐ¿ÑĢÐ¸Ð±ÑĭÐ»":7474,"ĠÐ¿ÑĢÐ¾Ð´Ð¾Ð»Ð¶Ð°ÑĤÑĮ":7475,"ĠÑģÐ¸ÑģÑĤÐµÐ¼Ð°":7476,"ĠÐ¼Ð¾Ð»ÑĩÐ°Ð»":7477,"ÐµÐ²Ð°Ð»":7478,"Ð¸Ð´Ñĥ":7479,"ĠÐ¿Ð¾ÑģÐ»Ð°Ð½":7480,"Ð²ÐµÑĢÑĮ":7481,"Ð°Ð²ÑĪÑĥÑİ":7482,"ÐĶÑĥÐ¼Ð°Ñİ":7483,"ĠÐ¿ÑĢÐ¸Ð´Ð°Ð²":7484,"ĠÐļÐ¾ÑĢÐ±":7485,"ĠÐ¾ÑģÐ½Ð¾Ð²Ð°Ð½Ð¸Ñı":7486,"Ð¾Ð³ÑĢÐ°ÑĦ":7487,"ÐµÐ»ÑĮÑı":7488,"ĠÑĩÐµÑĢÐ½Ð¾":7489,"ÑĥÑīÐµÑģÑĤÐ²":7490,"ĠÑĥÐºÑĢÑĭ":7491,"ĠÑģÐ¾Ð³Ð»Ð°ÑģÐ½Ð¾":7492,"ĠÐ¾ÑĤÑĢÑıÐ´Ñĭ":7493,"Ð¸ÑĢÐ¾Ð²Ð°Ð½Ð¸Ñı":7494,"ÑģÑĤÐ²ÐµÐ½Ð½ÑĭÐµ":7495,"ĠÐºÑĢÐ°ÑģÐ½ÑĭÐ¼":7496,"ĠÐºÐ¾Ð¶ÐµÐ¹":7497,"Ð½ÑĮ":7498,"Ð¾Ð¼Ðº":7499,"ĠÐ¾ÑĤÑĢÐ¸ÑĨ":7500,"ĠÐ¡Ð¾ÑĤ":7501,"ĠÐŃÐ½":7502,"ĠÑĪÐ°Ð³Ð¸":7503,"ĠÐ½ÐµÑĢÐ°Ð·":7504,"Ð»Ð°Ð¹":7505,"ĠÐ¿ÐµÑĤ":7506,"ĠÐ¸Ð·Ð²ÐµÑĢÐ³":7507,"ĠÑĢÐ°Ð·Ð»Ð¾Ð¶":7508,"Ð°Ð²ÑĪÐ¸Ð¼Ð¸":7509,"ÐºÐ²Ð¾Ð·ÑĮ":7510,"ĠÑĥÑģÐ¿ÐµÐ»Ð¸":7511,"ĠÐ¶ÐµÐ»ÐµÐ·Ð°":7512,"ĠÑĥÑĢÐ¾Ð²Ð½Ðµ":7513,"ĠÐ·Ð»Ð¾Ð²Ð¾Ð½":7514,"ĠÐ²ÐµÑĩÐ½Ð¾":7515,"Ð¾Ð¹ÑĩÐ¸Ð²":7516,"ĠÑĥÐ»ÑĮ":7517,"Ð¸Ð³Ð¸":7518,"ĠÐ·Ð°ÐºÐ°Ð½ÑĩÐ¸Ð²":7519,"Ð¼ÐµÑĢÐ·":7520,"Ð¸Ð½ÑĥÐ»Ð°ÑģÑĮ":7521,"ĠÐºÑĢÐ°Ð¹Ð½Ðµ":7522,"ĠÐ¿ÑĢÐ¾Ð±Ð»ÐµÐ¼Ñĭ":7523,"Ð½Ð°Ñħ":7524,"ĠÐ¿ÑĢÐµÐ³":7525,"ĠÐ½ÐµÑģÐ¿":7526,"Ð°Ð´ÐºÐ¸":7527,"ĠÐ¸Ð·ÑıÑī":7528,"ĠÐĺÑģÐº":7529,"ĠÑĤÑĢÐµÑģ":7530,"ĠÐ±ÐµÑģÑģÑĤÑĢ":7531,"ĠÐ¸ÑģÐºÐ¾ÑĢ":7532,"ĠÑģÑĤÑĢÐµÐ»ÑĮÐ±Ñĭ":7533,"ĠÑĥÑħÐ¼ÑĭÐ»ÑĮ":7534,"ĠÐºÐ°ÑĤÐ°ÑģÑĤÑĢÐ¾":7535,"**":7536,"ĠÑģÐ´Ð°Ð²":7537,"ĠÐ¸Ð´ÑĥÑī":7538,"ĠÐ¾ÑĤÑĤÑĥÐ´Ð°":7539,"ÐºÐ¾ÑĦ":7540,"ĠÑĤÑĢÐ¾Ð½Ð°":7541,"ĠÐĺÐ¼Ð¿ÐµÑĢÐ¸ÑĥÐ¼Ñĥ":7542,"ĠÑģÑĤÐ°Ð»Ðº":7543,"ĠÐ·Ð¾Ð»Ð¾ÑĤÐ¾Ð¹":7544,"ĠÐ´Ð¾Ð¶Ð´ÑĮ":7545,"ĠÐ¾Ð·Ð½Ð°ÑĩÐ°Ð»Ð¾":7546,"Ð»Ð¸ÑĤ":7547,"ĠÐºÐ°ÑĢÐ°Ð±":7548,"Ð´Ð°ÑİÑĤ":7549,"ĠÐ´ÐµÑĢÐµÐ²ÑĮÐµÐ²":7550,"ĠÐ¾ÑĤÑĢÐ°Ð²":7551,"ĠÐŁÑĢÐ¸Ð¼":7552,"ĠÐ»ÐµÐ³Ð¸Ð¾Ð½ÐµÑĢÐ°":7553,"ĠÐ¿ÑıÑĤÐ¸":7554,"ĠÐ´ÑĥÑħÐ¾Ð²":7555,"ĠÐ¾ÑĢÐ±Ð¸ÑĤÑĭ":7556,"ĠÑĢÐµÐ·ÑĥÐ»ÑĮÑĤÐ°ÑĤÐµ":7557,"ĠÐ¤ÐµÑĢÑĢÑĥÑģ":7558,"ĠÑĤÐ¸ÑĤÐ°Ð½Ð¾Ð²":7559,"ÑģÑıÐ³":7560,"ĠÐ¿Ð¾ÐºÐ¾Ð½Ñĩ":7561,"ĠÐ²Ð¾Ð·ÑĢÐ°Ð·Ð¸Ð»":7562,"ÐĵÐ¾Ð»Ð¾Ñģ":7563,"ĠÐ¿Ð¾Ð¿ÑĢÐ¾Ð±":7564,"ĠÐ¿ÑĢÐ¾ÑĪÐ»Ð°":7565,"ĠÐ¿ÑĢÐ¸Ð·ÑĭÐ²":7566,"ĠÐ·Ð°ÑīÐ¸ÑĤÐ½Ð¸ÐºÐ¾Ð²":7567,"ÐµÑĢÑģ":7568,"ĠÐ¾ÐºÐ°Ð¶ÐµÑĤÑģÑı":7569,"ĠÑĤÑĢÐ¾Ðµ":7570,"ÑĢÐ°ÑģÐ¿":7571,"ĠÐ¥Ð°Ñį":7572,"ĠÐ·ÑĥÐ±Ð°Ð¼Ð¸":7573,"ĠÐ¿ÑĢÐµÐ´ÑģÑĤÐ¾Ð¸ÑĤ":7574,"ĠÑĥÑĩÐ¸ÑĤÑĭÐ²Ð°Ñı":7575,"Ð¸ÑĩÐ½ÑĭÐ¹":7576,"ĠÐ¡Ð¸Ð»ÑĮ":7577,"ĠÐ¿Ð¾Ð»ÐºÐ°":7578,"Ð½ÑıÑħ":7579,"ĠÑħÐ²Ð°ÑĤÐ°Ð»Ð¾":7580,"ĠÑģÐ»Ð¾Ð¶Ð½Ð¾":7581,"ol":7582,"ĠÐ·Ð°ÑħÐ¾Ð´":7583,"ĠÑĪÐºÐ²":7584,"ĠÐĶÐ¸":7585,"Ð¸ÑĢÐ¾Ð²ÐºÐ¸":7586,"ĠÐ¾ÐºÐ°Ð¶":7587,"ĠÐ¸ÑģÑĤÐµÐº":7588,"ĠÑĦÐ¸Ð³ÑĥÑĢÑĥ":7589,"ĠÐ¼Ð°ÐºÑģÐ¸Ð¼":7590,"Ð¶ÐµÐ²":7591,"ĠÐ¶Ð¸Ð»Ð¸":7592,"Ð¡ÐµÐ¹ÑĩÐ°Ñģ":7593,"ĠÐ¾ÑģÑĭÐ¿":7594,"ĠÐ·ÐµÐ¼Ð»ÐµÐ¹":7595,"ĠÐ¼Ð°ÑģÑĪÑĤÐ°Ð±":7596,"ĠÐ²ÑĭÐºÑĢÐ¸Ðº":7597,"ÑıÐµÐ¼":7598,"ĠÐ¢ÑĢÐ¸":7599,"ĠÐ¸ÑģÐ¿Ð¾Ð»Ð½Ñı":7600,"ĠÐ¿ÐµÑĢÐµÐ¿Ð»ÐµÑĤ":7601,"ĠÑĥÐºÑĢÐµÐ¿Ð»ÐµÐ½Ð¸Ñı":7602,"ĠÐ½ÐµÐ´ÐµÐ»ÑĮ":7603,"ĠÐ²Ð¾ÑģÐ¿Ð¾Ð»ÑĮÐ·Ð¾Ð²Ð°ÑĤÑĮÑģÑı":7604,"Ð¾Ð¿ÑĢÐ¾Ð²":7605,"ĠÐ²Ð¾ÑģÑģ":7606,"ĠÑģÑĤÐ°Ð½Ð¾Ð²Ð¸ÑĤÑģÑı":7607,"ĠÐ¶Ð¸Ð´ÐºÐ¾ÑģÑĤÑĮ":7608,"ĠÑģÐ»ÐµÐ·Ñĭ":7609,"ĠÐ½Ð°Ð´ÐµÑıÑģÑĮ":7610,"Ð¸Ð°Ð½Ð°":7611,"ÑģÑĤÐ²ÐµÐ½Ð½ÑĭÐ¹":7612,"ĠÐ²ÐµÑĢÑĭ":7613,"ÐĵÐ¾Ð²Ð¾ÑĢ":7614,"ĠÐ¶Ð¸Ð·Ð½ÑĮÑİ":7615,"ĠÐ²Ð¾Ð¿ÑĢÐ¾ÑģÐ¾Ð¼":7616,"ĠÐ¿Ð¾Ð´Ð½Ð¸Ð¼Ð°Ð»Ð¸ÑģÑĮ":7617,"ÑīÐ¸ÐºÐ¾Ð²":7618,"Ð¸ÑĨÐ¸":7619,"ĠÐ¸Ð·Ð²Ð¸Ð½":7620,"ĠÐ¸ÑģÐ¿Ð¾Ð»ÑĮÐ·ÑĥÑı":7621,"ĠÐĲÑĢÐ¼Ð°Ð³ÐµÐ´":7622,"ĠÑįÐºÑģÐ¿ÐµÑĢ":7623,"ke":7624,"ĠÐĿÐ°ÑĤ":7625,"ÐĶÐ°Ð²":7626,"ĠÑģÐ¾Ð¿ÑĢÐ¾ÑĤÐ¸Ð²Ð»ÐµÐ½Ð¸Ðµ":7627,"Ð°ÑĤÐµÐ»ÐµÐ¼":7628,"ÑĨÐ¾":7629,"ĠÐ¸Ð·ÑĥÑĢÐ¾Ð´":7630,"Ð½Ð¾ÑģÑĤÑıÑħ":7631,"ĠÐ¾ÑĤÐºÑĢÐ¾Ð²":7632,"ÑĥÑİÑīÐ¸Ð¼":7633,"ĠÐ¿ÑĢÐ¾ÑĢÐµÐ·":7634,"ĠÐĿÐµÑģÑĥÑīÐ¸Ð¹":7635,"Ð¾ÑĤÐº":7636,"ĠÐ¿ÐµÑĢÐ¸":7637,"ĠÐ¼Ð¸ÑĢÐ¾Ð¼":7638,"ĠÐ´Ð¾Ð»ÑĮÑĪÐµ":7639,"Ð°Ð²ÑĪÐµÐ¹ÑģÑı":7640,"ĠÐ²ÑĭÑģÐ¾ÐºÐ¾Ð¹":7641,"ĠÐ¿Ð°Ð½ÐµÐ»Ð¸":7642,"ĠÐ¾Ð·Ð½Ð°ÑĩÐ°ÐµÑĤ":7643,"ĠÐ°ÑģÑĤÐµÑĢÐ¾":7644,"Ð»ÑıÑİ":7645,"ÑģÐ¿ÐµÐºÑĤ":7646,"ĠÐ¸ÑģÐ¿Ð¾Ð»ÑĮÐ·Ð¾Ð²Ð°Ð»Ð¸":7647,"ĠÑĤÑĢÑĥÐ¿Ñĭ":7648,"ÑĤÐ°Ñħ":7649,"Ð°Ð¼Ð°Ð½ÑĤ":7650,"ĠÐ·Ð°ÐºÐ¾Ð½":7651,"ĠÑĪÐ°Ð³Ð¾Ð¼":7652,"Ð¾ÑĤÐµÐºÐ°ÑĢÐ¸Ð¹":7653,"ÑıÑİÑĤ":7654,"Ð´ÑĢÑĥÐ³":7655,"Ð»ÑıÑİÑĤÑģÑı":7656,"ĠÑĥÐ¿Ð¾Ð¼Ð¸Ð½":7657,"ĠÐ¿Ð»ÐµÑĩÑĥ":7658,"ĠÐ´ÑĥÑĪÐ°":7659,"ĠÐ·Ð½Ð°ÐµÑĤÐµ":7660,"ĠÐĴÐ¾Ð»ÑĩÐ¸Ð¹":7661,"ĠÐ½ÑĭÑĢ":7662,"ĠÑĤÐ°ÑĤÑĥ":7663,"ĠÑĥÑĢÐ°Ð³":7664,"ĠÑģÑĤÐ¸Ñģ":7665,"ÐĿÐ¾Ñģ":7666,"ĠÐ²Ð¾Ð»Ñİ":7667,"ĠÐ²Ð°ÑĪÐµÐ¹":7668,"ĠÐºÐ¾Ð¿ÑĮÐµ":7669,"ĠÐ¿ÑĢÐ¸Ð±Ð»Ð¸Ð·Ð¸Ð»ÑģÑı":7670,"ĠÐ²ÑĭÐ½ÑĥÐ¶Ð´ÐµÐ½":7671,"Ð½ÐµÑĪ":7672,"Ð¸Ð¼Ð°Ð½Ð´":7673,"ĠÐĴÐ¾ÑĢÐ¾Ð½":7674,"ĠÑģÐ»ÐµÐ²Ð°":7675,"ÑĤÐ¸ÐµÐ¼":7676,"ĠÐ²ÑĢÐ°Ð³Ñĥ":7677,"ĠÐ¸Ð´Ð¸":7678,"ĠÐ¾Ð±Ð²":7679,"ĠÐ¾Ð´Ð¾Ð±ÑĢ":7680,"ĠÐĵÐ¾Ð»Ð¾Ð²":7681,"ĠÐĺÐ¼Ð¿ÐµÑĢÑģÐºÐ¾Ð³Ð¾":7682,"Ð°ÑĤÐµÐ»ÑĮÐ½ÑĭÑħ":7683,"Ð°ÑĤÐµÐ»ÑĮÑģÑĤÐ²Ð°":7684,"ĠÐ½ÐµÐ±ÐµÑģÐ°":7685,"ĠÐ´ÑĥÑħÐ°":7686,"ĠÑĤÐºÐ°Ð½Ð¸":7687,"ĠÐ¾ÑĤÑĪÐ°ÑĤ":7688,"ĠÑģÐ³Ð¾ÑĢ":7689,"ĠÐ¿ÑĢÐµÐ´Ð²":7690,"ĠÐ¿Ð¾Ð³Ð°Ñģ":7691,"Ð¾Ð²Ð°Ð½Ñĭ":7692,"ÐµÐ»ÑĮÑİ":7693,"ÑĥÑīÐ¸Ð¼":7694,"ĠÐºÐ¾Ð¼Ð°Ð½Ð´Ð¾Ð²Ð°Ð½Ð¸Ðµ":7695,"ĠÐ²Ð¾Ð¸Ð½Ð°Ð¼":7696,"ĠÑģÐ¾Ð¿ÐµÑĢ":7697,"ĠÐ¼Ð¸Ð»Ð¾ÑĢÐ´":7698,"ĠÑĤÑĢÐµÑĤÐ¸Ð¹":7699,"ĠÐłÐ°Ðº":7700,"ĠÐ´Ð²Ð°Ð´ÑĨÐ°ÑĤÐ¸":7701,"ĠÑĤÑĢÐµÐ¿":7702,"ĠÐ²Ð¾Ð»Ðµ":7703,"ĠÐ°ÑĤÐ°ÐºÐ°":7704,"ĠÐļÑĢÐ¾Ð²Ð°Ð²ÑĭÐ¹":7705,"ĠÐ¼ÑĢÐ°Ð¼Ð¾ÑĢ":7706,"ĠÑģÑĥÑīÐµÑģÑĤÐ²ÑĥÐµÑĤ":7707,"ĠÑĥÑĢÐ¾Ð²ÐµÐ½ÑĮ":7708,"ĠÐºÐ°Ð¿ÑģÑĥÐ»Ñĭ":7709,"ay":7710,"ĠÑģÐºÐ°Ð»Ñĭ":7711,"ĠÐ¢Ð°":7712,"ÑĢÐ°Ð¶Ð´":7713,"ĠÐ¾ÑĦÐ¸ÑĨÐµÑĢÑĭ":7714,"Ð°ÑīÐµ":7715,"ĠÑĨÐµÐ»Ñı":7716,"ĠÐ¿Ð¾Ð¿ÑĭÑĤÐºÐ¸":7717,"ĠÑĥÐ³Ð°Ñģ":7718,"ĠÐĶÐ¶Ð°Ð³":7719,"ĠÐ´Ð»Ð¸Ð½Ð½ÑĭÐ¹":7720,"ĠÑĢÐµÐ²Ð¾Ð¼":7721,"ĠÑĥÐºÐ°Ð·ÑĭÐ²Ð°Ñı":7722,"ĠÑĢÐ°Ð¼Ð¿":7723,"ĠÐ²Ð¸Ð±":7724,"Ð·Ð¸":7725,"ĠÐļÑĥÐ»":7726,"ĠÐ·Ð°Ð¿Ð»Ð°ÑĤ":7727,"ĠÐºÐ¾Ð¼Ð°Ð½Ð´Ð¾ÑĢ":7728,"ĠÐ·Ð°Ð±ÑĭÑĤ":7729,"ĠÑĥÑĩÐ°":7730,"ĠÐ²Ð·Ð¾ÑĢÐ²Ð°Ð»ÑģÑı":7731,"ĠÐ¼Ð¾Ð»Ð¾Ð´Ð¾Ð¹":7732,"ĠÐ¾Ð±ÑģÑĤÐ°Ð½Ð¾Ð²":7733,"ted":7734,"Ð»Ð¾Ð´":7735,"ĠÐ²Ð¾ÑģÐ¿ÑĢÐ¸Ð½":7736,"ĠÐ²Ð¾Ð´Ñĥ":7737,"ÑģÐµÐ³Ð´Ð°":7738,"ĠÐ¿Ð¾Ð¹Ð´":7739,"ĠÐºÐ²Ð°ÑĢ":7740,"ĠÑĤÑĢÑı":7741,"Ð¸ÐºÐ°Ð¼Ð¸":7742,"ĠÐ¿ÑĢÐ¸ÐºÐ¾Ð½Ñĩ":7743,"ĠÐ¡ÑĤÑĢÐ°Ð¶":7744,"ĠÐ½ÐµÐ·Ð°Ð¼":7745,"ÑĢÐ°Ð»Ð°":7746,"ÑĨÐ°ÑĢÐ¸":7747,"ÑĢÑĭÐ»Ð°":7748,"ĠÐĶÐ¾Ð»Ð¶":7749,"Ð¸ÑĦÑĢÐ¾Ð²":7750,"ĠÑģÑĥÐ´Ð°":7751,"ĠÑĪÑĤÑĥ":7752,"ÐļÐ¾Ð¼":7753,"Ð¡Ð°Ð¼":7754,"ĠÐ¯ÑģÑĤÑĢÐµÐ±":7755,"ĠÐĴÑĤÐ¾ÑĢÐ¾Ð¹":7756,"ÐĽÐ¾ÐºÐµÐ½":7757,"ĠÐ¿Ð¾Ð»ÑĭÑħ":7758,"ĠÐºÐ¾ÑĢÐ°Ð±Ð»Ñİ":7759,"ÐłÐŀ":7760,"Ð¸ÑĢÐ¾Ð²Ð°Ð½Ð½ÑĭÐ¼":7761,"ĠÐ²Ð¾Ð¿Ð»ÑĮ":7762,"ĠÐ»ÐµÐ³Ð¸Ð¾Ð½Ð¾Ð²":7763,"ĠÐ·Ð°Ð³Ð»Ñı":7764,"ĠÑĩÐµÐ»Ð¾Ð²ÐµÑĩÐµÑģÐºÐ¾Ð¹":7765,"ĠÑĢÐ²Ð°Ð½ÑĥÐ»":7766,"ĠÐºÐ°Ð¿ÑģÑĥÐ»":7767,"ĠÐ»ÐµÐ³Ð¸Ð¾Ð½ÐµÑĢ":7768,"ĠÑĢÐ°ÑģÑģÐ¼Ð°ÑĤÑĢ":7769,"ĠÑĤÐ¾Ð½Ð½":7770,"ĠÐ¿ÐµÑĢÑĩÐ°ÑĤÐºÐ¸":7771,"ĠÐ¿Ð¾Ð´Ð½Ð¾Ð¶":7772,"ĠÑĢÐ°ÑģÑĤÐ²Ð¾ÑĢ":7773,"ÑĭÐ»Ð¾":7774,"ĠÐ¿ÑĢÐ¾Ð¼ÐµÑĤ":7775,"ÐµÑĤÐ°Ð»":7776,"ĠÐ¾ÑģÑĤÐ°Ð²ÑĪÐ¸ÑħÑģÑı":7777,"ĠÐ¿Ð¾Ð´Ð½Ð¸Ð¼Ð°Ñı":7778,"ÑĢÑĭÐ»ÑģÑı":7779,"ĠÑģÐ¾Ð¿ÑĢÐ¾Ð²Ð¾Ð¶":7780,"Ð»Ð¸Ð·Ð¾ÑģÑĤÐ¸":7781,"Ð½Ð°Ð´":7782,"ĠÐ´Ð¸Ð²":7783,"Ð°ÑĢÐ½Ð°":7784,"ÑĥÑĢÐ³":7785,"ĠÐ¿ÑĢÐ°Ð²Ð¸Ð»ÑĮ":7786,"Ġal":7787,"ĠÐ¿ÑĢÑĭÐ³Ð½ÑĥÐ»":7788,"ÐµÐ²Ð°Ñı":7789,"ĠÐŀÐºÑĤ":7790,"ĠÐŃÐ¼Ð±ÐµÑĢÐ»Ð¸":7791,"ĠÐ£Ð´Ð°ÑĢ":7792,"ĠÐ¿Ð¾Ð´Ð½ÑıÐ»Ð¸ÑģÑĮ":7793,"ĠÐºÐ°Ð¼ÐµÑĢÑĭ":7794,"ĠÐ¿ÑĢÐµÐ²ÑĢÐ°ÑĤÐ¸Ð»Ð°ÑģÑĮ":7795,"ĠÑıÐ·ÑĭÐºÐµ":7796,"ĠÐ¿Ð¾ÐºÐ°Ð·Ð°ÑĤÑĮ":7797,"ĠÐ½ÐµÐ¿Ð¾ÑģÑĢÐµÐ´":7798,"Ð¸ÑĤÐ¾Ð²":7799,"ĠÐ·Ð°Ð¿Ð¾Ð»Ð½Ñı":7800,"ĠÐ¿ÑĢÐ¸Ð½ÑıÐ»ÑģÑı":7801,"ĠÐ¼Ð¾Ð»Ð½Ð¸":7802,"ÐµÑĢÐ²Ð¸ÑĤÐ¾ÑĢ":7803,"Ð¥Ð¾ÑĤÑı":7804,"ĠÐ¿Ð¾ÑıÐ²Ð¸Ð»Ð¾ÑģÑĮ":7805,"ĠÐĲÐ´Ð¼Ð¸Ð½Ð¸ÑģÑĤÑĢ":7806,"ĠÑĥÐ´ÐµÑĢÐ¶Ð°ÑĤÑĮ":7807,"ĠÐ¸ÑģÑĤÐ¾ÑĩÐ½Ð¸Ðº":7808,"ĠÑĢÐµÐ»Ð¸Ðº":7809,"ĠÑģÐºÐ°Ð»":7810,"ÑĥÐ¶Ð½Ð¾":7811,"ÑıÑīÐ°Ñı":7812,"ĠÐ³ÑĢÐ¾Ñħ":7813,"ĠÐ²Ð°ÑĪÐ¸Ñħ":7814,"ĠÑģÐµÑĢÐ²Ð¸ÑĤÐ¾ÑĢÐ°":7815,"ĠÐ¼Ð°Ð»ÐµÐ½ÑĮÐºÐ¸Ð¹":7816,"ĠÑħÐ°Ð¾Ñģ":7817,"ĠÐ¼ÑĥÐ´ÑĢ":7818,"ĠÐ»Ð¸ÑĦ":7819,"ĠÐ¾Ð±ÑĬÑıÑĤ":7820,"ĠÐŁÐµÑĢÐ²Ð¾Ð³Ð¾":7821,"ĠÐŁÐ¾Ð¶Ð¸ÑĢÐ°ÑĤÐµÐ»ÐµÐ¹":7822,"!Â»":7823,"ÑıÐº":7824,"ĠÑģÐ¿Ð¸Ð½Ñĭ":7825,"ĠÐ½Ð°ÑħÐ¾Ð´Ð¸Ð»Ð°ÑģÑĮ":7826,"ĠÐºÑĢÐ°ÑģÐ½ÑĭÐµ":7827,"ĠÐºÐ¾Ð³Ð¸ÑĤ":7828,"ĠÑįÐ¼Ð¾ÑĨÐ¸Ð¹":7829,"ĠÐ¿ÑĢÐ¸Ð±ÑĭÑĤÐ¸Ñı":7830,"ĠÐ¿Ð°ÑģÑģÐ°Ð¶":7831,"ĠÐ½Ð°ÑĢÐ¾Ð´":7832,"ÐµÐ´Ð°":7833,"Ð»ÑıÐ»Ð¾":7834,"ĠÐ¾Ð´Ð½Ð°Ð¶Ð´Ñĭ":7835,"ĠÐĽÐ¸ÑĨÐ¾":7836,"ĠÐ¿ÑĢÐ¾Ð´Ð²Ð¸Ð¶":7837,"ĠÐ¿ÑĢÐ¸Ð²Ð¾Ð´":7838,"ĠÐ·Ð°Ð½ÑıÑĤÑĮ":7839,"ĠÑģÐ¸Ð³Ð½":7840,"ĠÐ¿ÑĢÐ¸ÑģÐ¾ÐµÐ´Ð¸Ð½Ð¸ÑĤÑĮÑģÑı":7841,"ĠÐ¼ÑıÐ³ÐºÐ¾":7842,"ĠÐ·Ð¾Ð²ÑĥÑĤ":7843,"Ð¥Ð¾ÑĢÑĥÑģ":7844,"ĠÐ½Ð°ÑģÑĤÐ¾Ñı":7845,"ĠÐ¾ÑĤÑĢÐµÐ°Ð³":7846,"ĠÐ³Ð¾Ð´Ð°":7847,"ĠÑĦÐ»Ð¾ÑĤÐ¸Ð»Ð¸Ð¸":7848,"ĠÐ¿Ð¾ÑĤÐ¾Ð»Ð¾Ðº":7849,"ĠÐ¿ÐµÑĢÐµÐ±Ð¾ÑĢ":7850,"Ġli":7851,"++":7852,"ĠÐ²ÐµÐ·":7853,"ÐºÐ¾ÑĪ":7854,"ĠÐ²Ð¾Ð¾Ð±ÑĢÐ°Ð¶":7855,"ĠÑĩÐµÑĢÑĤÑĭ":7856,"Ð¾ÑģÐµÑĢÐ´":7857,"ĠÐľÑĥÑĢ":7858,"ĠÑģÐ¼Ð¸ÑĢ":7859,"ĠÐ¸Ð½Ð¶":7860,"ĠÐ¿Ð¾Ð¿Ð°Ð»Ð¸":7861,"ĠÐ¿Ð¾ÑģÐ»ÐµÐ´Ð½ÑİÑİ":7862,"ĠÐ¾Ð³ÑĢÐ¾Ð¼Ð½Ð°Ñı":7863,"ĠÑĤÐµÑĢÐ·":7864,"ĠÐ»Ð°Ð·ÐµÑĢÐ½ÑĭÑħ":7865,"ĠÐ¶ÐµÑĢÑĤÐ²Ñĭ":7866,"ĠÑĥÑģÑĤÑĢÐ¾Ð¹ÑģÑĤÐ²Ð°":7867,"ĠÐ¡Ð°Ð½Ð³Ð²Ð¸Ð½Ð¸Ñı":7868,"ĠÐ¿Ð¾ÑģÐ¼Ð¾ÑĤÑĢÐµÐ»Ð°":7869,"Ð¾Ð¼Ð¾Ñī":7870,"ĠÑĤÑĢÑıÑģ":7871,"Ð¾ÑģÐµÐ¼":7872,"ÐĴÐĲ":7873,"ÐŁÐµÑĢ":7874,"Ð¸Ð²ÑĪÐµÐ¹":7875,"ÑıÑīÑĥÑİ":7876,"ĠÐ·Ð²ÑĥÑĩÐ°Ð»":7877,"ĠÐ·ÑĢÐµÐ½Ð¸Ðµ":7878,"ÐĵÑĢÐ¾Ð¼Ð¾Ð²Ð¾Ð¹":7879,"ĠÑıÑĢÐ¾ÑģÑĤÐ½Ð¾":7880,"ĠÐ¾ÐºÐ¾Ð½ÑĩÐ°ÑĤÐµÐ»ÑĮÐ½Ð¾":7881,"Ð·Ð°Ðº":7882,"Ð¸Ð²Ð°Ð½Ð¸Ñı":7883,"ĠÐŀÑģÐ²":7884,"ĠÐ¿ÐµÑĢÐ¸Ð¼ÐµÑĤ":7885,"ĠÑĨÐ¸Ðº":7886,"ĠÐ±ÐµÐ·Ð¶Ð¸Ð·Ð½":7887,"ĠÐ¿ÑĢÐ¾Ð´ÐµÐ»":7888,"ĠÐ±Ð¾ÐµÐ²ÑĭÐ¼":7889,"ĠÐ½Ð°ÑģÑĤÐ¾ÑıÑīÐ¸Ð¹":7890,"Ð¾Ð¸Ð½":7891,"ĠÐ°Ð²Ð°Ð½":7892,"ĠÐ¢ÐµÐ±Ðµ":7893,"ĠÐ±ÑĢÐ¾Ð´":7894,"ĠÐºÐ¾ÑģÐ¼Ð¾Ð¿":7895,"ĠÐ»Ð¸Ð½Ð¸Ñİ":7896,"ĠÑĤÑĢÐµÐ±Ð¾Ð²Ð°Ð»Ð¾ÑģÑĮ":7897,"ĠÐ²Ð¸Ð´Ð½ÐµÐ»Ð¸ÑģÑĮ":7898,"ĠÑĤÑĥÐ¼":7899,"Ð¾ÑĤÐ¾Ð²":7900,"ĠÑģÑĤÐ°ÑĢÐ¾Ð³Ð¾":7901,"ĠÐ»Ð¸Ð½Ð·":7902,"ĠÐ²ÑĭÐ½ÑĥÐ¶Ð´":7903,"ĠÑĢÐ°ÑģÑģÐ»Ð°Ð±":7904,"Ð°Ð½Ð½Ð¾Ð¼":7905,"Ð¸ÑģÑĤÐ°":7906,"ĠÐ¶ÐµÐ»Ð°Ð½Ð¸Ñı":7907,"ĠÐ´Ð¾ÑģÐ¿ÐµÑħÐµ":7908,"Ġy":7909,"Ð°Ð²ÐµÑĢ":7910,"ĠÐ¾Ð´Ð½Ð¸":7911,"ĠÐ¿ÑĢÐ°Ð²Ð¸Ð»ÑĮÐ½Ð¾":7912,"ĠÑİÐ½Ð¾ÑĪ":7913,"ĠÐ²Ð°ÑĪÐµ":7914,"ĠÑįÐ¼Ð±":7915,"ĠÐ±ÑĢÐ¸Ð³":7916,"ÐµÑĤÑĭÑĢÐµ":7917,"ĠÐºÐ»Ð¾Ñĩ":7918,"ĠÐ½ÐµÐ²ÐµÑĢÐ¾ÑıÑĤÐ½Ð¾":7919,"ĠÐ¿Ð¾ÐºÐ¸Ð½ÑĥÐ»Ð¸":7920,"ĠÐ¡Ð°Ð½Ð³Ð²Ð¸Ð½Ð¸Ð¹":7921,"ĠÐ¸ÑĤ":7922,"ÑİÐ½":7923,"ĠÐ½Ð°ÑģÑĤÐ°Ð²":7924,"ĠÐ¢Ð¾Ð»":7925,"ĠÐľÐµÐ»":7926,"Ð¾ÑĩÐ½ÑĭÐ¹":7927,"ĠÑģÐ°Ð¼ÑĥÑİ":7928,"ĠÐķÑģÑĤÑĮ":7929,"ĠÐ¿Ð¾ÑĩÐµÑĤ":7930,"ĠÑĤÐµÐ¼Ð¸":7931,"ĠÑģÐ¾Ð¾Ð±ÑīÐµÐ½Ð¸Ñı":7932,"ĠÐĲÐ»ÑĮÑĦÐ°ÑĢÐ¸Ð¹":7933,"ĠÐłÐ°Ð²Ð°ÑĪ":7934,"Ð°Ð½ÑĮ":7935,"ĠÐĳÐ¸Ð±Ð»Ð¸":7936,"ĠÐ²ÐµÑĢÐ¸ÑĤÑĮ":7937,"ĠÐ¤Ð°Ð±":7938,"ĠÐ·Ð´Ð°Ð½Ð¸Ð¹":7939,"ĠÐ¸ÑģÐºÐ°ÑĤÑĮ":7940,"ĠÑĩÐµÐ»Ð¾Ð²ÐµÑĩÐµÑģÑĤÐ²Ð¾":7941,"ĠÐ¢ÐµÐ¼Ð½ÑĭÐµ":7942,"ĠÑĩÐµÐ»Ð¾Ð²ÐµÑĩÐµÑģÐºÐ¸Ñħ":7943,"ĠÐºÑĥÑģÑĤÐ¾Ð´":7944,"Ð¾ÑĢÐ¸ÑĤ":7945,"ĠÐ¡Ð¾Ð³Ð»Ð°Ñģ":7946,"ĠÐĵÐµÑĢ":7947,"ĠÐ¿Ð¾ÑĢÑĭÐ²":7948,"ĠÐ·Ð°Ð²Ð°Ð»":7949,"ĠÐ½ÐµÐ´ÐµÐ»Ð¸":7950,"ĠÐºÑĥÐ»Ð°ÐºÐ¸":7951,"ĠÐ¸ÑģÑĤÐ¾ÑĢÐ¸Ñİ":7952,"ĠÐ¢Ð°ÑĢÐ²":7953,"ĠÐ¼ÑĳÑĢÑĤÐ²":7954,"ap":7955,"ĠÐºÑĢÑĥÑĪ":7956,"ÑĥÐ´ÐµÑĤ":7957,"ĠÐĶÑĥÐ¼Ð°Ñİ":7958,"ĠÐ²Ð¸Ð´Ð°":7959,"Ġfor":7960,"ĠÐ³ÑĢÑıÐ·ÑĮ":7961,"ĠÐ£Ð»ÑĮÑĤÑĢÐ°Ð¼Ð°ÑĢÐ¸Ð½Ð¾Ð²":7962,"ĠÐĲÐ±Ð°Ð´Ð´Ð¾Ð½":7963,"ĠÐºÐ°Ð¿ÐµÐ»Ð»Ð°Ð½Ð°":7964,"ĠÐ²Ð¼":7965,"ĠÐ¶ÑĥÐ¶Ð¶":7966,"ĠÐ¿Ð¾Ð·Ð²Ð¾":7967,"ĠÐ¿Ð¾ÑģÐ»ÐµÐ´ÑģÑĤÐ²Ð¸Ñı":7968,"ĠÐ·Ð°ÑĤÐ¸Ñħ":7969,"ĠÑĥÐ´Ð°ÑĢÐ°Ð¼Ð¸":7970,"ĠÐ¼Ð½Ð¾Ð³Ð¾ÑĩÐ¸ÑģÐ»ÐµÐ½Ð½ÑĭÐµ":7971,"ĠÐĸÐ¸Ð²":7972,"ĠÐºÑĢÐ°ÑģÐ½ÑĭÐ¹":7973,"ĠÐ¾Ð±ÑĢÑĥÑĪÐ¸Ð»ÑģÑı":7974,"ĠÐ²ÐµÑĢÑĪÐ¸Ð½Ðµ":7975,"ĠÐ¿Ð¾Ð·Ð²Ð¾Ð½Ð¾Ñĩ":7976,"led":7977,"ÐºÐ½ÑĥÐ»Ð°":7978,"ĠÐ·Ð°Ð¼ÐµÑĤÐ¸Ð»Ð°":7979,"Ð»ÑıÐ»Ð°ÑģÑĮ":7980,"ĠÑĤÑĮÐ¼Ð°":7981,"ĠÑģÐ¿ÑĢÐ°Ð²Ð¸ÑĤÑĮÑģÑı":7982,"Ð½Ð¸ÑģÑģ":7983,"ĠÐ±ÑĥÐ»ÑĮ":7984,"Ð¸Ð²Ð¸Ð»Ð¸Ð·":7985,"ĠÐĲÐ¹":7986,"ĠÐĶÐµÑģÐ°Ð½ÑĤÐ°":7987,"ÐĴÐ¾Ð·":7988,"ĠÐºÐ¾ÑĢÐ°Ð±Ð»ÐµÐ¼":7989,"ĠÐ²Ð¾ÐºÑģÐ°":7990,"ĠÐ¿Ð¾ÑĤÐµÑĢÑıÐ½":7991,"Ð»Ð¾Ð¶Ð¸Ð»":7992,"ĠÐ³Ð¾ÑĢÐ¾Ð´Ðµ":7993,"ĠÐ¾ÑĦÐ¸ÑĨÐµÑĢÐ°":7994,"ĠÐ²ÑģÐ¿ÑĭÑĪÐºÐ°":7995,"ĠÐ¾ÑģÐºÐ¾Ð»ÐºÐ¾Ð²":7996,"ĠÐ¿ÑĢÐµÑĤ":7997,"ĠÐ³Ðµ":7998,"Ð¸ÑĩÐ½ÐµÐ²":7999,"Ð°Ð¹Ð½Ð¾":8000,"Ð°Ð¹Ð¿ÐµÑĢ":8001,"ĠÐ¿ÑĢÐ°Ð²Ð°":8002,"ÑģÐºÐ°Ð·Ð°Ð»Ð°":8003,"ÐºÐ°Ð´Ð¾ÑĢ":8004,"ĠÑĢÐ°Ð±Ð¾ÑĩÐ¸Ñħ":8005,"ĠÐ²ÑĭÑĢÑĥÐ³Ð°Ð»ÑģÑı":8006,"Ð¾ÑĢÐ°Ð¼":8007,"ĠÐĲÑĪ":8008,"ĠÐ¿Ð¾ÑģÐ²ÑıÑī":8009,"ÑĤÐ¾Ð²Ðµ":8010,"ĠÐŁÑĢÐ¾Ðº":8011,"ĠÐ³Ð¾Ð²Ð¾ÑĢÑİ":8012,"ĠÐ²Ð¾Ð»Ð½Ð¾Ð¹":8013,"ĠÐ´ÐµÐ²ÑıÑĤÑĮ":8014,"ĠÐºÐ¾Ð½ÑĤÐ°ÐºÑĤ":8015,"ĠÐ²Ð±":8016,"ÐµÑĤÐ¾Ð²":8017,"Ð´Ð°Ñİ":8018,"ĠÐ±ÑĢÐ¾ÑĪ":8019,"ĠÐ¿Ð¾ÑĤÐµÐ½ÑĨÐ¸":8020,"ĠÐ»ÐµÑĤÐ¾Ð¿Ð¸Ñģ":8021,"ĠÑģÐºÐ°Ð·Ð°Ð»Ð¸":8022,"ĠÐ¼Ð¾Ð½ÑģÑĤÑĢÐ°":8023,"ĠÐ¤Ð¾ÑĢÑĢÐ¸ÐºÑģ":8024,"os":8025,"Ġ4":8026,"Ð°ÑĤÐ°Ð¼Ð¸":8027,"ĠÑĥÑĪÐµÐ»":8028,"ĠÐ¿Ð¾ÑıÑģÐ°":8029,"ĠÐ¿Ð¾Ð´ÑĬÐµÐ¼":8030,"ĠÐ½Ð°Ð²ÑģÐµÐ³Ð´Ð°":8031,"ĠÐ±Ð¾Ð»ÑĮÑĪÐ¸Ðµ":8032,"ĠÐ¾Ð³ÑĢÐ¾Ð¼Ð½ÑĥÑİ":8033,"Ð°ÑĢÑĢÐ¾ÑĥÐº":8034,"ĠÑĥÑģÐ¸Ð»Ð¸Ð¹":8035,"ĠÐ¼Ð¸ÑģÑģÐ¸Ð¸":8036,"ĠÐ¿ÑĢÐ¾ÑĤÐ¸Ð²Ð¾ÑģÑĤÐ¾ÑıÑĤÑĮ":8037,"ĠÐ½Ð°Ð³Ð¾ÑĤÐ¾Ð²Ðµ":8038,".âĢĿ":8039,"ĠS":8040,"ĠÐ±Ð°ÑģÑĤ":8041,"ĠÑĢÐ°Ð·ÑĢÑĥÐ±":8042,"ĠÐ¿ÑĢÐ¸ÐºÑĢÐµÐ¿":8043,"ÐķÐł":8044,"ĠÐ¿ÑĢÐ¾Ð±ÐµÐ¶":8045,"ĠÐ´ÑĢÐµÐ²Ð½Ð¸Ðµ":8046,"ĠÐľÐ°Ð³Ð½ÑĥÑģÐ°":8047,"ĠÐ±Ð¸Ð±Ð»Ð¸Ð°ÑĢÐ¸Ð¹":8048,"Ð¾Ð»Ð°Ð¼":8049,"Ð°Ð²Ð¸Ñģ":8050,"ĠÐ°ÑĢÐ¾Ð¼":8051,"ĠÐ½ÐµÐ·Ð½Ð°Ñĩ":8052,"ĠÐ²ÑĢÐ°Ð¶Ð´":8053,"ĠÐ½Ð°Ð³ÑĢÐ°Ð´":8054,"ĠÑĤÐ¸Ð¿Ð°":8055,"ain":8056,"ÑıÑģÐµ":8057,"ĠÑģÐ¾Ð½":8058,"ĠÐ·Ð¾Ð½Ñĭ":8059,"ĠÐ¿Ð¾ÑģÑĭÐ»":8060,"ĠÐ¸Ð¼ÐµÑĤÑĮ":8061,"ĠÐ¿Ð»ÐµÑĩÐ¾Ð¼":8062,"ĠÑģÐ»ÑĭÑĪÑĥ":8063,"ĠÐ³Ð»ÑĥÐ±Ð¸Ð½Ñĭ":8064,"ĠÐ½Ð°ÑģÑĤÑĥÐ¿Ð»ÐµÐ½Ð¸Ðµ":8065,"ĠÐ¿ÑĢÐµÐ´Ð»Ð¾Ð¶Ð¸Ð»":8066,"ĠÐĳÑĥÐ»Ð²Ð°Ð¹":8067,"ĠÐĶÐ°Ð¼":8068,"Ð°Ð½Ð´ÑĢ":8069,"ĠÑĢÑıÐ´Ð°Ñħ":8070,"ÑĥÐ»ÐºÐ°Ð½Ð°":8071,"ĠÑģÐ°Ð´":8072,"ĠÐ¡Ð²ÐµÑĤ":8073,"ĠÐ¿ÐµÑĢÑģÐ¾Ð½":8074,"Ð°ÑİÑīÑĥÑİÑģÑı":8075,"ĠÐ¿ÑĢÐµÐ´Ð°ÑĤÐµÐ»Ñı":8076,"ĠÐ´Ð²ÐµÐ½":8077,"ÑĢÐ¾Ð½Ñĭ":8078,"ĠÐ³Ð¾Ð²Ð¾ÑĢÐ¸ÑĪÑĮ":8079,"ĠÐºÐ¾ÑģÐ¼Ð¸ÑĩÐµÑģÐºÐ¸Ðµ":8080,"ĠÐ½ÐµÐ¶ÐµÐ»Ð¸":8081,"ÐŁÐ¾ÑĤÐ¾Ð¼Ñĥ":8082,"ĠÐ¿Ð¸Ñģ":8083,"ĠÐļÐµÐ»":8084,"ĠÐĵÑħ":8085,"ĠÐĵÐ¾Ð»Ð¾Ñģ":8086,"ĠÐ½Ð°Ð´ÐµÐ»":8087,"ĠÐºÐ°Ð¼Ð½ÐµÐ¹":8088,"ĠÐ¿ÑĢÐ¾ÑĪÐµÐ´":8089,"ĠÐ´Ð¾ÑģÑĤÐ¸Ð³Ð»Ð¸":8090,"ĠÐ¿Ð»Ð°Ð·Ð¼ÐµÐ½":8091,"ÑĤÐµÐ¼":8092,"Ð¼Ð¿":8093,"Ð¼ÐµÐ¹":8094,"Ð°ÑİÑīÐµÐ¼":8095,"ĠÑĥÐ½Ð¸ÑĩÑĤÐ¾Ð¶ÐµÐ½Ð¸Ñı":8096,"ĠÐ³ÑĢÐ¾Ð¼Ð¾Ð·Ð´":8097,"ĠÐ²Ð·Ð´ÑĭÐ¼":8098,"Ð°ÑģÐºÐ¾Ð»ÑĮÐºÐ¾":8099,"Ð¿ÐµÑĢÐµÐ´Ð¸":8100,"ĠÐ¿Ð¾Ð½ÑıÑĤÐ¸Ñı":8101,"ÐµÐ½Ñĥ":8102,"Ð¾ÑģÑģÐ°":8103,"ĠÐ¿Ð¾Ð´Ð¾Ð¶Ð´":8104,"ĠÐ·Ð°ÐºÑĢÐ¸Ñĩ":8105,"ĠÐ·Ð°Ð´Ð°Ð²":8106,"Ð°Ð½Ð°Ð²Ð»Ð¸Ð²":8107,"ĠÐ¾Ð±Ð¾Ð¶":8108,"ĠÐ¾Ð±ÑĪÐ¸Ð²":8109,"ĠÐ¾ÑĤÐ²ÐµÑĤÑģÑĤÐ²ÐµÐ½":8110,"ĠÑĩÐµÐ»Ð¾Ð²ÐµÐºÑĥ":8111,"ĠÐ¿ÑĭÑĤÐ°ÐµÑĤÑģÑı":8112,"ĠÑĥÑģÐ¼ÐµÑĪ":8113,"ĠÐĽÐµÐ³Ð¸Ð¾Ð½Ð¾Ð²":8114,"ĠÐ²ÑģÑĤÑĢÐµÑĩÐ¸":8115,"ĠÐºÐ¾Ð³ÑĤÐµÐ¹":8116,"ĠÐ¿Ð¾Ð»Ð¾Ð²Ð¸Ð½Ñĥ":8117,"ĠÐĳÐ¾Ð»ÑĮÑĪÐ¸Ð½ÑģÑĤÐ²Ð¾":8118,"ĠÐ½ÐµÐ²Ð¾Ð·Ð¼Ð¾Ð¶":8119,"ĠÑĤÐ°ÑĢ":8120,"ĠÐŃÐ²":8121,"ĠÐ²Ð¸Ð´Ð¸ÑĪÑĮ":8122,"ĠÐ°ÑĢÑĤÐµÑĦ":8123,"ĠÑĢÐ°Ð½Ñĥ":8124,"ĠÑģÐ»ÑĥÐ¶Ð¸Ð»":8125,"ĠÐ¼ÐµÑĤÐ°Ð»Ð»Ð¸ÑĩÐµÑģÐºÐ¸Ñħ":8126,"ÑĨÐ¸Ð¿Ð¸Ð¾Ð½":8127,"ĠÐ¼Ð¾Ð»Ð¸ÑĤÐ²Ñĭ":8128,"ĠÐŁÐµÑĤ":8129,"ĠÐłÑĥÐ±Ð¸Ð¾":8130,"ĠÐ²ÐµÑĢÐ½ÑĥÑĤÑĮ":8131,"ĠÐ¾ÑĢÐºÐ°":8132,"ĠÐ¼ÐµÑĩÐ¸":8133,"ĠÐ½ÑĥÐ¶Ð½Ð°":8134,"ĠÐ½Ð°ÑħÐ¾Ð´ÑıÑĤÑģÑı":8135,"ĠÑģÐ²ÑıÑĤÐ¸Ð»Ð¸":8136,"ĠÐ·Ð²ÑĥÐºÐ¾Ð²":8137,"ĠÐ¸Ð½ÑģÑĤÐ¸Ð½ÐºÑĤÐ¸Ð²":8138,"ĠÐ¥ÑĢÐ°Ð¼Ð¾Ð²":8139,"ĠÐ»ÑĥÐ¶":8140,"ĠÐ¡ÑĢÐµÐ´Ð¸":8141,"ĠÑģÐºÐ²ÐµÑĢ":8142,"Ð°Ð»ÑĮÐº":8143,"ÐŀÐ¿":8144,"ĠÐłÑıÐ´Ð¾Ð¼":8145,"Ð¡Ð»ÐµÐ´":8146,"ÑįÐ²":8147,"Ð°ÑĪÐ¸Ð½Ð°":8148,"ĠÑĢÐ°ÑģÐ¿ÑĢÐ°Ð²":8149,"ĠÐŁÐ¾Ð´Ð¾Ð±":8150,"ĠÐ¿ÑĢÐ¸ÑģÐ¾ÐµÐ´Ð¸Ð½Ð¸Ð»ÑģÑı":8151,"ĠÐ³Ð°Ð»Ð°ÐºÑĤÐ¸ÐºÐµ":8152,"Ð¼Ð¸ÑĢÐ°Ð»":8153,"ÑģÐ¸Ñģ":8154,"ĠÐ¿Ð¾Ð¹ÑĤÐ¸":8155,"ĠÐºÐ²":8156,"ĠÐĳÑĥÑĢÐ¸":8157,"ĠÐ¿Ð¾ÑģÐ»ÐµÐ´Ð¾Ð²Ð°Ð»Ð¸":8158,"ĠÐ¿Ð¾ÑĤÐµÑĢÑıÐ»Ð¸":8159,"ĠÐºÐ»Ð¸Ð½ÐºÐ¾Ð¼":8160,"ĠÐ´ÑĢÐ¾Ð³":8161,"ĠÐ´ÐµÑĤÐ°Ð»Ð¸":8162,"ĠÐµÐ´Ð¸Ð½Ð¾Ð³Ð¾":8163,"ĠÐ¿Ð¾Ð½Ð°Ð´Ð¾Ð±Ð¸ÑĤÑģÑı":8164,"ĠÐ±Ð°ÑĢÐ°Ð±":8165,"ĠÐ´Ð°Ð½Ð½ÑĭÐ¹":8166,"ĠÐ¾Ð±Ð¶Ð¸Ð³":8167,"ĠÑĤÑıÐ¶ÐµÐ»Ð¾Ð³Ð¾":8168,"Ð²ÑĭÑĩ":8169,"ĠÐ±Ð¸Ð¾Ð½":8170,"Ð°Ð½Ðº":8171,"Ð¸ÑĢÑĭ":8172,"ĠÐ²Ð¾ÐµÐ½Ð½ÑĭÑħ":8173,"Ð¸ÑĩÐµÑģÐºÐ¾Ð¼Ñĥ":8174,"ĠÑħÐ²Ð°ÑĤÐ¸ÑĤ":8175,"ĠÐ¿ÑĢÐ¾Ð¸Ð·Ð½Ð¾ÑģÐ¸ÑĤ":8176,"ĠÑģÑĬ":8177,"ĠÑĥÐ½Ð¸":8178,"Ð¹ÑĤÐµ":8179,"ĠÐĽÐµÐ¾Ð½":8180,"ĠÐ±Ð¾Ð¹ÑĨÑĭ":8181,"ĠÑģÑĤÐ°Ð½Ð¾Ð²Ð¸Ð»Ð¸ÑģÑĮ":8182,"ĠÐ±ÐµÐ¶Ð°Ð»":8183,"ĠÐ²ÑģÐºÐ¾ÑĩÐ¸Ð»":8184,"ĠâĢĵ":8185,"ÐºÐ¾Ð»":8186,"ÐºÐ¾Ð¼Ñĥ":8187,"ÐµÐ²Ð¾":8188,"ĠÑģÐ²Ð¸ÑĤ":8189,"ĠÐľÐµÐ½Ñı":8190,"ĠÑįÑĤÐ°Ð¶":8191,"ĠÑĦÐµÑĢ":8192,"ĠÐ¿Ð¾ÑĤÐ°":8193,"ĠÐ½Ð¸ÐºÐ¾Ð¼Ñĥ":8194,"ÐŃÑĤÐ¸":8195,"ĠÐ´Ð¾Ð±ÑĢÐ°Ð»ÑģÑı":8196,"ĠÑģÐ¾Ð»Ð´Ð°ÑĤÐ°":8197,"ĠÑĤÑĢÐ°Ð½Ñģ":8198,"ĠÐ½Ð°Ð·Ð²Ð°ÑĤÑĮ":8199,"ĠÐ¡Ð°Ð»Ð°Ð¼Ð°Ð½Ð´ÑĢ":8200,"ĠÑģÐ°ÑĢÐºÐ¾ÑĦ":8201,"ĠÑģÐ½Ð°Ð±Ð¶":8202,"Ð²Ð¾Ñı":8203,"ĠÐºÐ»Ð¸Ñĩ":8204,"Ð¸Ð½ÐºÑĥ":8205,"ÐµÐ±ÑĢÑı":8206,"ÑĭÐ²Ð°Ð½Ð¸Ñı":8207,"Ð¢Ð¾":8208,"ĠÐ´ÐµÐ»Ð°Ð»Ð¸":8209,"ĠÐ»ÑİÐ±ÑĭÐµ":8210,"Ġas":8211,"ĠÑģÐ¶Ð¸Ð¼Ð°Ñı":8212,"ĠÐļÐ¾ÑĢÐ°Ð±Ð»ÑĮ":8213,"ĠÐ³Ð»ÑĥÐ±Ð¾ÐºÐ¸Ð¹":8214,"ĠÐ²Ð°ÑĢ":8215,"ĠÐ²ÑģÐ»ÑĥÑħ":8216,"ĠÐ·Ð²Ð¾Ð½":8217,"ĠÐ¸ÑģÑĤÐ¾Ñī":8218,"ĠÐ¾ÑģÐºÐ²ÐµÑĢÐ½":8219,"ĠÐ¢Ð°Ð»Ð³":8220,"ĠÐ¿Ð¾ÑĤÐ¾ÐºÐ¾Ð¼":8221,"ĠÑıÐ²Ð»ÑıÑİÑĤÑģÑı":8222,"Ð¸Ð½ÑĤÐµÑĢÐµÑģÐ¾Ð²Ð°Ð»ÑģÑı":8223,"ÐºÑĥÐ·":8224,"ĠÑģÐ°Ð¼Ð¸Ð¼":8225,"ĠÐ³Ð¾ÑĢÑĮ":8226,"ĠÐ¼ÐµÑģÑĤÑĥ":8227,"ĠÐ¶Ð¸Ð²ÑĭÐ¼":8228,"ĠÐ»ÐµÐ³Ð¸Ð¾Ð½ÐµÑĢÑĭ":8229,"ĠÐļÐ¾ÑģÐ¼Ð¸ÑĩÐµÑģÐºÐ¸Ðµ":8230,"ĠÑĤÑĢÐ°Ð½ÑģÐ¿Ð¾ÑĢ":8231,"ĠÐ¼Ð¾Ð»ÑĩÐ°Ð½Ð¸Ðµ":8232,"ĠÐ¿Ð¾Ð´ÐºÐ»ÑİÑĩ":8233,"ĠÑģÑĩÐ°ÑģÑĤÑĮÑİ":8234,"ĠÐ°Ð³Ð¾Ð½":8235,"ÑĢÑıÑī":8236,"Ð½ÑĥÑĤÑĭÐ¹":8237,"ĠÑħÐ¾ÑĤÐ¸ÑĤÐµ":8238,"ĠÑģÐ½Ð°ÑĢÑıÐ¶":8239,"Ð¼Ð°ÑĤÐµÑĢ":8240,"ĠÐ±Ð»Ð°Ð³Ð¾Ð³Ð¾Ð²":8241,"ĠÐ¿ÑĤÐ¸ÑĨÑĭ":8242,"ĠÐºÐ¾Ð½ÑĦÐ»Ð¸Ðº":8243,"ĠÐ¿Ð»Ñı":8244,"ĠÐ¾ÑĢÐ°Ð½":8245,"Ð¸Ð²Ð°":8246,"ĠÐľÐ¾Ð¶":8247,"ÐĶÐ¾":8248,"ĠÐ¿Ð¾ÑĤÐµÑĢÐ¿":8249,"ĠÐ¾ÑĢÑĥÐ´Ð¸Ðµ":8250,"Ð»Ð¾Ð³Ð¾":8251,"ĠÐ·Ð¸Ñı":8252,"ÐµÐ¼Ñĭ":8253,"ÑıÑīÐ¸Ð¼Ð¸":8254,"ĠÐ¾ÑĤÐºÐ»Ð¾Ð½":8255,"ĠÐ¿Ð»Ð°Ð½Ñĭ":8256,"ĠÑĥÐ»ÑĭÐ±Ð½ÑĥÐ»Ð°ÑģÑĮ":8257,"ĠÐ±Ð°ÑĪÐµÐ½":8258,"ÐĿÐ¾ÑģÐ¾ÑĢÐ¾Ð³":8259,"ĠÑĢÐ°Ð·ÑĢÑı":8260,"ĠÐ¾Ð³Ð½Ð¸":8261,"ÑĢÐ°ÑĤÐ¸ÑĤÑĮ":8262,"ĠÐ¿ÑĢÐ¸Ð´ÐµÑĤ":8263,"ĠÐ¾ÑĦÐ¸ÑĨÐ¸":8264,"ĠÐ¿ÑĢÐ¸Ð·Ð½Ð°ÑĤÑĮ":8265,"ĠÐ¿Ð¾Ð²ÐµÐ»Ð¸ÑĤÐµÐ»Ñı":8266,"ĠÑĩÑĥÐ¶Ð°ÐºÐ¾Ð²":8267,"ĠÐ³Ð°Ð»Ð°ÐºÑĤÐ¸ÐºÐ¸":8268,"Ġthat":8269,"ĠÐ´Ð¾Ð²Ð¾Ð´":8270,"ĠÐ¿ÑĢÐ¸Ð·ÐµÐ¼Ð»Ð¸Ð»ÑģÑı":8271,"ĠÐ³ÑĢÑĥ":8272,"ĠÑģÐ¿Ð»Ð¾":8273,"ĠÐ½Ð°Ð²Ð¾Ð´":8274,"ĠÐ¿ÑĢÐ¾Ð²Ð¸Ð´":8275,"ĠÐ¿Ð¾Ð´Ð½ÑıÑĤ":8276,"ĠÐºÐ°Ð½Ð´":8277,"ĠÐ½Ð°ÑĢÐ°ÑģÑĤ":8278,"ĠÑįÐ»ÐµÐ¼":8279,"ĠÐ²ÑĭÑģÐº":8280,"ĠÐ²ÑĭÑĢÐ¾Ñģ":8281,"ĠÐ¾Ð±ÑĢ":8282,"ĠÐ¿ÐµÑĢÐµÐ·":8283,"ĠÐ¾Ð¿Ð°Ð»":8284,"ÐĲÐ½Ð³":8285,"ÑıÐ¶ÐµÐ»":8286,"ĠÐ¸Ð·Ð²Ð»ÐµÐº":8287,"ĠÐ°Ð´Ð°Ð¼Ð°Ð½ÑĤ":8288,"ĠÑĤÑĢÐ°Ð½ÑĪÐµ":8289,"ÑĢÐ¸Ð¿ÐµÐ»":8290,"ĠÐ½Ð¸Ð·ÐºÐ¾":8291,"ĠÐ»Ð°Ð´Ð¾Ð½ÑĮ":8292,"ĠÑĢÐµÐ¿ÑĥÑĤ":8293,"Ð¸ÐºÐ°Ð½":8294,"ĠÐ¾ÑĤÐ»Ð¸ÑĩÐ½Ð¾":8295,"ĠÑĢÐµÐ»":8296,"ĠÐ¿Ð¾Ð´Ð°ÑĢ":8297,"ĠÐĸÑĢÐµÑĨ":8298,"ĠÐ¿Ð¾Ð½Ð¸Ð¼Ð°ÐµÑĪÑĮ":8299,"ĠÑģÑĤÐµÐºÐ»Ð¾":8300,"ĠÐ¼Ð½Ð¾Ð¶ÐµÑģÑĤÐ²Ð°":8301,"ĠÐ¿Ð»Ð°ÑģÑĤÐ¸Ð½Ñĭ":8302,"ĠÐ¼Ð¾Ð·Ð³Ð°":8303,"ĠÐ²ÑģÐ¿Ð¾Ð¼Ð½Ð¸ÑĤÑĮ":8304,"ĠÐ¿ÑĢÐµÐ´ÐµÐ»Ñĭ":8305,"ĠÐ¿Ð¾ÑĢÐ°Ð¶ÐµÐ½Ð¸Ñı":8306,"ĠÑĤÐµÐ»ÐµÐ¿Ð¾ÑĢÑĤ":8307,"ĠÐĲÐ´Ð¼Ð¸Ð½Ð¸ÑģÑĤÑĢÐ°ÑĤ":8308,"ĠÑĤÐ°Ñī":8309,"Ð°ÑĢÑĥ":8310,"ÐµÐ²Ð°Ð»Ð¸":8311,"ĠÐ¾Ð±Ð·Ð¾ÑĢ":8312,"ĠÐ·Ð°ÑĢÐ°Ð¶":8313,"ĠÐ²ÐµÑĢÐ½Ð¾ÑģÑĤÑĮ":8314,"ĠÐ±Ð¾ÑĢÐ¼Ð¾ÑĤ":8315,"ĠÐ´ÑĢÐµÐ²Ð½ÐµÐ¹":8316,"ĠÐ¿Ð¾ÐºÐ»Ð¾Ð½Ð¸Ð»ÑģÑı":8317,"ĠÐļÐ°Ð»ÑĮÐ¿ÑĥÑĢÐ½Ð¸Ñı":8318,"ĠÑģÑĥÐ´Ð¾Ð²":8319,"Ð¸Ð²ÐµÑĤ":8320,"ĠÐ¸Ð·Ð³Ð¾ÑĤÐ¾Ð²":8321,"ĠÑģÐºÐ°Ð¼":8322,"ĠÑĦÐ°Ð½Ð°ÑĤ":8323,"ĠÐ¿ÑĢÐ¸ÐºÐ¾ÑģÐ½Ð¾Ð²":8324,"ĠÐ¼ÐµÐ´Ð¸ÑĨÐ¸Ð½":8325,"ĠÐ½ÑĢÐ°Ð²Ð¸ÑĤÑģÑı":8326,"em":8327,"ÐµÑĥ":8328,"ĠÐ¼Ñĥ":8329,"ĠÐ·Ð»Ð¾":8330,"ĠÐ¿Ð¾ÑĪÐ»Ð¸":8331,"ĠÐ¾Ð¿ÑĢÐ¾Ðº":8332,"ĠÐ¾Ð´Ð¸Ð½Ð¾Ðº":8333,"ĠÑģÐ¸Ð»ÑĮÐ½ÑĭÐ¼":8334,"ĠÑĤÑıÐ¶ÐµÐ»ÑĭÐ¼":8335,"ĠÐ¾ÑĤÐ¿ÑĢÐ°Ð²Ð¸Ð»":8336,"ĠÐ¿ÐµÑĢÐµÐ²ÐµÐ»":8337,"Ð°ÑĢÐ´Ð¸Ð½":8338,"ĠÑģÐºÐ»Ð¾Ð½Ð¸Ð»":8339,"ÑģÑĤÐ¾ÑıÑīÐµÐ¼Ñĥ":8340,"ĠÐ¶Ð¸Ð´ÐºÐ¾ÑģÑĤÐ¸":8341,"ĠÐ¾Ð±Ð»Ð°ÐºÐ¾":8342,"ĠÑĨÐ¸ÑĤÐ°Ð´ÐµÐ»Ð¸":8343,"Ð¾ÑģÑĥÐ´":8344,"Ð°ÑĢÐ¾Ð´":8345,"ÑģÑĤÐ²Ð°Ð¼Ð¸":8346,"Ð¼ÑĥÐ½Ð´":8347,"ÑĢÐ¾Ð¸Ð·":8348,"ĠÐ²ÑĭÐ±ÑĢÐ°Ð»":8349,"ĠÐ±ÑĢÐ°ÑĤÑĮÑıÐ¼":8350,"ĠÐĲÑģÑĤÐµÐ»ÑıÐ½":8351,"ĠÐ¡Ð»Ð¾Ð²Ð½Ð¾":8352,"ĠÐ¿ÑĢÐ¾Ð¿Ð¾Ð²ÐµÐ´":8353,"ĠÑĥÑģÐºÐ¾Ð»ÑĮÐ·":8354,"ĠÐ¿Ð¾Ð»ÑĮÐ·Ñĥ":8355,"ĠÐ²Ð¸ÑĤ":8356,"ÐµÑĤÐ¸Ð½":8357,"Ð·ÐµÐ»ÐµÐ½":8358,"ÑĨÐ¸Ðº":8359,"ĠÐ¼Ð¸ÑĢÐ°Ñħ":8360,"ĠÐ¿ÑĢÐ¸ÑĩÐ¸Ð½Ðµ":8361,"ĠÐļÑĢÐ¾Ð²Ð°Ð²Ð¾Ð³Ð¾":8362,"ĠÑįÐ»ÑĮÐ´Ð°ÑĢÐ¾Ð²":8363,"ĠÐ½Ð°ÑĩÐ¸Ð½Ð°ÐµÑĤ":8364,"ĠÐ¾Ð¿ÑĢÐµÐ´ÐµÐ»ÐµÐ½Ð½Ð¾":8365,"ĠÑĤÑĥÐ½Ð½ÐµÐ»ÑĮ":8366,"Ð»Ð¾ÑĢ":8367,"Ð¾Ð³Ð¾ÑĤÑĮ":8368,"ĠÐĿÐµÐ¿":8369,"Ð¸Ð³Ð°":8370,"ĠÐ¿Ð¾Ð½ÑıÐ»Ð¸":8371,"ĠÐ¿ÑĢÐ¸Ð²ÐµÑģÑĤÐ¸":8372,"ĠÐ³ÑĢÐµÐ±":8373,"ĠÐºÑĥÐ»ÑĮÑĤÐ¸ÑģÑĤÐ¾Ð²":8374,"ÑĥÑĢÑĭ":8375,"ÐµÐ´Ð»Ð¸Ð²":8376,"Ð¸ÑĢÐ°ÑıÑģÑĮ":8377,"ĠÑĨÐ¸Ð²Ð¸Ð»Ð¸Ð·":8378,"ĠÐ¸Ð½ÑĤÐµÑĢ":8379,"ĠÐ±Ð¾ÐµÐ²ÑĥÑİ":8380,"ĠÐ½Ð°Ð±ÑĢÐ¾Ñģ":8381,"ÑĤÐµÐ¹":8382,"ĠÐ²ÑĤ":8383,"ĠÐ¾Ð¼ÐµÑĢÐ·":8384,"ĠÑĢÑĤÑĥ":8385,"ĠÐ¾ÑģÐ²ÐµÑĤ":8386,"ĠÐ¿ÑĢÐ¸ÐºÑĢÑĭÑĤ":8387,"ĠÐ¿Ð¾Ð¿ÑĢÐ°Ð²":8388,"ĠÐ¿Ð¾ÑģÑĤÑĢÐ°Ð´":8389,"ĠÐ¿ÑĢÐ¾Ð¸ÑģÑħÐ¾Ð´Ð¸Ð»Ð¾":8390,"ĠÑģÑĥÐ´ÑĮÐ±Ñĥ":8391,"Ð¾Ð±ÑĢÐ°Ð½":8392,"ĠÑģÐ»ÐµÐ´Ð¾Ð²Ð°ÑĤÑĮ":8393,"ÐŁÐµÑĢÐ²ÑĭÐ¹":8394,"ĠÐ¼ÑĢÐ°ÐºÐµ":8395,"ĠÐ´Ð°Ð»Ð¸":8396,"ĠÐ±ÑĢÐ¸ÑĤ":8397,"ĠÑģÐºÐ»Ð¾Ð½Ñĥ":8398,"ĠÐ»Ð°Ð·ÐµÑĢÐ½ÑĭÐ¹":8399,"ĠÐ¾ÑĤÐ´ÑĭÑħ":8400,"ĠÐ¾Ð³Ð½ÐµÐ²Ð¾Ð¹":8401,"ĠÑĦÑĭÑĢÐºÐ½ÑĥÐ»":8402,"Ð»ÐµÐµ":8403,"ÑĥÑģÑĥ":8404,"Ð¡Ð¸Ð³":8405,"ĠÐ½Ð°Ð·ÑĭÐ²Ð°Ð»Ð¸":8406,"ĠÐ²Ð¾Ð¸Ð½Ð¾Ð¼":8407,"ĠÐ¶Ð¸Ð²Ð¾Ð¹":8408,"ĠÐ²ÑĭÐ·Ð²Ð°Ð½":8409,"ĠÐ»Ð¸Ð½Ð·Ñĭ":8410,"ĠÐ±Ð¾Ð³Ð°ÑĤ":8411,"ĠÐ¸Ð¼Ð¿ÐµÑĢÑģÐºÐ¾Ð³Ð¾":8412,"ĠÐ½ÐµÐ·Ð°Ð¼ÐµÑĤ":8413,"ĠÐºÐ¾Ð»ÐµÐ½ÑıÑħ":8414,"Ð¾ÑĩÐºÑĥ":8415,"ÑĥÑīÐµÐ¼":8416,"ĠÐ´ÐµÐ»Ð¾Ð¼":8417,"ĠÐ¿Ð¾Ð±Ð»Ð¸Ð·Ð¾ÑģÑĤÐ¸":8418,"ĠÐºÐ¾ÑĢÐ¾ÑĤÐºÐ¾":8419,"Ġits":8420,"ĠÐ½ÐµÑĦ":8421,"ĠÐ½ÐµÐµÑģÑĤÐµÑģÑĤÐ²ÐµÐ½":8422,"ĠÐ¿ÑĢÐ¾ÑģÑĤÐ¾Ð¹":8423,"ĠÑĥÐ¼Ð¾Ð»Ðº":8424,"ĠÑĢÐµÑĪÐ¸Ð»Ð¸":8425,"ĠÑģÐ»ÑĭÑĪÐ°Ð»Ð¸":8426,"ĠÑĢÐ°Ð·Ð´ÑĥÐ¼":8427,"ĠÐľÐ°ÑĢÐº":8428,"ĠÐ¼Ð°Ð³Ð°Ð·":8429,"Ð°ÑĢÐ½Ð¸Ð·":8430,"ĠÑĩÐµÐ»Ð¾Ð²ÐµÑĩÐµÑģÐºÐ¾Ð³Ð¾":8431,"ĠÑĤÑĢÐµÐ²Ð¾Ð³Ð¸":8432,"ĠÐ¿ÐµÐ¿Ð»Ð°":8433,"ĠÐ¿Ð¾Ð²ÐµÐ·Ð»Ð¾":8434,"ĠÑĩÐ»ÐµÐ½Ñĭ":8435,"ĠÑĢÐ¸ÑĤ":8436,"ÑĥÑģÐµ":8437,"Ð¼Ð¾ÑĤÑĢÐµÐ»":8438,"ĠÑĢÐµÐ·ÐºÐ¸Ð¹":8439,"Ð¸ÑĢÑĥÐµÐ¼":8440,"ĠÑĤÐ²Ð¾Ñİ":8441,"ĠÑĢÑĥÐºÐ°Ð²":8442,"Ð¾Ð»Ð°Ð³Ð°Ñİ":8443,"ĠÐ²ÐºÐ»ÑİÑĩÐ°Ñı":8444,"ÑĦÐ¾ÑĢÐ¼Ñĥ":8445,"ĠÐ³ÑĥÐ±ÐµÑĢÐ½Ð°ÑĤÐ¾ÑĢ":8446,"ÐµÐ²Ð°ÑĤÐ°ÑĢ":8447,"ĠÐ¶Ð¸ÑĤÐµÐ»ÐµÐ¹":8448,"ĠÐºÐ°ÐºÐ¾Ð¼":8449,"ĠÐ¢Ð°Ð´Ð´Ðµ":8450,"ĠÐ¾ÑģÑĤÐ°Ð²ÑĪÐ¸ÐµÑģÑı":8451,"ÑıÐ»Ð¾ÑģÑĮ":8452,"ĠÐ¤Ð°Ñį":8453,"ĠÐ±Ð¸ÑĤÐ²Ñĥ":8454,"ĠÐ¢ÑĢ":8455,"ÑĥÑĩÐ°Ð»Ð¸":8456,"ÑĢÑĥÐ¶Ð¸Ðµ":8457,"ĠÐ²ÐµÑĢÐ¸Ð»":8458,"ĠÐ§ÐµÐ¼":8459,"ĠÐ±ÐµÑģÐ¿ÑĢ":8460,"ĠÐºÐ¾Ð¼Ð°Ð½Ð´Ð¾Ð²Ð°Ð½Ð¸ÐµÐ¼":8461,"ĠÐ¾ÑģÑĤÐ°Ð»ÑĮÐ½ÑĭÐ¼Ð¸":8462,"ĠÐ¾ÑħÐ²Ð°Ñĩ":8463,"ĠÑģÑĤÑĢÑĥÐº":8464,"Ð°ÑİÑīÐ¸Ð¼Ð¸ÑģÑı":8465,"ĠÑĢÐ°ÑģÐ¿Ð¾ÑĢÑıÐ¶":8466,"ĠÐ±ÑĥÐ»":8467,"Ð±Ð¾ÑĢ":8468,"Ð¢ÐµÐ±Ðµ":8469,"ĠÐ·Ð°ÑĤÑĭÐ»":8470,"ĠÑĥÐ³Ð»Ñĥ":8471,"ĠÐ¾Ð±Ð¾ÑĢÑĥÐ´Ð¾Ð²":8472,"ÑĮÐµÑĤ":8473,"ĠÐ¼Ð¸Ðº":8474,"ĠÐĿÐ°Ð¹":8475,"Ð°ÑĤÐµÐ»ÑĮÐ½ÑĭÐ¼":8476,"ĠÐ¸Ð¼Ð¿ÐµÑĢÑģÐºÐ¸Ðµ":8477,"ĠÐ´Ð¾ÑĢÐ¾Ð³Ðµ":8478,"ĠÐ¿Ð¾ÑģÐ»Ð°Ð»":8479,"ĠÐ»ÐµÐ·Ð²Ð¸Ñı":8480,"ĠÑĤÑĢÐµÑģÐºÐ¾Ð¼":8481,"ĠÑįÐ»ÐµÐºÑĤ":8482,"ĠÑģÐ»ÑĥÑħÐ¸":8483,"ĠÐ¸Ð»Ð»ÑİÐ¼Ð¸Ð½Ð°ÑĤÐ¾ÑĢ":8484,"ÑİÐ½ÑĤÐµÑĢ":8485,"ĠÐ³Ð°Ð´":8486,"ÐļÑħ":8487,"Ð¡ÑįÑĢ":8488,"ÑįÐ½Ð´":8489,"ĠÐ¿ÑĢÐ¾Ð´Ð¾Ð»Ð¶Ð°Ð»Ð°":8490,"ĠÑģÐ¾Ð±Ð¸ÑĢÐ°Ð»Ð¸ÑģÑĮ":8491,"ĠÑģÑĤÐ°Ð½Ð¾Ð²Ð¸Ð»ÑģÑı":8492,"ÐĺÐ¼ÐµÐ½Ð½Ð¾":8493,"ĠÐ·Ð°ÑīÐ¸ÑīÐ°ÑĤÑĮ":8494,"ĠÐ¾Ð±Ð¾ÑĢÐ¾Ð½Ñĥ":8495,"Ġr":8496,"ÐºÐ°Ðº":8497,"ĠÐĺÐ»Ð»":8498,"Ð¸Ð²ÑĪÐ¸Ð¼":8499,"ÑĥÐºÑģ":8500,"ĠÐ¿ÑıÑĤÑĮÐ´ÐµÑģÑıÑĤ":8501,"ĠÑģÐ²ÑıÑīÐµÐ½":8502,"ĠÐ²Ð¾Ð´Ð°":8503,"Ð¾Ð±ÑĢÐµÑĤ":8504,"ĠÐĴÐ½ÑĥÑĤÑĢÐ¸":8505,"Ð¸ÑģÑĤÐ¾ÐºÑĢÐ°ÑĤ":8506,"ĠÐ¶ÐµÐ»ÑĤ":8507,"ĠÐ¿Ð¾Ð½Ð¸Ð¼Ð°Ñı":8508,"Ġcon":8509,"ĠÐ¸Ð´ÑĥÑĤ":8510,"ĠÐ»ÐµÑģÐ°":8511,"ĠÑģÐ²ÐµÑĩ":8512,"ĠÐŁÑĢÐ¾Ð²":8513,"ĠÐ¿ÐµÑĢÐ³":8514,"ÑĥÑİÑīÐµÐµ":8515,"ĠÐĶÐµÐ¼":8516,"ÐŁÐ¾Ð½":8517,"ĠÑģÐµÑĢÐµÐ´":8518,"Ð¾Ð²Ð°Ð½Ð½ÑĭÑħ":8519,"ĠÐ²Ð¿ÑĢÐ°Ð²":8520,"ĠÐ¾Ð¿ÑĢÐµÐ´ÐµÐ»ÐµÐ½":8521,"ĠÑģÐ¾Ð·Ð´Ð°Ð½Ð¸Ðµ":8522,"ĠÑĤÑıÐ½ÑĥÐ»Ð¸ÑģÑĮ":8523,"ĠÑĤÐµÐ½ÐµÐ¹":8524,"ĠÐºÐ»Ð°ÑģÑģÐ°":8525,"Ð³ÐµÐ½ÐµÑĢ":8526,"Ð¸Ð¼ÑĭÐ¼Ð¸":8527,"Ð½Ð°ÑģÑĤÐ¾ÑıÑīÐµÐ¼Ñĥ":8528,"ÑĳÐº":8529,"ĠÐ¾ÐºÐ¾Ð¿":8530,"ĠÐ²Ð·Ð³Ð»ÑıÐ½ÑĥÑĤÑĮ":8531,"ĠÑģÐ¾ÑĤÐ²Ð¾ÑĢ":8532,"ÑıÐ³Ð¸Ð²Ð°Ñı":8533,"ĠÐ¾ÑĤÐ¿ÑĢÐ°Ð²Ð¸Ð»ÑģÑı":8534,"ĠÑĥÑĤÐ²ÐµÑĢÐ¶":8535,"ĠÐ¿Ð¾ÑģÑĭÐ¿":8536,"Ð¼Ð¾ÑĤÑĢÐ¸":8537,"ĠÐ³Ð»Ð°Ð²Ð½Ð¾Ð³Ð¾":8538,"ĠÐ½ÐµÐ¿Ð¾Ð´Ð°Ð»ÐµÐºÑĥ":8539,"ĠÐ¿ÐµÑĢÐ³Ð°Ð¼ÐµÐ½ÑĤ":8540,"Ð´ÐµÑĢ":8541,"ĠÐ¼Ð°ÑĤ":8542,"ĠÐĴÐ¾Ð»ÑĮ":8543,"ĠÐĴÑģÐºÐ¾ÑĢÐµ":8544,"ĠÐ¿ÐµÑĢÐ²Ð°Ñı":8545,"ĠÑįÐ½ÐµÑĢÐ³Ð¸Ñı":8546,"ĠÐ¿ÑĢÐ¸ÑĩÐ¸Ð½Ð°":8547,"ĠÐ¸Ð·Ð±ÐµÐ³":8548,"ĠÐĽÑĥÐ¿ÐµÑĢ":8549,"ĠÑģÐºÐ¾Ð½ÑĨÐµÐ½ÑĤÑĢ":8550,"ĠÑĩÐµÐ¹":8551,"ĠÐ¿Ð¾ÑıÑģÐµ":8552,"ÐĴÑĤÐ¾ÑĢ":8553,"ÐļÐ¾ÑģÐ¼":8554,"ÑĥÐ»Ð¾":8555,"ĠÐ¿ÑĢÐ¾Ð±ÑĥÐ´":8556,"Ð¾ÑīÐ°Ð´":8557,"ĠÐ²Ð·Ð³Ð»ÑıÐ´Ñĭ":8558,"ĠÐ´Ð¾Ð»Ñİ":8559,"ĠÐ³ÑĢÐµÑħ":8560,"ĠÐ²ÑĭÐ±ÑĢÐ°ÑĤÑĮÑģÑı":8561,"ĠÐºÐ°Ð¿Ð¸ÑĤÐ°Ð½Ñĥ":8562,"ĠÐ±ÐµÐ·ÑĥÐ¼Ð¸Ñı":8563,"ĠÐŁÐ¾Ð»ÐºÐ¾Ð²Ð½Ð¸Ðº":8564,"ĠÐ¿ÑģÐ°Ð¹ÐºÐµÑĢÐ°":8565,"ĠÑĢÐµÐ°Ð»ÑĮÐ½Ð¾ÑģÑĤÑĮ":8566,"ĠÐŃÐºÐºÐ»ÐµÐ·Ð¸Ð°ÑĢÑħ":8567,"ĠÑģÐ¾Ð¼Ðº":8568,"ĠÐ¼Ð¸ÑĦ":8569,"Ð¸ÑĢÐ°ÑĤÑĮÑģÑı":8570,"Ð°Ð³Ñĥ":8571,"ĠÑĤÑĢÐ°ÑĤ":8572,"ĠÐ½ÐµÐ¼Ð°Ð»Ð¾":8573,"ĠÐ¿ÑĢÐ¾Ð²Ð°Ð»":8574,"ÑģÑĤÐ²ÑĥÑİÑīÐ¸Ñħ":8575,"ĠÐ²Ð¾ÑģÑģÑĤÐ°Ð½Ð¾Ð²Ð¸ÑĤÑĮ":8576,"ÐµÑĢÐµÐ¼":8577,"ĠÐ·Ð¾Ð½Ðµ":8578,"ĠÐ½ÐµÑĥÐ²ÐµÑĢ":8579,"ĠÐºÐ¾Ð¼Ð¼":8580,"ĠÐ´Ð²Ð¸Ð³Ð°ÑĤÐµÐ»Ñı":8581,"ĠÐ·Ð½Ð°ÑĩÐ¸ÑĤÐµÐ»ÑĮÐ½Ð¾":8582,"ĠÐ²ÑģÑĤÑĢÐµÑĤÐ¸ÑĤÑĮ":8583,"ĠÐ¸Ð·Ð³Ð¸Ð±":8584,"ÐµÐºÑĤÐ¾ÑĢÐ°":8585,"ÑģÑĤÐ²ÐµÐ½Ð½Ð¾Ð³Ð¾":8586,"ĠÐ¿Ð¾Ð¼Ð½Ñİ":8587,"Ð°ÑĢÑħÐ°":8588,"ĠÐ°ÑĢÐ¼Ð¸Ñı":8589,"ĠÐ¿ÑģÐ°Ð¹ÐºÐµÑĢÐ¾Ð²":8590,"ĠÐ¾Ð´Ð¸Ð½Ð¾ÑĩÐµ":8591,"ÐĲÐ»Ð°ÑĢÐ¸Ðº":8592,"ĠÐĲÑĢÐ±Ð¸ÑĤÑĢÐµÑģ":8593,"Ð¾ÑĢÐ°Ð¼Ð¸":8594,"ĠÐ²ÑĤÑı":8595,"ÐµÑģÑĤÐ¾Ñĩ":8596,"ĠÐłÐ¾":8597,"ĠÐ»ÑĥÑĩÑĪÐ¸Ñħ":8598,"ĠÐ²ÑĭÐ±Ð¾ÑĢÐ°":8599,"ĠÐĲÐ½Ð³ÑĢÐ¾Ð½Ð°":8600,"ĠÑįÐ½ÐµÑĢÐ³Ð¸ÐµÐ¹":8601,"ĠÐ°ÑĤÐ¼Ð¾ÑģÑĦÐµÑĢÑĥ":8602,"ĠÑģÑĤÐ°ÑĤÑĥÐ¸":8603,"ĠÑĩÑĢÐµÐ·Ð²ÑĭÑĩ":8604,"ĠÐºÐ°ÑİÑĤ":8605,"ÑģÐºÐ°":8606,"ĠÐĶÑĢÐµÐ²":8607,"ĠÑĤÑĢÑİ":8608,"ÑĢÐ°Ð¼Ð¼Ð°ÑĤ":8609,"ĠÐ²ÑĭÐ¿ÑĥÑģÑĤ":8610,"ĠÐ±ÑĢÐ°ÑĤÐ¾Ð¼":8611,"ĠÑĢÐ°ÑģÑģÑĥÐ´":8612,"ĠÐ¿Ð¾Ð´Ð½ÑıÐ»Ð°ÑģÑĮ":8613,"ĠÐ¾ÑģÐ½Ð¾Ð²Ð½Ð¾Ð¼":8614,"ĠÑħÐ¾Ð»Ð¾Ð´Ð½ÑĭÐ¹":8615,"ĠÐ²ÑĭÑģÐ¾ÐºÐ¸Ð¹":8616,"ĠÐ³ÑĢÑıÐ´ÑĥÑī":8617,"ĠÐ¼ÑĭÑģÐ»ÐµÐ¹":8618,"ĠÑĥÑħÐ¼ÑĭÐ»ÑĮÐ½ÑĥÐ»ÑģÑı":8619,"ÐµÑĢÐ¼Ð°Ð½":8620,"ĠÑĨÐµÐ»ÐµÐ¹":8621,"ĠÐ¡ÐºÐ¾Ð»ÑĮÐºÐ¾":8622,"ĠÐ¾ÑĩÐµÑĢÐµÐ´Ð¸":8623,"ĠÑĪÐ¸Ð¿ÐµÐ½Ð¸ÐµÐ¼":8624,"Ð»ÐµÑĢ":8625,"ĠÐ¿Ð°Ð²ÑĪÐ¸Ñħ":8626,"ĠÑĩÑĥÐ¼":8627,"ĠÑĥÑĢÐ¾Ð½":8628,"ĠÐ±Ð¾Ð»ÑĮÑĪÐµÐµ":8629,"ĠÐ¡ÑĤÑĢÐ°Ð½":8630,"ĠÐ²ÑĤÐ¾ÑĢÐ°Ñı":8631,"ĠÐ½Ð°Ð±Ð»ÑİÐ´Ð°ÑĤÑĮ":8632,"ĠÑİÐ¶":8633,"ĠÐ·Ð°ÐºÐ¾Ð½ÑĩÐ¸Ð»":8634,"ĠÐ½Ð°Ð¿Ð°Ð´ÐµÐ½Ð¸Ñı":8635,"ĠÑĥÑĪÐ°Ñħ":8636,"ĠÐŀÐ¼Ð½Ð¸ÑģÑģ":8637,"ÑĩÐ°Ð¹":8638,"ĠÐ¿Ð¾Ñī":8639,"ÐµÐ»ÑĮÐ½Ð¾":8640,"ĠÑĤÑĢÐ¸ÑĥÐ¼":8641,"Ð£ÑĢÐ¸ÑįÐ»ÑĮ":8642,"ĠÐ¼Ð³Ð½Ð¾Ð²ÐµÐ½Ð¸Ñı":8643,"ĠÑĪÑĤÑĥÑĢ":8644,"ĠÐºÐ°Ð¼Ð¿Ð°Ð½Ð¸Ð¸":8645,"ĠÑģÐ°Ð»":8646,"ÐµÐ´Ð¸":8647,"ĠÑģÑĤÑĥÐº":8648,"Ð¸Ð´Ð¾Ð²":8649,"ĠÐľÐ¾Ð¸":8650,"ÐĳÐ»Ð°Ð³Ð¾Ð´Ð°ÑĢ":8651,"Ð»Ð¸Ð²ÑĭÐ¹":8652,"ĠÐ¶ÐµÐ»Ð°Ð»":8653,"ĠÐ±ÑĮÑİ":8654,"Ð¾ÑĤÐ²Ð¾ÑĢ":8655,"ĠÐ¿Ð¾Ð²Ð¾ÑĢÐ¾ÑĤ":8656,"ĠÐºÐ¾Ð¼Ð¸ÑģÑģ":8657,"ÑģÑĤÐ²Ð¾Ð²Ð°Ð»Ð¾":8658,"ĠÐ±ÑĢÐ¾ÑģÐ¸ÑĤÑĮ":8659,"ĠÐ¿Ð¾ÑĤÑĢÐµÐ±ÑĥÐµÑĤÑģÑı":8660,"ĠÐŁÐ°":8661,"Ð¸ÑĢÐ¾Ð²Ð°Ð»Ð¸ÑģÑĮ":8662,"ÐłÐ¾ÑģÑģ":8663,"ĠÐ¾Ð¶Ð¸Ð´Ð°ÑĤÑĮ":8664,"ĠÐ¿Ð¾ÑħÐ¾Ð¶Ð¸Ð¹":8665,"ĠÐ°Ð»ÐµÐ±":8666,"ĠÐ·Ð°ÑĪÐ°Ð³":8667,"ĠÐºÐ¾Ð»Ð´ÑĥÐ½":8668,"ĠÐĸÐ¸Ð»Ð»Ð¸Ð¼Ð°Ð½Ð°":8669,"ÐµÑģÑĤÐ²Ð¾Ð¼":8670,"Ð»ÑıÑī":8671,"ÐµÑĪÐ½Ð¾":8672,"ĠÐ¿ÑĢÐ¾ÑĪÐ»Ð¾Ð¼":8673,"ĠÑģÐ»ÑĥÑĩÐ°Ñı":8674,"ĠÐ¿Ð¾Ð³Ð¸Ð±ÑĪÐ¸Ñħ":8675,"ĠÐ¿ÑĢÐ¾Ð¸ÑģÑħ":8676,"ĠÑģÐ¸Ð¼Ð²Ð¾Ð»Ñĭ":8677,"ĠÑĪÑĢÐ°Ð¼Ð°Ð¼Ð¸":8678,"ĠÐ±Ð°ÑĤÐ°ÑĢÐµÐ¸":8679,"Ð¸Ð»Ðµ":8680,"Ð¾ÑĢÐ¾":8681,"ĠÐ¾Ð±Ð»Ð°ÑģÑĤ":8682,"ĠÑĢÐ°Ð±Ð¾ÑĤÐµ":8683,"ĠÐ¾ÑģÑĤÐ°Ð½Ð¾Ð²Ð¸Ð»Ð¸ÑģÑĮ":8684,"ĠÐ²ÑĭÐ·Ð²Ð°Ð»":8685,"ÑĢÐ°ÑĤÑĮÑı":8686,"ĠÐ¿ÑĥÑĢ":8687,"ĠÐ¿ÑĢÐ¸Ñī":8688,"Ð¾Ð´Ð¾Ð²":8689,"ĠÐ²ÑĭÐ²":8690,"ĠÐŃÐ¹Ð´":8691,"ĠÐ²ÐµÑĢÐ°":8692,"ĠÐ²ÐµÑĢÐ½Ð¾ÑģÑĤÐ¸":8693,"ĠÐ§ÐµÑĤ":8694,"ĠÑĩÐ¸ÑģÐ»Ð¾":8695,"ĠÐļÑĥÐ»Ð°ÐºÐ¸":8696,"ĠÑĥÑĪÐ¸":8697,"ĠÐ¸Ð·Ð±Ð°Ð²Ð¸ÑĤÑĮÑģÑı":8698,"Ð½Ð°Ð»Ð¸":8699,"ÑĢÐ¸ÑĦ":8700,"ÐŁÑĢÐ¸Ð½":8701,"ĠÐ¼Ð°ÑģÐºÐ¸":8702,"ĠÑĢÐ°Ð±Ð¾ÑĤÐ°Ð»Ð¸":8703,"ĠÐ¼ÑĥÐ¶ÑĩÐ¸Ð½Ñĭ":8704,"ĠÑĪÐ°ÑħÑĤÑĭ":8705,"ĠÐ¡ÑĥÐ´Ñı":8706,"ĠÑĢÐ°ÑģÐºÐ¾Ð»Ð¾Ð»":8707,"ĠÑģÐ¸Ð»ÑĥÑįÑĤÑĭ":8708,"Ð°ÑĤÑĥÑĢ":8709,"ĠÐĴÐµÐ´ÑĮ":8710,"ĠÐ¸Ð¼ÐµÐ½":8711,"ĠÐ±Ð°Ð³ÑĢÐ¾Ð²":8712,"Ð¿Ð°Ð´":8713,"ĠÐ¾Ð±ÑģÐ»ÑĥÐ¶":8714,"ĠÐĳÐ¾Ð»ÐµÐµ":8715,"ĠÐ½Ð°ÑģÑĤÐ°":8716,"ĠÐ¼Ð°Ð½Ð¸Ð¿":8717,"ĠÐ²Ð»Ð¸Ñı":8718,"ĠÐĶÑĢÐµÐ¹Ðº":8719,"ĠÐ°Ð²ÑĤÐ¾Ð¿":8720,"ĠÐ²ÑĢÐ°Ð¶Ð´ÐµÐ±":8721,"ÐµÑĢÐ½ÑĥÐ»":8722,"ĠÐ¼Ð¾ÑĢÐµ":8723,"Ð¾Ð»Ð¾Ðº":8724,"ĠÐ¸Ð·ÑĬ":8725,"ĠÐ·Ð°ÑģÑĤÑĢ":8726,"ĠÐ¸ÑģÐºÑĢ":8727,"ĠÐ¿ÑĢÐ¸Ð²ÐµÐ»":8728,"ÑĢÐµÐ½Ð´":8729,"ĠÐ³ÑĢÐ°Ð½Ð¸":8730,"ĠÐ´Ð²Ð¾ÑĢÐµÑĨ":8731,"ĠÐ¼Ð°Ð³Ð¸ÑģÑĤÑĢÐ°":8732,"Ð°Ð½ÑģÐ°":8733,"ĠÑģÐ»Ð¸Ð·":8734,"ÐĲÑĢÐ³":8735,"ÐµÑĢÑĤÐ²Ð°":8736,"ĠÐºÐ¾ÑĢÐ°Ð±ÐµÐ»ÑĮ":8737,"ĠÐ³Ð¾Ð»Ð¾ÑģÐ¾Ð²":8738,"ĠÑģÐ»Ð°Ð±ÑĭÐ¹":8739,"ĠÐĲÐ½Ð´":8740,"ĠÐ²ÑģÐ¿ÑĭÑħÐ½ÑĥÐ»Ð¸":8741,"ĠÑģÐµÑĢÑĮÐµÐ·Ð½Ð¾":8742,"ĠÐ½Ð°Ð¿Ð»ÐµÑĩÐ½Ð¸Ðº":8743,"ĠÐ¾ÑĢÐ³Ð°Ð½Ñĭ":8744,"Ð¸Ð²Ð°ÐµÐ¼":8745,"ÐŁÐ¾Ð¶":8746,"ĠÐ¿Ð¾ÑĢÐ¾Ð¶Ð´":8747,"ĠÐ¾Ð±ÑĬÑıÑģ":8748,"ĠÐŀÐ±Ð°":8749,"ĠÐ´ÐµÑĤÐµÐ¹":8750,"ĠÐºÐ¾Ð¿ÑĮÑı":8751,"ĠÐ¿Ð¾Ð´ÑĤÐ²ÐµÑĢÐ´Ð¸Ð»":8752,"ĠÐ´ÑĥÐ±":8753,"ĠÐ¾Ð±Ð´ÑĥÐ¼":8754,"ĠÐ¿Ð¾ÑģÐµÑĤ":8755,"ÐŁÐ¾Ðº":8756,"ĠÐĹÐ¾Ð»Ð¾ÑĤ":8757,"ĠÐ¿ÑĢÐ¾Ð±Ð¸Ð»":8758,"ĠÐ»Ð°Ð·ÐµÑĢÐ½ÑĭÐµ":8759,"ĠÐ·ÑĥÐ±Ð¾Ð²":8760,"ĠÐ¿ÑĢÐ¸Ð¿Ð¾Ð´Ð½Ñı":8761,"ĠÑģÐ¼ÐµÐ»":8762,"ĠÐ¿ÑĢÐ¾Ð½Ð¸ÐºÐ½ÑĥÑĤÑĮ":8763,"ĠÐľÐµÑĢÐ¾Ñģ":8764,"Ð°Ð²ÑĪÐµÐµ":8765,"ĠÐļÐ¾Ð´":8766,"ĠÑħÐ»ÐµÑģÑĤ":8767,"ĠÐ²Ð·Ð²Ð¾Ð´":8768,"ÑĢÑıÐ·":8769,"ĠÐ¿ÑĢÐ¸Ð¼Ð°ÑĢÑħÐ¾Ð¼":8770,"ĠÐ¿ÑĢÐ¸Ð·Ð½Ð°ÐºÐ¸":8771,"ĠÐ½Ð°Ð»ÐµÑĤ":8772,"ĠÐ³Ð²Ð°ÑĢÐ´ÐµÐ¹ÑĨÑĭ":8773,"ĠÑģÐµÐ½ÑģÐ¾ÑĢ":8774,"ĠÐ·ÑĢÐµÐ»Ð¸ÑīÐµ":8775,"Ð¸Ð²Ð°ÑİÑīÐ¸Ð¹":8776,"ĠÐ¾ÑģÐ°Ð´":8777,"ĠÑĥÐ±Ð¸Ð»Ð¸":8778,"Ð½ÑĥÑĤÑģÑı":8779,"ÐķÐ´":8780,"ĠÐ¿ÑĢÐ¸Ð·Ð½Ð°ÐºÐ¾Ð²":8781,"ĠÐ·Ð°ÑħÐ²Ð°ÑĤÐ¸ÑĤÑĮ":8782,"ĠÐĺÑģÑģÑĤÐ²":8783,"ĠÑĩÐµÐ»ÑİÑģÑĤÐ¸":8784,"ĠÐ°ÑģÑģÐ°Ñģ":8785,"Ð°Ð¸Ð¼":8786,"ĠÐ·Ð¾Ð½Ñĥ":8787,"ĠÑĥÑĢÐ¾Ðº":8788,"ĠÐ¾Ð±Ð¾Ð¹":8789,"ĠÑĦÑĢÐ°Ð·":8790,"ĠÑĤÐµÐ¼Ð¿ÐµÑĢ":8791,"ĠÐ»ÐµÐ³ÐºÐ¸Ðµ":8792,"ĠÐ±Ð¾ÑĢÐ¾Ð»":8793,"ĠÐ´ÑĢÐµÐ´Ð½Ð¾ÑĥÑĤÐ°":8794,"ĠÐļÑĢÐµÑģÑĤÐ¾Ð²Ð¾Ð³Ð¾":8795,"ĠÐ¿ÑĢÐ¾Ð·ÑĢÐ°Ñĩ":8796,"ĠÑĤÑĢÐ°Ð¿":8797,"ĠÐļÐ°Ð±":8798,"ĠÑĢÐ°Ð·Ð½Ð¾Ñģ":8799,"ĠÑģÐºÑĢÐ¸Ð²":8800,"ĠÐ¸Ð¼ÐµÐ»Ð°":8801,"ĠÑģÐ¸Ð»Ðµ":8802,"ĠÐ½Ð°Ð¿ÑĥÐ³":8803,"ĠÐºÐ¾Ð½Ðº":8804,"ĠÑĥÐ´Ð°ÑĢÐ¸Ð»Ð¸":8805,"ĠÑĨÐµÐ»ÑĥÑİ":8806,"ÑĮÑıÐ²":8807,"Ð¾ÑģÑĤÐµÐ¹":8808,"ĠÐ¿Ð¾Ð´Ð½ÑıÐ»Ð°":8809,"ĠÑģÑĤÐ°Ð½ÑĥÑĤ":8810,"ĠÐĿÐµÑģÑĥÑīÐµÐ³Ð¾":8811,"ĠÐ·Ð²ÐµÑĢÑĮ":8812,"ĠÐ¼Ð¾ÑĢÑī":8813,"ĠÑģÐ¾Ð¼Ð½ÐµÐ²Ð°ÑİÑģÑĮ":8814,"ĠÐ½Ð°Ð·Ð²Ð°Ð½Ð¸Ðµ":8815,"ĠÐĳÐ°Ð´Ð°ÑĢ":8816,"ch":8817,"ÑĩÐµÐ¹":8818,"Ð°ÑĤÑĩÐ¸Ðº":8819,"Ð½ÑıÐ»":8820,"ĠÐºÐ°Ð±Ð¸Ð½Ñĭ":8821,"Ð¡ÐºÐ¾Ð»ÑĮÐºÐ¾":8822,"ĠÐļÐ°ÑģÑĤÐ¸Ð½":8823,"ĠÐ¿Ð¾Ð³Ð¾":8824,"ĠÐ¡Ð¸Ð¼":8825,"ĠÐ°ÑĤÐ°ÐºÐ¾Ð²Ð°Ð»Ð¸":8826,"ĠÐ·Ð°ÑģÑĤÐ°Ð²Ð¸Ð²":8827,"ĠÑģÑĤÑĢÐ°Ð½Ð½ÑĭÐ¼":8828,"ould":8829,"ĠÐ²ÑĭÐ³Ð»ÑıÐ´ÐµÐ»Ð°":8830,"ĠÐ»Ð°Ð³ÐµÑĢ":8831,"ĠÐ¿Ð¾Ð´Ð¶":8832,"ĠÐ²Ð¾Ð·ÑĢÐ°Ð¶":8833,"ĠÐ´ÑĢÑĥÐ³Ð¾Ð¼Ñĥ":8834,"ÑĭÐ´ÑĥÑī":8835,"ĠÐ¿Ð¾Ð´Ð°Ð»ÑĮÑĪÐµ":8836,"ĠÑĩÐµÑĢÑĤÐ¾Ð²":8837,"ĠÐĹÐ°Ð²":8838,"Ð°Ð½Ð´ÑĢÐ°":8839,"ĠÐ´Ð¾ÑģÑĤÐ¸Ð¶":8840,"Ð¿ÑĢÐ¾ÑĪ":8841,"ĠÑģÐ±ÐµÐ¶Ð°ÑĤÑĮ":8842,"ĠÐ²ÐµÐ»Ð¸ÐºÐ¸Ð¹":8843,"ĠÑĢÐ°Ð·Ð¼ÐµÑī":8844,"ĠÐ´ÐµÐ²ÑĥÑĪÐºÐ°":8845,"ĠÐºÐ°Ð¿ÑİÑĪÐ¾Ð½":8846,"ĠÐ¥Ð°Ð²ÑģÐµÑĢ":8847,"ĠÑģÑĥÐ¶Ð´":8848,"ĠÑĩÑĮÑı":8849,"Ð±ÑĥÑģ":8850,"ÑģÑĤÐ²Ð¸Ð¹":8851,"ĠÐĴÐ°ÑĢÐ¿":8852,"ĠÑħÐ¾ÑĤÐµÐ»Ð°":8853,"ÑĥÐ·Ñĥ":8854,"ĠÐ¿ÑĢÐ¾Ð½Ð¸Ð·":8855,"ĠÐĺÐ½Ð¾Ð³Ð´Ð°":8856,"ĠÐ¿ÐµÑĢÐµÐºÑĢÐµÑģÑĤ":8857,"ĠÑĥÐ·Ð½Ð°Ð²":8858,"ĠÑģÐ³ÑĥÑģÑĤ":8859,"Ð¸Ð½Ð´ÐµÑĢÐ¼Ð°Ð½":8860,"ĠÐ´ÐµÑıÑĤÐµÐ»ÑĮ":8861,"ĠÐ¾ÑĤÐ¼ÐµÑĤÐ¸Ð»":8862,"ĠÑģÐµÑģÑĤÑĢÐ°":8863,"ĠÐ¶Ð°ÑĢÐ°":8864,"ÑĢÐ°Ð±Ð°ÑĤ":8865,"ĠÐ½ÐµÐ¿Ð¾Ð½ÑıÑĤ":8866,"ĠÐ¿ÑĢÐ¾ÑĤÐ¸Ð²Ð½Ð¸ÐºÐ¾Ð²":8867,"ĠÐ¸Ð·Ð²ÑĢÐ°Ñī":8868,"ĠÑģÐ¾Ð±ÑģÑĤÐ²ÐµÐ½Ð½ÑĭÐ¼":8869,"ĠÑģÐ¼Ð¾Ð³Ð»Ð°":8870,"ĠÐ¿Ð¾Ð´ÑĥÐ¼Ð°ÑĤÑĮ":8871,"ĠÐ½ÐµÐºÑĢÐ¾Ð½Ð¾Ð²":8872,"ĠÑģÐ¼Ð¾Ð¶ÐµÑĪÑĮ":8873,"ĠÐºÐ¸Ð½Ð¶Ð°Ð»":8874,"ĠÐŁÑĢÐ¾ÑģÐ¿ÐµÑĢ":8875,"Ð»Ð¸ÑĨ":8876,"ĠÐ¿Ð¾ÐµÐ´Ð¸Ð½":8877,"ĠÐĿÐ¸ÑĩÐµÐ³Ð¾":8878,"ĠÐ´ÑĢÑĥÐ³Ð°Ñı":8879,"Ð¼ÑĥÐ½Ð¸Ðº":8880,"ĠÐ·Ð°ÑĤÑı":8881,"ĠÑĢÐ°Ð±Ñĭ":8882,"ĠÐ¼Ð¾ÑīÑĮÑİ":8883,"ĠÐŁÐ¾ÑģÐ»ÑĥÑĪ":8884,"ĠÐ¿ÐµÑĢÐµÐ³Ð¾Ð²Ð¾ÑĢ":8885,"ĠÐ²ÐµÑīÐµ":8886,"ÐµÐ½ÑĨÐµÐ²":8887,"Ð¾Ð¶Ñĥ":8888,"ĠÑįÐ»ÑĮ":8889,"ĠÐ°Ð¼Ð±":8890,"ĠÑģÐ¾Ð±ÑģÑĤÐ²ÐµÐ½Ð½ÑĥÑİ":8891,"ĠÐ¿Ð¾ÑĤÐµÑĢÑı":8892,"Ð¸ÑħÐ¾ÑĢÐ°Ð´":8893,"ÑĥÐ½Ð°":8894,"ÐºÐ¾ÑĤ":8895,"Ð¸ÑģÐµ":8896,"ĠÐ¸Ð·Ð¾Ð»":8897,"ĠÑĢÐ°Ð¿":8898,"ĠÐĲÑĢÐ¸Ð¼Ð°Ð½Ð°":8899,"ĠÐ·Ð°Ð±ÑĭÑĤÑĮ":8900,"ĠÐ±Ð¸ÑĤÐ²":8901,"ĠÑģÐ¿ÑĢÐ°Ð²Ð°":8902,"ĠÑĤÐ¸ÑĪÐ¸Ð½Ðµ":8903,"ÐŁÐ¾Ð²ÐµÐ»":8904,"ĠÐ¿ÑĢÐ¸ÑīÑĥÑĢ":8905,"Ð¾ÐµÐ¼":8906,"ĠÐĴÑĢÐµÐ¼Ñı":8907,"Ð´Ð°ÐµÐ¼":8908,"ĠÐĽÐµÐºÑģ":8909,"Ð¸ÑĢÐ¾Ð²Ð°Ð½Ð¸Ðµ":8910,"ĠÐ¿Ð¾Ð²Ð¾Ð´Ñĥ":8911,"Ð¾ÑĢÐ¾Ð´Ð¸Ñĩ":8912,"Ð°ÑİÑīÐµÐµÑģÑı":8913,"ĠÐ¸ÑģÑģÐ»ÐµÐ´Ð¾Ð²":8914,"ĠÐ½ÐµÐ¿Ð¾Ð´Ð²Ð¸Ð¶Ð½Ð¾":8915,"ĠÑģÐ¼ÑĭÑģÐ»Ðµ":8916,"ĠÑģÐ²Ð¸ÑģÐ°Ð»Ð¸":8917,"ĠÐ°Ð³ÑĢÐµÑģÑģ":8918,"Ð°Ð¿Ð¸ÑĤÐ¾":8919,"ÑĥÐ¼Ð½Ð¾":8920,"ÐļÐ°Ð¶Ð´":8921,"Ð°Ð²ÑĪÐ¸Ð¼ÑģÑı":8922,"ĠÐ·Ð°ÐºÐ»Ð¸Ð½":8923,"ĠÐ¾ÑĤÑģÐµÐºÐ°":8924,"ĠÐŀÐ´Ð½Ð°":8925,"ĠÐºÐ½Ð¾Ð¿":8926,"ĠÑģÐ¸ÑĤÑĥÐ°ÑĨÐ¸Ñİ":8927,"ĠÑĢÐ°Ð²Ð½Ð¾Ð²ÐµÑģÐ¸Ðµ":8928,"ĠÐºÐ°ÑĤÐ°ÑģÑĤÑĢÐ¾ÑĦ":8929,"ais":8930,"ĠÐ¾Ð¼":8931,"ÐµÐ½Ðµ":8932,"ĠÐ¾ÑĤÑģÑĤ":8933,"ĠÐļÑĥÑģÑĤÐ¾Ð´":8934,"ĠÑĢÐ°Ð·Ð¾Ð¼":8935,"ÑĳÐ¿":8936,"ÐĿÐ¸":8937,"ĠÐĵÐ»Ð°Ð²":8938,"ĠÐ·Ð°Ð¿ÐµÑĢÑĤ":8939,"ĠÐ´Ð¾Ð»Ð¾Ð¶Ð¸Ð»":8940,"ĠÐ½ÐµÐ´Ð¾Ð²ÐµÑĢ":8941,"ĠÐ¸Ð·Ð¼ÐµÐ½Ð¸ÑĤÑĮ":8942,"Ð¾ÑĢÐ¾Ð¶Ð½Ð¾":8943,"ĠÐŁÑĢÐ¸Ð°Ð´":8944,"rom":8945,"Ð¸Ð²Ð°Ð½Ð¸Ðµ":8946,"ĠÐ¾Ð±ÑĢÐµÑĤ":8947,"ĠÑĤÑĢÐ¾Ð¿":8948,"ĠÐ±ÐµÐ·ÑĥÐ¿":8949,"ĠÐ³Ð¾ÑĢÐµÐ»":8950,"Ð½ÑĥÑĤÐ¾Ð¹":8951,"ĠÐŁÑĢÐµ":8952,"Ð°ÑĦÑĦ":8953,"ĠÑĤÐ¾ÑĢÐ³":8954,"Ġhad":8955,"ĠÐ¼ÐµÑĤÐ°Ð»Ð»Ð¸ÑĩÐµÑģÐºÐ¾Ð¹":8956,"ĠÐºÐ¾ÑģÐ¼Ð¾Ð´ÐµÑģÐ°Ð½ÑĤÐ½Ð¸ÐºÐ¸":8957,"ĠÐºÐ°ÑģÐ°ÐµÑĤÑģÑı":8958,"ĠÐŀÐ¼ÐµÐ³Ð¾Ð½":8959,"Ð°Ð»Ð´Ð¾ÑĢÐ¾Ð½":8960,"ĠÑĢÑıÐ²ÐºÐ½ÑĥÐ»":8961,"ÑĤÐµÐº":8962,"ÐŁÑĥÑģÑĤ":8963,"ÑĢÐ°ÐºÐ°":8964,"ĠÐ³ÐµÐ½Ð¾ÑģÐµÐ¼":8965,"rou":8966,"ĠÑģÐ¾ÑĢÐ¾Ðº":8967,"Ð¿ÑĢÐ°Ð²":8968,"Ð¾ÑĢÐ°Ñĩ":8969,"ĠÐľÐ°Ð´":8970,"ÐŁÑĢÐ°Ð²":8971,"ÐµÐ¼ÑĥÑģÑı":8972,"ĠÐ·Ð°Ð±ÑĭÐ»":8973,"ĠÐ¾Ð³ÑĢÐ¾Ð¼Ð½ÑĭÐ¼Ð¸":8974,"ĠÑĥÑģÐ¿Ð¾ÐºÐ°":8975,"ĠÑģÑĩÐ¸ÑĤÐ°Ð»Ð¸":8976,"ĠÐ¿ÑĢÐ¸ÑģÑĥÑĤÑģÑĤÐ²Ð¸Ð¸":8977,"ĠÑĢÑĥÐºÐ¾Ð¿":8978,"ĠÐ³ÐµÐ½ÐµÑĢÐ°Ð»":8979,"ĠÐ²ÑĤÐ¾ÑĢÐ¶ÐµÐ½Ð¸Ñı":8980,"Ð¿Ð°":8981,"Ð°ÑĤÑģÑı":8982,"ÑīÐ¸ÐºÐ¸":8983,"ĠÐ¸Ð·Ð¼ÐµÐ½Ð¸Ð»Ð¾ÑģÑĮ":8984,"ĠÐ½Ð°Ð½Ð¾Ñģ":8985,"ĠÑĤÐµÐºÑģÑĤ":8986,"Ð¿Ð¾":8987,"Ð¾Ð±ÐµÑī":8988,"ĠÐ°ÐºÐ²Ð¸Ð»":8989,"ĠÐ¢ÐµÑħÐ½":8990,"ĠÐ¿Ð¾Ð»Ðº":8991,"Â»?":8992,"ĠÐ½Ð°ÑģÑĭÑī":8993,"ĠÐ½Ð¾Ð²ÑĭÐ¼":8994,"ĠÐºÑĢÐ°ÑģÐ½Ð¾Ð¹":8995,"ĠÐ´ÑĢÐµÐ¹":8996,"ĠÐ²ÑĭÑģÐ¾ÐºÐ¾Ð¼ÐµÑĢ":8997,"Ð°ÑĨÐ¸Ð¾Ð½Ð½ÑĭÐµ":8998,"ĠÐ¼Ð½Ð¾Ð³Ð¾ÑĩÐ¸ÑģÐ»ÐµÐ½Ð½ÑĭÑħ":8999,"ÑİÑħ":9000,"Ð¸Ð½Ð´Ð¸":9001,"ĠÐ¡Ð°ÑħÐ°":9002,"ĠÑĢÐ°Ð·Ð»ÐµÑĤ":9003,"ĠÐºÐ¾Ð¾ÑĢÐ´Ð¸Ð½":9004,"ĠÐ½Ð¾Ð³Ð¾Ð¹":9005,"ĠÐºÐ°Ð¿Ð¸ÑĤÐ°Ð½Ð¾Ð¼":9006,"ĠÐ²ÐµÐ»Ð¸ÐºÐ¾Ð³Ð¾":9007,"ĠÑģÑĤÑĢÐ°Ð½Ð½Ð¾Ðµ":9008,"ĠÑįÐ¿Ð¾Ñħ":9009,"ĠÐ´ÐµÑı":9010,"Ð°ÑĢÐ»":9011,"Ð¾Ð¿Ð¸Ð»":9012,"ĠÑĤÐ¾Ð½Ð¾Ð¼":9013,"ÐĿÐĲ":9014,"ĠÐĽÐ¸Ð³":9015,"ÐŃÐ¹":9016,"ĠÐ½ÐµÐ½Ð°Ð´":9017,"ĠÐ´ÐµÐ¼Ð¾Ð½Ñĭ":9018,"ĠÑģÐ»ÑĥÐ³Ð¸":9019,"ĠÐ¸ÑģÑģÐ»ÐµÐ´":9020,"Ð¼Ð¾Ð¼":9021,"Ð¼ÐµÑı":9022,"ĠÑģÑĤÐµÑĢ":9023,"ĠÐŀÑħÐ¾ÑĤ":9024,"Ð´ÐµÐ»ÐµÐ½Ð¸Ðµ":9025,"ÐĲÑģÑĤ":9026,"ĠÐ¿Ð¾Ð·Ð²":9027,"ĠÐ½Ð¾Ð²Ð¾Ðµ":9028,"ĠÑĢÐ°ÑģÑģÐ¼Ð¾ÑĤÑĢÐµÑĤÑĮ":9029,"ĠÐ·Ð°ÑĢÑıÐ¶":9030,"ĠÐºÐ»Ð¸Ð½ÐºÐ¾Ð²":9031,"ĠÑģÐ½Ð°Ð¹Ð¿ÐµÑĢ":9032,"ĠÐ¾ÑĤÑģÑĤÑĥÐ¿Ð°ÑĤÑĮ":9033,"ĠÐ²Ð½ÑĥÑĤÑĢÐµÐ½Ð½Ð¾ÑģÑĤÐ¸":9034,"ard":9035,"ĠÐ²ÑĭÐ¿Ð¾Ð»Ð½Ð¸ÑĤÑĮ":9036,"Kais":9037,"ĠÑģÐµÐ´":9038,"Ð°ÐºÐ¾Ð¼":9039,"Ð»Ð¸ÑĢÐ¾Ð²":9040,"ÑĳÐ½Ð½Ð¾Ð¹":9041,"ÑįÐ¹Ð´":9042,"ĠÐ¿Ð¾ÑĩÐµÑĢÐ½ÐµÐ²":9043,"ĠÐĵÐ°Ð¼":9044,"ĠÐŃÑĤ":9045,"ĠÐ²Ð¸Ð´Ð¸Ð¼Ð¾":9046,"ĠÐºÐ¾Ð½ÑĨÑĥ":9047,"ĠÐ¿ÑĢÐ¸ÐºÐ°Ð·ÑĭÐ²":9048,"ĠÐ¾ÑĢÑĥÐ¶Ð¸Ñİ":9049,"ĠÑģÑĤÐµÐ½Ð°Ð¼":9050,"ĠÐ²ÑĭÐ±ÑĢÐ¾Ñģ":9051,"ĠÐ¿Ð¾Ð½Ð¸Ð¼Ð°ÑĤÑĮ":9052,"ĠÑģÐ¸ÑĤÑĥÐ°ÑĨÐ¸Ñı":9053,"ĠÐ¿ÑĢÐ¾Ð»Ð¾Ð¼":9054,"ĠÑĩÑĮ":9055,"ĠÐ²ÑĭÐ¹Ð´":9056,"ĠÐŁÐ¾Ð·Ð°Ð´Ð¸":9057,"Ð°ÑĩÐ°Ð»Ñĥ":9058,"ĠÐ½Ð°ÑĪÐµÐ¼":9059,"ĠÑĤÐµÑĢÐ¼":9060,"ĠÐ¾ÑĤÐ´ÐµÐ»ÐµÐ½Ð¸Ð¹":9061,"ÑĪÐµÐ³Ð¾ÑģÑı":9062,"ĠÑħÐ¾Ð´Ðµ":9063,"ĠÐ¸Ð¼ÐµÑİÑĤ":9064,"ĠÐ¡ÐµÑĢÐµÐ±ÑĢÑı":9065,"ĠÐºÐ»ÑĭÐºÐ¸":9066,"ĠÐ¾Ð´ÐµÐ¶Ð´Ñĭ":9067,"Ð½ÐµÐ»Ð¸":9068,"ÐºÐ¾ÑģÑĤÐ¸":9069,"Ð°ÑĢÐ¸Ð½":9070,"ĠÐĴÐ¾ÑģÑĮ":9071,"ĠÐ¡Ð»Ð¸ÑĪÐºÐ¾Ð¼":9072,"Ð°Ð¶Ñĥ":9073,"Ð°Ð±ÑĢÐ¸Ðº":9074,"ĠÑģÐ¼ÑıÑĤ":9075,"ĠÐĳÐ»Ð°Ð³Ð¾Ð´Ð°ÑĢ":9076,"ÐĹÐ²":9077,"Ð¾Ð¿ÑĢÐ¾Ð»Ð¸ÑĤ":9078,"ĠÐ¿ÑĢÐµÐ¸Ð¼ÑĥÑīÐµÑģÑĤÐ²Ð¾":9079,"ĠÑĢÐµÐ»Ð¸ÐºÐ²":9080,"ĠÐºÐ¾Ð²":9081,"ÑĤÐ¾ÑĨÐ¸Ðº":9082,"ÐµÐ¹Ð·":9083,"ĠÐ³Ð¸Ð»ÑĮ":9084,"Ð´Ð°Ñħ":9085,"ĠÐĿÐ¾Ðº":9086,"ĠÐ¿ÑĢÐ¾ÑĦ":9087,"ĠÑģÐ¼ÑĥÑī":9088,"ĠÐ¸Ð¼ÐµÐ½Ð°":9089,"ĠÑģÐ°Ð¼Ð°Ñı":9090,"Ð´Ð¸Ð¾Ð·":9091,"ĠÐ¿Ð¾Ð±ÐµÐ´Ð¸ÑĤÑĮ":9092,"ĠÐ¡Ð²ÑıÑĤ":9093,"ÑĳÐ·Ð´":9094,"ĠÐļÐ»Ð¸Ð½Ð¾Ðº":9095,"ĠÐ¸ÑĤÐ¾Ð³Ðµ":9096,"ĠÑĤÑĢÐ°":9097,"Ð¾Ð½Ð´":9098,"ÐµÐ·Ð¶":9099,"ÑĥÑĩÑĪÐµ":9100,"ĠÐ±Ð¾Ð»ÑĮÑİ":9101,"ĠÐ·Ð°Ð±ÑĢÐ°ÑĤÑĮ":9102,"ĠÐ»ÑİÐ±Ð¾Ðµ":9103,"ĠÑĥÐ¶Ð°ÑģÐ¾Ð¼":9104,"ĠÑĥÐ½Ð¸ÑĩÑĤÐ¾Ð¶ÐµÐ½Ñĭ":9105,"ĠÑģÐ¾Ð·Ð½Ð°Ð½Ð¸Ð¸":9106,"ÑģÑĤÐ²ÑĥÑİÑīÐ¸Ðµ":9107,"ĠÐ¡ÐµÐ¿ÑĤÐ¸Ð¼":9108,"ĠÐĵÑİÐ½ÑĤÐµÑĢ":9109,"ÐłÐ°Ñģ":9110,"ĠÐŁÑĢÐ¸Ðº":9111,"ĠÐ·Ð°Ð¼ÐµÑĤÐ¸Ð»Ð¸":9112,"ĠÐ°ÑĤÐ°ÐºÐµ":9113,"ĠÑĢÐ°ÑģÑĤÑı":9114,"ĠÐĿÐ¸ÐºÐ°Ðº":9115,"ĠÐ¿Ð»Ð°Ð·Ð¼Ñĭ":9116,"ĠÐ²ÑĭÐ·Ð²Ð°ÑĤÑĮ":9117,"ĠÐĲÑĢÐ¼Ð¸Ð¸":9118,"ĠÐ¾Ð±ÑģÑĤÐ¾ÑıÑĤÐµÐ»ÑĮÑģÑĤÐ²Ð°Ñħ":9119,"ĠÑģÑĤÐ°Ð¸":9120,"ĠÑĩÐ°ÑīÐµ":9121,"Ð¸ÑĤÑĭÐµ":9122,"ĠÑģÑĤÐµÐ½Ð°":9123,"ĠÐ²ÑģÐ°Ð´":9124,"ĠÐ²ÑģÐµÐ»ÐµÐ½Ð½Ð¾Ð¹":9125,"ĠÑĢÐ°Ð·Ð½ÑĭÐµ":9126,"her":9127,"ĠÐ¿Ð»ÐµÑĩÐ°":9128,"ĠÐ¸ÑģÑĩÐµÐ·Ð»Ð¾":9129,"ĠÐ¿ÑĢÐµÐºÐ»Ð¾Ð½":9130,"ĠÑħÐ¾Ð·ÑıÐ¸Ð½Ð°":9131,"ĠÑĢÐ°ÑģÑģÐºÐ°Ð·Ð°ÑĤÑĮ":9132,"Ð°Ð¼Ð°Ð½":9133,"ĠÐļÐ°Ð½":9134,"Ð²ÐµÑĢÑģÑĤ":9135,"ĠÐ´Ð²Ð¾Ð¹":9136,"ÐľÐµÐ½Ñı":9137,"ĠÐ¿ÐµÑĢÐµÐ´Ð°ÑĤÑĮ":9138,"ĠÐ¿ÑĢÐµÐ´ÑģÑĤÐ°Ð²Ð»ÑıÐ»Ð¸":9139,"ĠÐ±ÐµÑĪÐµÐ½":9140,"ĠÐ²ÐµÐ½ÑĤ":9141,"ÑĥÐ´Ð¸":9142,"ĠÐ±ÐµÑģÐµÐ´":9143,"ĠÐ¾ÑģÑĤÐ°Ð½Ð¾Ð²Ð¸ÑĤÑĮÑģÑı":9144,"ĠÐ·Ð²ÑĥÐºÐ°":9145,"ĠÐ±Ð¾ÐµÐ¿ÑĢÐ¸Ð¿Ð°ÑģÐ¾Ð²":9146,"ĠÐ¼Ð¾ÑĢÐ³Ð½ÑĥÐ»":9147,"ĠÑĦÑĥÐ½ÐºÑĨÐ¸Ð¾Ð½":9148,"ĠÐŁÑĢÐ¾ÑģÐ¿ÐµÑĢÐ¾":9149,"ĠÑĢÑı":9150,"ĠÐ»ÑİÐºÐ°":9151,"ÐĳÐ¾ÐµÐ²":9152,"ĠÐ¼Ð°ÑģÐºÑĥ":9153,"ĠÐ°Ð¿Ð¾ÑĤÐµÐºÐ°ÑĢÐ¸Ñı":9154,"ĠÐ¿ÑĢÐµÐ´Ð¿Ð¾Ð»Ð¾Ð¶Ð¸Ð»":9155,"ĠÐ¾ÑĤÑģÑĥÑĤÑģÑĤÐ²Ð¸Ðµ":9156,"ĠÐºÐ¾ÑģÐ¼Ð¾ÑģÐµ":9157,"ÑģÐ°Ð¹Ðº":9158,"ĠÑģÑĦÐ¾ÑĢÐ¼":9159,"ĠÐºÐ°Ð»":9160,"ĠÐ¾ÑĤÐ¾Ð¼":9161,"ĠÐ¿ÑĢÐµÐ´ÑĭÐ´ÑĥÑī":9162,"ĠÐ°ÑĢÐ¼Ð¸":9163,"ĠÐ¿Ð°ÑĢÐµÐ½ÑĮ":9164,"ĠÑģÑĤÐ°Ð½Ð¾Ð²Ð¸Ð»Ð¾ÑģÑĮ":9165,"ĠÐ¶ÐµÐ½ÑīÐ¸Ð½":9166,"ĠÑįÐºÑĢÐ°Ð½Ðµ":9167,"ĠÐ°ÑĤÐ¼Ð¾ÑģÑĦÐµÑĢÑĭ":9168,"ÑıÑİÑĤÑģÑı":9169,"ĠÐ½Ð¾ÑģÐ°":9170,"Ð°ÑĤÑĭÐ¼":9171,"ĠÐŀÑģÑĤÐ°Ð²":9172,"ĠÐ±ÑĥÐ´ÑĥÑīÐµÐ³Ð¾":9173,"ĠÐ¾ÑĢÐº":9174,"Ð½ÑĥÑĤÑĭ":9175,"ĠÐºÐ¾Ð»ÐµÑģ":9176,"ĠÑģÐ»ÐµÐ´Ð¾Ð²Ð°Ð»Ð¸":9177,"ĠÐ¿ÑĢÐ¸Ð±Ð»Ð¸Ð¶Ð°Ð»Ð¸ÑģÑĮ":9178,"ĠÐļÐ¾ÑģÐ¼Ð¸ÑĩÐµÑģÐºÐ¸Ð¹":9179,"ĠÐ¾Ð±ÑĭÑĩÐ½ÑĭÑħ":9180,"ĠÐĲÐ½ÑĤ":9181,"ÑĢÑĭÐ·Ð³":9182,"ĠÐ¿ÑĢÐ¾Ð¸Ð³Ð½Ð¾ÑĢ":9183,"Ð°Ð·Ð°Ð½Ð¸ÑĥÑģ":9184,"up":9185,"Ð»Ð¾Ðµ":9186,"ÐµÐ´Ñı":9187,"ĠÐĿÑĥÐ¼":9188,"ÑĥÐ¼ÐµÐ½ÑĤ":9189,"ĠÑĥÐ´Ð°Ð²":9190,"ÑĥÑģÑĤÐ°Ð²":9191,"ĠÐºÐ¾ÑĢÐ¾Ð±":9192,"ÐĽÐĲ":9193,"ĠÐŁÑĢÐµÐ¶Ð´Ðµ":9194,"ĠÐĽÐµÐ³Ð¸Ð¾Ð½ÐµÑģ":9195,"ĠÐ·Ð°ÑĢÑĭÑĩÐ°Ð»":9196,"ĠÑĢÐµÐ°Ð³":9197,"ĠÑĩÐ°ÑģÑĭ":9198,"ĠÑģÐ»Ð°Ð²Ñĥ":9199,"ĠÐ»Ð¾Ð¶ÑĮ":9200,"ĠHe":9201,"ge":9202,"ÑģÑĥÐ³":9203,"Ð»ÐµÐ±":9204,"ĠÐ´Ð¾Ð·Ð½Ð°Ð²":9205,"ĠÐ¾Ð±Ð¼":9206,"ĠÐĴÐ°Ð½":9207,"ĠÐľÐµÑĩ":9208,"ĠÐºÑĢÐ¾Ð·":9209,"ÑĥÑĪÐºÐµ":9210,"ĠÐķÑĢÐµÑģÐ¸":9211,"Ð°Ð½Ð¾Ð²Ð¾":9212,"ĠÐ·Ð²ÐµÐ½":9213,"ĠÑĥÐ¿Ð°Ð»Ð¸":9214,"ĠÐ¿ÑĢÐ¸Ð¼Ð°ÑĢÑħÑĥ":9215,"ĠÐ²Ð¾Ð¿ÑĢÐ¾ÑģÐ¾Ð²":9216,"ĠÑģÐ»Ð°Ð±Ð¾ÑģÑĤÑĮ":9217,"ĠÐ¿Ð¾Ð´Ð½Ð¸Ð¼Ð°Ð»ÑģÑı":9218,"ĠÑĥÑģÑĤÑĢÐµÐ¼Ð¸Ð»Ð¸ÑģÑĮ":9219,"ĠÐºÑĢÐµÑģÐ»Ð°":9220,"Ð»Ð°Ð¼Ð¸":9221,"ÑħÐ¾Ð»":9222,"Ð¼ÐµÐ·Ð´":9223,"ĠÐ¡Ð°Ñħ":9224,"ĠÐ¡Ð½Ð°ÑĩÐ°Ð»Ð°":9225,"ĠÐ²ÑĭÐ¿ÑĥÑī":9226,"ĠÑĥÐ½Ð¸ÑĩÑĤÐ¾Ð¶Ð¸Ð»":9227,"ĠÐ·Ð½Ð°ÐºÐ¸":9228,"ĠÐ½ÐµÐ·Ð°Ð²Ð¸Ñģ":9229,"ĠÐ¿ÐµÐ»ÐµÐ½":9230,"ÑĩÐ»ÐµÐ½":9231,"Ð·ÐµÐ½Ñħ":9232,"ĠÐŁÐ¾Ð³":9233,"Ð°ÑĤÐµÐ»ÑĮÐ½Ð¾Ð³Ð¾":9234,"ĠÑħÐ¾ÑĤÑıÑĤ":9235,"ÐłÑĥÐ±Ð¸Ð¾":9236,"ĠÐºÐ¾ÑĢÑĩ":9237,"ĠÐ¿ÑĢÐ°Ð²ÐµÐ´":9238,"ĠÐ±Ð¾ÐµÐ²ÑĭÐ¼Ð¸":9239,"ĠÐ½Ð°Ð²Ñĭ":9240,"ÑĩÐ¸ÑĤÐ°Ð»":9241,"ĠÐ±Ð¾ÑĢÑĤÐ°":9242,"Ġbl":9243,"ĠÐ²ÐºÐ»ÑİÑĩÐ¸Ð»":9244,"Ð¡Ð¿Ð°ÑģÐ¸Ð±Ð¾":9245,"ĠÐ¼Ð°ÑħÐ½ÑĥÐ»":9246,"ĠÑĢÑĥÐ³":9247,"Ð¸Ð¾Ð»ÐµÑĤ":9248,"ĠÐ°Ð»ÑĮ":9249,"ÑĦÐµÑĢ":9250,"Ð°Ð³Ð°Ñģ":9251,"ĠÐ¾Ð¿Ð¾ÑĢ":9252,"ĠÐ¿Ð¾Ð¿Ð¾Ð»Ð°Ð¼":9253,"ĠÐ¿ÑĢÐ¾Ð´Ð¾Ð»Ð¶Ð°Ñı":9254,"ĠÐ»ÐµÐ³ÑĩÐµ":9255,"ĠÑīÐ¸ÑĤÐ¾Ð²":9256,"ĠÐ´ÐµÑĢÐµÐ²Ð°":9257,"ĠÐºÐµÑĢÐ°Ð¼Ð¸ÑĤÐ°":9258,"ĠÑīÐµÐ»Ñĩ":9259,"ĠÐ´ÑĢÐµÐ¹ÑĦ":9260,"Ð»Ð°Ð±":9261,"ÐµÐ½Ñĩ":9262,"ĠÐ¿Ð¾Ð»Ð¸ÑĤ":9263,"ĠÑĢÑĥÐ¸Ð½Ñĭ":9264,"ĠÑĦÑĢÐµÐ³":9265,"Ð¸Ð½ÑĥÑĤÑĮ":9266,"ĠÐµÐ´Ð¸":9267,"ĠÐ·Ð°Ð³Ð°Ð´Ð¾Ñĩ":9268,"ĠÑĤÑıÐ¶ÐµÐ»Ð¾Ð¹":9269,"ĠÐ¿ÑıÑĤÐ½Ð¾":9270,"ĠÐ¿ÑĢÐ¸Ð³Ð¾Ð´":9271,"ĠÐºÐ¾Ð½ÑĤÑĢÐ°ÑĤ":9272,"ĠÐ²ÑĭÐ³Ð»ÑıÐ´ÐµÐ»Ð¾":9273,"ĠÐĲÐºÑģÐ¸Ð¼Ð°Ð½Ð´":9274,"41":9275,"Ð¸ÑĢÐ°ÐµÑĤ":9276,"Ð°Ð¹ÑĤ":9277,"ĠÑĩÑĥÐ²ÑģÑĤÐ²Ð¾Ð²Ð°ÑĤÑĮ":9278,"ĠÐ´Ð¾Ð±ÑĢÐ°Ð»Ð¸ÑģÑĮ":9279,"ĠÐ·Ð°Ð½ÑıÐ»":9280,"ĠÐ¿ÑıÑĤÐ½Ð°":9281,"ÐŀÑĤÐ²ÐµÑĤ":9282,"ĠÐ¾ÑĤÐºÑĢÑĭÑĤÐ¾Ð¹":9283,"ĠÐ¾ÑģÑĤÑĢÐ¾Ð²":9284,"ĠÐ·Ð°Ð´Ð°ÑĩÐ°":9285,"ĠÐ¿ÑĢÐ¾Ð·Ð²ÑĥÑĩÐ°Ð»":9286,"ÐĿÐ¸ÐºÑĤÐ¾":9287,"ĠÐ¼Ð°Ð»ÐµÐ¹ÑĪÐµÐ³Ð¾":9288,"ÑĮÐ¾ÑĢÐ½":9289,"ÑİÑįÐ»ÑĮ":9290,"ĠÐļÑĢÑĥÐ·":9291,"ĠÐ´Ð²Ð°Ð¶Ð´Ñĭ":9292,"ĠÐ½Ð°ÑĩÐ°Ð»Ð°ÑģÑĮ":9293,"ĠÑĪÐ»ÐµÐ¼Ðµ":9294,"ÑĥÐ¶Ð´ÐµÐ½Ð¸Ñı":9295,"ĠÐ±ÑĥÑĢÑı":9296,"ĠÐ¿ÑĢÐµÐ´ÐµÐ»Ð°Ñħ":9297,"ĠÑģÑĥÑīÐµÑģÑĤÐ²Ð¾Ð²Ð°Ð½Ð¸Ðµ":9298,"ĠÐ¤ÐµÐ½ÑĢÐ¸ÑģÐ°":9299,"Ð°Ð¼ÐµÐ½":9300,"Ð¸ÐºÑĤ":9301,"ĠÑģÐ¾ÑĪ":9302,"ĠÐ³Ð¾Ð²Ð¾ÑĢÐ¸Ð»Ð°":9303,"ĠÐ¾ÑĤÐ±ÑĢÐ¾Ñģ":9304,"ĠÐ²ÑģÑĤÐ°Ð»Ð¸":9305,"ĠÐ½Ð¸Ð¶Ð½Ð¸Ñħ":9306,"ĠÐ±Ð¸Ð±Ð»Ð¸Ð°ÑĢÐ¸Ñı":9307,"ĠÐ»Ð¾Ð²ÑĥÑĪÐºÑĥ":9308,"ĠÐ·Ð°Ð·ÑĥÐ±":9309,"ĠÐ°ÐºÐºÑĥÑĢÐ°ÑĤÐ½Ð¾":9310,"Ð²ÑıÐ·":9311,"Ð¸Ð»Ð¸Ð½Ð´":9312,"ĠÐ²ÑĭÑĢÐ°Ð·":9313,"ĠÐĿÐ°ÑĪ":9314,"ĠÐĺÐ³":9315,"ĠÐĽÑĥÐ½":9316,"Ð¢ÑĢÐ¸":9317,"ĠÐ·Ð°Ð´ÑĭÑħ":9318,"ĠÐ¿ÑĢÐ°Ð²Ð´Ðµ":9319,"ĠÐ¿Ð°Ð´ÐµÐ½Ð¸Ñı":9320,"ĠÑĤÐ¾ÑĩÐºÑĥ":9321,"ĠÐ¿ÑĢÐ¸Ð»Ð¸Ð²":9322,"ĠÐ¾ÑĤÐ²ÐµÑĩÐ°ÐµÑĤ":9323,"ĠÐ¿ÐµÑĢÐ¸Ð¾Ð´":9324,"ĠÑģÐ¾ÑĢÐ¾Ð´Ð¸Ñĩ":9325,"ĠÑĢÐ¾Ð³":9326,"ÑıÑīÐ¸Ð¹ÑģÑı":9327,"ĠÐ¿ÑĢÐ¸Ð²ÑıÐ·":9328,"ĠÐ·Ð°ÑģÑĤÐ°Ð²Ð¸Ð»Ð¾":9329,"ĠÑĪÐ¸ÑĢÐ¾ÐºÐ¾Ð¹":9330,"ĠÐ¢Ð¾ÑĢÐ¸Ð½":9331,"ÑĢÐ¸Ð¾Ð½":9332,"ÑĥÐ·Ð°":9333,"ĠÐ¿Ð¸Ñī":9334,"ÑħÐ°Ð»":9335,"ĠÐ½ÐµÐ¸ÑģÑĤÐ¾Ð²":9336,"ĠÐļÐ°Ð½Ð¾":9337,"ĠÐĴÐ½ÐµÐ·Ð°Ð¿Ð½Ð¾":9338,"ĠÑĢÐ°Ð·Ñĥ":9339,"ĠÑĪÐµÐ²ÐµÐ»":9340,"ĠÐºÑĢÐ¸ÑĤ":9341,"ĠÐ²Ð·Ð¼ÐµÑĤ":9342,"ĠÐ¿ÑĢÐµÐ´ÑĩÑĥÐ²":9343,"ĠÐ·Ð°Ð¼ÐµÐ´":9344,"ĠÐ²Ð¾Ð»Ð½Ð¾Ð²":9345,"ĠÐºÐ°Ð¼ÐµÐ½Ð½Ð¾Ð¹":9346,"ĠÐ¿Ð¾Ð·Ð²Ð¾Ð»ÑıÑı":9347,"ĠÐļÐ°ÑĢÐ»":9348,"ĠÐ¿ÑģÐ¸ÑħÐ¸ÑĩÐµÑģÐºÐ¾Ð¹":9349,"ĠÐĶÐ¾Ð¼Ð°":9350,"ĠÐĴÐµÑĢÑħÐ¾Ð²":9351,"Ð½Ð°Ð²":9352,"ĠÐ¿ÑĥÐ½Ðº":9353,"ĠÐ½ÑĳÐ¼":9354,"ĠÐ½ÐµÑģÐ»":9355,"ÑĥÑģÐ¾Ð¼":9356,"Ð»ÑİÐ±":9357,"ĠÐºÑĢÐ¾Ð²Ð¾Ð¿ÑĢÐ¾Ð»Ð¸ÑĤ":9358,"ĠÑĥÐ»ÑĭÐ±ÐºÑĥ":9359,"ĠÑĢÐ°Ð´Ð¾ÑģÑĤ":9360,"ĠÐ¸ÑģÑĤÐ¾ÑĢÐ¸Ñı":9361,"ĠÐ¾ÑĢÐ±Ð¸ÑĤÑĥ":9362,"ĠÑģÑĤÐ¾Ð»ÐºÐ½ÑĥÐ»Ð¸ÑģÑĮ":9363,"ĠÐºÑĢÑĭÑĪÐ¸":9364,"ĠÐļÐµÐ¹ÑĢÐ°":9365,"ĠÐĵÐ°Ð±ÑĢÐ¸":9366,"Ġyou":9367,"ĠÐ¿Ð¸ÑĢÐ°Ð¼":9368,"Ð¿Ð¾Ð»":9369,"ĠÐ¿ÑĢÐ°Ð·Ð´":9370,"ĠÐĵÐ°Ð»ÑĮ":9371,"ÐļÑĢÐ°Ñģ":9372,"ĠÑģÐ»Ð¾Ð²Ð°Ð¼":9373,"ĠÐ²ÑĭÑģÐ²":9374,"Ð»Ð¸Ð²ÑĭÐ¼":9375,"ĠÐ¸Ð¼ÐµÑİ":9376,"ĠÐ²ÑĭÑħÐ¾Ð´Ñĥ":9377,"ĠÐ·Ð°ÐºÐ¾Ð½ÑĩÐ¸ÑĤÑģÑı":9378,"ĠÐ¿Ð¸Ð»Ð¾ÑĤÐ°":9379,"Ð¿Ð¸ÑģÑĤÐ¾Ð»ÐµÑĤÐ°":9380,"Ð°Ð½ÐµÑģ":9381,"Ð¾ÑģÐ»ÐµÐ´":9382,"ĠÑĪÑĤÐ¾ÑĢ":9383,"Ð²Ð°ÑĢÐ¸Ð¹":9384,"ĠÑĥÐ¼ÑĢÐµÑĤ":9385,"ÑĬÐµÑģÑĤÐµÑģÑĤÐ²ÐµÐ½":9386,"ĠÐ¿ÑĥÑģÑĤÐ¾ÑĤÐµ":9387,"ĠÑģÐ»ÑĭÑĪÐ¸ÑĤ":9388,"ĠÐ´Ð°Ð»ÑĮÐ½ÐµÐ¼":9389,"ĠÐ¾Ð±ÑĬÑıÐ²Ð¸Ð»":9390,"ĠÐĵÑĢÐ¸Ð¼Ð¼":9391,"ÑīÐµÐ½Ð¸Ñı":9392,"ÑĭÐ²Ð°Ð½Ð¸Ðµ":9393,"ĠÐłÐµÐ³":9394,"Ð¡ÑĤÐ¾":9395,"Ð°Ð²ÑĪÑĥÑİÑģÑı":9396,"ĠÐ²Ð¾Ð¹ÑĤÐ¸":9397,"ĠÐ²Ð¾Ð»Ñı":9398,"ĠÐ¾ÑĤÐ²ÐµÐ»":9399,"ĠÐ¸ÑģÐ¿Ð¾Ð»ÑĮÐ·ÑĥÑİÑĤ":9400,"ĠÐ¼Ð°Ð³Ð½Ð¸ÑĤ":9401,"ĠÐļÐ¾ÑĢÐ°ÐºÑģÐ°":9402,"ĠÑĪÐ¸Ð¿ÐµÐ½Ð¸Ðµ":9403,"ĠÑģÐ¸Ð³Ð½Ð°Ð»Ñĭ":9404,"ĠÑģÐ¸ÑıÐ½Ð¸Ðµ":9405,"ĠÐ¾ÑĤÑĩÐµÑĤÐ»Ð¸Ð²Ð¾":9406,"ĠÑĥÑģÐ»Ð¾Ð²Ð¸ÑıÑħ":9407,"ĠÑģÐµÐ²":9408,"ĠÐºÐ¾ÑģÑĤÑĮ":9409,"ĠÐ¼Ð¾Ðº":9410,"ĠÐ»Ð¸ÑħÐ¾ÑĢÐ°Ð´":9411,"Ð¸ÑĩÐ½ÑĭÐµ":9412,"ĠÐ¿ÑĢÐµÐ´ÑģÐºÐ°Ð·":9413,"ĠÐ·Ð°Ð¼Ð¾Ð»ÑĩÐ°Ð»":9414,"ĠÐ¿ÑĢÐ¸Ð½Ð¾Ñģ":9415,"ĠÐ½Ð°ÑħÐ¾Ð´Ð¸Ð»Ð¾ÑģÑĮ":9416,"ĠÑĢÐ°Ð±Ð¾ÑĤÐ°Ð»":9417,"ĠÐ¿ÑĢÐ¸Ð¼Ð°ÑĢÑħÐ¾Ð²":9418,"ĠÑĥÑģÑĤÐ°Ð½Ð¾Ð²ÐºÐ¸":9419,"ĠÐ»Ð°Ð·ÐµÑĢÐ½Ð¾Ð³Ð¾":9420,"ĠÑģÑĤÑĢÑĥÐ¹":9421,"ĠÐĵÐ¾ÑĢÐ³Ð¾":9422,"ĠÐ³Ð°Ð»ÐµÑĢÐµ":9423,"ĠÐ±ÑĥÐ»Ð°Ð²":9424,"Ð¾Ð»Ð³":9425,"Ð°ÑĤÐ°Ð»ÑĮ":9426,"ĠÐ¿ÑĢÐ¾ÐµÐ¼":9427,"ĠÐ¿Ð¾Ð²Ð°Ð»":9428,"ĠÐ²Ð¸Ð´ÐµÐ½Ð¸Ñı":9429,"ĠÑģÑĤÐ°ÑĢÑĭÐµ":9430,"ĠÐ¾Ð±Ð½Ð°ÑĢÑĥÐ¶Ð¸ÑĤÑĮ":9431,"ĠÑĥÐ²ÐµÑĢÐµÐ½Ð½Ð¾ÑģÑĤÑĮ":9432,"ĠÐ¾Ð±ÑĭÑĩÐ½Ð¾Ð³Ð¾":9433,"ĠÐºÐ°ÑĢÑĤÑĭ":9434,"ĠÐºÐ¾Ð¼Ð¿Ð»ÐµÐºÑģ":9435,"ĠÐ´ÑĭÑĢÑĥ":9436,"ĠÐ¡ÐµÐºÑĥÐ½Ð´":9437,"ÑĤÐ²Ð¾ÑĢ":9438,"Ð»ÑĭÑħ":9439,"Ð¾Ð¿Ð»Ð°Ð½ÐµÑĤ":9440,"ĠÐĶÐ²":9441,"ĠÐĶÐ»Ð¸Ð½":9442,"ÑĢÑıÐ¼Ð¾":9443,"ĠÐ¿ÐµÑĢÐ²ÑĭÐ¼Ð¸":9444,"ĠÐ¿ÐµÑĢÐµÑģÑĤÑĢÐµÐ»":9445,"ĠÐŁÐ¾Ð²ÐµÐ»Ð¸ÑĤÐµÐ»Ñı":9446,"ĠÐ¾Ð´ÐµÑıÐ½Ð¸Ñı":9447,"ĠÐ¿ÑĢÐ¸ÑģÐ¿Ð¾ÑģÐ¾Ð±":9448,"Ð²Ð¾ÑĤ":9449,"ÐµÑĢÐ°Ñħ":9450,"Ð»ÑıÑħ":9451,"ĠÐ¥Ð¾":9452,"ĠÐ³Ð¾ÑĢÐµÐ»Ð¸":9453,"ĠÐ¼ÐµÑģÑĤÐ¾Ð¼":9454,"ĠÐ·Ð´ÑĢÐ°Ð²":9455,"ĠÑĥÐ´Ð¸Ð²Ð¸ÑĤÐµÐ»ÑĮÐ½Ð¾":9456,"ĠÐ¸Ð·Ð¾Ð±ÑĢÐ°Ð¶ÐµÐ½Ð¸Ñı":9457,"ĠÐºÐ¾Ð»ÑĮÑĨÐ¾":9458,"ĠÐ¾Ð±ÑĬÑıÑģÐ½Ð¸ÑĤÑĮ":9459,"ĠÑĤÐµÑĢÐ¿ÐµÐ»":9460,"ĠÑģÐ¾Ð±ÑĢÐ°Ð²ÑĪÐ¸ÑħÑģÑı":9461,"ĠÑģÐ°Ð¿Ð¾Ð³":9462,"ĠÐºÐ¾Ð¼Ð°Ð½Ð´ÑĥÑİÑīÐ¸Ð¹":9463,"ÑĳÐ½Ð½ÑĭÐ¼":9464,"ĠÑģÐ»ÑĥÐ¶Ð±Ñĥ":9465,"ĠÑģÐ»ÑĥÐ¶Ð±Ðµ":9466,"Ð°ÑĤÑĥÑĢÑĭ":9467,"ĠÐ¾Ð¿ÑĥÑģÑĤÐ¸Ð»Ð°ÑģÑĮ":9468,"ĠÐ²Ð¾Ð´Ð¾Ð¹":9469,"ĠÐ¿ÑĢÐ¾Ð²ÐµÑĢÐ¸ÑĤÑĮ":9470,"ĠÐºÐ¾Ð½ÐµÑĩÐ½Ð¾Ð¼":9471,"ĠÐ»ÐµÑģÑĤÐ½Ð¸ÑĨÑĭ":9472,"ĠÐĴÑģÑĳ":9473,"ĠÑĤÐ°Ð±":9474,"ÐµÐ²ÑĪÐµÐ³Ð¾":9475,"Ð°Ð¶Ð¸ÑĤÐµ":9476,"ĠÐ¿Ð¾ÐºÐ¾Ñı":9477,"ĠÑģÐ¸Ð»Ð¾Ð²Ð¾Ð³Ð¾":9478,"ÐĶÐ²Ð°":9479,"ÐķÐ¼Ñĥ":9480,"ĠÐ¿Ð¾Ð²ÐµÑĢÐ½ÑĥÐ»Ð°ÑģÑĮ":9481,"Ð°ÐµÐ¼ÑĭÐ¼":9482,"ĠÐ·Ð°Ð±Ð»":9483,"ĠÐ½Ð°ÑħÐ¾Ð´Ð¸ÑĤÑĮÑģÑı":9484,"ĠÐ¿ÑĢÐ¾Ð¸Ð·Ð¾Ð¹Ð´ÐµÑĤ":9485,"ĠÐ¿ÑĢÐ¾ÑģÐ²":9486,"ĠÐ¿ÑĢÐ¸ÑĩÐ¸Ð½Ñĭ":9487,"ĠÐ¼Ð°ÑģÑģÑĥ":9488,"ĠÑģÐ¾Ð¿ÑĢÐ¾ÑĤÐ¸Ð²Ð»ÐµÐ½Ð¸Ñı":9489,"ĠÐ¿ÑĢÐµÐ´Ð°ÑĤÐµÐ»ÑĮÑģÑĤÐ²Ð°":9490,"ĠÐ½Ð°Ð¿ÑĢÑıÐ¶ÐµÐ½Ð¸Ðµ":9491,"ĠÐºÐ¾Ð¼Ð°Ð½Ð´Ð°":9492,"ĠÑģÐ¾Ð³Ð»Ð°ÑĪ":9493,"ĠÑĦÐ»Ð°Ð³Ð¼Ð°Ð½":9494,"ĠÐ²Ð°ÐºÑĥ":9495,"Ð¸ÑĤÑı":9496,"ĠÐµÑİ":9497,"ĠÐļÐ»ÑİÑĤ":9498,"ĠÐĴÐ°Ð¼":9499,"ĠÐ¿Ð¾Ð´ÐµÐ»":9500,"ĠÐºÑĢÐ¸Ð²":9501,"ĠÑĢÐ°ÑģÑģÐºÐ°Ð·Ð°Ð»":9502,"Ð¸ÑĢÐ¾Ð²Ð°Ð²":9503,"ĠÐ²ÑĭÑģÑĤÑĢÐµÐ»Ð¾Ð¼":9504,"ĠÐ¸Ð½ÑĦÐ¾ÑĢÐ¼Ð°ÑĨÐ¸Ñı":9505,"ĠÐºÐ°Ð±ÐµÐ»Ð¸":9506,"ĠÐ·Ð°ÑħÐ»Ð¾Ð¿":9507,"ÑĥÐ¶Ð´ÐµÐ½Ð¸Ðµ":9508,"ĠÐºÐ°ÑĢÑĤÑĥ":9509,"ĠÐ±Ð°ÑĢÑĮ":9510,"ĠÐ¿ÑĢÐµÐ´Ð°ÑĤÐµÐ»ÑĮÑģÑĤÐ²Ð¾":9511,"ĠÐ³ÑĥÐ±ÐµÑĢÐ½Ð°ÑĤÐ¾ÑĢÐ°":9512,"ÐºÑĢÐ¸ÐºÐ½ÑĥÐ»":9513,"ĠÐĳÐ¾Ð»ÑĮ":9514,"ÐľÐµÑĢ":9515,"ĠÑĥÐ´Ð°ÑĢÐ¸Ð»Ð°":9516,"ĠÐ½Ð°Ð·Ð²Ð°Ð½":9517,"Ð»ÑıÐ»Ð¾ÑģÑĮ":9518,"ĠÐ³ÑĢÐ°Ð½Ð´Ð¸Ð¾Ð·":9519,"ĠÐŀÐ³Ð½":9520,"ĠÐ¡Ð¸Ð³Ð¸Ð»Ð»":9521,"ĠÐ±Ð¸Ð¾Ð»Ð¾Ð³":9522,"ĠÐ»ÑĮÐ´Ð°":9523,"ĠÐ¿ÑĢÐµÑĢÐ²Ð°Ð»":9524,"ĠÐ¾ÐºÐµÐ°Ð½":9525,"ĠÐ·Ð°Ð½Ð¾Ð²Ð¾":9526,"ĠÐ»ÑĳÐ³":9527,"ĠÐ·Ð°ÑĢÐ°Ð·":9528,"ĠÐ³Ð¾ÑĢÐ»Ðµ":9529,"ĠÐ´ÐµÑĢÐ¶Ð°ÑĤÑĮÑģÑı":9530,"ĠÑģÐ»ÑĥÐ¶Ð¸Ð»Ð¸":9531,"ĠÐ»ÐµÐ¶Ð°Ð»Ð°":9532,"ĠÑģÐ¸Ð´ÐµÐ»Ð¸":9533,"ĠÐ²ÑĭÑħÐ¾Ð´Ð°":9534,"ĠÑģÐºÑĢÐµÐ¶ÐµÑĤ":9535,"ĠÐĲÐ¿Ð¾ÑģÑĤÐ¾Ð»":9536,"ĠÐºÐ¾Ð¼Ð¸ÑģÑģÐ°ÑĢÐ°":9537,"ĠÐºÐ°ÑĦ":9538,"ĠÐ½ÐµÐ¾ÑĤ":9539,"ÐĿÐµÑģÐºÐ¾Ð»ÑĮÐºÐ¾":9540,"ĠÐ¿Ð¾ÐºÐ¾Ð¹":9541,"ÑĥÑĪÐµÐº":9542,"ĠÐ¿ÑĢÐ¸Ð½ÑĨÐ¸Ð¿":9543,"Ð°Ð´Ð¸Ð°Ð½":9544,"ĠÐ·Ð°ÑģÐ»Ð¾Ð½":9545,"ĠÑĥÑĩÐ°ÑģÑĤÐ¸Ðµ":9546,"ĠÐºÐ¸Ð»Ð¾Ð¼ÐµÑĤÑĢÐ°Ñħ":9547,"ĠÐ¡ÐµÑĢÐ´ÑĨÐµ":9548,"ĠÐ»Ð¾ÑıÐ»Ð¸ÑģÑĤÐ¾Ð²":9549,"ĠÐłÐ°Ð²Ð°ÑĪÐ¾Ð»ÑĮ":9550,"ĠÐºÐ°Ð½Ð´Ð¸Ð´":9551,"ĠÑģÐµÑĤÑĮ":9552,"ÑİÐ¶":9553,"ĠÑĩÐ°ÑĪ":9554,"Ð¶Ð¸Ð²":9555,"Ð¾Ð±Ð¾ÑĢ":9556,"ĠÐ»Ð±Ñĥ":9557,"ÐļÐ°Ð¿":9558,"ĠÑģÑĤÐ¾Ð»Ð¸":9559,"ĠÐ¿ÐµÑĢÐµÐ´Ð²Ð¸Ð³":9560,"Ð¸ÑĢÑĥÑģ":9561,"ation":9562,"ĠÐ·Ð°ÑħÐ»ÐµÑģÑĤ":9563,"ĠÐŁÐ¾Ð²ÐµÐ»Ð¸ÑĤÐµÐ»ÐµÐ¹":9564,"ĠÐ¼Ð¾Ð»Ð¸ÑĤÐ²Ñĥ":9565,"ĠÐ¿ÐµÐ¿ÐµÐ»":9566,"ĠÑģÑĩÐ¸ÑĤÐ°Ð½Ð½ÑĭÐµ":9567,"Ð°ÑĢÑĢÐ¾ÑĥÐºÐ¸Ð½":9568,"ĠÑĢÑĭÐ²":9569,"Ð¸ÑĢÐ°Ð»ÑģÑı":9570,"Ð¸ÑĢÐ¾Ð²Ð°Ð»ÑģÑı":9571,"ĠÐ±Ð¾ÐµÐ²Ð°Ñı":9572,"ĠÐ¿ÑĢÐ¸Ð²ÐºÑĥÑģ":9573,"ĠÐ¿ÑĢÐ¸ÑģÐµÐ»":9574,"ĠÐ¿Ð¾Ð¼Ð¾ÑīÐ½Ð¸Ðº":9575,"ĠÐ¾ÑģÐ½Ð¾Ð²Ð½Ð¾Ð¹":9576,"ĠÐ¾ÑĤÐ¿ÑĢÐ°Ð²Ð¸ÑĤÑĮÑģÑı":9577,"ÐĲÑĢÐ¸Ð¼Ð°Ð½":9578,"ÐĺÐ¼Ð¿ÐµÑĢÐ°ÑĤÐ¾ÑĢÐ°":9579,"ĠÑģÑĤÑĢÐµÐ»ÑıÑı":9580,"Ð©":9581,"ĠÐ±Ð¾Ð³Ð¾":9582,"ĠÐĽÐ°ÑĢ":9583,"ĠÑĥÐ´Ð¾Ð±":9584,"ĠÑģÐ¾Ð·Ð´Ð°ÑĤÑĮ":9585,"ĠÑģÐ²ÑıÐ·Ð°ÑĤÑĮÑģÑı":9586,"ĠÑħÐ¾Ð»Ð¾Ð´Ð½Ð¾Ð¹":9587,"ĠÐ¿Ð¾ÐºÑĢÑĭÑĤÑĭÐµ":9588,"ĠÐĶÐ¶Ð°Ð³Ð´Ð¸":9589,"ĠT":9590,"ĠÐ²Ð¾Ð¶":9591,"ĠÐ»Ð¸Ð²":9592,"Ð°Ð½ÑĤÐ¾Ð¼":9593,"ĠÐ¿Ð¾ÑĤÑĢÐµÐ¿":9594,"ĠÑĤÑĢÐ¾Ð½Ðµ":9595,"ĠÐ·Ð°Ð¿ÑĢÐµÑĤ":9596,"ĠÑĤÐµÐ¼Ð½ÑĭÐ¹":9597,"ÑĥÐ³Ð¸":9598,"Ð´Ð°ÑĤÑĭ":9599,"ĠÐ´Ð¾Ð²ÐµÑĢÑıÑĤÑĮ":9600,"ĠÐºÑĢÐµÑģÐ»Ð¾":9601,"ĠÑĢÐµÐ¶Ð¸Ð¼":9602,"ĠÐ¢Ð°Ð»Ð³ÑĢÐ¾Ð½":9603,"Ð¸ÑĤÐ¾ÑĢÑĥ":9604,"ĠÐ¼Ð°Ð³Ð¾":9605,"ĠÐ´ÑĥÑĢ":9606,"Ð°ÑĤÐºÐ¸":9607,"ĠÐ³Ð°ÑĢÐ½Ð¸Ð·":9608,"ÐµÐ²Ð¾Ð¶":9609,"ĠÑģÑĤÐ¾Ð»Ð¾Ð¼":9610,"ĠÐ§ÐµÐ»Ð¾Ð²ÐµÐº":9611,"ĠÐ½Ð°Ð·ÐµÐ¼":9612,"ĠÐ¼Ð½ÐµÐ½Ð¸Ðµ":9613,"ĠÐ½ÐµÐ´Ð¾Ð²Ð¾Ð»ÑĮ":9614,"ĠÐ²ÑĭÑģÐ¾ÐºÐ¸Ðµ":9615,"ĠÐ±ÐµÐ»ÑĭÐµ":9616,"ĠÐ²Ð¸ÑģÐµÐ»":9617,"Ð»ÑĥÐ±ÑĮ":9618,"ĠÑĩÑĥÐ´ÐµÑģ":9619,"ĠÑĥÐ»ÐµÑĤ":9620,"Ð¾ÑģÑĤÑĢ":9621,"ÑĥÐ¼Ð°Ð»":9622,"ĠÐ²ÐµÑĢÑİ":9623,"ĠÐ¿Ð¾ÑĩÐ¸ÑĤ":9624,"ĠÑģÐ»ÐµÐ´Ð¾Ð²Ð°Ð»":9625,"ĠÐ½ÐµÐ¼Ð½Ð¾Ð³Ð¸Ðµ":9626,"ĠÑĢÐµÑĪÐ¸ÑĤÐµÐ»ÑĮÐ½Ð¾":9627,"ĠÐ¿ÑĢÐ¸Ð·Ð²":9628,"ĠÐ¾Ð±ÑĬÐµÐºÑĤ":9629,"ĠÐ·Ð°ÑĢÐ¾Ñģ":9630,"ĠÐ²ÐµÑĢÑħÐ½Ð¸Ñħ":9631,"ĠÑĤÐ°Ð¸Ð½ÑģÑĤÐ²ÐµÐ½":9632,"ĠÐ¿Ð¾ÑģÐ°Ð´Ð¾ÑĩÐ½Ð¾Ð¹":9633,"ĠIII":9634,"ĠÑĩÑĳÐ¼":9635,"ĠÐĴÑģÑı":9636,"ĠÐĿÐ°ÑĢ":9637,"ĠÐĳÐ¸ÑĤ":9638,"ĠÑĩÐ°ÑģÑĤÐ¸ÑĩÐ½Ð¾":9639,"ĠÐ²ÑĢÐ°Ð³Ð°Ð¼Ð¸":9640,"ĠÑģÐ¾Ð±ÑģÑĤÐ²ÐµÐ½Ð½Ð¾Ðµ":9641,"ĠÐ¼Ð¾ÑīÐ½ÑĭÐ¹":9642,"ĠÐ¾Ð±Ð»Ð¸Ðº":9643,"ĠÐ°ÐºÑĤÐ¸Ð²Ð¸ÑĢÐ¾Ð²Ð°Ð»":9644,"ĠÐ¼ÑıÑĤÐµÐ¶Ð½Ð¸ÐºÐ¾Ð²":9645,"ĠÑĢÐ°ÑģÑģÑĤÐ¾ÑıÐ½Ð¸Ñı":9646,"ÑĢÐ°Ð»Ð°ÑģÑĮ":9647,"ĠÐºÑĥÐ±":9648,"Ð°Ð´Ð°Ñĩ":9649,"ĠÐĺÐº":9650,"Ð°Ð»ÑĮÑīÐ¸Ðº":9651,"ĠÐ¿ÑĢÐ¾Ð½Ð¾Ñģ":9652,"ĠÐ¾ÐºÑĢÐ°ÑĪ":9653,"ÐµÐ»Ð¸ÐºÐ¾Ð¼":9654,"ÐŁÑĢÐ¾Ðº":9655,"Ð°ÑīÐµÐ³Ð¾":9656,"ĠÐ¿ÑĢÐ¸ÑĩÐ¸Ð½Ð¾Ð¹":9657,"ĠÑĥÐ´Ð¸Ð²Ð¸Ð»ÑģÑı":9658,"ĠÑħÐ¾Ð»Ð¾Ð´Ð½Ð¾":9659,"ĠÐ¿ÑĢÐ¸ÑģÑĥÑĤÑģÑĤÐ²Ð¸Ñı":9660,"ĠÐ¿ÑĢÐµÐ´ÑĥÐ¿ÑĢÐµÐ¶":9661,"ĠÐ¿ÑĤÐ¸ÑĨ":9662,"ĠÐ¿ÑĢÐµÐ³ÑĢÐ°Ð´":9663,"ÑģÐ¾":9664,"ĠÐ¿ÑĥÐ·Ñĭ":9665,"ĠÑĥÑħÐ²Ð°ÑĤ":9666,"Ð¸Ð¼ÑĥÑİ":9667,"ĠÐ¾ÑĤÐ´Ð°ÑĤÑĮ":9668,"Ð°Ð³ÑĢÐ¾Ð²":9669,"ÐĿÐµÐ¿":9670,"ĠÑĢÐ°ÑģÑĭ":9671,"ĠÐ¿Ð¾Ð²ÑĭÑĪ":9672,"ĠÐķÑĳ":9673,"ĠÐ¿ÑĢÐ¾ÑģÑĤÐ¾ÑĢ":9674,"ĠÐ°ÑĢÐ¸ÑģÑĤÐ¾ÐºÑĢÐ°ÑĤ":9675,"ĠÐ¿ÑĢÐ¸Ð½ÑıÑĤ":9676,"ĠÐºÐ¾Ð¶Ð°Ð½":9677,"ĠÑĤÐµÐ¼Ð½Ð¾ÑĤÑĭ":9678,"ĠÐ¾ÑĪÐ¸Ð±ÐºÑĥ":9679,"ĠÐ·Ð°Ð´ÑĥÐ¼ÑĩÐ¸Ð²Ð¾":9680,"Ð¼Ð¾Ð²":9681,"ĠÐ´Ð¾Ð¶Ð¸Ð´":9682,"Ð¾Ð¼Ð¾Ð³":9683,"ĠÐ²ÑĭÐ²ÐµÐ´":9684,"ĠÐĳÑĥÐ´":9685,"ÐĹÐ°ÑĩÐµÐ¼":9686,"ĠÐ´Ð¾Ð±ÐµÑĢ":9687,"ĠÑģÐ»ÑĭÑĪÐ°Ð»Ð°":9688,"ĠÐ±ÐµÑģÐ¿Ð¾Ð¼Ð¾Ñī":9689,"ĠÐ²ÑĭÑģÐ¾ÐºÐ¸Ð¼":9690,"ĠÐµÐ´Ð¸Ð½ÑģÑĤÐ²ÐµÐ½Ð½Ð¾Ðµ":9691,"ĠÐ·Ð°ÑģÑĤÑĭÐ²":9692,"ÑģÐ²ÑıÐ·":9693,"Ð»ÐµÐ³Ð¸Ð¾Ð½":9694,"ĠÐ¿ÑĥÐ»Ð¸":9695,"ĠÑģÑĤÐ°Ð´":9696,"ÑĥÑĩÐ½Ð¾":9697,"ĠÐ·Ð°ÐºÑĢÑĭ":9698,"ĠÑĩÑĥÐ²ÑģÑĤÐ²ÑĥÐµÑĤ":9699,"ĠÑģÑĤÐ°ÑĢÑĭÑħ":9700,"Ð¸ÑĢÑĥÑİÑĤ":9701,"ĠÐ²ÑģÑĤÑĢÐµÑĤÐ¸Ð»":9702,"ĠÐ²ÑģÑĤÑĢÐµÑĤÐ¸ÑĤÑĮÑģÑı":9703,"ĠÐ²ÑģÑıÐºÐ¸Ð¹":9704,"ĠÐ´Ð¾Ð¶Ð´Ñı":9705,"ĠÑįÐ¼Ð¾ÑĨÐ¸Ð¸":9706,"ĠÐ²Ð·Ð¼Ð°ÑħÐ½ÑĥÐ»":9707,"ĠÑĢÐ°Ð·Ð¾ÑĩÐ°ÑĢÐ¾Ð²":9708,"ĠÐ²ÐµÐ½ÑĤÐ¸Ð»Ñı":9709,"Ġ9":9710,"ĠÑģÐµÑĤÐ¸":9711,"Ð°Ð»Ð»Ð¸":9712,"Ð¾Ð²Ð°Ð»Ð¸ÑģÑĮ":9713,"ĠÐ¿Ð¾ÑĤÐµÐº":9714,"ĠÐ¾ÑģÑĥÑīÐµÑģÑĤÐ²":9715,"ĠÐ¿ÑĢÐ¾Ð¸Ð·Ð¾ÑĪ":9716,"Ġsp":9717,"Ð°ÑĤÑĥÑĢÐ°":9718,"ĠÑħÐ¾Ð»Ð¾Ð´Ð½ÑĭÐ¼":9719,"ĠÐ±Ð¾ÑıÐ»ÑģÑı":9720,"ĠÐ¿Ð¾Ð»Ð¾Ð¶ÐµÐ½Ð¸Ð¸":9721,"ĠÐ¾Ð±ÐµÑģÐ¿Ð¾ÐºÐ¾":9722,"ĠÐºÑĥÐ¿Ð¾Ð»":9723,"ĠÐ½ÐµÑĥÐºÐ»ÑİÐ¶":9724,"Ð³Ð¾ÑĢÐµÐ²":9725,"ĠÑĨÐ¸Ð»Ð¸Ð½Ð´":9726,"ĠÐ¾ÑģÐ¼Ð°ÑĤÑĢ":9727,"ĠÐ½Ð°ÑĪÐ¸Ð¼Ð¸":9728,"ĠÐ¾ÑģÑĤÐ°Ð²Ð°Ð»Ð°ÑģÑĮ":9729,"ĠÑģÐ¸Ð»ÑĮÐ½ÑĭÐ¹":9730,"ĠÐ¿ÑĢÐ¸ÐºÐ°Ð·Ð°":9731,"ĠÐ½Ð°ÑģÑĤÐ¾ÑĢÐ¾Ð¶":9732,"ĠÐ²Ð·ÑĢÑĭÐ²Ñĭ":9733,"ĠÐ²Ð¾Ð½ÑĮ":9734,"ĠÐ¸Ð½ÑĦÐ¾Ð¿":9735,"ĠÑģÐ¿ÑĢÐ°ÑĪÐ¸Ð²Ð°ÐµÑĤ":9736,"ĠÑģÑĥÑīÐ½Ð¾ÑģÑĤÑĮ":9737,"ĠÑĤÐµÑĢÑĢÐ¸ÑĤÐ¾ÑĢÐ¸Ð¸":9738,"ĠÐ²Ð³Ð»ÑĥÐ±ÑĮ":9739,"ĠÐ¢Ð°ÑĢÐ²Ð¸ÑĨ":9740,"Ð»Ð¾Ð±":9741,"ĠÐ¿Ð¾Ð´Ð´":9742,"ĠÑĢÐ°Ð·Ð»Ð¾Ð¼":9743,"ĠÐ¸ÑģÐºÐ°Ð·":9744,"ĠÐ·Ð°Ð»Ñĥ":9745,"ĠÐ±Ð¾Ð³Ð¸":9746,"ĠÐ»ÐµÐ¶Ð¸ÑĤ":9747,"ĠÐ±ÐµÐ»Ð¾Ð³Ð¾":9748,"ĠÑĤÑīÐµÑĤ":9749,"ĠÑĢÐ¾ÑģÐºÐ¾ÑĪ":9750,"Ð»ÐµÐ¼Ñĥ":9751,"ÑĢÑĭÐµ":9752,"ĠÑĪÐµÑģÑĤÐ¸":9753,"ÐµÑħÐ°":9754,"ĠÐĳÑĥÐ´ÑĮ":9755,"ĠÐ¿Ð¾Ð´Ð½Ð¸Ð¼Ð°ÑĤÑĮÑģÑı":9756,"ĠÐ½ÐµÑģÐºÐ¾Ð»ÑĮÐºÐ¸Ð¼Ð¸":9757,"ĠÐºÐ»ÐµÑĤÐºÐ¸":9758,"ĠÑģÐ¾Ð±ÑĢÐ°ÑĤÑĮÐµÐ²":9759,"ĠÑĥÐ´Ð°Ð²Ð°Ð»Ð¾ÑģÑĮ":9760,"ĠÑģÑĢÑĭÐ²":9761,"ĠÐºÐ¸ÑĢ":9762,"ĠÐ²ÑĭÑģÐ¾ÑĤÑĭ":9763,"ÑĥÐ»ÑĮÐ¿":9764,"ĠÐĶÐ¶Ð°Ðº":9765,"ĠÐ¿Ð°ÑĢÐ°Ð´":9766,"Ġfrom":9767,"ĠÑĢÐ¾Ð´Ð½Ð¾Ð¹":9768,"ĠÐ¾Ð¿ÐµÑĢÐ°ÑĤÐ¸Ð²":9769,"ĠÐ½ÐµÐ²ÑĭÐ½Ð¾Ñģ":9770,"ĠÑģÐµÐ³Ð¼ÐµÐ½ÑĤ":9771,"ĠÐ¿ÑĢÐµÑĢÑĭÐ²":9772,"ĠÐļÑĳÑĢÐ·":9773,"ÑĢÐ¾Ð½Ð¸ÑĨ":9774,"ĠÐ´Ð²ÐµÑĢÑĮÑİ":9775,"ĠÐ½ÐµÑĩÐµÐ³Ð¾":9776,"ĠÐ·Ð¾Ð»Ð¾ÑĤÐ¾Ð¼":9777,"ĠÐ·Ð°Ð¿ÑıÑģÑĤÑĮÐµ":9778,"Ð¸ÑĦÐ¸ÑĨ":9779,"ÑĪÐ¸Ð¼ÑģÑı":9780,"Ð¸ÑĤÐ¸Ð°Ð½":9781,"ĠÑģÑĤÐ°Ð»ÑĮ":9782,"Ð¾ÑĩÐµÐº":9783,"ÐĲÐ½":9784,"ĠÐ¿Ð¾Ð½ÑĢÐ°Ð²":9785,"ĠÑĤÐµÐ¼Ð½Ð¾Ð³Ð¾":9786,"ÑĥÑħÐ°":9787,"ĠÑĥÐ¼Ðµ":9788,"ÑİÑīÐµÐ³Ð¾":9789,"Ð°ÑĤÐ¾Ðµ":9790,"ĠÐ´ÐµÑĢÐ¶Ð°Ð»Ð¸":9791,"ĠÐ¿ÑĢÐ¸Ð±Ð»Ð¸Ð¶Ð°ÐµÑĤÑģÑı":9792,"ĠÐ´ÐµÑģÑıÑĤÐºÐ¾Ð²":9793,"ĠÑģÐ²ÐµÑĢÑħÑĬÐµÑģÑĤÐµÑģÑĤÐ²ÐµÐ½":9794,"ĠÑģÐ¾ÑĩÐ»ÐµÐ½":9795,"ĠÐ²Ð¾ÑģÑĤÐ¾ÑĢÐ³":9796,"ĠÐ½Ð°Ð²Ð¸Ð³Ð°ÑĤÐ¾ÑĢ":9797,"ÑĢÐ¾ÑģÑĤÑĮ":9798,"ĠÐ¿ÑĥÑĩ":9799,"ĠÑĤÑĢÑĥÑģ":9800,"ÑīÐ¸Ð¹":9801,"Ð¸ÑĩÐ½Ð¾Ð¹":9802,"ÑģÑĤÑĢÐµÐ»Ð°":9803,"ÐļÐ¾Ð»":9804,"ĠÐ¿ÑĢÐ¾ÑĤÐ¸Ð²Ð½Ð¸ÐºÐ¾Ð¼":9805,"ĠÐĸÐ°Ðº":9806,"Ð¿ÑĢÐ¸Ðº":9807,"ĠÐ¿ÑĥÑģÑĤÐ¾Ð¹":9808,"ĠÑĢÐ°Ð±Ð¾ÑĤÐ°ÐµÑĤ":9809,"ĠÐ¿Ð»Ð¾ÑĤÐ½Ð¾":9810,"ĠÐºÑĢÐ°ÑģÐ½Ð¾Ð³Ð¾":9811,"ĠÐ´ÑĭÐ¼Ð¾Ð¼":9812,"Ð¨ÑĤ":9813,"ĠÑĥÑģÑĤÑĢÐµÐ¼Ð¸Ð»ÑģÑı":9814,"ÑĢÐ°ÑģÐ¿Ð»Ð¾Ñħ":9815,"ĠÐºÐ»Ð¾ÑĩÑĮÑı":9816,"ĠÐ¾ÑĤÐ¾Ð¼ÑģÑĤ":9817,"ĠÐ²ÑĢÐ°ÑģÐ¿Ð»Ð¾Ñħ":9818,"ĠÐºÑĥÐ²":9819,"ÑīÐµÐµÑģÑı":9820,"Ð°Ð½Ð¸ÑıÐ¼":9821,"ĠÐ¿ÑĢÐ¾ÑĪÑĥ":9822,"ĠÐ·Ð°Ð¼ÐµÑĤÐ¸Ð²":9823,"ĠÐ¡Ð»Ð¾Ð²Ð°":9824,"Ð²Ð¾Ð¸":9825,"ĠÐ·Ð²ÐµÑĢÐ¸":9826,"ĠÑĥÐ³ÑĢÐ¾Ð·Ð°":9827,"ĠÐ·Ð½Ð°Ð¼ÐµÐ½":9828,"ĠÑĤÐºÐ°Ð½ÑĮ":9829,"Ð»Ð¸Ð¶Ðµ":9830,"ĠÐ¾Ð´Ð¸Ð½Ð¾ÑĩÐºÑĥ":9831,"Ð¾ÑĨÐµÐ½":9832,"Ð´ÐµÐ¼":9833,"ĠÑĩÑĮÐµ":9834,"ĠÐ¾ÑĤÑĤ":9835,"ĠÐ¸Ð·ÑĢÑĭÐ³":9836,"ĠÐĴÐ¾Ñģ":9837,"Ð¸ÑĩÐ½ÑĭÐ¼":9838,"ĠÐĿÐ°ÑģÑĤ":9839,"ĠÐĿÐ°ÑĪÐ¸":9840,"ĠÐ¾ÐºÑĢÐ°":9841,"ĠÐ±ÐµÐ·Ð·Ð²":9842,"Ð¸Ð»ÑĮÑĤ":9843,"ĠÐ¿Ð¾Ð²ÐµÑĢÑħÐ½Ð¾ÑģÑĤÑĮÑİ":9844,"ĠÑĨÐµÐ¿Ð½ÑĭÐ¼":9845,"ĠÐ¸Ð·Ð¼ÐµÐ½ÐµÐ½Ð¸Ñı":9846,"ĠÐ²ÐµÐ»Ð¸ÐºÐ¾Ð¹":9847,"ÐµÐ½ÑīÐ¸Ð½Ð°":9848,"Ð¡ÑĤÐ°ÑĢ":9849,"ĠÐ°Ð½Ð³Ð°ÑĢ":9850,"ĠÐ¿Ð¾ÑģÐ¿ÐµÑĪÐ½Ð¾":9851,"ĠÐ¿ÑĢÐµÐ¿ÑıÑĤ":9852,"ĠÐ±ÐµÑģÑģÑĤÑĢÐ°ÑģÑĤ":9853,"Ð¼Ð¾ÑĢ":9854,"ĠÐ±ÑĥÑĤ":9855,"ÐºÑĥÑĪ":9856,"ĠÐ¥ÐµÐ»ÑĮ":9857,"ĠÐ±ÑĥÐ´ÑĥÑĩÐ¸":9858,"ĠÐ¾ÑģÑĤÐ°Ð»ÑĮÐ½Ð¾Ðµ":9859,"ĠÑĢÐ°Ð´Ð¾ÑģÑĤÑĮÑİ":9860,"ĠÐ²Ð³Ð»ÑıÐ´":9861,"ĠÐļÑĥÐ·":9862,"ĠÐ¿Ð¾ÑģÐ°Ð´":9863,"ĠÐ¿ÑĢÐµÐ´Ð°ÑĤÐµÐ»Ð¸":9864,"ĠÑĨÐµÐ»Ð¸ÐºÐ¾Ð¼":9865,"ĠÑģÐ¸Ð»Ð¾Ð²ÑĭÐµ":9866,"Ð½Ð°ÑĢÑıÐ´":9867,"ĠÐ²ÑĭÑģÐ¾ÑĤÑĥ":9868,"Ð¸ÑĢÐ¾Ð²Ð°Ð½Ð½ÑĭÐ¼Ð¸":9869,"ĠÑģÐµÐºÑĤÐ¾ÑĢÐ°":9870,"ĠÐ´ÐµÐ¹ÑģÑĤÐ²Ð¸Ðµ":9871,"ĠÐ²ÑĭÑģÐ¾ÐºÐ¾Ð³Ð¾":9872,"ĠÐ¿ÑĢÐ¾ÑĩÐ¸Ñħ":9873,"ĠÐ¿ÑĥÑĪÐµÐº":9874,"ĠÐ¾Ð±ÑıÐ·Ð°Ð½Ð½Ð¾ÑģÑĤÐ¸":9875,"ÐĶÐ¶Ð¾Ð½":9876,"ĠÐĴÐµÐ½ÑĤÐ°Ð½":9877,"Ð¸ÑĤÑĭÐ¹":9878,"Ð°ÐºÐ°Ð½":9879,"ĠÑĢÐµÐ³Ð¸Ð¾Ð½":9880,"ĠÑĢÐ°ÑģÑĩÐµÑĤ":9881,"Ð°ÐµÑĤÐµÑģÑĮ":9882,"ÑİÑīÐµÐ¹":9883,"Ð°ÐµÐ¼Ð¾ÑģÑĤÐ¸":9884,"ĠÑĥÐ½Ð¸ÑĩÑĤÐ¾Ð¶Ð¸Ð»Ð¸":9885,"ĠÐ¼Ð¾ÑīÐ½ÑĭÐµ":9886,"ĠÐ¿Ð¾Ð±ÐµÐ¶Ð°Ð»Ð¸":9887,"ÑĢÐ¸Ð¼ÐµÑĢ":9888,"ĠÑĢÐ¸ÑĤÑĥÐ°Ð»":9889,"ĠÐ¼ÑĥÑĤÐ°Ð½ÑĤÐ¾Ð²":9890,"ĠÐ·Ð°Ð¿Ð¸ÑģÐ¸":9891,"ĠÐŁÐ¾ÑħÐ¾Ð´Ð°":9892,"ĠÑģÐ¿Ð»Ð¾ÑĪ":9893,"ĠÑģÑĨÐµÐ½":9894,"Ð»ÑıÐ½ÑĥÑģÑĮ":9895,"ĠÐĴÐ¾Ð½":9896,"ÐĿÐµÐ¼":9897,"ĠÐºÐ¾ÑĢÐ¸Ð´Ð¾ÑĢÐ°Ð¼":9898,"ĠÑĤÐ¾Ð»Ð¿Ð°":9899,"ĠÑĩÐ¸ÑģÐ»Ð°":9900,"ĠÐ£Ð»ÑĮÑĤÑĢÐ°Ð´ÐµÑģÐ°Ð½ÑĤÐ°":9901,"ĠÐ¿Ð¾Ð´Ð¾Ð·ÑĢÐµÐ²Ð°Ð»":9902,"ĠÐ·Ð°Ð¾ÑĢÐ°Ð»":9903,"ĠÐ¾ÐºÐ¾Ð½":9904,"ĠÐ²ÐµÑĢÐ½ÑĥÐ»Ð°ÑģÑĮ":9905,"ĠÐ´Ð¾ÑģÑĤÐ¸ÑĩÑĮ":9906,"ĠÐ´Ð¾ÑģÑĤÐ¾Ð¸Ð½":9907,"ĠÐ°ÑĢÑģÐµÐ½":9908,"ĠÐºÐ»Ð¸Ð½ÐºÐ°Ð¼Ð¸":9909,"ĠÑĨÐµÐ¿Ð½Ð¾Ð³Ð¾":9910,"ĠÐ¿Ð¾Ð±ÐµÐ´Ð°":9911,"ĠÐ·Ð°ÑĩÐ¸ÑģÑĤ":9912,"ĠÐĳÑĢÐ¾Ð½ÐµÐ½Ð¾Ñģ":9913,"ĠÐ¿ÑĥÑĤÐµÑĪÐµÑģÑĤÐ²Ð¸Ñı":9914,"ĠXV":9915,"ÑĤÐ¾ÑĢÐ°Ð¼Ð¸":9916,"ĠÐĶÐ°ÑĢ":9917,"Ð°ÑģÑĤÐµÑĢ":9918,"ĠÐ¿ÑĢÐ¾ÑĤÐ¸Ð²Ð¾ÑĢ":9919,"ĠÐ½ÐµÐ±ÑĢÐµÐ¶":9920,"ĠÐ¼ÐµÑĢÑĤÐ²Ð¾Ð³Ð¾":9921,"ĠÐ¿ÑĢÐµÐºÑĢÐ°Ñī":9922,"ack":9923,"ĠÑĥÐ±Ð¸ÑĤÑĭÑħ":9924,"ĠÑĤÑĢÑĥÐ´Ð°":9925,"ĠÑĢÐ°Ð·Ð¾ÑĩÐ°ÑĢ":9926,"ĠÐŀÐºÑĤÐ°Ð²":9927,"Ð¾Ð»ÐµÑĤÑĭ":9928,"ÑĢÑĥÑģÐ°":9929,"ĠÐ¢ÑĥÐ»":9930,"ĠÐ²Ð¸Ð´Ñı":9931,"ĠÐ²Ð¸Ð´Ð½Ñĭ":9932,"ĠÐ£Ð¶Ðµ":9933,"ÐŃÑĤÐ°":9934,"ĠÐ²Ð¾Ð»Ñĩ":9935,"ĠÐ±ÑĢÐ°ÑĤÑģÑĤÐ²Ð°":9936,"ĠÐ»ÑİÐ±ÑĥÑİ":9937,"ĠÐ¿Ð¾Ð·Ð²Ð¾Ð»Ð¸Ð²":9938,"ĠÑīÐµÐº":9939,"ĠÐ¿ÐµÑĢÐµÐ²Ð¾Ð´Ð°":9940,"ĠÐ¿Ð°ÑĥÐ·Ñĥ":9941,"ĠÐ²Ð½ÑĥÑĤÑĢÐµÐ½Ð½Ð¸Ðµ":9942,"ĠÑģÐ»ÑĥÑĪÐ°Ð»":9943,"Ġ5":9944,"ĠÐºÐ°Ð´":9945,"Ð¸Ð½ÐµÑĤ":9946,"ĠÐĴÑĥÐ»ÐºÐ°Ð½Ð°":9947,"ĠÐ¿ÑĢÐµÐ´Ð²Ð¾Ð´":9948,"ÐļÑģ":9949,"ÐĵÐ¾ÑĢ":9950,"ĠÐ¾ÑĢÐ´":9951,"ĠÑĤÐ¾Ð»ÐºÑĥ":9952,"ĠÐ²Ð´Ð°Ð»Ð¸":9953,"ĠÑĢÐ°Ð½ÐµÐ½ÑĭÑħ":9954,"ÐĲÑĢÐ³ÐµÐ»":9955,"Ð°ÑĢÐ¸ÐºÐ°":9956,"ĠÐłÐ¾Ð±":9957,"ĠÐ½Ð°Ð´Ð²Ð¸Ð³":9958,"ĠÐ¼ÐµÑĤÐ¾Ð´":9959,"ĠÐ¿Ð¾ÑĢÐ°":9960,"Ð»Ð¾ÑĤÑĮ":9961,"ĠÐºÐ¾ÑģÐ¼Ð¸ÑĩÐµÑģÐºÐ¸Ð¹":9962,"ĠÑģÐ¾ÑĤÑĢÑĥÐ´":9963,"ĠÐ¿Ð¾ÑĩÑĥÐ²ÑģÑĤÐ²Ð¾Ð²Ð°Ð»Ð°":9964,"ĠÐ½ÐµÑĩÐµÑģÑĤÐ¸Ð²":9965,"ĠÐ¼Ð¸Ð»Ð¾ÑģÐµÑĢÐ´":9966,"ĠÑĤÐ°Ð¹Ð½Ñĭ":9967,"ĠÐ¸Ð´ÐµÑı":9968,"ĠÑģÐ°Ð¼Ð¾ÑĥÐ±Ð¸Ð¹":9969,"ĠÐºÑĢÐ¸ÑĩÐ°Ð»":9970,"ĠÐ¼Ð¾Ð»Ð¸ÑĤÐ²":9971,"ÑģÑĤÐ²ÑĥÑİÑĤ":9972,"Ð¾ÑģÑĤÐ°ÑĤÐ¾ÑĩÐ½Ð¾":9973,"Ð½Ð¸Ñİ":9974,"ÐĶÐµÐ²":9975,"Ð¸Ð²ÑĪÐ¸Ð¼ÑģÑı":9976,"ĠÐ´ÐµÐ»Ð°Ñı":9977,"ĠÑģÐ»Ð°Ð±ÑĭÐ¼":9978,"ĠÑģÑĤÑĢÐ°Ð½Ð½ÑĭÐµ":9979,"ĠÐ·Ð²ÑĥÐºÐ¾Ð¼":9980,"ĠÐ¾Ð±ÐµÐ¸Ñħ":9981,"ĠÐ´Ð¾Ð²Ð¾Ð´Ð¸Ð»Ð¾ÑģÑĮ":9982,"ĠÑĩÐµÑĪ":9983,"ĠÐļÐ¾Ð³Ð¾ÑĤÑĮ":9984,"ÑģÑĤÑĢÐµÐ¼":9985,"ĠÑģÑĤÐ°ÑĢÑĪÐ¸Ð¹":9986,"ĠÐ±ÑĢÐ°ÑĤÑĥ":9987,"ĠÐ½Ð°Ð¿ÑĢÐ°Ð²Ð»ÐµÐ½Ð¸Ñı":9988,"ĠÑģÐ»ÑĭÑĪÐ½Ð¾":9989,"ĠÐ³Ð¾ÑĤÐ¾Ð²ÑıÑģÑĮ":9990,"ÑĳÐ½Ð½Ð¾Ð³Ð¾":9991,"ĠÐ´Ð°Ð²Ð°Ñı":9992,"ĠÐ¾ÑģÑĤÐ°Ð½Ð¾Ð²Ð¸Ð»":9993,"ĠÐ¿Ð¾ÑħÐ¾Ð¶Ð¸":9994,"ĠÑĤÐ¾Ð½ÐºÐ¸Ðµ":9995,"ĠÐµÐ´Ð¸Ð½ÑģÑĤÐ²ÐµÐ½Ð½Ð¾Ð¹":9996,"ĠÑĢÐ°Ð·Ð¾ÑĢÐ²Ð°Ð»":9997,"ĠÑįÑĦÐ¸ÑĢ":9998,"ĠÐ²ÐµÑīÐµÐ¹":9999,"ĠÐ²Ð·Ð¾ÑĢÐ²Ð°Ð»Ð°ÑģÑĮ":10000,"ĠÑĤÑĢÑĥÐ±Ñĭ":10001,"ĠÐ¿ÐµÑģÐ¾Ðº":10002,"ĠIV":10003,"ĠÐ±Ð¾ÐµÐ¿ÑĢÐ¸Ð¿Ð°ÑģÑĭ":10004,"ÑĥÐ¼ÐµÐµÑĤÑģÑı":10005,"ÑĢÐ°ÑģÑģÑĥÐ´":10006,"ĠÐ½Ð°ÑģÑĤÐ¾ÑıÑīÐµÐµ":10007,"la":10008,"ÑģÐ¼ÐµÑĢÑĤ":10009,"ĠÑģÐ½Ð°":10010,"ĠÐ²Ð¸Ð½Ð¾Ð²":10011,"Ð°Ð½ÑĥÐ»":10012,"ĠÐ´ÐµÐº":10013,"ĠÐ³Ð¸Ð¿":10014,"ĠÐ²Ð·ÑıÐ»Ð¸":10015,"ĠÐ±ÐµÐ·Ð²":10016,"ĠÐ¼Ð¾ÑĤÐ¾ÑĨÐ¸Ðº":10017,"ĠÐ¿ÑĢÐ¸Ð½ÐµÑģÑĤÐ¸":10018,"ĠÑģÐ¾Ð±Ð¸ÑĢÐ°ÑİÑģÑĮ":10019,"ĠÐ¿ÑĢÐ¾Ð³Ð¾Ð²Ð¾ÑĢÐ¸Ð»":10020,"ĠÐ¿Ð¾Ð´Ð¾ÑĪÐ»Ð¸":10021,"ÐµÐ½ÐµÐ±":10022,"ÐµÐ»Ð»Ð°":10023,"ĠÐ¶Ð¸ÑĤÐµÐ»Ð¸":10024,"Ð¾ÑĩÐ½Ð¾Ð³Ð¾":10025,"Ð¸ÑģÑĤÑĭÑħ":10026,"Ð´ÑĥÐ²":10027,"ĠÐºÐ¾Ð»Ð»ÐµÐº":10028,"ĠÐ½ÑĥÐ¶Ð´":10029,"ĠÐ¿Ð»ÐµÑĩÐµ":10030,"ĠÐŀÑĢÐ´":10031,"ĠÐĵÑĢÐµÐ¹":10032,"ĠÐ¾ÑĤÐ²ÐµÑĢÐ³":10033,"ĠÐ¿ÑĢÐ¾Ð²ÐµÑĢÐ¸Ð»":10034,"ĠÑĥÐ»Ð¾Ð²Ð¸Ð»":10035,"ĠÐ¿Ð»Ð°Ð½ÑĪÐµÑĤ":10036,"ĠÐ¥Ð°ÑįÐ³ÑĢ":10037,"Ð°ÑĤÐ¸Ð»Ð°ÑģÑĮ":10038,"Ð°ÑĢÐ´Ñĭ":10039,"Ð¸Ð½ÐºÐ°":10040,"ĠÐ¸Ð·ÑĥÑĩÐ°Ð»":10041,"ĠÐĶÐ°ÑĦÐ°Ð½":10042,"ÑĢÐ¾Ð²Ð¸Ð·":10043,"ĠÐ²ÐµÑĢÑĤÐ¸Ðº":10044,"ĠÐ¾ÑĤÐºÑĢÑĭÑĤÐ¾":10045,"ĠÐ¾ÑĤÐºÑĢÑĭÐ»Ð¸ÑģÑĮ":10046,"ĠÐ¿ÑĢÐ¾ÑĢÑĭÐ²":10047,"ĠÐºÐ¾Ð¼Ð¿Ð»ÐµÐºÑģÐ°":10048,"ĠÐ´Ð¸ÑģÐ¿Ð»ÐµÐµ":10049,"ĠÐ¢Ð¸ÑĢÐ¾":10050,"ĠÐ¡ÐµÐ¼Ð¿ÐµÑĢ":10051,"ĠÐ¿ÑĥÑĢÐ¿ÑĥÑĢ":10052,"Ð¿Ð¾ÑģÑĤ":10053,"Ð°Ð¿ÑĢÐ°Ð²":10054,"ĠÐ¢ÑĢÐµÑĤÑĮ":10055,"Ð°Ð½ÑĤÐ°ÑĢ":10056,"ĠÐ´Ð²Ð¸Ð½ÑĥÐ»Ð¸ÑģÑĮ":10057,"ĠÐ±Ð¾Ð»ÑĤÐ¾Ð²":10058,"ĠÐ±Ð¾Ð»ÑĮÑĪÐ¾Ðµ":10059,"ĠÑĤÐ¾Ð»Ñĩ":10060,"ĠÐ²ÐµÐ´ÐµÑĤ":10061,"ĠÐ¿ÑĢÐ¾Ð¸Ð·Ð²ÐµÐ´":10062,"ĠÐ²ÑģÑıÐºÐ¾Ð³Ð¾":10063,"ĠÐ²Ð¾Ð·Ð½Ð¸ÐºÐ»Ð°":10064,"ĠÐĿÐ°Ð²ÐµÑĢ":10065,"ĠÐ´ÑĢÐ¾Ð±Ð¾Ð²":10066,"ĠÑĢÐ¸Ð½ÑĥÐ»ÑģÑı":10067,"ĠÐ·Ð°Ð²ÐµÑģ":10068,"ind":10069,"ĠÐ²ÑģÐºÐ¸Ð½ÑĥÐ»":10070,"ĠÐ³Ð»Ð°Ð²Ð½Ð¾Ð¹":10071,"ÑıÑģÐ½Ð¸Ð»":10072,"ĠÐ¿ÑĢÐµÐ´ÑģÑĤÐ°Ð²Ð»ÑıÐ»Ð°":10073,"ĠÑĢÐ°Ð·Ð½Ð¾Ð¾Ð±ÑĢÐ°Ð·":10074,"ĠÐ©":10075,"ĠÐ¾ÑĤÐ·":10076,"ĠÑĢÐ°Ð·Ð°":10077,"ĠÑĢÐ°Ð·Ð¾ÑĪ":10078,"ĠÐĵÐ¾Ð»":10079,"ĠÐłÐµÐ¼":10080,"ĠÐºÐ¾Ð¼Ð¼ÑĥÐ½Ð¸Ðº":10081,"ĠÐ¸Ð½Ð¾Ð¿Ð»Ð°Ð½ÐµÑĤ":10082,"ĠÑĢÐ°Ð·Ð²Ð¸ÑĤ":10083,"ĠÐ·Ð°Ð½ÑıÐ»Ð¸":10084,"ĠÐ´Ð»Ð¸Ð½Ð½ÑĭÐ¼Ð¸":10085,"ĠÐ´ÐµÑĤÐ¸":10086,"Ð°ÑĨÐ¸Ð¾Ð½Ð½ÑĭÐ¹":10087,"ĠÐºÐ¾ÑĢÐ¿ÑĥÑģÐµ":10088,"ĠÐĺÑģÐ¿Ð¸Ð²Ð°ÑİÑīÐ¸Ñħ":10089,"ĠÐĲÐ³Ð°Ð¿Ð¸ÑĤÐ¾":10090,"ÐµÑĤÐ¾":10091,"ĠÐ²ÑĢÐ°ÑĤÐ°":10092,"ĠÐ½ÐµÐ»Ð¾Ð²":10093,"ĠÐºÑĢÑĥ":10094,"ĠÑĤÑıÐ³":10095,"Ð¸Ð²ÑĪÐµÐµÑģÑı":10096,"ĠÐ¿Ð¾Ð»Ð½ÑĭÐ¼":10097,"ĠÐ¸Ð½ÐºÐ²Ð¸Ð·":10098,"ĠÐ½Ð°ÑĩÐ°Ð»Ð¾ÑģÑĮ":10099,"ĠÐ½ÐµÐ¿Ð»Ð¾Ñħ":10100,"ĠÐ±ÑĥÐ´ÐµÑĤÐµ":10101,"ĠÑĤÐµÑĢÐ¼Ð¸Ð½":10102,"ĠÐ²ÐµÑĤÑĢÑĥ":10103,"ĠÑĪÑĢÐ°Ð¼Ñĭ":10104,"ĠÐ³ÑĥÑģÑĤÐ¾Ð¹":10105,"ĠÐľÐ°ÐºÑĢÐ°Ð³":10106,"ĠÐĵÐ°Ð»Ð°ÐºÑĤÐ¸ÐºÐ¸":10107,"ÐºÐ°Ð»ÑģÑı":10108,"ÐµÑĢÐµÐ¶":10109,"ĠÐ±Ð´":10110,"Ð°Ð½ÐºÐ¾Ð²":10111,"Ð¾ÑģÑĤÐ¾ÑıÑĤÐµÐ»ÑĮ":10112,"Ð½ÑıÐ²":10113,"ĠÐ£Ð»":10114,"ĠÐ¾ÑĤÐ²ÐµÑĤÐ½ÑĭÐ¹":10115,"ÐµÑīÐµÐ½Ð¸Ðµ":10116,"ĠÐ¿Ð¾Ð´Ð½ÑıÐ»Ð¸":10117,"ĠÐ·Ð°ÑģÑĤÐ°Ð²Ð»ÑıÑı":10118,"Ġcom":10119,"Ð»ÑıÑĤÑĮÐµ":10120,"ĠÐ¿Ð¾Ð´Ð´ÐµÑĢÐ¶Ð¸Ð²Ð°ÑĤÑĮ":10121,"ĠÐºÑĥÑĢÑĤ":10122,"ĠÐ²ÑĢÐ°Ð¶ÐµÑģÐºÐ¾Ð³Ð¾":10123,"ĠÐ°ÑģÑĤÐ°ÑĢÑĤÐµÑģ":10124,"ĠÐ¿ÑĢÐ¾Ð²Ð¾ÑĢÑĩÐ°Ð»":10125,"ĠÐ¸Ð½ÑĦÐ¾Ð¿Ð»Ð°Ð½ÑĪ":10126,"ĠÐ¿Ð¾Ð²ÑĢÐµÐ´":10127,"Ð°Ð½Ð´ÐµÑĢ":10128,"Ð¸Ð²ÑĪÑĥÑİÑģÑı":10129,"ĠÐ³Ð¾ÑĢÑģÑĤ":10130,"ĠÐ´ÐµÐ»Ð°ÑİÑĤ":10131,"ĠÐ¸ÑģÑĤÐ¸Ð½Ñĥ":10132,"ĠÐ¸Ð·Ð²Ð¸Ð²":10133,"ĠÑĢÐ°ÑģÐºÐ¾Ð»Ð¾ÑĤ":10134,"ĠÐ¿ÑĢÐ¾ÑģÐ»Ð°Ð²":10135,"ĠÐ²ÑĭÑģÐ¾ÐºÐ¸Ñħ":10136,"ĠÐ´ÐµÑĤÐ°Ð»":10137,"ĠÐ±Ð»Ð¸Ð¶Ð°Ð¹ÑĪÐµÐ³Ð¾":10138,"ĠÑĤÑĢÐ¸Ð´ÑĨÐ°ÑĤÐ¸":10139,"ĠÐ½Ð°Ð³ÑĢÑĥÐ´Ð½Ð¸Ðº":10140,"to":10141,"Ġun":10142,"ÐºÐ½ÑĥÐ²":10143,"ĠÐļÐµÑĢÐ³":10144,"ĠÑģÐºÑĢÐ¾Ð¼":10145,"ĠÐ¢Ð¸ÑĤÐ°Ð½":10146,"ĠÐĲÑĢÐ°Ð¼":10147,"ĠÐĵÑĢÐ¾Ð¼":10148,"ĠÐĳÐ¾Ð»ÑĮÑĪÐµ":10149,"ĠÐ±ÐµÑģÑĨ":10150,"ĠÐ±Ð¾Ð»ÑĮÑĪÐ¾Ð³Ð¾":10151,"ĠÑĤÐµÑĢÑĢÐ°Ð½":10152,"Ð³Ð¾Ð»Ð¾Ñģ":10153,"ĠÐ²ÐµÑĤÐµÑĢÐ°Ð½":10154,"ĠÐ²Ð¸ÑģÐµÐ»Ð¸":10155,"ĠÐ²ÑĭÐ³Ð»ÑıÐ´Ð¸ÑĤ":10156,"ĠÐ´Ð¸ÑģÐ¿Ð»Ðµ":10157,"ĠÑĥÐ´Ð¾Ð²Ð¾Ð»ÑĮÑģÑĤÐ²Ð¸Ðµ":10158,"ĠÐ²Ð¾ÑģÐ¿ÑĢÐ¸Ð½Ð¸Ð¼":10159,"Ð¿Ð¾Ð²":10160,"ĠÐ¾ÑĤÑģÐºÐ¾Ñĩ":10161,"ĠÐ¿Ð¾Ð¸Ð½ÑĤÐµÑĢÐµÑģÐ¾Ð²Ð°Ð»ÑģÑı":10162,"ĠÐ¢ÐµÐ»":10163,"Ð°Ð»ÑĮÐ½Ð¾Ð¼Ñĥ":10164,"ĠÐľÐ°":10165,"ĠÐ±ÑĢÐµÑĪÑĮ":10166,"ĠÐĳÐ°":10167,"ĠÐłÑĥ":10168,"ÐĶÑĢÑĥÐ³":10169,"ĠÐ¿Ð¾Ð¿ÑĭÑĤÐ°ÑĤÑĮÑģÑı":10170,"Ġch":10171,"ĠÑĥÐ±Ð¸Ð¹ÑĨÑĭ":10172,"ĠÐĲÐ½Ñģ":10173,"ĠÑģÐ²ÐµÑĢÐºÐ°Ð»Ð¸":10174,"ÐºÐ½":10175,"ĠÐ´ÑĮÑıÐ²":10176,"ĠÐ¿Ð¾Ð»Ñİ":10177,"ĠÐłÐµÐ·":10178,"ĠÑĩÐµÑĢÐ½ÑĭÐ¼Ð¸":10179,"ÑģÑĤÐ²ÐµÐ½Ð½ÑĭÑħ":10180,"ĠÐ¿ÑĢÐ¸Ð±ÑĭÐ²":10181,"ĠÑĥÑģÑĭÐ¿":10182,"ĠÐ¿Ð¾Ð·Ð²Ð¾Ð»Ð¸Ð»Ð¸":10183,"ĠÐĵÐ¾ÑĢÐ³Ð¾Ð½":10184,"ĠÐ¿ÑĥÐ»ÑĮÑģÐ¸ÑĢÑĥÑİÑī":10185,"ĠÐ°ÑĥÐ³Ð¼ÐµÐ½ÑĤ":10186,"ĠÐ¿ÑĢÐ¸Ð¹":10187,"ÐµÐ³Ð¾ÑĢ":10188,"ĠÑģÐºÑĥÐ»ÑĮÐ¿":10189,"Ð¸Ð»Ð¸ÐµÐ¼":10190,"ĠÐ²Ð·Ð¾ÑĢ":10191,"ÐļÐ°Ð¹":10192,"ĠÑĥÐ²ÐµÐ½Ñĩ":10193,"ĠÐ´Ð¾Ð»Ð¾Ð¶":10194,"ĠÑĥÐ¶Ð°ÑģÐµ":10195,"ĠÑĥÐ²ÐµÑĢÐµÐ½Ñĭ":10196,"ĠÑģÐ½Ð¸Ð·Ñĥ":10197,"ĠÐºÐ»ÑĥÐ±Ñĭ":10198,"ĠÐ´Ð¾Ð¶Ð´ÐµÐ¼":10199,"ĠÑģÑĥÐ±Ñģ":10200,"ĠÐ¾Ð´Ð¸Ð½Ð¾ÑĩÐµÑģÑĤÐ²Ðµ":10201,"ĠÐ¿ÑĢÐ¾ÑĤÐ¸Ð²Ð¾ÑĢÐµÑĩ":10202,"Ġ8":10203,"ĠÐ²Ð¾Ð¶Ð´":10204,"ĠÐ»Ð°Ð³":10205,"ĠÐ»ÑĥÐ½":10206,"ĠÑĢÐµÑĩÐ¸":10207,"Ð¸Ð´ÑĥÑģ":10208,"ÐŁÑĢÐ¾":10209,"ĠÐ²Ð·Ð²Ñĭ":10210,"ĠÐ¾ÐºÐ¸Ð½ÑĥÐ»":10211,"ĠÑĩÐµÑĢÐ½ÑĭÐ¼":10212,"ÑĥÑīÑĥÑİ":10213,"ÑĢÐ°ÐºÐµ":10214,"ĠÐºÐ¾Ð¼Ð°Ð½Ð´Ð½Ð¾Ð¹":10215,"ĠÑĥÐ²ÐµÑĢÐµÐ½Ð½Ð¾":10216,"ĠÐ´ÑĢÐµÐ²Ð½ÐµÐ³Ð¾":10217,"ĠÐ½Ð°Ð²ÐµÑĢÐ½Ð¾Ðµ":10218,"ĠÐ´Ð¾Ð±ÑĭÑĩÑĥ":10219,"ĠÐ´Ð¾Ð½ÐµÑģÑģÑı":10220,"ĠÐŀÑĩÐµÐ½ÑĮ":10221,"ĠÐ¼Ð¸Ð½Ð¸Ð¼ÑĥÐ¼":10222,"ĠÐłÐµÐ¹Ð²ÐµÐ½Ð¾ÑĢ":10223,"ĠÑĥÐ½Ð¸ÑĦÐ¾ÑĢÐ¼":10224,"Ð½Ð¸Ñģ":10225,"ĠÐ²Ð·Ð°Ð¸Ð¼":10226,"ĠÐ´Ð²Ð¾Ð¸Ñħ":10227,"ÐĵÐ¾ÑģÐ¿":10228,"ĠÐ¿Ð¾Ð´Ð¾Ð±Ð½Ð¾Ð¹":10229,"Ð°ÑīÐ¸Ð¼":10230,"Ð¾Ð²ÐµÑĢÑĪÐµÐ½":10231,"ĠÐ¿ÑĢÐ¾ÐºÐ»Ñı":10232,"ĠÐ·Ð°ÑģÑĤÐ°Ð²Ð¸Ð»Ð°":10233,"ĠÑĥÑģÐ»ÑĭÑĪÐ°Ð»Ð¸":10234,"ĠÐ²ÑĭÐ¶Ð¸Ð»":10235,"ĠÑĪÐµÐ¿Ð¾ÑĤ":10236,"ĠÐĿÐ°Ð²Ð¸Ð³":10237,"ĠÐĲÑĢÑħÐ°Ð¼":10238,"ĠÐ°Ð³Ð¾Ð½Ð¸Ð¸":10239,"ÐµÑģÑĤÐ²Ñĥ":10240,"Ð¾Ð²Ð¾Ð¼Ñĥ":10241,"ĠÐľÑį":10242,"ÐĺÐ»Ð¸":10243,"ĠÐ¿ÑĢÐ¸Ð¼ÐµÑĢÑĥ":10244,"ĠÑĢÐ°Ð½Ð¾":10245,"ĠÐ·Ð°Ð±ÑĭÐ²":10246,"Ð¾Ð²Ð°Ð½Ð½Ð¾Ð¹":10247,"ĠÐ¢Ð°ÐºÐ¶Ðµ":10248,"ĠÐºÐ»ÐµÑĪ":10249,"ĠÑĢÐ°Ð·Ð»Ð¸ÑĩÐ½ÑĭÑħ":10250,"ĠÐ·Ð°ÑĢÑıÐ´Ð¾Ð²":10251,"ÐĲÐ²ÑĤÐ¾ÑĢ":10252,"?âĢĿ":10253,"and":10254,"Ð¾Ð»ÐµÐ²":10255,"Ð·Ð°Ð½Ð¾":10256,"ĠÑĢÐ°Ð·Ð³Ð¾":10257,"ÑĳÑħ":10258,"ĠÑĢÐ°ÑģÑģÐº":10259,"ĠÐ½Ð¾Ð²Ð¾ÑģÑĤÐ¸":10260,"ĠÑĢÑıÐ´Ð°Ð¼Ð¸":10261,"ĠÐ¼Ð¾Ð¼ÐµÐ½ÑĤÑĥ":10262,"ĠÐ¿ÑģÐ¸Ð¾Ð½":10263,"ĠÐ³Ð¾ÑĢÐ¾Ð´Ð¾Ð²":10264,"ĠÐ³ÑĢÐ°Ð½Ð°ÑĤ":10265,"ĠÐ²ÑĭÐºÑĢÐ¸ÐºÐ½ÑĥÐ»":10266,"ĠÐ¾ÑĤÐºÑĢÑĭÐ»Ð°ÑģÑĮ":10267,"qu":10268,"ÑĢÐ¸ÐºÐ°":10269,"ĠÐ½Ð¾ÑĤ":10270,"ĠÐ¡ÐµÑĤ":10271,"ÐĴÐŀ":10272,"ÑĥÐ½ÐºÑĤ":10273,"Ð¸Ð²ÑĪÐ°Ñı":10274,"ĠÐ±ÑĢÐ¾Ð½ÐµÐ¹":10275,"ĠÐ¿ÐµÑĢÐ²Ð¾Ðµ":10276,"ĠÑĩÑĥÐ²ÑģÑĤÐ²Ð¾Ð²Ð°Ð»Ð°":10277,"ĠÑģÐ¿Ð¾ÑģÐ¾Ð±Ð½Ð¾ÑģÑĤÑĮ":10278,"ĠÐ²ÐµÑģÐ¾Ð¼":10279,"ĠÐ¼ÐµÑĢÑĤÐ²ÐµÑĨÐ¾Ð²":10280,"ĠÐºÐ¾Ð½ÐºÑĢÐµÑĤ":10281,"ĠÐ´Ð¾ÑĤ":10282,"ĠÐĴÑģÐ¿":10283,"ĠÐ¢ÑĥÑĤ":10284,"ĠÑģÐ±Ð¾ÑĢ":10285,"ĠÑĥÐ³Ð»ÑĥÐ±":10286,"ĠÐ½ÐµÐ¿ÑĢÐµÐº":10287,"ĠÑģÑĭÐ¿":10288,"ĠÑįÐ»ÑĮÐ´Ð°ÑĢÑĭ":10289,"ĠÐ²ÑģÑĤÑĢÐµÑĤÐ¸Ð»ÑģÑı":10290,"ĠÐĳÐµÐ»ÑĭÑħ":10291,"ĠÐ»ÐµÐ´Ð¸":10292,"ĠÐ³Ð°ÑĢÐ°Ð½ÑĤ":10293,"ĠÐ³ÑĢÐ¸Ð¼":10294,"ĠÐ¾ÑģÑĤÐ°Ð½Ð¾Ð²Ð¸Ð»Ð°ÑģÑĮ":10295,"ĠÑĥÑģÐ»ÑĭÑĪÐ°Ð»Ð°":10296,"ĠÐ¾ÑģÐ¾Ð±Ð¾":10297,"ĠÐ´Ð¾Ð»Ð³Ð¸Ðµ":10298,"ĠÐ²Ð¾Ð´Ðµ":10299,"Ð°ÑĨÐ¸Ð¾Ð½Ð½ÑĭÑħ":10300,"ĠÐ¿ÑĥÑģÑĤÑĭÐ½":10301,"ĠÑĤÑĭÑģÑıÑĩÐµÐ»ÐµÑĤÐ¸Ñı":10302,"ĠÑīÑĥÐ¿Ð°Ð»ÑĮÑĨÐ°":10303,"ĠÐ²Ð°Ð³Ð¾":10304,"ÐµÑĢÐ½":10305,"ĠÑĤÑĥÑĪ":10306,"Ð¾ÑģÑĤÑĢÐ°Ð¼":10307,"ĠÐŀÑĢÑĥÐ¶Ð¸Ðµ":10308,"ĠÐ¡ÐºÐ²Ð¾Ð·ÑĮ":10309,"Ð°Ð»Ð¸Ð¸":10310,"ĠÐ¿Ð¾ÑĤÐµÐ¼":10311,"ĠÐ½Ð°Ð´ÐµÑİÑģÑĮ":10312,"ĠÑĢÐµÐ·ÐºÐ¸Ð¼":10313,"ĠÐ´Ð²Ð¸Ð³Ð°ÑĤÐµÐ»ÑĮ":10314,"ĠÐ²Ð½ÑĥÑĤÑĢÐµÐ½Ð½ÐµÐ¹":10315,"ĠÐ¿Ð¾ÑĤÑĢÐµÐ±Ð¾Ð²Ð°Ð»":10316,"ĠÑĤÐµÐ¿Ð»Ð¾":10317,"ĠÐ²ÑĭÑĪÐ»Ð°":10318,"ĠÐ½ÐµÐ»ÐµÐ³":10319,"ĠÐ¢Ð¾ÑĢÐ³Ð°Ð´Ð´Ð¾Ð½":10320,"!!":10321,"au":10322,"Ð¾ÑĤÐ¾":10323,"Ð¸Ð°ÑĤ":10324,"ÑĢÐ¸ÐºÐ¸":10325,"Ð»Ð¸Ð¼":10326,"ĠÐ´Ð¾ÑĢÐ¾Ð¶":10327,"Ð³Ð¾Ð²Ð¾ÑĢ":10328,"ĠÐ½ÐµÐ¾ÑħÐ¾ÑĤ":10329,"ĠÐŀÑģÐº":10330,"ĠÑģÐ¿ÑĢÐ¾ÑģÐ¸ÑĤÑĮ":10331,"ĠÐ²ÐµÑĢÑĥ":10332,"ĠÐ·Ð°Ð¿ÑĥÑĤ":10333,"Ð¸Ð½ÑĥÐ»Ð°":10334,"ÐĽÐ¸ÑĨÐ¾":10335,"ĠÐ·Ð°Ð±ÑĢÐ¾ÑĪ":10336,"ĠÑĢÐµÑĪÐµÐ½Ð¸Ñı":10337,"ĠÐļÐ¾ÑĢÑģ":10338,"ĠÐ²ÑĭÑĢÐ²Ð°Ð»Ð¸ÑģÑĮ":10339,"ĠÑĥÐ±ÐµÐ¶Ð´":10340,"ĠÐ³ÐµÐ½Ð¾ÐºÑĢÐ°Ð´Ð¾Ð²":10341,"ĠÐĽÑĮÐ²Ð°":10342,"ĠÐ¿ÑĢÐ¸Ð¹ÑĤÐ¸":10343,"ÑĢÐ¸ÑıÑĤ":10344,"ĠÐľÐ°Ð¹":10345,"Ð¸ÑĤÐµÐ»ÑĮÐ½Ð¾Ð¼":10346,"ĠÑģÑĤÐ°ÑĢÐ¸Ðº":10347,"ĠÐºÐ¾ÑĢÐ°Ð±Ð»ÑıÐ¼Ð¸":10348,"ĠÐ¾Ð¶Ð¸Ð´Ð°Ð»Ð¸":10349,"ĠÑĤÐ¾Ð¿Ð¾ÑĢÐ°":10350,"ĠÐ¿Ð¾Ð½ÑıÑĤÐ½Ð¾":10351,"ĠÐļÐ¾Ð½Ñģ":10352,"ĠÐ´Ð¶ÑĥÐ½Ð³":10353,"ĠÐĳÑĥÐ»Ð²Ð°Ð¹ÑĦ":10354,"ÐļÑħÐ°ÑĢÐ½":10355,"ĠÐ¿ÑĢÑıÑĩ":10356,"Ð³Ð°ÑĢÐ´":10357,"ĠÐ¾ÑĤÑģÑĤÐ°Ð²":10358,"Ð¸ÑĢÐ°Ð»Ð¸ÑģÑĮ":10359,"Ð¸ÑģÑĤÑĭÐ¼":10360,"ÐļÑĢÐ¾Ð²":10361,"ĠÑģÑĤÐ¾Ñı":10362,"ĠÐºÐ¾Ð½Ð²":10363,"ĠÐ·Ð°Ð¿Ð¾Ð¼Ð½":10364,"Ð½ÑĥÑĤÑĭÑħ":10365,"ĠÐ¸ÑģÐ¿ÐµÑī":10366,"ÐŁÑĢÐ¾ÑģÑĤÐ¾":10367,"ĠÑĤÐ¾ÑĤÑĩÐ°Ñģ":10368,"ĠÐ²ÑĭÑģÑĤÑĢÐµÐ»Ð°Ð¼Ð¸":10369,"ĠÑĥÐ¿ÑĢÐ°Ð²Ð»ÑıÑĤÑĮ":10370,"ĠÐ¿Ð¾Ð»ÐºÐ¾Ð²Ð½Ð¸ÐºÐ°":10371,"ĠÐŁÑĢÐ¸Ð¼Ð°ÑĢÑħÐ°":10372,"Ð¾ÐºÐ¾Ð»ÐµÐ±":10373,"Ð¾Ð½Ð¾Ñģ":10374,"ĠÐ½ÐµÐ¾Ð¿":10375,"ÑĭÐ²Ð°Ð»Ð°ÑģÑĮ":10376,"ĠÐ²Ð¾Ð·ÑĮ":10377,"ĠÑĤÐµÑħÐ½Ð¸ÐºÐ¸":10378,"ĠÐ³Ð»ÑĥÐ±Ð¸Ð½":10379,"ĠÐ²ÑĭÑĢÐ²Ð°Ð»":10380,"ĠÑĤÑĢÐµÐ±ÑĥÐµÑĤÑģÑı":10381,"ĠÑĤÐ¾Ð»Ð¿Ðµ":10382,"ĠÐ¿Ð»Ð°ÑĤÐ¾":10383,"ant":10384,"ĠÐ¼ÑĥÑģÐºÑĥÐ»Ñĭ":10385,"ĠÐ¾Ð²Ð»Ð°Ð´":10386,"ĠÐļÑĢÐ¾Ð°Ð³ÐµÑĢ":10387,"ore":10388,"Ð¸ÑĥÑģÐ°":10389,"ĠÐ¸Ð·Ð¼ÐµÑĢ":10390,"ĠÐ²Ð¾ÐµÐ½Ð½Ð¾Ð¹":10391,"ĠÐ±Ð¾Ð»ÑĮÑĪÐ¸Ñħ":10392,"ĠÐ¿ÑĢÐ¾Ð´Ð¾Ð»Ð¶Ð¸ÑĤÑĮ":10393,"ĠÐ¿Ð»ÐµÑĩÐ°Ñħ":10394,"ĠÑĤÐ¾ÑĩÐºÐµ":10395,"ĠÐºÐ¾ÑĢÐ¸Ð´Ð¾ÑĢÐµ":10396,"ĠÐ¿Ð¾ÑħÐ¾Ð¶ÐµÐµ":10397,"ĠÑĥÐ±Ð¸Ð¹ÑĨ":10398,"ĠÐ³Ð¸Ð³Ð°Ð½ÑĤÐ°":10399,"ĠÐ¿Ð¾Ð¹Ð¼Ð°Ð»":10400,"ĠÐ¾Ð³Ð»ÑıÐ´ÐµÐ»ÑģÑı":10401,"ĠÐ²ÐµÐ¶":10402,"ÐµÐ»Ñĭ":10403,"Ð¾Ð»Ð¸Ð½":10404,"ĠÐĴÐ´":10405,"ĠÐĴÐ»Ð°Ð´Ñĭ":10406,"ĠÐ¶Ð³":10407,"ĠÐ¿Ð¾Ð»Ð½Ð¾":10408,"ĠÐ¿Ð»Ð¾Ñģ":10409,"ĠÐĳÐ»Ð°Ð½ÑĪ":10410,"ĠÐ²Ð¸Ð´ÐµÐ½Ð¸Ðµ":10411,"ÐĲÐ»ÑĮ":10412,"ĠÐ¸ÑģÐ¿ÐµÐ¿":10413,"ĠÑĨÐµÐ½ÑĤÑĢÑĥ":10414,"ĠÑģÐ¼Ð¾ÑĤÑĢÐµÐ»Ð°":10415,"ĠÐ¿ÑĢÐ¾Ð¼ÑĭÑĪ":10416,"ĠÐ½Ð°Ð±Ð»ÑİÐ´Ð°Ð»Ð¸":10417,"ĠÐĽÐ¾ÑĢÐ´Ð°":10418,"ĠÑĥÐ²Ð°Ð¶ÐµÐ½Ð¸Ñı":10419,"ĠÐ¾ÑĢÐ°Ð½Ð¶ÐµÐ²":10420,"Ð¸ÐµÐ²":10421,"ÑĢÐµÑģÑĮ":10422,"ĠÑħÑĢÐ¾Ð½":10423,"ÐŀÐ½Ð¾":10424,"ÐļÐ¸ÑĢ":10425,"Ð»ÑİÑī":10426,"ĠÐ¾ÐºÑĢÐµÑģÑĤ":10427,"ĠÐ²ÑģÑĤÑĢÐµÐ²Ð¾Ð¶":10428,"ĠÐ¼ÑĭÑģÐ»ÐµÐ½Ð½Ð¾":10429,"ĠÐ¸Ð¼Ð¿ÑĢÐ¾Ð²Ð¸Ð·":10430,"ĠÐ¿Ð»Ð¾ÑīÐ°Ð´ÐºÐ¸":10431,"ĠÑģÑĤÑĢÐ°Ð´Ð°Ð½Ð¸Ñı":10432,"ĠÑģÐ¿ÐµÑĨÐ¸Ð°Ð»ÑĮÐ½Ð¾":10433,"ĠÐ½Ð°Ð¿Ð¾Ð¼Ð½Ð¸Ð»":10434,"ĠÐ±Ð°ÑģÑĤÐ¸Ð¾Ð½":10435,"Ð»Ð¸Ð»":10436,"ĠÐ¿ÑĢÐ¾ÑģÑĮ":10437,"Ð¾Ð³Ð¾Ð²Ð¾ÑĢ":10438,"ĠÐ¿Ð¾ÑĢÐ°Ð¶ÐµÐ½Ð¸Ðµ":10439,"ĠÐ¡Ð¸Ðº":10440,"ĠÐ¿ÐµÑĢÐµÑģÐ¿":10441,"ĠÐĲÐº":10442,"ĠÑĢÐ°ÑģÑģÑĤÐ°Ð²":10443,"ĠÐ¿Ð¾ÐºÐ°Ð·Ð°Ð»ÑģÑı":10444,"ĠÐŃÑĦ":10445,"ĠÑģÐ°Ð¼Ð¾ÑģÑĤÐ¾ÑıÑĤÐµÐ»ÑĮ":10446,"ĠÐĹÐ°Ð»":10447,"ĠÐºÐ¾Ð¼Ð°Ð½Ð´Ð½Ð¾Ð³Ð¾":10448,"ĠÐ¿Ð¾Ð´Ð¾Ð±Ð½ÑĭÐ¼":10449,"ĠÐ½ÐµÐ±Ñĥ":10450,"ĠÐ³Ð»ÑĥÐ±Ð¸Ð½Ð°Ñħ":10451,"ĠÐºÑĢÐ°ÑģÐ¸Ð²":10452,"ĠÑģÑĤÐ¾Ð»Ð±":10453,"ĠÐ¿Ð¾Ð¼ÐµÑīÐµÐ½Ð¸Ð¸":10454,"ĠÑĢÐ°Ð·Ð¼ÐµÑĢÐ¾Ð²":10455,"ĠÐ²ÑģÐ¿ÑĭÑħÐ½ÑĥÐ»":10456,"ĠÐ·Ð°Ð¼ÐµÑĢÐ·":10457,"ÐĵÑĢÐ¾Ð¼Ð¾Ð²Ð¾Ð³Ð¾":10458,"ĠÐ¼Ð¸Ð»Ð»Ð¸Ð¾Ð½Ñĭ":10459,"ĠÐ¿ÑĢÐ¾ÑĪÐ»Ð¾Ð³Ð¾":10460,"ĠÐĴÐ¾ÑĢÐ¾Ð½Ð¾Ð²":10461,"Ð¾Ñİ":10462,"ĠÐ¡ÑĥÑīÐµÑģÑĤÐ²Ð¾":10463,"ĠÐ½ÐµÐ´Ð°Ð²":10464,"ĠÐ³Ð»Ð°Ð²Ð½ÑĭÐ¼":10465,"ĠÐĸÐµÐ»ÐµÐ·Ð½ÑĭÐ¹":10466,"ĠÐ¾Ð±Ð»Ð¾Ð¼ÐºÐ°Ð¼Ð¸":10467,"ĠÑĢÑĥÐºÐ¾ÑıÑĤ":10468,"ĠÐļÑĢÐ¾Ð²Ð¸":10469,"ĠÑĢÐµÐ¼Ð¾Ð½ÑĤ":10470,"ĠÐ¿Ð¾ÑģÑĭÐ¿Ð°Ð»Ð¸ÑģÑĮ":10471,"ĠÐ´Ð¾ÑĢ":10472,"ĠÐŁÑıÑĤ":10473,"ĠÐ¾Ð´Ð°ÑĢ":10474,"ĠÐ¿ÑĢÐµÐ´Ð¾ÑĤÐ²":10475,"Ð¸ÑĢÐ¾Ð²Ð°Ð»Ð¾":10476,"ÑĢÐ°ÑģÑĭÐ²Ð°Ñı":10477,"ĠÐ·Ð°Ð²Ð¾Ð´":10478,"ĠÐ³Ð¾ÑĤÐ¾Ð²Ð½Ð¾ÑģÑĤÐ¸":10479,"ĠÐ´ÑĢÐµÐ²Ð½Ð¸Ð¹":10480,"ĠÐ²ÑĭÐ´Ð²":10481,"ĠÐ½Ð¸Ð·ÐºÐ¸Ð¹":10482,"ĠÐ´Ð¾Ð»Ð³Ð¾Ðµ":10483,"ĠÐ¼Ð¾Ð»Ð¾Ð´Ð¾Ð³Ð¾":10484,"ĠÐ¿Ð¾Ð´ÑĢÐ°Ð·Ð´ÐµÐ»ÐµÐ½Ð¸Ð¹":10485,"ĠÐ¶ÑĢÐµÑĨÐ°":10486,"ĠÑĢÐ°ÑģÑģÐµÑıÐ½":10487,"ĠÑĤÐµÑĢÐ¼Ð¸Ð½Ð°ÑĤÐ¾ÑĢÐ¾Ð²":10488,"ĠÐ¾Ð±ÐµÐ·Ð³Ð»Ð°Ð²":10489,"Ð½Ð¾Ð¿":10490,"ÐºÐ°ÑĤ":10491,"ĠÐ¿Ð¾Ð´ÑĩÐµÑĢ":10492,"ĠÐ·Ð°ÑĢÐ°Ð±Ð¾ÑĤ":10493,"ĠÐ¿ÐµÑĢÐµÐ½Ð¾Ñģ":10494,"ÐĿÐŀ":10495,"ĠÐĵÐ»Ð°Ð·":10496,"ÑĤÐµÑĢÐ½":10497,"Ð°ÐµÐ¼Ð°Ñı":10498,"ĠÐ¼Ð°ÑĪÐ¸Ð½Ð¾Ð¹":10499,"ĠÐºÐ¾ÑģÑĤÑİ":10500,"Ð¾Ð¼ÐµÑĤÑĢ":10501,"ĠÐºÑĢÑĭÐ»ÑĮÐµÐ²":10502,"ĠÐ²ÑĭÑıÑģÐ½Ð¸ÑĤÑĮ":10503,"ĠÑĢÑĥÐºÐ¾Ð¿Ð°ÑĪ":10504,"Ð¾ÐºÑĢÑĥÑĪ":10505,"ÐĴÐ¾ÐºÑĢÑĥÐ³":10506,"ĠÐłÐ°Ð¿":10507,"ĠÑģÑĢÐ°Ð¶ÐµÐ½Ð¸Ð¸":10508,"ĠÐ½Ð°Ð¿ÑĢÐ°Ð²Ð»ÑıÑıÑģÑĮ":10509,"ÐŁÑĢÐµÐ¶Ð´Ðµ":10510,"ĠÐ¿Ð°Ð´Ð°ÐµÑĤ":10511,"ĠÐ¿ÑĢÐ¾ÑħÐ¾Ð´Ð¸Ð»Ð¸":10512,"ĠÑĥÐ¼Ð¸ÑĢÐ°ÑĤÑĮ":10513,"ĠÐ¿ÑĢÐ¾ÑĨÐµÐ´":10514,"ĠÑģÐ»Ð°Ð²Ñĭ":10515,"ĠÐ¼Ð¸Ð»Ð»Ð¸Ð¾Ð½Ð¾Ð²":10516,"ĠÐºÐ¾ÑģÐ½ÑĥÐ»ÑģÑı":10517,"ĠÐ²ÑĭÐ¿ÑĢÑıÐ¼Ð¸Ð»ÑģÑı":10518,"ĠÑĩÑĢÐµÐ·Ð²ÑĭÑĩÐ°Ð¹Ð½Ð¾":10519,"ĠÐºÐ°ÑĢÐ´Ð¸Ð½":10520,"ĠÐĴÐ°ÑĢÐ¸":10521,"ĠÑĢÐ°ÑģÑĪ":10522,"ĠÐºÐ¾Ð½Ñģ":10523,"Ð¸ÑĢÐ¾Ð²Ð°Ð½Ð½Ð°Ñı":10524,"ĠÑģÑĢÐ°Ð¶Ð°ÑİÑĤÑģÑı":10525,"ĠÑıÑĢÐºÐ¸Ðµ":10526,"ĠÐ¿ÑĢÐ¾ÐºÐ»Ð°Ð´":10527,"ĠÐ¸Ð¼Ð¿ÐµÑĢÑģÐºÐ¾Ð¹":10528,"ĠÑĢÐ°ÐºÐµÑĤÑĭ":10529,"ĠÐ²ÑĭÑĢÐ°Ð¶ÐµÐ½Ð¸ÐµÐ¼":10530,"ĠÐ½Ð°ÑģÐµÐ»ÐµÐ½Ð¸Ñı":10531,"ĠÐ¿ÑĢÐµÐ´ÑĥÐ¿ÑĢÐµÐ´Ð¸Ð»":10532,"ĠÐ´Ð¸ÑģÑĨÐ¸Ð¿Ð»Ð¸Ð½":10533,"Ð½ÐµÐ¶":10534,"ĠÐ³Ð½Ð¸":10535,"ÐĴÐ¸Ð´":10536,"ÐĴÐµÑĢÐ½Ð¾":10537,"ĠÐ²Ð·Ð¾ÑĢÐ¾Ð¼":10538,"ĠÑĥÐ±ÑĮÑİ":10539,"ĠÐ¿ÑĢÐ¸ÐºÐ¾Ñģ":10540,"ĠÐŁÑĢÐ¾ÑĤÐ¸Ð²":10541,"ĠÐ½ÐµÐ²Ð¾Ð¾Ð±ÑĢÐ°Ð·":10542,"ĠÐ²Ð°ÑĢÐ¿Ð¾Ð¼":10543,"ĠÐ¿Ð¾Ð³Ð¸Ð±Ð½ÑĥÑĤÑĮ":10544,"ĠÑħÐ²Ð°ÑĤÐ°ÐµÑĤ":10545,"ĠÐ´ÐµÐ²ÑıÑĤ":10546,"ĠÐ·Ð°ÑģÑĤÑĭÐ»":10547,"ĠÐ¿Ð¾Ð³ÑĢÑĥÐ·Ð¸Ð»ÑģÑı":10548,"ĠÐ¼ÐµÑħÐ°Ð½Ð¸Ð·Ð¼Ñĭ":10549,"Ð½ÐµÐ»Ð¾":10550,"ĠÐ²ÐµÐºÐ°":10551,"ÐºÐ°Ð»ÑĮ":10552,"ĠÐ¿ÑĢÐµÐ½ÐµÐ±":10553,"Ð±Ð¾Ð»ÑĤÐµÑĢ":10554,"ÑĤÐ¸Ð½Ñĭ":10555,"ÐķÐµ":10556,"ĠÐ·Ð°Ð´Ð°Ð½Ð¸Ñı":10557,"ĠÐ¿ÑĢÐ¸Ð´ÐµÑĢÐ¶":10558,"ĠÐ½ÐµÑĩÐµÐ»Ð¾Ð²ÐµÑĩÐµÑģÐº":10559,"ĠÐ´ÐµÑĢÐµÐ²ÑĮÑı":10560,"ĠÐĲÐ»Ð°ÑĢÐ¸ÐºÐ°":10561,"ÐĲÑĢÑħ":10562,"ÐŀÑĩÐµÐ½ÑĮ":10563,"ĠÐĶÐ°Ð»Ð¸Ñı":10564,"ĠÐ²Ð°ÑĢÐ²Ð°ÑĢ":10565,"ĠÐ§ÐµÑĤÐ²ÐµÑĢ":10566,"Ð»ÐµÑģ":10567,"ĠÐºÐ°ÑĢÐ°":10568,"ĠÐ¶Ð°Ð»ÑĮ":10569,"ĠÐ¿Ð¾Ð²ÐµÑĢÐ¶":10570,"ĠÐĹÐ¸Ð½Ð´ÐµÑĢÐ¼Ð°Ð½":10571,"ĠÐ±ÐµÑģÑĪ":10572,"Ð£Ð¶Ðµ":10573,"Ð´Ð°Ð»ÐµÐºÐµ":10574,"ĠÑģÐ¾Ð±ÑģÑĤÐ²ÐµÐ½Ð½ÑĭÐ¼Ð¸":10575,"ĠÐ±Ð¾ÑĢÑĤÐ¾Ð²":10576,"ĠÐ¿Ð°Ð´ÐµÐ½Ð¸Ðµ":10577,"ĠÐ¢ÐµÑĢÑĢÐ°":10578,"ĠÐ²Ð¾Ð·Ð²ÑĢÐ°ÑīÐµÐ½Ð¸Ñı":10579,"ĠÐ¿ÑĢÐ¸ÑģÐ¾ÐµÐ´Ð¸Ð½Ð¸Ð»Ð¸ÑģÑĮ":10580,"ĠÐ¿Ð¾Ð»Ð¾Ð²Ð¸Ð½Ð°":10581,"Ð°Ð´Ð´Ð¾Ð½Ð°":10582,"ĠÐļÐ¾Ð¿ÑĮÐµ":10583,"ÐŁÐ¾Ð²ÐµÐ»Ð¸ÑĤÐµÐ»ÑĮ":10584,"Ð¼Ð¾Ð³Ð¾":10585,"Ð¸Ð»Ñĭ":10586,"Ð¾Ð±ÐµÐ´":10587,"ĠÑģÑĤÑĢÐ°ÑģÑĤ":10588,"ĠÐ²Ð¾Ð·Ð¼ÐµÐ·Ð´":10589,"ĠÐ¼Ð½ÐµÐ½Ð¸Ñİ":10590,"ÐµÐ¼Ð¾Ð½ÑģÑĤÑĢ":10591,"ĠÐ¾ÑĤÐ¿ÐµÑĩÐ°ÑĤ":10592,"ÐµÑıÐ½":10593,"ĠÑģÐ¾Ð²ÐµÑĢÑĪÐ¸Ð»":10594,"ĠÐŀÐ±ÑĬ":10595,"ĠÑģÐ´ÐµÑĢÐ¶Ð°ÑĤÑĮ":10596,"ĠÐ²ÐµÑīÑĮ":10597,"Ð»ÐµÐ²Ð¾":10598,"ĠÐ²ÑĭÑģÐ»ÑĥÑĪ":10599,"ÑĭÐ»ÑĮ":10600,"ĠÐ¿Ð°Ð»Ð°":10601,"ĠÐ²Ð¸ÑģÑı":10602,"ĠÐ½Ñĥ":10603,"ĠÐ·Ð¾Ð»":10604,"ĠÐ¡Ð¾Ð½":10605,"Ð½Ð¾ÑģÑĤÑıÐ¼":10606,"ĠÐ¿ÑĢÐµÐ´ÑĪÐµ":10607,"ÐµÐ»Ð¸Ð°Ð½":10608,"ĠÑĢÐ°ÑģÐ¿Ð»":10609,"ĠÐ´Ð¾Ð±Ð¸ÑĤÑĮÑģÑı":10610,"ĠÐ·Ð°ÑģÐº":10611,"ĠÐ¿Ð¾Ð¶Ð°Ð»ÑĥÐ¹ÑģÑĤÐ°":10612,"ĠÑĥÑģÐ»ÑĭÑĪÐ°Ð²":10613,"ĠÐ²ÐµÐ»Ð¸ÐºÐ¸Ñħ":10614,"ĠÑģÑĤÐ°Ð½Ñĥ":10615,"ĠÐ¡ÐºÐ°Ð¶Ð¸":10616,"ĠÑģÑħÐ²Ð°ÑĤÐºÐ¸":10617,"ĠÐ¾Ð±ÑĢÑĥÑĪÐ¸Ð»Ð¸ÑģÑĮ":10618,"ĠÑĥÐ³ÑĢÐ¾Ð·Ð¾Ð¹":10619,"ĠÐļÐ°Ð¶Ð´Ð°Ñı":10620,"ĠÐ¶Ð¸Ð²Ð¾ÑĤÐ½ÑĭÑħ":10621,"ĠÐ±Ð¾ÑİÑģÑĮ":10622,"ĠÐ½Ð°Ð´ÐµÐ¶Ð´Ð°":10623,"ĠÑģÑĥÑīÐ½Ð¾ÑģÑĤÐ¸":10624,"ÑĢÐ¾ÑħÐ¾ÑĤ":10625,"ÑħÑĥÐ»ÑĮ":10626,"ÑĥÐ´Ð¸ÑĤÑĮ":10627,"ÑĤÐ¸Ñİ":10628,"Ð¢Ðŀ":10629,"ÑģÑĤÐ²ÐµÐ½Ð½ÑĭÐ¼":10630,"ĠÐ½Ð°Ð¼ÐµÐº":10631,"ĠÑĥÐ½Ð¸ÑĩÑĤÐ¾Ð¶ÐµÐ½Ð¸Ðµ":10632,"ĠÐļÐ°Ð»ÑĤÐ°":10633,"ĠÑĥÐ´Ð¾Ð²Ð¾Ð»ÑĮÑģÑĤÐ²Ð¸Ñı":10634,"ĠÐłÐ°ÑģÑĩÐ»ÐµÐ½":10635,"ĠÑĪÐ°ÑĤÑĤÐ»":10636,"ĠÐ»ÑĥÐ½Ñĭ":10637,"ĠÑįÐ¼Ð±Ð»ÐµÐ¼":10638,"ĠM":10639,"Ð¸Ð»Ñĥ":10640,"ĠÑĥÑĪÐ»Ð¸":10641,"ĠÑĢÐ°ÑģÑħ":10642,"ĠÐ¿Ð¾Ð¼Ñĩ":10643,"ĠÐ¿ÑĢÐ¾ÑĤÐµÑģÑĤ":10644,"ÐĵÐ»Ð°Ð·Ð°":10645,"ĠÐ¼Ð°ÑĪÐ¸Ð½Ðµ":10646,"ĠÑĥÑģÐ¿ÐµÐ²":10647,"ĠÐ¿ÑĢÐ¸Ð·Ð½Ð°Ð»ÑģÑı":10648,"ĠÑĥÑģÑĤÐ°Ð½Ð¾Ð²Ð¸ÑĤÑĮ":10649,"ĠÐ¿Ð¾Ð¼ÐµÑħÐ¸":10650,"ĠÐ¾ÑĤÐ²ÑĢÐ°ÑīÐµÐ½Ð¸Ðµ":10651,"ĠÐļÐ°Ð»Ð¸Ð±Ð°Ð½Ð°":10652,"Ð°Ð»Ñı":10653,"ĠÐ°Ð²Ð°ÑĢÐ¸Ð¹":10654,"ĠÐľÐµÑĤ":10655,"ÑĭÐ²Ð°ÑİÑīÐ¸Ð¹":10656,"ĠÑģÐ¸Ð»Ð¾Ð²ÑĭÐ¼":10657,"ĠÐ¾ÐºÐ½Ð¾":10658,"ĠÐ±ÑĥÐ´ÑĥÑīÐµÐ¼":10659,"ĠÐºÐ¾Ð½ÑĩÐ¸Ðº":10660,"ĠÐ¿Ð¾Ð¼Ð¾Ð¶ÐµÑĤ":10661,"ĠÐ·Ð°Ð¿ÑĥÑģÐº":10662,"ĠÐ·Ð²Ð°Ð»Ð¸":10663,"ÐĳÐ¾Ð»ÑĮÑĪ":10664,"ĠÐ¿ÑĢÐ¸Ð½ÑıÐ»Ð¸":10665,"ĠÐ½Ð¾Ð²Ð°Ñı":10666,"ÑĳÐ½Ð½Ð¾":10667,"ĠÐ¿ÑĥÑĤÐµÐ¼":10668,"ĠÑģÐ¾Ð±Ð¸ÑĢÐ°ÐµÑĤÑģÑı":10669,"ĠÐ²ÑĢÐ°Ð¶ÐµÑģÐºÐ¸Ðµ":10670,"ĠÐ±ÐµÑģÑģÐ¼ÐµÑĢÑĤ":10671,"ÑĤÐ°Ð»Ðº":10672,"ĠÑģÐ¾Ð´ÑĢÐ¾Ð³Ð½ÑĥÐ»ÑģÑı":10673,"ĠÑĥÑħÐ¼ÑĭÐ»":10674,"ĠÐ¼ÐµÐ½ÑĮÑĪÐµÐ¹":10675,"ĠÐ¡Ð¸Ð»ÑĮÐ²ÐµÑĢÑģÑĤ":10676,"ĠÐ¸Ð½ÑģÑĤÐ¸Ð½ÐºÑĤÐ¸Ð²Ð½Ð¾":10677,"Ð·Ð°Ð¼ÐµÑĤ":10678,"ĠÐ¡Ð°Ð½":10679,"Ð¸ÑĨÐµÐ¹":10680,"ĠÑĦÐ¸Ð½":10681,"Ð°ÑĩÐ°Ð»ÑĮ":10682,"ĠÐ¿Ð¾Ð½Ð¸Ð¼Ð°ÐµÑĤ":10683,"Ð¸ÑĤÐµÐ»ÑıÐ¼":10684,"ĠÑĥÑģÑĤÑĢÐ°ÑĪ":10685,"ĠÐ³ÑĢÐ°Ð½Ð°ÑĤÑĭ":10686,"ĠÐ¾ÑīÑĥÑīÐµÐ½Ð¸Ñı":10687,"ĠÐ¦ÐµÑģÑĤ":10688,"ĠÐ¿Ð¾ÑĪÐµÐ²ÐµÐ»":10689,"ĠÐ¿Ð¾ÑģÑĤÐ°Ð²Ð¸Ð»":10690,"ĠÐ¡ÐºÐ¾ÑĢÐ¾":10691,"ĠÐ¡ÐºÐ¾ÑĢÐµÐµ":10692,"ĠÐºÑĢÑĭÐ»ÑĮÑıÐ¼Ð¸":10693,"Ð¾Ð½Ð°Ð»":10694,"ĠÐ¿ÑĢÐµÐ´Ð²Ð¸Ð´":10695,"ÑĢÐ°Ð²ÑĪÐ¸ÑģÑĮ":10696,"ÑģÑĤÐ²ÐµÐ½Ð½Ð¾Ðµ":10697,"ĠÐ¸ÑģÑĤÐ¸Ð½Ñĭ":10698,"ĠÐ¿ÑĢÐ¾ÐºÑĢÐ¸ÑĩÐ°Ð»":10699,"ĠÐ¾Ð¶Ð¸Ð´Ð°Ð½Ð¸Ð¸":10700,"ĠÐ´Ð¾ÑĢÐ¾Ð³Ð¾Ð¹":10701,"ĠÐ½Ð°Ð»Ð¸Ñĩ":10702,"ĠÐ±Ð°Ð·Ñĭ":10703,"ĠÑĤÑĥÑĩ":10704,"ĠÐ½ÐµÑģÑĤÐ¸":10705,"ĠÐļÐ¾ÑģÑĤ":10706,"ÐŁÐ¾Ñĩ":10707,"Ð¢ÐĲ":10708,"ĠÑģÐ°Ð¼Ð¸Ñħ":10709,"ĠÐ¿ÑĢÐ¾Ð´ÐµÐ¼Ð¾Ð½ÑģÑĤÑĢ":10710,"ÐĽÐµÐ¼":10711,"ĠÑĥÐ½Ð¸ÑĩÑĤÐ¾Ð¶ÐµÐ½":10712,"ĠÐ¾Ð±Ð»Ð¸Ð·":10713,"ĠÐ¿ÑĢÐ¸Ð±Ð»Ð¸Ð¶Ð°Ð»ÑģÑı":10714,"ĠÑģÑĭÐ½Ð°":10715,"ĠÐ±ÑĢÐ¾Ð½Ð¸ÑĢÐ¾Ð²Ð°Ð½Ð½ÑĭÑħ":10716,"ĠÐĿÐ°Ð´Ð¾":10717,"ĠÐ¼Ð°Ð½ÐµÐ²ÑĢ":10718,"ĠÐºÐ²Ð°Ð´":10719,"Ð¾Ð´ÑĢÐ°Ð½":10720,"ĠÑĢÐ°Ð·Ð³Ð»ÑıÐ´ÐµÐ»":10721,"ĠÐ¿Ð¾Ð»Ð¾ÑģÑĭ":10722,"ĠÐĵÑĢÐ°Ð¼Ð¼Ð°ÑĤ":10723,"ÑĢÐ°Ð½ÑģÐ¿":10724,"hed":10725,"ĠÐ¾ÑģÐºÐ°Ð»":10726,"ÐºÐ½ÑĥÐ»Ð¾":10727,"ĠÑĥÐ²ÐµÑĢÐµÐ½Ð½Ð¾ÑģÑĤÑĮÑİ":10728,"ĠÐ¿ÑĢÐ¸Ð³Ð¾Ð²Ð¾ÑĢ":10729,"ĠÑĩÐµÐ»Ð¾Ð²ÐµÑĩÐµÑģÐºÐ¸Ðµ":10730,"ĠÑģÐ¿ÑĥÑģÑĤÐ¸Ð»ÑģÑı":10731,"ĠÐ¼Ð¾ÑĢÑı":10732,"ĠÐ´ÑĭÑĢÑĭ":10733,"ĠÐķÐ´Ð²Ð°":10734,"ĠÐ²Ð´Ð¾ÑħÐ½Ð¾Ð²":10735,"ĠÐĳÑĢÐ°Ð½Ð½":10736,"ĠÐ»ÑıÐ·Ð³Ð¾Ð¼":10737,"ĠÐ¿Ð¾ÑĤÑĢÐµÐ±Ð¾Ð²Ð°Ð»Ð¾ÑģÑĮ":10738,"ĠÐ½ÑĭÑĢÐ½ÑĥÐ»":10739,"ÐĳÐ»Ð°Ð³Ð¾Ð´Ð°ÑĢÑİ":10740,"Ð·ÐµÐ½ÑħÐ¾ÑĢÐ½":10741,"ĠÑģÑĥÑģÑĤÐ°Ð²":10742,"Ð¼Ð°Ð´":10743,"ĠÑĥÐ»ÐµÐ¹":10744,"Ð°ÑģÑĥ":10745,"ĠÐºÑĢÐ°":10746,"ĠÐ·Ð½Ð°Ð½Ð¸Ð¹":10747,"ÐŃÐº":10748,"ĠÐ»ÑĥÑĩÑĪÐ¸Ðµ":10749,"ĠÐ²ÑĭÐ¶Ð¶":10750,"ĠÐ¢Ð°Ð»Ð»":10751,"ÐµÐ²Ð¸Ð´Ð½Ð¾":10752,"ĠÐ¿ÑĢÐ¾Ð±Ð»ÐµÐ¼Ð°":10753,"ĠÑģÑĤÑĢÐµÐ»ÑıÐ»Ð¸":10754,"ĠÐ³Ð¾ÑĢÐ¸Ð·Ð¾Ð½ÑĤ":10755,"ĠÐ¿ÑĢÑĭÐ¶ÐºÐ¾Ð²":10756,"ĠÐ»Ð°Ð±Ð¸ÑĢÐ¸Ð½ÑĤ":10757,"ĠÐ½ÐµÐ±Ð¾Ð»ÑĮÑĪÐ¸Ðµ":10758,"ĠÐ¿Ð¾Ð´Ð½Ð¾Ð¶Ð¸Ñı":10759,"Ð½Ð°Ð´ÐµÐ¶":10760,"ĠÐ¿ÑĥÐ½ÐºÑĤ":10761,"ĠÐ´Ð¾Ð·":10762,"Ð¾ÑĢÐ°ÑĤÐ¾ÑĢ":10763,"ĠÐļÑĢÐµÐ¿":10764,"Ð¾ÑģÑĤÑĢÐ°Ð½":10765,"ÐµÐ·Ð´Ð°":10766,"ĠÐľÑĥ":10767,"ĠÐ´ÐµÑĢÐ¶Ð°Ð»ÑģÑı":10768,"ĠÑĢÐµÐ°ÐºÑĤÐ¸Ð²":10769,"ĠÐ¿Ð»Ð¾ÑīÐ°Ð´ÑĮ":10770,"ĠÑĢÐµÐ·ÑĥÐ»ÑĮÑĤÐ°ÑĤ":10771,"ĠÐ±ÐµÑģÐ¿Ð¾ÐºÐ¾Ð¹ÑģÑĤÐ²Ð¾":10772,"ĠÑĢÐ°ÑģÐ¿Ð¾ÑĢÑıÐ¶ÐµÐ½Ð¸Ð¸":10773,"ĠÐ¿Ð¾Ð´Ð±Ð¾ÑĢÐ¾Ð´Ð¾Ðº":10774,"Ð»Ð°Ð³Ð¾ÑģÐ»Ð¾Ð²":10775,"ĠÐ·Ð°ÑĪÐ°Ð³Ð°Ð»":10776,"Ð½ÑĤÐ°ÑĢ":10777,"ĠÐŀÐ³Ð¾Ð½ÑĮ":10778,"ĠÐŁÐ°Ð·Ð°Ð½Ð¸ÑĥÑģ":10779,"ĠÐľÐ°ÐºÑģÐ¸Ð¼":10780,"ÐŁÐ¾Ð¼":10781,"Ð¢ÐµÑĢ":10782,"ĠÑģÐ°Ð¼Ð¾Ð´":10783,"ÑĢÐµÐ´ÐµÐ»":10784,"ÑĥÑīÐ°Ñı":10785,"Ð¸Ð²ÑĪÐ°ÑıÑģÑı":10786,"ĠÐ¿Ð¾ÑĢÐµÐ·":10787,"ĠÑĥÐ¿Ð°ÑģÑĤÑĮ":10788,"ĠÐ³ÑĥÐ±Ð°Ñħ":10789,"ĠÑģÐ³Ð»Ð¾ÑĤ":10790,"ĠÐ¿ÐµÑīÐµÑĢÑĥ":10791,"ĠÐ¿ÑĢÐ¾Ð·Ð²ÑĥÑĩ":10792,"ĠÑģÑĤÐ¾Ð»ÐºÐ½Ð¾Ð²ÐµÐ½Ð¸Ñı":10793,"ĠÐºÐ°ÑĦÐµÐ´":10794,"ÑĢÐ¸ÑĤÐ°":10795,"ĠÐ¿Ð»Ð°Ñĩ":10796,"ÑĩÐ°Ð½":10797,"Ð°Ð»ÐµÐºÐ¾":10798,"Ð¸Ð¼Ð¾Ð¼Ñĥ":10799,"ÐµÐ²ÑĪÐµÐ¹":10800,"ĠÐĴÐ¾Ð¿":10801,"ÐĿÐ°Ñģ":10802,"ĠÐĵÐ¾ÑĤ":10803,"Ð°Ð½ÑĤÐ¸Ð¼ÐµÑĤ":10804,"ĠÐ²Ð¾Ð·Ð¼Ñĥ":10805,"ÑĤÑĥÑĢÐ°":10806,"ĠÑģÐ¾Ð²ÐµÑĢÑĪÐ¸ÑĤÑĮ":10807,"ĠÑĢÐ°Ð·Ð²ÐµÑĢÐ½ÑĥÐ»":10808,"ĠÐ²ÐµÑĢÑħÐ¾Ð²":10809,"ĠÐ¡ÐµÑĢÑĭÑħ":10810,"ĠÑĩÐµÐ»ÑİÑģÑĤÑĮ":10811,"ĠÐŁÐ¾ÑĩÑĤÐ¸":10812,"Ð°Ð»Ð°Ð½Ð³":10813,"Ð¾Ð³Ð°ÑĢ":10814,"ĠÐ¶Ð¸ÑĢ":10815,"ÐµÐ»ÑĮÐ½ÑĭÐµ":10816,"ĠÑģÐºÐ¾Ð»ÑĮ":10817,"ĠÐ¢ÐµÐ»Ð¾":10818,"ĠÐľÐµÐ»ÑĮ":10819,"ĠÐĶÐ°Ð½ÑĤÐµ":10820,"ĠÐĽÐ°ÑĢÐ½":10821,"ÐľÐ¸Ð»":10822,"ÐľÐ¾Ð¶":10823,"ÐĺÐķ":10824,"ÐĽÑįÐ½Ð´":10825,"ĠÐ½ÐµÐ¿ÑĢÐµÐ´":10826,"ĠÑĤÐµÑħÐ½Ð¾":10827,"ine":10828,"ĠÐ´Ð°Ð²Ð»ÐµÐ½Ð¸Ðµ":10829,"ĠÑĥÐ²ÐµÑĢÐµÐ½Ð°":10830,"ĠÐ¿ÑĢÐ¸ÐºÐ°Ð·Ð¾Ð²":10831,"ĠÑĤÐ²Ð¾Ð¸Ð¼":10832,"ĠÐ¾Ð±ÑĭÑĩÐ½ÑĭÐ¹":10833,"ĠÐ»ÐµÐ²ÑĥÑİ":10834,"ĠÐĿÐ¸ÐºÐ¾Ð³Ð´Ð°":10835,"ĠÑĥÐºÑĢÐµÐ¿Ð»ÐµÐ½Ð¸Ð¹":10836,"ĠÐ¾ÑĨÐµÐ½Ð¸ÑĤÑĮ":10837,"ĠÑĨÐµÐ½Ð¾Ð¹":10838,"ĠÑĤÑĢÐµÑīÐ¸Ð½Ñĭ":10839,"ĠÐĵÐ°Ð»Ð°ÐºÑĤÐ¸ÐºÐµ":10840,"Ð½Ð¾ÑģÑıÑī":10841,"Ð¾ÑĤÑĮÑģÑı":10842,"ĠÐ¾ÑĤÑĭÑģÐºÐ°ÑĤÑĮ":10843,"ĠÑĤÑĥÐ¼Ð°Ð½Ð°":10844,"ĠÐ°ÑĢÑĤÐµÑĦÐ°ÐºÑĤ":10845,"ĠÐ¿ÑĥÐ»":10846,"ĠÐ¼Ð¸":10847,"ĠÐ²ÑĭÑħÐ²Ð°ÑĤÐ¸Ð»":10848,"ĠÐ¡ÑĨÐ¸Ð¿Ð¸Ð¾Ð½":10849,"ĠÐ¢ÑĥÑĢ":10850,"ĠÑĪÐ²ÑĭÑĢÐ½ÑĥÐ»":10851,"ĠÑģÐ²Ð¾ÑĳÐ¼":10852,"ĠÐ¿Ð»Ñİ":10853,"ÑĥÐ²ÐµÑĩ":10854,"ĠÐ¿ÑĢÐ¸Ð²ÐµÐ»Ð¸":10855,"ĠÐ»ÑİÐ±Ð¾Ð²":10856,"ĠÐ½Ð°Ð¿ÑĢÐ°Ð²Ð»ÐµÐ½Ð¸Ðµ":10857,"ĠÐ²Ð¿Ð°Ð´":10858,"ĠÑĤÐµÐ»Ð°Ð¼Ð¸":10859,"ĠÐ¡ÑĤÐµÐ½Ñĭ":10860,"ĠÐ±ÐµÐ»Ð¾Ð¹":10861,"ĠÑĢÐ°ÑģÐ¿Ð¾Ð»Ð°Ð³Ð°Ð»Ð¸ÑģÑĮ":10862,"ĠÐĴÐ¼ÐµÑģÑĤÐµ":10863,"ĠÐ²ÐµÐºÐ¾Ð²":10864,"ĠÑĥÐ¹Ð´":10865,"ĠÐ½ÐµÑģÑĤ":10866,"ÐµÐ¹ÑĤ":10867,"ĠÐ¾Ð±ÑĥÐ³":10868,"ĠÐĴÐµÑģÑĮ":10869,"ÑĦÐ»ÐµÐº":10870,"ÑįÐ²ÐµÐ½":10871,"ÑĥÐ½Ð´Ñĥ":10872,"ĠÐ³Ð»Ð°Ð·Ð°Ð¼":10873,"ĠÐ½ÐµÐ¿ÑĢÐ¾Ð½Ð¸ÑĨ":10874,"ĠÐ¿ÑĢÐ°Ð²ÑĥÑİ":10875,"ĠÑģÐ´ÐµÐ»Ð°Ð½Ð¾":10876,"ĠÑģÑĤÐµÐ½Ð¾Ð¹":10877,"Ð·Ð°ÑīÐ¸ÑĤ":10878,"ÑįÐ¹ÑĪ":10879,"ĠÑģÐ²Ð¾Ð±Ð¾Ð´Ñĥ":10880,"Ð°ÑİÑīÐ°ÑıÑģÑı":10881,"ĠÐ¾Ð±ÐµÐ¸Ð¼Ð¸":10882,"ĠÑĥÐ±ÐµÐ´Ð¸ÑĤÑĮÑģÑı":10883,"ĠÐ¢Ð°Ð½Ðº":10884,"ĠÐ±ÑĢÐ¾Ð½ÐµÑĤÐµÑħ":10885,"ĠÐºÑĢÐ¾Ð·Ð¸ÑĥÑģ":10886,"ĠÐ¿Ð°ÑģÑĤÐ¸":10887,"ĠÐ´Ð°Ð¼":10888,"ĠÐ´ÐµÐ·":10889,"Ð°Ð²Ð°Ð½":10890,"ĠÐ¡Ð°":10891,"ĠÑĩÐµÑĢÐ²":10892,"Ð²Ð°ÑĢÑĮ":10893,"ĠÐ¿ÑĢÐ¾Ð±Ð¸ÑĤÑĮ":10894,"ĠÐ¿Ð¾Ð¿ÑĭÑĤÐºÐµ":10895,"Ð´Ð°Ð²Ð½Ð¾":10896,"ĠÐ²ÑĭÑĢÐ²Ð°ÑĤÑĮÑģÑı":10897,"ĠÐ°ÑĢÑħÐ¸ÑĤ":10898,"ĠÑĦÑĢÐ¾Ð½ÑĤÐ°":10899,"ĠÐĲÑģÑĤÑĢÐµ":10900,"Ð°Ð´Ð´ÐµÐ¹":10901,"ling":10902,"per":10903,"ĠÐ¿Ð°Ð»Ð¸":10904,"ĠÐ²Ð¸Ð½Ð°":10905,"Ð¾Ð²Ð°Ð»Ð¾":10906,"Ð»Ð°Ñĥ":10907,"ĠÑĢÐ°ÑģÑģÑĤ":10908,"ĠÑģÐ»ÐµÐ´Ð°":10909,"ĠÐ»ÑİÐ±ÑĭÑħ":10910,"Ð°ÑīÐµÐ¹":10911,"ity":10912,"Ð¾Ð¶Ð¸Ð´Ð°Ð½Ð½Ð¾":10913,"ĠÐ¿Ð»Ð°ÑĤÑĦÐ¾ÑĢÐ¼Ñĥ":10914,
[...]
